{
  "O": {
    "EU": 0,
    "rejects": 1,
    "German": 2,
    "call": 31,
    "to": 3396,
    "boycott": 8,
    "British": 0,
    "la": 18,
    "##mb": 5,
    ".": 10726,
    "Peter": 0,
    "Blackburn": 0,
    "BR": 6,
    "##US": 38,
    "##SE": 47,
    "##LS": 3,
    "1996": 1056,
    "-": 8078,
    "08": 952,
    "22": 237,
    "The": 1093,
    "European": 0,
    "Commission": 0,
    "said": 1846,
    "on": 2048,
    "Thursday": 285,
    "it": 553,
    "disagreed": 2,
    "with": 842,
    "advice": 5,
    "consumers": 9,
    "s": 1617,
    "##hun": 3,
    "until": 53,
    "scientists": 6,
    "determine": 11,
    "whether": 45,
    "mad": 13,
    "cow": 12,
    "disease": 35,
    "can": 75,
    "be": 534,
    "transmitted": 2,
    "sheep": 14,
    "Germany": 0,
    "'": 1863,
    "representative": 7,
    "the": 7226,
    "Union": 1,
    "veterinary": 8,
    "committee": 22,
    "Werner": 0,
    "Z": 1,
    "##wing": 4,
    "##mann": 0,
    "Wednesday": 255,
    "should": 78,
    "buy": 28,
    "##me": 2,
    "##at": 5,
    "from": 757,
    "countries": 42,
    "other": 132,
    "than": 147,
    "Britain": 0,
    "scientific": 9,
    "was": 1095,
    "clearer": 1,
    "\"": 2178,
    "We": 140,
    "do": 111,
    "n": 118,
    "t": 126,
    "support": 61,
    "any": 92,
    "such": 40,
    "recommendation": 3,
    "because": 114,
    "we": 168,
    "see": 31,
    "grounds": 6,
    "for": 1424,
    ",": 8100,
    "chief": 58,
    "spokesman": 106,
    "Nikola": 0,
    "##us": 7,
    "van": 1,
    "der": 9,
    "Pa": 4,
    "##s": 795,
    "told": 199,
    "a": 3100,
    "news": 155,
    "brief": 17,
    "##ing": 233,
    "He": 209,
    "further": 32,
    "study": 10,
    "required": 8,
    "and": 2795,
    "if": 98,
    "found": 63,
    "that": 767,
    "action": 29,
    "needed": 24,
    "taken": 41,
    "by": 722,
    "proposal": 10,
    "last": 283,
    "month": 117,
    "Farm": 3,
    "Commissioner": 7,
    "Franz": 0,
    "Fi": 3,
    "##sch": 0,
    "##ler": 9,
    "ban": 40,
    "brains": 2,
    "##ple": 5,
    "##ens": 7,
    "spinal": 5,
    "cord": 4,
    "human": 30,
    "animal": 8,
    "food": 25,
    "chains": 6,
    "highly": 6,
    "specific": 7,
    "pre": 31,
    "##ca": 4,
    "##ution": 3,
    "##ary": 6,
    "move": 18,
    "protect": 4,
    "health": 26,
    "proposed": 15,
    "wide": 4,
    "measures": 16,
    "after": 473,
    "reports": 32,
    "France": 0,
    "under": 179,
    "laboratory": 3,
    "conditions": 25,
    "could": 143,
    "contract": 29,
    "Bo": 2,
    "##vin": 0,
    "##e": 60,
    "S": 252,
    "##po": 33,
    "##ng": 4,
    "##iform": 2,
    "En": 2,
    "##ce": 21,
    "##pha": 2,
    "##lop": 3,
    "##athy": 2,
    "(": 2848,
    "BS": 0,
    "##E": 107,
    ")": 2848,
    "But": 155,
    "agreed": 53,
    "review": 7,
    "his": 538,
    "standing": 10,
    "mat": 3,
    "##ional": 3,
    "officials": 124,
    "questioned": 12,
    "justified": 4,
    "as": 605,
    "there": 122,
    "only": 125,
    "slight": 6,
    "risk": 20,
    "Spanish": 0,
    "Minister": 121,
    "Loyola": 0,
    "de": 27,
    "##la": 4,
    "##cio": 0,
    "had": 561,
    "earlier": 85,
    "accused": 38,
    "at": 935,
    "an": 515,
    "farm": 17,
    "ministers": 14,
    "meeting": 86,
    "of": 3634,
    "causing": 4,
    "un": 94,
    "##ju": 1,
    "##st": 50,
    "##ified": 5,
    "alarm": 4,
    "through": 110,
    "dangerous": 13,
    "general": 50,
    "##isation": 13,
    "Only": 5,
    "backed": 8,
    "multi": 8,
    "##disciplinary": 1,
    "committees": 2,
    "are": 346,
    "due": 74,
    "re": 196,
    "examine": 3,
    "issue": 56,
    "early": 75,
    "next": 110,
    "make": 57,
    "recommendations": 2,
    "senior": 26,
    "She": 35,
    "##ep": 4,
    "have": 501,
    "long": 61,
    "been": 368,
    "known": 33,
    "scrap": 8,
    "##ie": 6,
    "brain": 6,
    "wasting": 3,
    "similar": 23,
    "which": 330,
    "is": 691,
    "believed": 28,
    "transferred": 3,
    "cattle": 13,
    "feed": 22,
    "containing": 5,
    "waste": 9,
    "farmers": 19,
    "denied": 24,
    "danger": 10,
    "their": 346,
    "but": 389,
    "expressed": 11,
    "concern": 17,
    "government": 263,
    "avoid": 15,
    "might": 36,
    "influence": 4,
    "across": 34,
    "Europe": 0,
    "What": 12,
    "extremely": 8,
    "careful": 1,
    "how": 28,
    "going": 52,
    "take": 80,
    "lead": 78,
    "Welsh": 0,
    "National": 2,
    "Farmers": 0,
    "N": 24,
    "##F": 12,
    "##U": 179,
    "chairman": 29,
    "John": 0,
    "Lloyd": 0,
    "Jones": 0,
    "BBC": 0,
    "radio": 22,
    "Bonn": 0,
    "has": 557,
    "led": 39,
    "efforts": 15,
    "public": 38,
    "consumer": 15,
    "confidence": 14,
    "collapsed": 3,
    "in": 3482,
    "March": 38,
    "report": 54,
    "suggested": 4,
    "humans": 3,
    "illness": 7,
    "eating": 8,
    "contaminated": 2,
    "beef": 11,
    "imported": 5,
    "47": 78,
    "600": 28,
    "year": 442,
    "nearly": 27,
    "half": 116,
    "total": 43,
    "imports": 13,
    "It": 207,
    "brought": 31,
    "4": 1142,
    "275": 6,
    "tonnes": 82,
    "m": 97,
    "##utt": 3,
    "##on": 13,
    "some": 157,
    "10": 423,
    "percent": 305,
    "overall": 20,
    "Rare": 1,
    "Hendrix": 0,
    "song": 2,
    "draft": 12,
    "sells": 4,
    "almost": 14,
    "$": 362,
    "17": 102,
    "000": 332,
    "L": 85,
    "##ON": 112,
    "##D": 105,
    "A": 251,
    "rare": 9,
    "hand": 34,
    "##written": 2,
    "U": 3,
    "guitar": 2,
    "legend": 1,
    "Jim": 0,
    "##i": 17,
    "sold": 28,
    "auction": 21,
    "late": 53,
    "musician": 1,
    "favourite": 5,
    "possessions": 1,
    "Florida": 0,
    "restaurant": 7,
    "paid": 19,
    "92": 23,
    "##5": 151,
    "pounds": 23,
    "16": 132,
    "93": 32,
    "Ai": 0,
    "no": 171,
    "telling": 5,
    "penned": 1,
    "piece": 6,
    "London": 1,
    "hotel": 10,
    "station": 10,
    "##ery": 2,
    "1966": 4,
    "At": 87,
    "end": 93,
    "January": 28,
    "1967": 4,
    "concert": 3,
    "English": 0,
    "city": 55,
    "Nottingham": 0,
    "he": 590,
    "threw": 10,
    "sheet": 5,
    "paper": 24,
    "into": 161,
    "audience": 5,
    "where": 100,
    "retrieved": 1,
    "fan": 5,
    "Buy": 2,
    "##ers": 101,
    "also": 214,
    "snapped": 14,
    "up": 345,
    "items": 7,
    "were": 531,
    "put": 61,
    "former": 109,
    "girlfriend": 3,
    "Kathy": 0,
    "E": 44,
    "##tch": 0,
    "##ingham": 0,
    "who": 441,
    "lived": 9,
    "him": 111,
    "1969": 2,
    "They": 86,
    "included": 20,
    "black": 24,
    "##c": 34,
    "##quer": 2,
    "mother": 11,
    "pearl": 1,
    "##laid": 1,
    "box": 11,
    "used": 31,
    "store": 7,
    "drugs": 21,
    "anonymous": 3,
    "Australian": 0,
    "purchase": 16,
    "##r": 91,
    "bought": 19,
    "5": 858,
    "06": 25,
    "##0": 103,
    "7": 723,
    "84": 29,
    "guitarist": 1,
    "died": 37,
    "over": 296,
    "##dos": 2,
    "1970": 2,
    "aged": 10,
    "27": 219,
    "China": 0,
    "says": 66,
    "Taiwan": 0,
    "##ils": 1,
    "atmosphere": 6,
    "talks": 83,
    "B": 77,
    "##EI": 3,
    "##J": 4,
    "##ING": 42,
    "Taipei": 0,
    "##iling": 5,
    "##sumption": 2,
    "Strait": 0,
    "visit": 68,
    "Ukraine": 0,
    "Taiwanese": 0,
    "Vice": 5,
    "President": 109,
    "Lie": 0,
    "##n": 67,
    "Chan": 1,
    "this": 284,
    "week": 161,
    "##fu": 21,
    "##riated": 3,
    "Beijing": 0,
    "Speaking": 2,
    "hours": 47,
    "Chinese": 0,
    "state": 139,
    "media": 17,
    "time": 166,
    "right": 53,
    "engage": 2,
    "political": 72,
    "Foreign": 37,
    "Ministry": 4,
    "Shen": 0,
    "Guo": 0,
    "##fan": 1,
    "##g": 24,
    "Re": 36,
    "##uters": 2,
    ":": 908,
    "necessary": 10,
    "opening": 31,
    "disrupted": 4,
    "authorities": 46,
    "State": 16,
    "quoted": 49,
    "top": 68,
    "ne": 11,
    "##got": 7,
    "##iator": 6,
    "Tang": 1,
    "Shu": 0,
    "##bei": 0,
    "visiting": 9,
    "group": 124,
    "rivals": 10,
    "hold": 37,
    "Now": 8,
    "two": 394,
    "sides": 20,
    "hostility": 3,
    "overseas": 7,
    "edition": 5,
    "People": 9,
    "Daily": 1,
    "saying": 74,
    "foreign": 72,
    "ministry": 37,
    "Television": 0,
    "interview": 14,
    "read": 10,
    "comments": 8,
    "gave": 56,
    "details": 30,
    "why": 10,
    "considered": 11,
    "considers": 1,
    "##ne": 43,
    "##gade": 6,
    "province": 22,
    "opposed": 11,
    "all": 143,
    "gain": 8,
    "greater": 4,
    "international": 74,
    "recognition": 3,
    "rival": 19,
    "island": 26,
    "practical": 3,
    "steps": 3,
    "towards": 15,
    "goal": 33,
    "Consul": 5,
    "##tations": 1,
    "held": 83,
    "set": 97,
    "format": 1,
    "official": 109,
    "Xi": 0,
    "##nh": 0,
    "##ua": 12,
    "agency": 52,
    "executive": 23,
    "vice": 15,
    "Association": 0,
    "Relations": 3,
    "Across": 0,
    "Straits": 0,
    "July": 104,
    "car": 23,
    "registration": 20,
    "14": 182,
    "2": 1731,
    "p": 159,
    "##ct": 64,
    "y": 27,
    "/": 468,
    "F": 182,
    "##RA": 17,
    "##N": 36,
    "##K": 21,
    "##UR": 29,
    "##T": 250,
    "first": 418,
    "motor": 16,
    "vehicles": 9,
    "jumped": 3,
    "period": 35,
    "Federal": 1,
    "office": 48,
    "35": 87,
    "##6": 184,
    "72": 77,
    "new": 202,
    "cars": 10,
    "registered": 9,
    "304": 4,
    "850": 10,
    "passenger": 16,
    "15": 300,
    "61": 78,
    "##3": 174,
    "trucks": 4,
    "figures": 29,
    "represent": 4,
    "13": 205,
    "6": 1243,
    "increase": 22,
    "decline": 9,
    "1995": 71,
    "Motor": 2,
    "bike": 3,
    "rose": 33,
    "32": 97,
    "growth": 39,
    "partly": 5,
    "increased": 19,
    "number": 75,
    "Germans": 0,
    "buying": 14,
    "abroad": 14,
    "while": 92,
    "manufacturers": 6,
    "domestic": 21,
    "demand": 49,
    "weak": 9,
    "federal": 22,
    "Almost": 3,
    "posted": 11,
    "gains": 17,
    "numbers": 13,
    "Volkswagen": 0,
    "AG": 15,
    "won": 164,
    "77": 58,
    "71": 114,
    "##9": 165,
    "slightly": 15,
    "more": 154,
    "quarter": 60,
    "Op": 4,
    "##el": 13,
    "together": 9,
    "General": 26,
    "Motors": 0,
    "came": 45,
    "second": 235,
    "place": 56,
    "49": 65,
    "26": 220,
    "figure": 15,
    "Third": 8,
    "Ford": 0,
    "56": 81,
    "or": 190,
    "11": 249,
    "Sea": 1,
    "##t": 83,
    "Porsche": 0,
    "fewer": 5,
    "compared": 23,
    "3": 1528,
    "420": 3,
    "55": 82,
    "##22": 3,
    "fell": 46,
    "##4": 140,
    "64": 88,
    "G": 28,
    "##RE": 28,
    "##OC": 150,
    "##IA": 3,
    "##L": 57,
    "##IS": 15,
    "##TS": 19,
    "##IVE": 5,
    "##EN": 65,
    "##IG": 40,
    "##HT": 6,
    "TO": 43,
    "PM": 7,
    "##OR": 110,
    "##LE": 41,
    "##CT": 12,
    "##ION": 14,
    "##S": 371,
    "AT": 143,
    "##H": 107,
    "Greek": 0,
    "socialist": 6,
    "party": 86,
    "bureau": 7,
    "green": 7,
    "light": 17,
    "Prime": 56,
    "Costa": 0,
    "Si": 0,
    "##mit": 0,
    "##is": 6,
    "snap": 8,
    "elections": 77,
    "its": 306,
    "secretary": 22,
    "##kan": 0,
    "##dal": 0,
    "##id": 5,
    "reporters": 45,
    "announcement": 14,
    "cabinet": 17,
    "later": 46,
    "Dimitri": 0,
    "Ko": 0,
    "##nto": 0,
    "##gia": 0,
    "##nn": 1,
    "Athens": 0,
    "News": 2,
    "##room": 62,
    "+": 186,
    "301": 11,
    "33": 87,
    "##11": 13,
    "##8": 157,
    "##12": 8,
    "Bay": 0,
    "##er": 72,
    "##VB": 0,
    "sets": 20,
    "C": 49,
    "100": 105,
    "million": 282,
    "six": 135,
    "bond": 26,
    "following": 47,
    "announced": 45,
    "manager": 38,
    "Toronto": 0,
    "Dominion": 0,
    "##RO": 17,
    "##W": 25,
    "##ER": 59,
    "BA": 62,
    "##Y": 159,
    "##CH": 8,
    "V": 29,
    "##NS": 16,
    "##BA": 43,
    "AM": 5,
    "M": 46,
    "CO": 47,
    "##UP": 8,
    "625": 2,
    "MA": 34,
    "##TU": 11,
    "##RI": 41,
    "##TY": 5,
    "24": 178,
    "SE": 38,
    "##P": 33,
    "02": 36,
    "T": 136,
    "##YP": 3,
    "ST": 75,
    "IS": 12,
    "PR": 70,
    "##IC": 79,
    "PA": 18,
    "D": 127,
    "##AT": 18,
    "96": 102,
    "##LL": 71,
    "##EE": 14,
    "1": 2320,
    "87": 44,
    "R": 179,
    "##O": 79,
    "##FF": 3,
    "99": 26,
    "SP": 13,
    "##AD": 10,
    "20": 195,
    "BP": 5,
    "##OD": 5,
    "AA": 9,
    "##1": 157,
    "##TI": 16,
    "##NG": 69,
    "##X": 18,
    "##Q": 15,
    "=": 18,
    "&": 0,
    "P": 46,
    "DE": 12,
    "##OM": 10,
    "K": 15,
    "SA": 12,
    "##IM": 7,
    "##IT": 36,
    "US": 1,
    "UK": 0,
    "CA": 27,
    "NE": 7,
    "##G": 72,
    "NO": 26,
    "CR": 58,
    "##FL": 2,
    "##CE": 149,
    "GO": 22,
    "##V": 24,
    "LA": 20,
    "GE": 5,
    "##R": 244,
    "##MA": 19,
    "H": 48,
    "CT": 2,
    "##A": 70,
    "##VS": 5,
    "##AN": 55,
    "##DA": 23,
    "##RD": 4,
    "MG": 4,
    "UN": 7,
    "0": 1536,
    "##NC": 14,
    "60": 99,
    "##EC": 25,
    "##IP": 14,
    "##DE": 15,
    "##RL": 4,
    "PC": 37,
    "2001": 7,
    "##TE": 41,
    "J": 20,
    "##IN": 65,
    "##EA": 91,
    "##NA": 4,
    "##GE": 18,
    "44": 95,
    "171": 25,
    "54": 115,
    "##2": 168,
    "76": 47,
    "##enan": 0,
    "##tius": 0,
    "300": 42,
    "1999": 6,
    "floating": 3,
    "rate": 59,
    "Le": 2,
    "##hman": 0,
    "Brothers": 0,
    "International": 3,
    "AB": 0,
    "##ED": 47,
    "##AL": 34,
    "##GA": 1,
    "##C": 15,
    "12": 273,
    "21": 155,
    "##M": 33,
    "##IB": 1,
    "##23": 2,
    "##ST": 84,
    "95": 54,
    "SH": 6,
    "##IR": 76,
    "JP": 1,
    "Y": 35,
    "##ES": 231,
    "IP": 5,
    "##SU": 9,
    "OF": 53,
    "##MT": 1,
    "##GR": 2,
    "##AM": 18,
    "##ME": 29,
    "88": 20,
    "Port": 3,
    "update": 2,
    "Syria": 0,
    "Shipping": 0,
    "Intelligence": 2,
    "Service": 1,
    "##TT": 2,
    "Aug": 36,
    "waiting": 10,
    "La": 0,
    "##tta": 1,
    "##ki": 1,
    "##a": 18,
    "Ta": 2,
    "##rt": 9,
    "##ous": 11,
    "presently": 1,
    "Israel": 0,
    "plays": 8,
    "down": 124,
    "fears": 10,
    "war": 75,
    "Col": 4,
    "##leen": 0,
    "Siege": 0,
    "##l": 45,
    "##EM": 16,
    "outgoing": 2,
    "peace": 87,
    "current": 40,
    "tensions": 2,
    "between": 136,
    "appeared": 18,
    "storm": 11,
    "tea": 5,
    "##cup": 2,
    "##ama": 1,
    "Ra": 0,
    "##bino": 0,
    "##vich": 0,
    "ambassador": 13,
    "Washington": 0,
    "conducted": 8,
    "##f": 22,
    "##ruit": 1,
    "##ful": 9,
    "negotiations": 21,
    "Radio": 1,
    "looked": 17,
    "like": 46,
    "Damascus": 0,
    "wanted": 23,
    "talk": 23,
    "rather": 12,
    "fight": 16,
    "appears": 6,
    "me": 48,
    "Syrian": 0,
    "priority": 3,
    "still": 86,
    "negotiate": 3,
    "confused": 2,
    "they": 306,
    "definitely": 8,
    "tense": 5,
    "assessment": 7,
    "here": 25,
    "essentially": 1,
    "winding": 2,
    "term": 53,
    "will": 416,
    "replaced": 5,
    "Eli": 0,
    "##ahu": 0,
    "Ben": 1,
    "##ssa": 0,
    "Israeli": 0,
    "en": 22,
    "##voy": 9,
    "Egypt": 0,
    "wing": 16,
    "Li": 0,
    "##ku": 0,
    "##d": 114,
    "politician": 6,
    "sent": 37,
    "message": 26,
    "via": 7,
    "committed": 10,
    "open": 21,
    "without": 37,
    "##con": 14,
    "##ditions": 5,
    "slammed": 2,
    "creating": 3,
    "what": 59,
    "called": 63,
    "launching": 4,
    "h": 15,
    "##yster": 1,
    "##ical": 4,
    "campaign": 38,
    "against": 236,
    "television": 47,
    "reported": 92,
    "recently": 16,
    "test": 50,
    "fired": 13,
    "missile": 2,
    "arms": 19,
    "purchases": 3,
    "defensive": 3,
    "purposes": 3,
    "Ha": 1,
    "##fe": 10,
    "##z": 0,
    "al": 5,
    "As": 23,
    "##sad": 0,
    "ready": 10,
    "enter": 9,
    "David": 0,
    "Levy": 0,
    "Ten": 5,
    "##sion": 3,
    "mounted": 4,
    "since": 133,
    "Benjamin": 0,
    "Net": 24,
    "##any": 0,
    "took": 76,
    "June": 93,
    "vow": 2,
    "retain": 6,
    "Go": 9,
    "##lan": 0,
    "Heights": 0,
    "captured": 9,
    "Middle": 0,
    "East": 1,
    "dead": 26,
    "##lock": 3,
    "##ed": 182,
    "1991": 25,
    "despite": 30,
    "previous": 38,
    "willingness": 1,
    "concessions": 2,
    "Peace": 3,
    "February": 20,
    "voices": 3,
    "coming": 27,
    "out": 316,
    "bad": 19,
    "not": 537,
    "good": 60,
    "full": 29,
    "expressions": 1,
    "declaration": 4,
    "must": 32,
    "worrying": 2,
    "artificial": 1,
    "very": 63,
    "those": 49,
    "spread": 2,
    "become": 20,
    "prisoners": 5,
    "expect": 20,
    "face": 32,
    "answer": 8,
    "our": 67,
    "want": 52,
    "God": 0,
    "##bid": 2,
    "No": 37,
    "one": 294,
    "benefits": 3,
    "wars": 3,
    "Channel": 0,
    "Two": 34,
    "calming": 1,
    "signal": 9,
    "source": 24,
    "spoke": 30,
    "##sm": 3,
    "##en": 13,
    "confirm": 7,
    "messages": 2,
    "reassure": 1,
    "Cairo": 0,
    "United": 0,
    "States": 0,
    "Moscow": 0,
    "Polish": 0,
    "diplomat": 30,
    "denies": 2,
    "nurses": 5,
    "stranded": 4,
    "Libya": 0,
    "##UN": 43,
    "ta": 75,
    "##bloid": 3,
    "refusing": 4,
    "exit": 4,
    "visa": 3,
    "trying": 32,
    "return": 44,
    "home": 155,
    "working": 38,
    "North": 0,
    "African": 0,
    "country": 68,
    "This": 43,
    "true": 7,
    "Up": 5,
    "today": 27,
    "knowledge": 3,
    "nurse": 4,
    "kept": 25,
    "her": 170,
    "received": 31,
    "complaint": 4,
    "embassy": 35,
    "charge": 19,
    "d": 33,
    "affair": 7,
    "##es": 86,
    "Tripoli": 0,
    "Tad": 0,
    "##eus": 0,
    "##w": 21,
    "##dan": 0,
    "##kie": 0,
    "##wicz": 0,
    "telephone": 19,
    "Poland": 0,
    "labour": 10,
    "would": 332,
    "send": 11,
    "team": 93,
    "investigate": 3,
    "probe": 6,
    "prompted": 9,
    "complaining": 3,
    "about": 180,
    "work": 46,
    "non": 20,
    "payment": 4,
    "salaries": 2,
    "estimated": 30,
    "800": 38,
    "Iranian": 1,
    "opposition": 57,
    "leaders": 54,
    "meet": 60,
    "Baghdad": 0,
    "Hassan": 0,
    "##fi": 4,
    "##dh": 0,
    "##HD": 0,
    "An": 30,
    "exile": 9,
    "based": 30,
    "Iraq": 0,
    "vowed": 6,
    "extend": 3,
    "Iran": 0,
    "Kurdish": 0,
    "rebels": 56,
    "attacked": 7,
    "troops": 45,
    "deep": 2,
    "inside": 15,
    "Mu": 1,
    "##jah": 0,
    "##ide": 5,
    "##hal": 0,
    "##q": 13,
    "statement": 105,
    "leader": 63,
    "Mass": 0,
    "##oud": 0,
    "Raja": 0,
    "##vi": 5,
    "met": 29,
    "Secretary": 21,
    "Kurdistan": 0,
    "Democratic": 1,
    "Party": 0,
    "##DP": 0,
    "##I": 66,
    "##ste": 2,
    "##gar": 0,
    "voiced": 3,
    "rebel": 30,
    "Ku": 0,
    "##rds": 0,
    "emphasis": 4,
    "Resistance": 0,
    "continue": 25,
    "stand": 7,
    "side": 48,
    "com": 16,
    "##pa": 17,
    "##tri": 18,
    "##ots": 1,
    "resistance": 4,
    "movement": 20,
    "signals": 2,
    "level": 36,
    "cooperation": 16,
    "heavily": 6,
    "bomb": 25,
    "##arded": 2,
    "targets": 6,
    "northern": 54,
    "pursuit": 6,
    "guerrilla": 45,
    "Iraqi": 0,
    "areas": 25,
    "outside": 25,
    "control": 37,
    "bordering": 2,
    "Patriotic": 0,
    "main": 42,
    "factions": 14,
    "forces": 46,
    "ou": 11,
    "##sted": 9,
    "Kuwait": 0,
    "Gulf": 0,
    "War": 1,
    "##lashes": 1,
    "parties": 25,
    "broke": 23,
    "weekend": 53,
    "most": 70,
    "serious": 15,
    "fighting": 41,
    "sponsored": 2,
    "cease": 40,
    "##fire": 37,
    "shell": 7,
    "positions": 16,
    "Q": 18,
    "##as": 9,
    "##ri": 9,
    "region": 38,
    "Sul": 0,
    "##eim": 0,
    "##ani": 1,
    "##ya": 0,
    "near": 57,
    "border": 30,
    "days": 74,
    "killed": 82,
    "wounded": 15,
    "attack": 39,
    "Both": 11,
    "Turkey": 0,
    "mount": 1,
    "air": 25,
    "land": 28,
    "strikes": 5,
    "own": 38,
    "force": 28,
    "southern": 46,
    "protects": 2,
    "possible": 32,
    "attacks": 25,
    "Saudi": 0,
    "r": 67,
    "##iya": 5,
    "rates": 31,
    "steady": 21,
    "quiet": 21,
    "summer": 20,
    "trade": 61,
    "spot": 17,
    "dollar": 55,
    "inter": 13,
    "##bank": 4,
    "deposit": 7,
    "mainly": 9,
    "dealers": 21,
    "kingdom": 6,
    "There": 56,
    "changes": 8,
    "market": 144,
    "holidays": 3,
    "dealer": 18,
    "750": 9,
    "One": 27,
    "deposits": 1,
    "8": 444,
    "three": 257,
    "months": 56,
    "funds": 12,
    "approve": 6,
    "Ara": 0,
    "##fa": 2,
    "flight": 25,
    "West": 2,
    "Bank": 2,
    "Palestinian": 0,
    "Ya": 0,
    "##sser": 0,
    "permission": 9,
    "fly": 13,
    "territory": 18,
    "ending": 14,
    "crisis": 12,
    "adviser": 5,
    "problem": 25,
    "president": 100,
    "aircraft": 18,
    "pass": 12,
    "airs": 3,
    "##pace": 2,
    "expected": 108,
    "travel": 15,
    "before": 150,
    "Monday": 192,
    "Na": 2,
    "##bil": 2,
    "Abu": 0,
    "Rd": 0,
    "##ain": 1,
    "##ah": 9,
    "scheduled": 27,
    "prime": 35,
    "minister": 55,
    "Shi": 0,
    "##mon": 0,
    "Per": 2,
    "town": 60,
    "Rama": 0,
    "##llah": 0,
    "venue": 5,
    "changed": 13,
    "Gaza": 0,
    "clearance": 2,
    "helicopters": 4,
    "stop": 24,
    "keeping": 8,
    "grounded": 1,
    "subsequently": 3,
    "cancelled": 10,
    "civilian": 5,
    "affairs": 6,
    "Allen": 0,
    "##by": 3,
    "Bridge": 0,
    "crossing": 5,
    "Jordan": 0,
    "decided": 23,
    "flying": 7,
    "lifted": 10,
    "busy": 4,
    "schedule": 8,
    "free": 37,
    "Palestinians": 0,
    "barred": 5,
    "##rez": 0,
    "check": 10,
    "##point": 7,
    "planned": 34,
    "##fly": 1,
    "helicopter": 7,
    "attempt": 17,
    "bar": 31,
    "defeated": 13,
    "May": 60,
    "##mine": 3,
    "authority": 4,
    "conduct": 4,
    "Afghan": 0,
    "UAE": 0,
    "Tale": 0,
    "##ban": 0,
    "guards": 9,
    "Hilary": 0,
    "Gus": 0,
    "##h": 4,
    "Three": 11,
    "Arab": 0,
    "Emirates": 0,
    "Russian": 0,
    "hostages": 6,
    "escaped": 5,
    "militia": 8,
    "Afghanistan": 0,
    "few": 42,
    "Dhabi": 0,
    "Our": 11,
    "touch": 4,
    "Their": 9,
    "issuing": 4,
    "them": 102,
    "documents": 10,
    "homeland": 2,
    "objection": 1,
    "added": 86,
    "Islamic": 0,
    "##powered": 2,
    "seven": 80,
    "##cre": 5,
    "##har": 0,
    "Friday": 181,
    "board": 18,
    "captivity": 2,
    "Ka": 0,
    "##nda": 0,
    "Red": 1,
    "Crescent": 0,
    "possibly": 7,
    "Tuesday": 212,
    "silent": 1,
    "When": 22,
    "asked": 42,
    "back": 105,
    "capital": 80,
    "Kabul": 0,
    "That": 30,
    "headquarters": 10,
    "controlled": 9,
    "##ur": 12,
    "##han": 1,
    "##uddin": 0,
    "##bba": 0,
    "##ni": 6,
    "overthrow": 5,
    "men": 50,
    "currently": 15,
    "did": 106,
    "elaborate": 4,
    "Russians": 0,
    "Aero": 0,
    "##stan": 0,
    "firm": 27,
    "republic": 10,
    "##tars": 0,
    "##tan": 4,
    "hostage": 11,
    "MiG": 0,
    "19": 86,
    "fighter": 3,
    "forced": 31,
    "cargo": 16,
    "plane": 37,
    "August": 102,
    "shipment": 18,
    "ammunition": 4,
    "Albania": 0,
    "evidence": 12,
    "military": 59,
    "crew": 14,
    "nationality": 2,
    "coincide": 2,
    "##ntal": 1,
    "Numerous": 3,
    "diplomatic": 16,
    "attempts": 7,
    "failed": 36,
    "armed": 23,
    "##lash": 1,
    "##nikov": 0,
    "automatic": 2,
    "rifles": 4,
    "doing": 18,
    "regular": 7,
    "maintenance": 3,
    "Il": 2,
    "##yu": 0,
    "##shin": 0,
    "left": 82,
    "Sunday": 155,
    "Saddam": 0,
    "meets": 5,
    "Russia": 0,
    "##hir": 1,
    "##ino": 0,
    "##vsky": 0,
    "Hussein": 0,
    "ultra": 1,
    "nationalist": 7,
    "Vladimir": 0,
    "maintain": 8,
    "friendship": 4,
    "newspapers": 13,
    "stressed": 2,
    "during": 80,
    "keen": 4,
    "##ness": 16,
    "papers": 4,
    "Liberal": 0,
    "Du": 2,
    "##ma": 6,
    "parliament": 46,
    "calling": 8,
    "immediate": 12,
    "lifting": 7,
    "em": 16,
    "##bar": 8,
    "##go": 9,
    "imposed": 14,
    "1990": 22,
    "invasion": 1,
    "press": 33,
    "help": 40,
    "sanctions": 13,
    "blamed": 17,
    "delay": 13,
    "establishment": 8,
    "ties": 10,
    "namely": 1,
    "economic": 50,
    "resume": 12,
    "visited": 17,
    "twice": 17,
    "Last": 16,
    "October": 34,
    "invited": 15,
    "attend": 11,
    "referendum": 5,
    "presidency": 8,
    "extended": 6,
    "years": 134,
    "These": 22,
    "leading": 41,
    "stories": 34,
    "verified": 19,
    "these": 37,
    "does": 36,
    "v": 116,
    "##ou": 44,
    "##ch": 20,
    "accuracy": 16,
    "##HA": 1,
    "##WR": 0,
    "liberal": 6,
    "democratic": 7,
    "Turkish": 0,
    "part": 79,
    "fair": 7,
    "November": 19,
    "IRA": 0,
    "ship": 5,
    "##load": 5,
    "rice": 6,
    "arrives": 8,
    "Um": 0,
    "##m": 23,
    "port": 18,
    "Lebanon": 0,
    "##UT": 30,
    "Beirut": 0,
    "AN": 4,
    "Con": 23,
    "##front": 2,
    "##ation": 8,
    "es": 1,
    "##cal": 3,
    "##ating": 6,
    "Hi": 3,
    "##bol": 1,
    "##lah": 0,
    "Hari": 0,
    "threats": 7,
    "serve": 11,
    "AS": 6,
    "##FI": 4,
    "Parliament": 5,
    "Speaker": 9,
    "Be": 1,
    "##rri": 4,
    "preparing": 9,
    "Parliamentary": 3,
    "battle": 17,
    "lists": 2,
    "prepared": 9,
    "AL": 7,
    "##WA": 3,
    "##tin": 2,
    "##ued": 1,
    "criticism": 3,
    "law": 35,
    "violation": 5,
    "incidents": 6,
    "occurred": 7,
    "Mount": 0,
    "AD": 3,
    "##AR": 18,
    "Financial": 5,
    "Pakistan": 0,
    "step": 25,
    "election": 54,
    "incomplete": 3,
    "list": 16,
    "##ID": 4,
    "WA": 6,
    "##TA": 12,
    "Mar": 4,
    "##oni": 1,
    "##te": 42,
    "Patriarch": 2,
    "##ir": 0,
    "sorrow": 1,
    "violations": 11,
    "live": 14,
    "feeder": 2,
    "calls": 10,
    "range": 18,
    "mixed": 13,
    "CH": 15,
    "##AG": 7,
    "Early": 1,
    "future": 52,
    "ranged": 2,
    "200": 41,
    "cent": 11,
    "higher": 46,
    "lower": 61,
    "livestock": 6,
    "analysts": 28,
    "continued": 23,
    "strong": 38,
    "tone": 1,
    "cash": 38,
    "markets": 32,
    "pro": 39,
    "##mpt": 8,
    "Out": 4,
    "##look": 3,
    "bull": 11,
    "##ish": 10,
    "lend": 3,
    "spreading": 4,
    "However": 13,
    "likely": 30,
    "prices": 59,
    "drift": 2,
    "evening": 18,
    "ahead": 50,
    "Cash": 9,
    "record": 54,
    "amount": 7,
    "##lot": 8,
    "traded": 19,
    "Kind": 1,
    "##care": 1,
    "debt": 21,
    "hit": 51,
    "results": 73,
    "Al": 3,
    "##are": 0,
    "Learning": 0,
    "Centers": 0,
    "Inc": 7,
    "##back": 7,
    "mean": 7,
    "extraordinary": 4,
    "loss": 45,
    "fiscal": 15,
    "1997": 48,
    "company": 127,
    "began": 43,
    "30": 156,
    "par": 25,
    "value": 21,
    "outstanding": 9,
    "notes": 4,
    "31": 94,
    "Philip": 0,
    "Ma": 2,
    "##slow": 0,
    "financial": 28,
    "officer": 18,
    "##school": 1,
    "child": 20,
    "care": 11,
    "offered": 19,
    "opportunity": 9,
    "reduce": 9,
    "weighted": 2,
    "average": 38,
    "interest": 32,
    "costs": 20,
    "improve": 11,
    "flows": 4,
    "earnings": 28,
    "##RC": 6,
    "starts": 15,
    "##NE": 20,
    "analyst": 19,
    "Blake": 0,
    "Bath": 0,
    "started": 35,
    "Southern": 0,
    "New": 10,
    "England": 0,
    "Telecom": 0,
    "##mu": 3,
    "##ncia": 0,
    "##tions": 4,
    "Corp": 0,
    "##per": 10,
    "##form": 7,
    "rating": 9,
    "price": 53,
    "target": 13,
    "45": 89,
    "estimate": 6,
    "09": 36,
    "per": 81,
    "share": 52,
    "immediately": 30,
    "available": 37,
    "closed": 44,
    "38": 106,
    "Au": 1,
    "##chard": 0,
    "Wall": 0,
    "Street": 2,
    "212": 29,
    "85": 76,
    "173": 2,
    "Gateway": 0,
    "Data": 5,
    "Sciences": 0,
    "net": 54,
    "rises": 9,
    "##OE": 0,
    "##NI": 33,
    "Su": 21,
    "##mma": 19,
    "##ry": 17,
    "Consolidated": 0,
    "In": 184,
    "Thousands": 8,
    "except": 6,
    "data": 14,
    "Six": 10,
    "Month": 2,
    "End": 3,
    "Quarter": 4,
    "Jul": 18,
    "##ome": 6,
    "##ment": 39,
    "Total": 26,
    "Revenue": 11,
    "75": 114,
    "102": 10,
    "50": 189,
    "##7": 164,
    "Software": 2,
    "07": 15,
    "Services": 1,
    "154": 2,
    "69": 117,
    "62": 60,
    "46": 80,
    "Operating": 6,
    "90": 65,
    "59": 74,
    "51": 56,
    "82": 47,
    "512": 6,
    "##ar": 10,
    "##ning": 5,
    "##hare": 15,
    "34": 73,
    "Jan": 17,
    "Ba": 6,
    "##lance": 7,
    "##et": 10,
    "Working": 2,
    "Capital": 1,
    "##qui": 5,
    "##valent": 1,
    "##sets": 1,
    "196": 3,
    "138": 9,
    "##holders": 6,
    "Equity": 1,
    "give": 36,
    "backing": 8,
    "chooses": 1,
    "Mon": 1,
    "##de": 7,
    "afternoon": 12,
    "daily": 29,
    "dated": 8,
    "23": 177,
    "##NT": 20,
    "Africans": 0,
    "seeking": 14,
    "renew": 2,
    "obtain": 2,
    "residence": 10,
    "rights": 41,
    "say": 60,
    "Alain": 0,
    "Ju": 0,
    "##ppe": 0,
    "proposals": 8,
    "insufficient": 1,
    "hunger": 1,
    "strike": 38,
    "enters": 3,
    "##th": 142,
    "day": 171,
    "Paris": 0,
    "church": 17,
    "rally": 16,
    "attracts": 2,
    "##ym": 3,
    "##path": 4,
    "##isers": 5,
    "FL": 1,
    "Co": 11,
    "##rs": 77,
    "##ica": 2,
    "announces": 3,
    "truce": 14,
    "night": 50,
    "Shut": 1,
    "##down": 17,
    "Ball": 1,
    "##y": 40,
    "French": 0,
    "factories": 1,
    "points": 137,
    "shoe": 1,
    "industry": 31,
    "##cut": 2,
    "low": 35,
    "wage": 9,
    "competition": 19,
    "failure": 9,
    "keep": 26,
    "##bre": 2,
    "##ast": 2,
    "trends": 6,
    "PT": 0,
    "union": 22,
    "elements": 4,
    "social": 9,
    "unrest": 14,
    "weeks": 45,
    "42": 81,
    "53": 100,
    "81": 43,
    "Well": 1,
    "repairs": 4,
    "lift": 8,
    "##run": 3,
    "oil": 50,
    "output": 17,
    "St": 1,
    "##ato": 1,
    "##il": 14,
    "OS": 0,
    "plug": 4,
    "##ged": 15,
    "water": 20,
    "injection": 3,
    "wells": 5,
    "##field": 8,
    "off": 141,
    "mid": 22,
    "Norway": 0,
    "reopened": 6,
    "operator": 6,
    "Den": 0,
    "Nor": 1,
    "##ske": 0,
    "##ats": 0,
    "O": 29,
    "##je": 0,
    "##sel": 0,
    "##ska": 0,
    "##p": 44,
    "accounted": 3,
    "dip": 2,
    "barrels": 10,
    "b": 161,
    "roughly": 3,
    "220": 9,
    "according": 24,
    "Status": 0,
    "Weekly": 0,
    "newsletter": 1,
    "##fo": 2,
    "##rated": 1,
    "gravel": 1,
    "pumped": 2,
    "reservoir": 1,
    "##ging": 8,
    "problems": 22,
    "Oslo": 0,
    "41": 55,
    "Finnish": 0,
    "April": 41,
    "surplus": 11,
    "billion": 101,
    "mark": 29,
    "##ka": 15,
    "NC": 0,
    "##B": 17,
    "##EL": 5,
    "##SI": 49,
    "Finland": 0,
    "83": 34,
    "43": 72,
    "Customs": 0,
    "Board": 0,
    "exports": 28,
    "Trade": 15,
    "balance": 13,
    "I": 315,
    "##mpo": 2,
    "##rts": 5,
    "66": 103,
    "430": 5,
    "40": 121,
    "98": 36,
    "Expo": 8,
    "153": 4,
    "126": 4,
    "261": 1,
    "272": 1,
    "import": 10,
    "revised": 13,
    "39": 43,
    "58": 55,
    "export": 15,
    "projected": 2,
    "monthly": 8,
    "statistics": 4,
    "##gging": 3,
    "behind": 56,
    "customs": 13,
    "procedures": 2,
    "when": 220,
    "joined": 15,
    "start": 53,
    "Helsinki": 0,
    "680": 4,
    "245": 2,
    "Dutch": 0,
    "raises": 4,
    "tap": 3,
    "sale": 18,
    "Finance": 6,
    "raised": 13,
    "sales": 50,
    "September": 101,
    "2002": 3,
    "being": 86,
    "00": 135,
    "GM": 2,
    "notice": 3,
    "g": 46,
    "##uild": 23,
    "close": 61,
    "Amsterdam": 0,
    "5000": 10,
    "tells": 3,
    "Agriculture": 2,
    "meat": 4,
    "animals": 6,
    "Until": 3,
    "cleared": 9,
    "panels": 1,
    "done": 14,
    "quickly": 12,
    "preference": 2,
    "##DF": 0,
    "concrete": 6,
    "too": 24,
    "many": 48,
    "holes": 7,
    "know": 26,
    "filled": 5,
    "ensure": 7,
    "protection": 11,
    "tops": 8,
    "priorities": 1,
    "dealing": 6,
    "erupted": 6,
    "acknowledged": 3,
    "##thin": 1,
    "##k": 13,
    "use": 29,
    "suspect": 11,
    "tissue": 3,
    "experts": 5,
    "banning": 4,
    "members": 34,
    "given": 33,
    "question": 20,
    "studied": 1,
    "separately": 1,
    "perfectly": 3,
    "safe": 5,
    "eat": 3,
    "After": 25,
    "admitted": 16,
    "link": 9,
    "fatal": 7,
    "equivalent": 6,
    "worldwide": 6,
    "summit": 2,
    "progressive": 1,
    "takes": 11,
    "parallel": 2,
    "era": 8,
    "##dicate": 2,
    "##LF": 11,
    "SC": 40,
    "W": 115,
    "##LD": 16,
    "AK": 0,
    "Ohio": 0,
    "Score": 49,
    "World": 7,
    "Series": 4,
    "Golf": 1,
    "round": 142,
    "149": 13,
    "yard": 3,
    "70": 147,
    "Fire": 1,
    "##stone": 0,
    "course": 25,
    "players": 52,
    "unless": 28,
    "stated": 18,
    "Paul": 0,
    "##yd": 0,
    "##os": 10,
    "Billy": 0,
    "##fair": 0,
    "##mic": 1,
    "##hi": 3,
    "Tanaka": 0,
    "Japan": 0,
    "68": 99,
    "Steve": 0,
    "##rick": 0,
    "Justin": 0,
    "Leonard": 0,
    "Mark": 0,
    "Brooks": 0,
    "Tim": 0,
    "Herr": 0,
    "Duffy": 0,
    "##aldo": 0,
    "##rf": 2,
    "Davis": 0,
    "Love": 0,
    "Anders": 0,
    "For": 21,
    "##brand": 0,
    "Sweden": 0,
    "Nick": 1,
    "Cook": 0,
    "Phil": 0,
    "Mick": 0,
    "##els": 0,
    "Greg": 0,
    "Norman": 0,
    "Australia": 0,
    "Ernie": 0,
    "El": 3,
    "South": 0,
    "Africa": 0,
    "Scott": 0,
    "Ho": 2,
    "Clarence": 0,
    "Rose": 0,
    "Lo": 1,
    "##ren": 4,
    "Roberts": 0,
    "Fred": 0,
    "Funk": 0,
    "Sven": 0,
    "##ru": 4,
    "##ver": 9,
    "Alexander": 0,
    "Ce": 0,
    "##jk": 0,
    "Hal": 1,
    "Sutton": 0,
    "Tom": 0,
    "73": 85,
    "Wei": 0,
    "##bri": 0,
    "Brad": 0,
    "Bryant": 0,
    "Craig": 0,
    "Parry": 0,
    "Stewart": 0,
    "##inn": 0,
    "Corey": 0,
    "##ad": 1,
    "Me": 1,
    "##ara": 1,
    "##up": 22,
    "##les": 5,
    "74": 76,
    "Stan": 0,
    "##kowski": 0,
    "##ntino": 0,
    "##oc": 2,
    "Italy": 0,
    "Fury": 0,
    "Sato": 0,
    "##shi": 1,
    "##gas": 1,
    "Willie": 0,
    "Wood": 0,
    "##ge": 10,
    "##uy": 0,
    "##ron": 1,
    "Wayne": 0,
    "##ner": 4,
    "Sc": 2,
    "##hn": 0,
    "##eit": 0,
    "79": 41,
    "Watson": 0,
    "Se": 1,
    "##iki": 0,
    "Ok": 0,
    "##uda": 0,
    "##TR": 7,
    "VA": 1,
    "##ET": 19,
    "Gloria": 0,
    "##ist": 32,
    "##rita": 0,
    "Romania": 0,
    "beat": 335,
    "halftime": 28,
    "Valle": 0,
    "Malta": 0,
    "Cup": 0,
    "winners": 12,
    "match": 127,
    "leg": 25,
    "preliminary": 16,
    "##zar": 0,
    "32nd": 4,
    "##ugen": 0,
    "##oi": 0,
    "Gilbert": 0,
    "##gi": 0,
    "24th": 8,
    "Attendance": 52,
    "aggregate": 26,
    "qualified": 6,
    "RA": 24,
    "##CI": 18,
    "##VO": 1,
    "##ND": 14,
    "25": 213,
    "##CO": 1,
    "Sir": 5,
    "Prescott": 0,
    "landed": 17,
    "victory": 70,
    "trainer": 2,
    "sprinter": 4,
    "Pi": 0,
    "##vo": 1,
    "##tal": 2,
    "chance": 22,
    "##unt": 1,
    "##hor": 3,
    "##pe": 3,
    "Stakes": 0,
    "old": 115,
    "partnered": 1,
    "veteran": 14,
    "George": 0,
    "Duff": 0,
    "##ield": 3,
    "snatched": 1,
    "short": 43,
    "head": 46,
    "verdict": 3,
    "stride": 1,
    "deny": 5,
    "Evening": 0,
    "##ance": 5,
    "trained": 5,
    "Henry": 0,
    "Candy": 0,
    "ridden": 2,
    "Chris": 0,
    "##utter": 0,
    "Prix": 0,
    "l": 16,
    "##ye": 0,
    "winner": 24,
    "Long": 1,
    "##champ": 0,
    "finished": 16,
    "third": 117,
    "lengths": 2,
    "away": 43,
    "Mind": 0,
    "Games": 0,
    "fourth": 40,
    "Royal": 0,
    "##cot": 1,
    "may": 46,
    "now": 82,
    "aimed": 14,
    "season": 90,
    "sprint": 11,
    "race": 59,
    "reluctant": 5,
    "go": 71,
    "enclosure": 1,
    "result": 29,
    "photo": 3,
    "finish": 12,
    "Twenty": 2,
    "five": 138,
    "never": 23,
    "so": 98,
    "thought": 18,
    "better": 30,
    "wait": 8,
    "bit": 12,
    "longer": 12,
    "sad": 7,
    "am": 28,
    "god": 1,
    "##father": 1,
    "daughter": 14,
    "Like": 2,
    "Jack": 0,
    "Berry": 0,
    "gone": 9,
    "search": 8,
    "success": 9,
    "around": 78,
    "profession": 1,
    "`": 2,
    "disappointed": 7,
    "feel": 16,
    "su": 11,
    "##icidal": 1,
    "well": 79,
    "fur": 2,
    "##long": 2,
    "metres": 84,
    "just": 107,
    "quick": 8,
    "##TH": 32,
    "##KE": 76,
    "##LT": 115,
    "##sul": 24,
    "olds": 4,
    "upwards": 1,
    "run": 103,
    "km": 59,
    "Jason": 0,
    "Weaver": 0,
    "Eight": 8,
    "ran": 21,
    "##av": 2,
    "##our": 3,
    "##ite": 1,
    "4th": 4,
    "Distance": 1,
    "Winner": 2,
    "owned": 22,
    "Ch": 7,
    "##eve": 0,
    "##ley": 15,
    "Park": 0,
    "##ud": 1,
    "Newmarket": 0,
    "Value": 2,
    "##ter": 28,
    "##ling": 13,
    "112": 16,
    "##LA": 15,
    "##SS": 8,
    "##SB": 0,
    "California": 0,
    "Results": 85,
    "450": 11,
    "To": 15,
    "##ba": 0,
    "Classic": 0,
    "tennis": 34,
    "tournament": 54,
    "prefix": 25,
    "denotes": 24,
    "seed": 69,
    "Second": 18,
    "##nt": 15,
    "##xa": 0,
    "Sanchez": 0,
    "Vicar": 0,
    "##io": 0,
    "Spain": 0,
    "##oko": 0,
    "Ki": 0,
    "##ji": 0,
    "##ta": 8,
    "Kim": 0,
    "##iko": 0,
    "Date": 8,
    "Yo": 0,
    "##mio": 0,
    "Sand": 0,
    "##rine": 0,
    "Test": 2,
    "##yama": 0,
    "Nat": 0,
    "##hali": 0,
    "Tau": 0,
    "##zia": 0,
    "Tin": 1,
    "Wang": 0,
    "##MM": 5,
    "##AC": 7,
    "York": 0,
    "##ald": 1,
    "##baum": 0,
    "Hamlet": 1,
    "Michael": 0,
    "Chang": 0,
    "Ser": 0,
    "##rug": 1,
    "##uer": 0,
    "Joyce": 0,
    "Rich": 1,
    "##ey": 1,
    "Rene": 0,
    "##berg": 0,
    "Martin": 0,
    "Dam": 0,
    "Czech": 0,
    "Republic": 0,
    "You": 12,
    "##nes": 7,
    "##yna": 0,
    "Morocco": 0,
    "retired": 11,
    "##rol": 0,
    "##cer": 5,
    "Slovakia": 0,
    "##cha": 0,
    "##zi": 1,
    "##VE": 12,
    "##RT": 3,
    "Kenny": 0,
    "Dal": 0,
    "##gli": 0,
    "##sh": 1,
    "sadness": 1,
    "leaving": 17,
    "club": 38,
    "premier": 22,
    "league": 76,
    "title": 27,
    "1994": 48,
    "parted": 2,
    "mutual": 5,
    "consent": 2,
    "ex": 34,
    "confessed": 8,
    "taking": 57,
    "division": 85,
    "local": 63,
    "newspaper": 59,
    "holiday": 29,
    "same": 64,
    "opinion": 12,
    "albeit": 1,
    "little": 36,
    "If": 32,
    "opened": 25,
    "my": 50,
    "mouth": 3,
    "stayed": 7,
    "way": 45,
    "let": 10,
    "get": 56,
    "job": 17,
    "conclusion": 4,
    "then": 60,
    "past": 41,
    "director": 25,
    "football": 5,
    "##PI": 14,
    "Close": 5,
    "play": 66,
    "scores": 16,
    "four": 153,
    "County": 0,
    "Championship": 1,
    "cricket": 21,
    "matches": 91,
    "Weston": 0,
    "super": 8,
    "Mare": 0,
    "Durham": 0,
    "Cox": 0,
    "Campbell": 0,
    ";": 57,
    "Somerset": 0,
    "236": 7,
    "##well": 0,
    "Colchester": 0,
    "Gloucestershire": 0,
    "280": 9,
    "Russell": 0,
    "63": 67,
    "##ond": 0,
    "52": 78,
    "##wan": 0,
    "Essex": 0,
    "Cardiff": 0,
    "Kent": 0,
    "128": 11,
    "Walker": 0,
    "Fulton": 0,
    "Glamorgan": 0,
    "Leicester": 0,
    "Leicestershire": 0,
    "Simmons": 0,
    "108": 15,
    "Nixon": 0,
    "67": 90,
    "Hampshire": 0,
    "Northampton": 0,
    "Sussex": 0,
    "36": 68,
    "Len": 0,
    "##ham": 1,
    "145": 6,
    "Drake": 0,
    "Wells": 0,
    "Northamptonshire": 0,
    "Trent": 0,
    "Nottinghamshire": 0,
    "Archer": 0,
    "143": 9,
    "Dow": 0,
    "##man": 21,
    "107": 17,
    "Surrey": 0,
    "Worcester": 0,
    "Warwickshire": 0,
    "255": 4,
    "9": 346,
    "Giles": 0,
    "57": 60,
    "Khan": 0,
    "Worcestershire": 0,
    "Head": 2,
    "Yorkshire": 0,
    "305": 2,
    "White": 3,
    "Mo": 1,
    "##xon": 0,
    "Vaughan": 0,
    "Lancashire": 0,
    "##BO": 8,
    "##board": 9,
    "final": 76,
    "Oval": 0,
    "innings": 75,
    "##her": 0,
    "##ton": 1,
    "##aq": 0,
    "##nis": 0,
    "Ahmed": 0,
    "Hussain": 0,
    "c": 74,
    "Sa": 1,
    "##eed": 3,
    "##war": 0,
    "Thorpe": 0,
    "lb": 25,
    "Mohammad": 0,
    "##kra": 0,
    "##raw": 3,
    "94": 39,
    "Knight": 0,
    "Lewis": 0,
    "Was": 0,
    "##im": 9,
    "Salisbury": 0,
    "Extra": 17,
    "w": 27,
    "##b": 42,
    "wickets": 36,
    "278": 7,
    "Fall": 15,
    "116": 11,
    "205": 7,
    "248": 6,
    "bat": 18,
    "##roft": 0,
    "Cork": 0,
    "##lla": 2,
    "##lly": 0,
    "Bowling": 16,
    "date": 31,
    "78": 38,
    "##ami": 1,
    "So": 15,
    "##hai": 0,
    "##ja": 1,
    "##zam": 0,
    "##am": 2,
    "ul": 3,
    "Sal": 0,
    "Malik": 0,
    "##if": 2,
    "##j": 3,
    "##in": 14,
    "IN": 69,
    "##OT": 22,
    "##FT": 13,
    "##OW": 2,
    "Everton": 0,
    "Duncan": 0,
    "Ferguson": 0,
    "scored": 40,
    "Manchester": 0,
    "picked": 13,
    "Scottish": 0,
    "squad": 32,
    "Glasgow": 0,
    "Rangers": 0,
    "striker": 30,
    "Ally": 0,
    "##ois": 1,
    "another": 51,
    "man": 75,
    "form": 23,
    "hat": 7,
    "tricks": 2,
    "named": 29,
    "qualifier": 17,
    "Austria": 0,
    "Vienna": 0,
    "served": 9,
    "jail": 19,
    "butt": 2,
    "opponent": 4,
    "Scotland": 0,
    "caps": 6,
    "December": 19,
    "Brown": 0,
    "ve": 28,
    "watched": 4,
    "bang": 2,
    "great": 25,
    "scoring": 15,
    "moment": 16,
    "Celtic": 0,
    "Jackie": 0,
    "##ra": 4,
    "successful": 9,
    "earn": 6,
    "ON": 14,
    "lunch": 12,
    "Ireland": 0,
    "midfielder": 19,
    "Roy": 0,
    "Ke": 0,
    "##ane": 0,
    "signed": 40,
    "champions": 35,
    "deal": 58,
    "game": 93,
    "delighted": 2,
    "Alex": 0,
    "##DI": 54,
    "Canadian": 0,
    "Open": 5,
    "Daniel": 0,
    "##est": 15,
    "##or": 8,
    "Canada": 0,
    "Thomas": 0,
    "Must": 0,
    "Mi": 1,
    "Till": 0,
    "##strom": 0,
    "##ran": 32,
    "Ivan": 0,
    "##ise": 10,
    "##vic": 1,
    "Croatia": 0,
    "Fe": 2,
    "##rre": 10,
    "##ira": 13,
    "Ji": 0,
    "Novak": 0,
    "Marcel": 0,
    "##o": 23,
    "Rio": 0,
    "Chile": 0,
    "Kenneth": 0,
    "Carl": 0,
    "##sen": 6,
    "Denmark": 0,
    "Mali": 0,
    "##ai": 0,
    "Todd": 0,
    "Ren": 0,
    "##zo": 0,
    "Fu": 0,
    "##rl": 3,
    "##an": 9,
    "Philipp": 0,
    "##sis": 2,
    "Marc": 0,
    "Ross": 0,
    "Switzerland": 0,
    "##dric": 0,
    "##olin": 2,
    "Gregory": 0,
    "Carr": 0,
    "##az": 0,
    "Patrick": 0,
    "##fter": 0,
    "Alberto": 0,
    "##ras": 0,
    "##ate": 20,
    "##gu": 0,
    "Pet": 0,
    "##rda": 0,
    "Francisco": 0,
    "##lav": 0,
    "##ace": 0,
    "##olten": 0,
    "##bridge": 0,
    "##bas": 2,
    "##tien": 0,
    "##rea": 3,
    "##u": 3,
    "Brien": 0,
    "Byron": 0,
    "Black": 1,
    "Zimbabwe": 0,
    "##li": 7,
    "##hra": 1,
    "Andrea": 0,
    "##aud": 1,
    "##ruff": 0,
    "walk": 19,
    "##over": 20,
    "MI": 4,
    "##OL": 6,
    "provincial": 10,
    "##land": 6,
    "fast": 18,
    "bowler": 3,
    "Mill": 1,
    "##ns": 2,
    "toured": 1,
    "1992": 26,
    "replaces": 3,
    "Phillip": 0,
    "De": 14,
    "##re": 18,
    "##itas": 0,
    "professional": 7,
    "##RS": 13,
    "Winners": 1,
    "qualifying": 14,
    "soccer": 79,
    "Tirana": 0,
    "##lam": 2,
    "##urt": 0,
    "##ari": 0,
    "##lore": 0,
    "##em": 6,
    "##lon": 2,
    "Hume": 0,
    "##nne": 0,
    "Lu": 1,
    "##ski": 0,
    "50th": 3,
    "minute": 72,
    "Val": 0,
    "win": 106,
    "Cho": 1,
    "##rz": 0,
    "##ow": 0,
    "##uch": 0,
    "##san": 0,
    "##ff": 8,
    "##rai": 0,
    "Wales": 0,
    "Ark": 0,
    "##adi": 0,
    "1st": 3,
    "##we": 0,
    "Mir": 0,
    "##nd": 20,
    "##rd": 20,
    "500": 56,
    "##rna": 0,
    "Cyprus": 0,
    "Kota": 0,
    "##ik": 0,
    "##bo": 4,
    "##vy": 1,
    "Armenia": 0,
    "##oran": 0,
    "##ndi": 1,
    "28th": 5,
    "##lim": 2,
    "##and": 0,
    "##rou": 0,
    "41st": 2,
    "Mile": 0,
    "##nko": 0,
    "##vas": 2,
    "##ev": 0,
    "##ic": 7,
    "60th": 5,
    "penalty": 24,
    "##rino": 0,
    "##v": 23,
    "##los": 1,
    "##aul": 0,
    "##ia": 8,
    "##red": 15,
    "Lithuania": 0,
    "##gate": 7,
    "Vin": 0,
    "##ny": 0,
    "##ts": 21,
    "##va": 1,
    "Tallinn": 0,
    "Sad": 0,
    "Estonia": 0,
    "##gg": 8,
    "score": 20,
    "goals": 59,
    "rule": 34,
    "Bergen": 0,
    "##bourne": 0,
    "##var": 0,
    "##lde": 0,
    "10th": 20,
    "##ve": 4,
    "##ede": 3,
    "##rsen": 1,
    "Rutherford": 0,
    "5th": 4,
    "189": 1,
    "Sofia": 0,
    "Lev": 0,
    "Bulgaria": 0,
    "##pi": 0,
    "Slovenia": 0,
    "##ian": 0,
    "##ono": 1,
    "penalties": 5,
    "##uz": 0,
    "##chtenstein": 0,
    "RAF": 0,
    "Riga": 0,
    "Latvia": 0,
    "Pol": 0,
    "##rin": 1,
    "Luxembourg": 0,
    "##arte": 0,
    "##ks": 2,
    "##din": 1,
    "Dr": 8,
    "##ser": 0,
    "Mum": 0,
    "Jam": 0,
    "##vet": 0,
    "##ko": 0,
    "Tor": 0,
    "##sha": 2,
    "##nar": 1,
    "##lt": 4,
    "##lag": 1,
    "Far": 0,
    "##oe": 3,
    "Islands": 0,
    "Dynamo": 0,
    "Bat": 3,
    "##umi": 3,
    "Georgia": 0,
    "Prague": 0,
    "Sparta": 0,
    "Glen": 0,
    "##tor": 11,
    "Northern": 0,
    "Gun": 2,
    "##da": 1,
    "26th": 6,
    "##mir": 0,
    "19th": 5,
    "##rst": 0,
    "##eg": 8,
    "48": 76,
    "80": 50,
    "##den": 0,
    "##ek": 1,
    "Gabriel": 0,
    "86": 31,
    "Edinburgh": 0,
    "Hearts": 0,
    "Star": 0,
    "Belgrade": 0,
    "Yugoslavia": 0,
    "Dave": 0,
    "McPherson": 0,
    "Marino": 0,
    "##zio": 1,
    "Hapoel": 0,
    "Iron": 1,
    "##ctor": 1,
    "##ul": 5,
    "Chi": 1,
    "##sin": 0,
    "##au": 0,
    "Moldova": 0,
    "##kos": 0,
    "My": 4,
    "Kara": 0,
    "##bach": 0,
    "##dam": 0,
    "Azerbaijan": 0,
    "##log": 0,
    "##gna": 0,
    "Macedonia": 0,
    "##sp": 18,
    "Hon": 0,
    "##ved": 4,
    "Hungary": 0,
    "Ad": 5,
    "##she": 0,
    "##bag": 1,
    "Nissan": 0,
    "##pet": 10,
    "Tomas": 0,
    "##ib": 0,
    "##ola": 0,
    "##ol": 9,
    "Sergei": 0,
    "##oga": 1,
    "##chev": 0,
    "42nd": 4,
    "Gen": 5,
    "##na": 6,
    "##di": 5,
    "Ski": 0,
    "##VA": 3,
    "IF": 1,
    "Gothenburg": 0,
    "drew": 18,
    "##varo": 0,
    "Champions": 0,
    "tie": 31,
    "played": 128,
    "##rva": 0,
    "15th": 7,
    "Andreas": 0,
    "##son": 0,
    "##Z": 5,
    "##IL": 6,
    "##IO": 5,
    "##week": 3,
    "Brazilian": 0,
    "championship": 47,
    "##hia": 0,
    "##let": 1,
    "##ico": 0,
    "Para": 0,
    "##nae": 0,
    "##nse": 0,
    "##thi": 0,
    "##ans": 5,
    "##rani": 1,
    "##rit": 2,
    "##iba": 0,
    "Mine": 1,
    "##iro": 0,
    "Cruz": 0,
    "##eiro": 0,
    "##itor": 1,
    "Flame": 0,
    "##ngo": 0,
    "##vent": 0,
    "##ude": 1,
    "##ias": 1,
    "Sport": 0,
    "##ci": 3,
    "##rem": 1,
    "##raga": 0,
    "Palm": 0,
    "##eira": 0,
    "##asco": 2,
    "da": 2,
    "##ug": 4,
    "##ues": 0,
    "##WC": 0,
    "##BE": 2,
    "##AV": 2,
    "captain": 31,
    "##combe": 1,
    "##led": 19,
    "resignation": 17,
    "loses": 3,
    "Wimbledon": 0,
    "champion": 68,
    "coach": 31,
    "Tony": 0,
    "Roche": 0,
    "determined": 9,
    "events": 6,
    "Split": 0,
    "lose": 9,
    "look": 14,
    "giving": 15,
    "someone": 9,
    "else": 7,
    "Sydney": 0,
    "Telegraph": 0,
    "world": 103,
    "clay": 1,
    "Under": 17,
    "leadership": 12,
    "relegated": 4,
    "elite": 2,
    "slipped": 8,
    "rank": 1,
    "Since": 5,
    "Neal": 0,
    "Fraser": 0,
    "tandem": 1,
    "doubles": 9,
    "partner": 9,
    "wins": 13,
    "losses": 16,
    "selected": 5,
    "semifinal": 10,
    "Olympic": 0,
    "##ford": 0,
    "Croatian": 0,
    "boasts": 1,
    "conceded": 4,
    "hard": 28,
    "pressed": 4,
    "breath": 1,
    "absolute": 2,
    "best": 41,
    "described": 15,
    "tough": 16,
    "faced": 7,
    "1986": 7,
    "beaten": 10,
    "finalists": 2,
    "ago": 63,
    "guidance": 3,
    "##DM": 4,
    "##TO": 12,
    "##UM": 27,
    "Malaysian": 0,
    "badminton": 3,
    "Men": 57,
    "singles": 59,
    "Yi": 1,
    "##gan": 1,
    "##wang": 0,
    "Sun": 0,
    "ho": 18,
    "Korea": 0,
    "Wong": 0,
    "Malaysia": 0,
    "Abdul": 0,
    "Sam": 0,
    "Ismail": 0,
    "18": 94,
    "##oop": 0,
    "Je": 0,
    "##ro": 2,
    "Van": 1,
    "Di": 10,
    "Netherlands": 0,
    "##ija": 0,
    "##dra": 2,
    "Indonesia": 0,
    "Pan": 0,
    "Chen": 0,
    "Hu": 2,
    "##hil": 0,
    "##un": 0,
    "##ung": 1,
    "Sub": 1,
    "##oro": 3,
    "Her": 8,
    "Susan": 0,
    "##to": 5,
    "Fun": 0,
    "##mad": 1,
    "Women": 54,
    "2nd": 4,
    "##inda": 0,
    "##git": 2,
    "##rg": 2,
    "Marina": 0,
    "And": 13,
    "##rie": 2,
    "Mel": 0,
    "##wati": 0,
    "##ong": 0,
    "Gong": 0,
    "##hic": 0,
    "##hao": 0,
    "Liu": 0,
    "Zen": 0,
    "##qi": 0,
    "Feng": 0,
    "Zealand": 0,
    "Christine": 0,
    "Magnus": 0,
    "Is": 2,
    "##hwa": 0,
    "##op": 5,
    "Zhang": 0,
    "Ni": 1,
    "Olivia": 0,
    "##VI": 52,
    "ME": 8,
    "DR": 8,
    "Rev": 9,
    "##ised": 28,
    "draw": 39,
    "championships": 15,
    "beginning": 15,
    "Tennis": 3,
    "Centre": 3,
    "Draw": 3,
    "Pete": 0,
    "##pra": 2,
    "vs": 108,
    "Adrian": 0,
    "##nea": 0,
    "Lars": 0,
    "Vol": 2,
    "##kov": 0,
    "Qualifier": 10,
    "Andrei": 0,
    "##hov": 0,
    "Roberto": 0,
    "##eter": 1,
    "Jo": 1,
    "##rdi": 0,
    "##uri": 0,
    "##llo": 0,
    "Jonas": 0,
    "##jo": 0,
    "##rk": 1,
    "Christian": 0,
    "##udd": 0,
    "##ken": 0,
    "##hall": 0,
    "Grant": 0,
    "Stafford": 0,
    "Guy": 0,
    "Forget": 0,
    "Fernando": 0,
    "##ige": 0,
    "Brazil": 0,
    "Ye": 0,
    "##geny": 0,
    "##ln": 31,
    "##no": 12,
    "##aper": 0,
    "##alo": 0,
    "Blanco": 0,
    "Johan": 0,
    "##sson": 0,
    "##rik": 0,
    "##eek": 0,
    "##used": 1,
    "Jean": 0,
    "Philippe": 0,
    "##le": 16,
    "##uria": 0,
    "##ros": 0,
    "##lak": 0,
    "##nnes": 0,
    "Mat": 3,
    "##su": 5,
    "##oka": 0,
    "Doug": 0,
    "##ila": 3,
    "##nder": 0,
    "##hui": 0,
    "Te": 3,
    "##bb": 0,
    "Jonathan": 0,
    "Stark": 0,
    "Bern": 0,
    "##rb": 4,
    "##acher": 0,
    "Stefan": 0,
    "Ed": 0,
    "Richard": 0,
    "##raj": 0,
    "##ice": 2,
    "Andre": 0,
    "##si": 4,
    "Had": 0,
    "Colombia": 0,
    "Marcos": 0,
    "On": 39,
    "##dr": 1,
    "##usk": 0,
    "Felix": 0,
    "Man": 2,
    "##til": 2,
    "Carlos": 0,
    "##mp": 10,
    "##hr": 17,
    "##ies": 13,
    "##eri": 0,
    "##nk": 2,
    "##ee": 3,
    "##heat": 1,
    "Kevin": 0,
    "Nicolas": 0,
    "##pent": 1,
    "##ti": 23,
    "Ecuador": 0,
    "##rim": 4,
    "##vist": 0,
    "Stephan": 0,
    "##mian": 0,
    "Guillaume": 0,
    "Rao": 0,
    "##ux": 0,
    "##lip": 0,
    "##wu": 0,
    "##lf": 1,
    "Belgium": 0,
    "Knowles": 0,
    "Bahamas": 0,
    "##pin": 1,
    "Uruguay": 0,
    "Kris": 0,
    "##oss": 0,
    "##ich": 0,
    "Chuck": 0,
    "Adams": 0,
    "Javier": 0,
    "Fr": 1,
    "##ana": 0,
    "Argentina": 0,
    "##urier": 0,
    "##rab": 1,
    "##oll": 0,
    "Stefano": 0,
    "##cos": 0,
    "##oli": 0,
    "##do": 9,
    "##ets": 2,
    "Pereira": 0,
    "Venezuela": 0,
    "##fs": 0,
    "Jeff": 0,
    "Tara": 0,
    "##du": 4,
    "##cu": 3,
    "Jared": 0,
    "Palmer": 0,
    "##nan": 0,
    "##um": 9,
    "##las": 0,
    "Jakob": 0,
    "##lase": 0,
    "Cecil": 0,
    "##mi": 5,
    "##it": 11,
    "Vince": 0,
    "Spa": 0,
    "##dea": 0,
    "Carbon": 0,
    "##ell": 0,
    "OR": 1,
    "##OH": 0,
    "##OS": 13,
    "Baltimore": 0,
    "Orioles": 0,
    "Davey": 0,
    "Johnson": 0,
    "miss": 8,
    "Seattle": 0,
    "Mariners": 0,
    "hospital": 37,
    "irregular": 10,
    "heartbeat": 2,
    "##ized": 7,
    "experiencing": 1,
    "di": 61,
    "##zzi": 1,
    "treated": 8,
    "observed": 4,
    "physician": 1,
    "William": 0,
    "Gold": 4,
    "##iner": 0,
    "adding": 17,
    "released": 36,
    "bench": 5,
    "Andy": 0,
    "##eb": 1,
    "manage": 8,
    "absence": 8,
    "Angels": 0,
    "skip": 2,
    "Columbia": 0,
    "Presbyterian": 0,
    "Hospital": 0,
    "blood": 16,
    "calf": 2,
    "eight": 67,
    "seasons": 5,
    "replacing": 3,
    "Regan": 0,
    "Cincinnati": 0,
    "Reds": 0,
    "League": 1,
    "guided": 3,
    "Mets": 0,
    "games": 106,
    "pull": 13,
    "within": 27,
    "##lump": 2,
    "Yankees": 0,
    "American": 1,
    "Division": 20,
    "##UE": 39,
    "##SD": 19,
    "GA": 17,
    "Major": 4,
    "Baseball": 7,
    "standings": 32,
    "##bula": 55,
    "lost": 102,
    "winning": 39,
    "percentage": 26,
    "EA": 3,
    "GB": 20,
    "28": 270,
    "CE": 1,
    "##SO": 3,
    "##SA": 0,
    "##EX": 0,
    "##AS": 18,
    "##TL": 0,
    "##IF": 6,
    "460": 4,
    "AU": 32,
    "##UI": 4,
    "##IE": 16,
    "65": 79,
    "435": 5,
    "##PS": 13,
    "Chicago": 0,
    "Milwaukee": 0,
    "Oakland": 0,
    "Texas": 0,
    "Pittsburgh": 0,
    "Louis": 0,
    "Philadelphia": 0,
    "Montreal": 0,
    "Rusty": 0,
    "##reer": 0,
    "inning": 39,
    "rallied": 8,
    "Cleveland": 0,
    "Indians": 0,
    "rubber": 5,
    "series": 32,
    "With": 17,
    "pitch": 10,
    "Julian": 0,
    "##ez": 0,
    "field": 19,
    "fence": 4,
    "speed": 11,
    "tried": 26,
    "swing": 3,
    "big": 27,
    "crowd": 13,
    "intense": 2,
    "shot": 33,
    "Rodriguez": 0,
    "double": 21,
    "catcher": 3,
    "Mickey": 0,
    "Cochrane": 0,
    "Johnny": 0,
    "Terry": 0,
    "Kennedy": 0,
    "nine": 45,
    "meetings": 9,
    "Western": 0,
    "Jacobs": 0,
    "Field": 0,
    "joining": 3,
    "teams": 19,
    "Central": 1,
    "extra": 24,
    "ninth": 22,
    "##ft": 0,
    "single": 30,
    "blew": 4,
    "save": 5,
    "got": 29,
    "allowing": 19,
    "hits": 41,
    "walks": 5,
    "strikeouts": 7,
    "##less": 24,
    "Dean": 0,
    "30th": 6,
    "Cal": 0,
    "##ip": 0,
    "fifth": 41,
    "solo": 7,
    "Bobby": 0,
    "Bon": 0,
    "##illa": 2,
    "seventh": 17,
    "power": 45,
    "sur": 5,
    "runs": 58,
    "bottom": 12,
    "21st": 4,
    "starter": 6,
    "Sterling": 1,
    "Hitchcock": 0,
    "blast": 9,
    "Randy": 0,
    "Cy": 0,
    "Young": 0,
    "allowed": 49,
    "relief": 10,
    "appearances": 3,
    "disabled": 2,
    "RBI": 0,
    "cut": 37,
    "Eric": 0,
    "straight": 31,
    "dropped": 20,
    "row": 10,
    "became": 8,
    "shorts": 2,
    "##top": 2,
    "major": 50,
    "history": 12,
    "##iles": 0,
    "22nd": 3,
    "Dickson": 0,
    "scattered": 10,
    "debut": 12,
    "belt": 3,
    "each": 29,
    "plate": 2,
    "Derek": 0,
    "Jet": 3,
    "settled": 7,
    "27th": 3,
    "pitcher": 2,
    "tying": 4,
    "Jimmy": 0,
    "Key": 3,
    "base": 13,
    "##runner": 1,
    "interim": 15,
    "Boston": 0,
    "Mike": 0,
    "Stanley": 0,
    "bases": 9,
    "loaded": 10,
    "eighth": 22,
    "Sox": 0,
    "Athletics": 0,
    "owns": 10,
    "career": 20,
    "batting": 4,
    "Vaughn": 0,
    "went": 43,
    "stole": 5,
    "collected": 2,
    "Bros": 0,
    "##ius": 0,
    "drove": 17,
    "Detroit": 0,
    "##smus": 0,
    "capped": 9,
    "Tigers": 0,
    "reel": 3,
    "consecutive": 11,
    "dropping": 2,
    "Kansas": 0,
    "City": 0,
    "Juan": 0,
    "tossed": 2,
    "complete": 25,
    "hitter": 14,
    "ERA": 0,
    "Blue": 0,
    "Jays": 0,
    "Royals": 0,
    "span": 5,
    "earned": 9,
    "lowered": 3,
    "Minnesota": 0,
    "Brewers": 0,
    "Twins": 0,
    "Jose": 0,
    "Vale": 0,
    "##ntin": 1,
    "##CU": 0,
    "##BL": 3,
    "PS": 0,
    "spur": 2,
    "Ein": 0,
    "##ove": 0,
    "##gen": 2,
    "bicycle": 1,
    "kick": 10,
    "minutes": 75,
    "Arthur": 0,
    "##uman": 1,
    "Luc": 0,
    "##lis": 0,
    "scorer": 6,
    "marks": 12,
    "##men": 14,
    "Ajax": 0,
    "defence": 21,
    "##yke": 1,
    "11th": 15,
    "Half": 27,
    "##time": 30,
    "##NU": 1,
    "##WI": 1,
    "Gala": 0,
    "##tas": 5,
    "##nu": 2,
    "recalled": 5,
    "Baku": 0,
    "overlooked": 3,
    "Art": 0,
    "Jorge": 0,
    "finals": 18,
    "Rolf": 0,
    "Fringe": 0,
    "clearly": 10,
    "progress": 15,
    "beyond": 6,
    "phase": 6,
    "Euro": 1,
    "Squad": 7,
    "Goal": 4,
    "##keepers": 7,
    "Marco": 0,
    "##sco": 0,
    "##lo": 5,
    "##ag": 5,
    "##lia": 0,
    "Pascal": 0,
    "##ube": 1,
    "##ue": 0,
    "##hler": 0,
    "Grass": 0,
    "##hop": 1,
    "##pers": 7,
    "##fender": 4,
    "##nch": 0,
    "##oz": 2,
    "Hamburg": 0,
    "Hot": 1,
    "##ger": 2,
    "##van": 0,
    "Quentin": 0,
    "Ramon": 0,
    "Vega": 0,
    "Raphael": 0,
    "##ick": 2,
    "Mid": 7,
    "Alexandre": 0,
    "##mise": 2,
    "##tti": 0,
    "Antonio": 0,
    "##ito": 0,
    "Four": 4,
    "##nier": 0,
    "Stuttgart": 0,
    "Christophe": 0,
    "Oh": 1,
    "##rel": 0,
    "Lausanne": 0,
    "##yl": 1,
    "##ves": 5,
    "##tre": 5,
    "##sa": 5,
    "##iri": 0,
    "##aco": 0,
    "Inter": 1,
    "Milan": 0,
    "##rat": 1,
    "##kin": 0,
    "Strike": 2,
    "##ay": 3,
    "Tu": 0,
    "##rky": 0,
    "Cha": 0,
    "##pu": 0,
    "##isa": 1,
    "##russ": 0,
    "Dortmund": 0,
    "##HL": 12,
    "IT": 2,
    "THE": 16,
    "##pectator": 1,
    "Brussels": 0,
    "grand": 15,
    "##rix": 7,
    "incentive": 1,
    "cheer": 3,
    "athletes": 6,
    "performances": 4,
    "glass": 5,
    "beer": 3,
    "Belgian": 1,
    "brewery": 1,
    "pay": 33,
    "drinks": 3,
    "goes": 4,
    "organise": 14,
    "expensive": 3,
    "rounds": 18,
    "ever": 12,
    "already": 48,
    "records": 8,
    "broken": 14,
    "women": 48,
    "Leading": 34,
    "golf": 7,
    "Broad": 0,
    "##hurst": 0,
    "Raymond": 0,
    "Ian": 0,
    "##oos": 0,
    "##nam": 0,
    "Bernhard": 0,
    "Lange": 0,
    "Ronan": 0,
    "##ffer": 3,
    "##ty": 15,
    "##nner": 0,
    "Riley": 0,
    "##amon": 0,
    "Darcy": 0,
    "##yman": 0,
    "Clay": 0,
    "##don": 1,
    "Roe": 0,
    "##tie": 1,
    "Goose": 0,
    "##eson": 0,
    "Stephen": 0,
    "Law": 1,
    "Max": 1,
    "Ang": 0,
    "Miles": 0,
    "##liff": 0,
    "Des": 2,
    "##my": 0,
    "Carter": 0,
    "Lee": 0,
    "Westwood": 0,
    "##lmer": 0,
    "Miguel": 0,
    "Angel": 0,
    "##rn": 4,
    "Derrick": 0,
    "Cooper": 0,
    "Hawks": 0,
    "##worth": 0,
    "##ig": 6,
    "Harrington": 0,
    "Welch": 0,
    "##gel": 0,
    "Gary": 0,
    "Or": 2,
    "Maria": 0,
    "Can": 0,
    "##iza": 0,
    "##res": 4,
    "Jon": 0,
    "##zon": 0,
    "##ales": 4,
    "Williams": 0,
    "Andrew": 0,
    "Colt": 0,
    "##art": 2,
    "##mas": 1,
    "River": 0,
    "Robert": 0,
    "Karl": 0,
    "Marcus": 0,
    "Wills": 0,
    "Pedro": 0,
    "Lin": 0,
    "##hart": 0,
    "Jamie": 0,
    "Spence": 0,
    "Price": 7,
    "Pine": 0,
    "##ula": 0,
    "UEFA": 0,
    "FA": 7,
    "rewarded": 3,
    "additional": 10,
    "headed": 9,
    "Fair": 0,
    "Play": 2,
    "rankings": 5,
    "formula": 4,
    "account": 13,
    "factors": 7,
    "including": 48,
    "red": 15,
    "yellow": 5,
    "cards": 1,
    "coaching": 4,
    "spectators": 3,
    "behaviour": 2,
    "clubs": 2,
    "national": 43,
    "allocated": 7,
    "places": 8,
    "Belarus": 0,
    "Iceland": 0,
    "29": 214,
    "Portugal": 0,
    "05": 46,
    "03": 25,
    "37": 43,
    "Greece": 0,
    "89": 22,
    "##TC": 16,
    "Armed": 4,
    "police": 226,
    "command": 11,
    "patrol": 4,
    "ground": 27,
    "tour": 36,
    "Sri": 0,
    "Lanka": 0,
    "youth": 5,
    "limited": 13,
    "overs": 46,
    "includes": 11,
    "India": 0,
    "promised": 11,
    "presence": 15,
    "dogs": 3,
    "plain": 2,
    "##cloth": 2,
    "policemen": 10,
    "trouble": 10,
    "making": 28,
    "fixture": 3,
    "ethnic": 25,
    "violence": 27,
    "warm": 4,
    "251": 11,
    "Ricky": 0,
    "Pont": 0,
    "119": 9,
    "balls": 7,
    "retiring": 4,
    "replied": 4,
    "246": 7,
    "Geoff": 0,
    "Marsh": 0,
    "impressed": 1,
    "competitive": 5,
    "made": 108,
    "sweat": 2,
    "ONE": 8,
    "ROM": 0,
    "Romanian": 0,
    "others": 15,
    "injured": 30,
    "bus": 16,
    "collided": 9,
    "Bulgarian": 0,
    "buses": 4,
    "o": 17,
    "clock": 16,
    "morning": 42,
    "road": 31,
    "towns": 11,
    "##se": 21,
    "##eli": 0,
    "##rno": 0,
    "woman": 32,
    "accident": 13,
    "investigated": 3,
    "211": 4,
    "*": 55,
    "Note": 11,
    "contents": 5,
    "displayed": 6,
    "reverse": 4,
    "order": 36,
    "printed": 5,
    "Journal": 1,
    "Regulation": 0,
    "EC": 0,
    "146": 6,
    "relating": 1,
    "invitation": 6,
    "tender": 22,
    "le": 15,
    "##vies": 1,
    "##nds": 8,
    "white": 17,
    "sugar": 5,
    "187": 4,
    "certain": 10,
    "granting": 1,
    "##pen": 2,
    "##sat": 3,
    "##ory": 1,
    "payments": 5,
    "system": 25,
    "producers": 5,
    "##rable": 4,
    "crops": 1,
    "91": 23,
    "166": 4,
    "establishing": 2,
    "standard": 4,
    "values": 9,
    "determining": 2,
    "entry": 4,
    "fruit": 2,
    "vegetables": 2,
    "Home": 7,
    "Health": 5,
    "appeal": 21,
    "denial": 2,
    "##KA": 0,
    "Min": 1,
    "District": 6,
    "Court": 2,
    "Minneapolis": 0,
    "decision": 43,
    "Care": 0,
    "Fin": 1,
    "##cing": 0,
    "Administration": 0,
    "HC": 0,
    "##FA": 1,
    "##bur": 6,
    "##dic": 1,
    "##aid": 1,
    "Administrator": 1,
    "reversed": 2,
    "previously": 11,
    "favorable": 4,
    "regarding": 7,
    "related": 11,
    "community": 16,
    "liaison": 3,
    "personnel": 7,
    "continues": 11,
    "believe": 18,
    "majority": 16,
    "cover": 8,
    "##able": 21,
    "terms": 17,
    "program": 8,
    "administrator": 4,
    "optimistic": 5,
    "ultimate": 2,
    "resolution": 9,
    "Gil": 0,
    "recorded": 5,
    "reserve": 11,
    "equal": 21,
    "revenue": 8,
    "Sep": 7,
    "##arate": 1,
    "##ly": 61,
    "ruled": 15,
    "favor": 2,
    "expenses": 3,
    "disputed": 3,
    "##rc": 1,
    "court": 51,
    "dispute": 5,
    "pleased": 6,
    "recognize": 1,
    "significant": 12,
    "toward": 6,
    "disputes": 3,
    "##des": 9,
    "312": 15,
    "##heimer": 0,
    "Oct": 12,
    "LP": 0,
    "distribution": 11,
    "quarterly": 7,
    "assuming": 1,
    "improved": 11,
    "ended": 55,
    "declared": 33,
    "partnership": 5,
    "unit": 23,
    "Best": 1,
    "sees": 9,
    "##MO": 2,
    "Products": 0,
    "Chairman": 5,
    "Chief": 5,
    "Executive": 1,
    "retailer": 6,
    "annual": 17,
    "even": 26,
    "bankruptcy": 3,
    "consideration": 1,
    "emerged": 8,
    "Chapter": 0,
    "##rup": 1,
    "##cy": 7,
    "always": 20,
    "particularly": 5,
    "you": 71,
    "something": 12,
    "##ving": 3,
    "Richmond": 0,
    "largest": 19,
    "stores": 8,
    "fall": 23,
    "closing": 10,
    "lease": 1,
    "agreements": 1,
    "plan": 55,
    "operates": 2,
    "169": 3,
    "states": 16,
    "311": 1,
    "exposure": 3,
    "bow": 5,
    "pregnant": 3,
    "babies": 3,
    "##itating": 1,
    "disorder": 2,
    "researchers": 9,
    "Swedish": 0,
    "born": 12,
    "mothers": 2,
    "caught": 19,
    "developed": 6,
    "cases": 14,
    "Wakefield": 0,
    "Free": 3,
    "School": 4,
    "Medicine": 0,
    "colleagues": 3,
    "screened": 1,
    "delivered": 9,
    "University": 1,
    "##ps": 0,
    "##ala": 0,
    "1940": 3,
    "1949": 5,
    "children": 33,
    "wrote": 10,
    "Lance": 0,
    "medical": 16,
    "journal": 4,
    "inflammation": 2,
    "sometimes": 6,
    "require": 5,
    "surgery": 14,
    "causes": 2,
    "##hoe": 1,
    "abdominal": 1,
    "pain": 7,
    "weight": 7,
    "involved": 20,
    "especially": 9,
    "severe": 4,
    "##sure": 3,
    "viruses": 2,
    "often": 16,
    "cause": 10,
    "birth": 4,
    "defects": 1,
    "Most": 7,
    "notably": 2,
    "rub": 1,
    "##ella": 2,
    "high": 51,
    "##born": 1,
    "baby": 5,
    "All": 11,
    "key": 19,
    "CB": 4,
    "industrial": 13,
    "Following": 9,
    "survey": 17,
    "manufacturing": 3,
    "Confederation": 0,
    "Industry": 2,
    "book": 15,
    "stocks": 21,
    "goods": 17,
    "expectations": 9,
    "reply": 8,
    "above": 13,
    "normal": 13,
    "below": 11,
    "companies": 30,
    "representing": 5,
    "industries": 2,
    "accounting": 4,
    "manufactured": 1,
    "employees": 12,
    "Rosemary": 0,
    "Bennett": 0,
    "##15": 7,
    "ships": 2,
    "##hand": 6,
    "ton": 27,
    "##nage": 2,
    "broker": 18,
    "vessels": 2,
    "built": 10,
    "1989": 9,
    "241": 6,
    "buyers": 5,
    "Sai": 0,
    "1982": 2,
    "Fighter": 0,
    "Some": 22,
    "subject": 11,
    "inspection": 5,
    "##lic": 3,
    "pills": 5,
    "ch": 18,
    "##ole": 10,
    "##ster": 9,
    "finds": 5,
    "studies": 4,
    "show": 15,
    "fl": 3,
    "##awed": 1,
    "doctors": 11,
    "Oxford": 0,
    "people": 176,
    "benefit": 8,
    "significantly": 1,
    "garlic": 6,
    "tablets": 3,
    "115": 11,
    "levels": 27,
    "900": 29,
    "mill": 8,
    "##rams": 1,
    "dried": 2,
    "powder": 1,
    "differences": 3,
    "groups": 29,
    "receiving": 9,
    "College": 0,
    "Physicians": 0,
    "Those": 3,
    "fat": 3,
    "diet": 4,
    "measured": 1,
    "findings": 4,
    "accurate": 1,
    "Several": 8,
    "pressure": 14,
    "either": 15,
    "trials": 3,
    "interpreted": 1,
    "incorrectly": 1,
    "special": 16,
    "duration": 1,
    "trial": 25,
    "funded": 3,
    "Heart": 0,
    "Foundation": 0,
    "##cht": 0,
    "##wer": 0,
    "Ph": 0,
    "##arma": 0,
    "GmbH": 0,
    "makes": 9,
    "##wai": 0,
    "brand": 4,
    "address": 13,
    "whole": 16,
    "affect": 6,
    "##50": 5,
    "gives": 5,
    "aid": 9,
    "volcano": 4,
    "Caribbean": 0,
    "development": 17,
    "Mont": 0,
    "much": 44,
    "population": 9,
    "living": 11,
    "south": 27,
    "fled": 8,
    "##uf": 1,
    "##rier": 1,
    "hills": 1,
    "times": 28,
    "Plymouth": 0,
    "evacuated": 3,
    "north": 43,
    "shelters": 1,
    "schools": 4,
    "assistance": 1,
    "provide": 15,
    "track": 18,
    "programme": 16,
    "designated": 2,
    "area": 39,
    "Overseas": 1,
    "Development": 1,
    "dependent": 2,
    "territories": 2,
    "active": 8,
    "##yn": 0,
    "##lk": 0,
    "recent": 38,
    "census": 2,
    "shown": 9,
    "##ians": 0,
    "remain": 15,
    "she": 110,
    "lo": 8,
    "##oms": 1,
    "Bill": 0,
    "##rot": 1,
    "Grand": 1,
    "Slam": 0,
    "##ef": 1,
    "Graf": 0,
    "aiming": 5,
    "able": 25,
    "ease": 3,
    "begins": 8,
    "opens": 11,
    "crown": 5,
    "ranked": 27,
    "ceremony": 8,
    "revealed": 3,
    "both": 59,
    "holders": 7,
    "##omi": 3,
    "##mes": 4,
    "rising": 13,
    "##venge": 2,
    "defeat": 22,
    "fireworks": 1,
    "While": 12,
    "stunning": 3,
    "upset": 4,
    "sailing": 2,
    "predictable": 1,
    "star": 12,
    "tested": 5,
    "probably": 18,
    "Natasha": 0,
    "##vere": 0,
    "repeat": 6,
    "landing": 8,
    "##ump": 1,
    "sixth": 26,
    "avoided": 7,
    "possibility": 8,
    "lock": 3,
    "horns": 1,
    "semi": 5,
    "Sur": 1,
    "##prise": 2,
    "Monica": 0,
    "Anne": 0,
    "Miller": 0,
    "victim": 10,
    "Austrian": 0,
    "seeded": 41,
    "luck": 3,
    "faces": 11,
    "playing": 27,
    "survives": 1,
    "12th": 8,
    "Perhaps": 2,
    "yet": 33,
    "unfortunate": 6,
    "pits": 3,
    "popular": 7,
    "##wed": 1,
    "farewell": 1,
    "exception": 4,
    "looks": 4,
    "comfortable": 3,
    "likes": 1,
    "nursing": 3,
    "rib": 2,
    "injury": 21,
    "path": 2,
    "runner": 9,
    "##ke": 8,
    "##ber": 1,
    "##chi": 1,
    "Martinez": 0,
    "Lindsay": 0,
    "Davenport": 0,
    "looking": 15,
    "opponents": 9,
    "encounter": 1,
    "18th": 5,
    "Amanda": 0,
    "##zer": 1,
    "young": 23,
    "talent": 2,
    "Martina": 0,
    "16th": 5,
    "probable": 2,
    "clash": 10,
    "Jana": 0,
    "Nov": 9,
    "##ot": 9,
    "##andra": 0,
    "##ago": 0,
    "1800": 14,
    "Top": 5,
    "123": 10,
    "rallies": 4,
    "constantly": 1,
    "attacking": 1,
    "tactic": 1,
    "worked": 11,
    "bye": 1,
    "along": 17,
    "seeds": 4,
    "##see": 8,
    "##ded": 9,
    "Other": 10,
    "advancing": 3,
    "Eighth": 2,
    "eliminated": 2,
    "hour": 24,
    "saved": 2,
    "point": 35,
    "break": 34,
    "13th": 6,
    "fortunate": 1,
    "marathon": 2,
    "knew": 9,
    "ranks": 4,
    "service": 38,
    "breaks": 2,
    "##nky": 1,
    "strokes": 4,
    "joking": 1,
    "chip": 8,
    "##ping": 5,
    "charging": 2,
    "serving": 9,
    "vol": 16,
    "really": 21,
    "timing": 3,
    "##line": 9,
    "chances": 6,
    "every": 12,
    "come": 31,
    "Playing": 7,
    "lights": 1,
    "maybe": 9,
    "difference": 6,
    "deficit": 24,
    "erratic": 3,
    "##ally": 13,
    "surprise": 7,
    "famous": 3,
    "ace": 1,
    "##played": 2,
    "Indianapolis": 0,
    "##away": 6,
    "Something": 1,
    "arrived": 25,
    "feeling": 4,
    "soon": 28,
    "##cus": 1,
    "calm": 2,
    "fought": 9,
    "##break": 1,
    "serves": 3,
    "hoped": 6,
    "tight": 15,
    "Then": 3,
    "##ked": 1,
    "fore": 4,
    "helped": 13,
    "Soccer": 6,
    "Korean": 0,
    "Anya": 0,
    "##nna": 0,
    "##won": 0,
    "Standing": 39,
    "drawn": 52,
    "Po": 1,
    "##hang": 1,
    "##usa": 0,
    "##ls": 2,
    "##bu": 2,
    "Senegal": 0,
    "outbreak": 7,
    "kills": 9,
    "central": 48,
    "##ck": 1,
    "Doctor": 3,
    "##gne": 0,
    "##dia": 1,
    "staff": 28,
    "overwhelmed": 1,
    "rushing": 1,
    "symptoms": 2,
    "appear": 11,
    "deaths": 3,
    "160": 12,
    "miles": 51,
    "southeast": 9,
    "##ese": 7,
    "Da": 0,
    "##kar": 0,
    "Nigerian": 0,
    "Liberia": 0,
    "Victor": 0,
    "Mal": 0,
    "commander": 15,
    "##keeping": 1,
    "latest": 29,
    "civil": 27,
    "##ien": 0,
    "officers": 18,
    "dozen": 9,
    "accord": 14,
    "difficult": 17,
    "challenging": 2,
    "painful": 5,
    "ha": 12,
    "##rassed": 2,
    "assure": 2,
    "sight": 3,
    "Nations": 0,
    "observers": 8,
    "travelling": 9,
    "western": 22,
    "##burg": 0,
    "monitor": 2,
    "delayed": 18,
    "shooting": 15,
    "highway": 6,
    "Anthony": 0,
    "##ky": 0,
    "finally": 13,
    "escort": 1,
    "faction": 11,
    "##action": 4,
    "Saturday": 126,
    "breaking": 5,
    "##sar": 10,
    "combat": 5,
    "##ants": 3,
    "Economic": 1,
    "Community": 1,
    "height": 1,
    "Guinea": 0,
    "prayer": 5,
    "broadcast": 3,
    "repeatedly": 8,
    "prosperity": 1,
    "precise": 3,
    "reason": 10,
    "clear": 32,
    "Organisation": 1,
    "Conference": 0,
    "prepare": 2,
    "reading": 4,
    "sessions": 3,
    "prayers": 7,
    "farming": 3,
    "Bad": 0,
    "##ndon": 0,
    "##ak": 0,
    "army": 42,
    "survived": 3,
    "revolt": 4,
    "veil": 2,
    "ordered": 21,
    "crack": 6,
    "corruption": 4,
    "seized": 21,
    "1984": 4,
    "death": 31,
    "Marxist": 0,
    "Tour": 1,
    "1993": 17,
    "answers": 2,
    "bottle": 6,
    "boy": 15,
    "writing": 3,
    "girl": 19,
    "whose": 23,
    "washed": 4,
    "Nelson": 0,
    "##dela": 0,
    "prison": 28,
    "Carlo": 0,
    "Hoffmann": 0,
    "son": 9,
    "beach": 4,
    "Rob": 0,
    "##ben": 0,
    "Island": 0,
    "Cape": 0,
    "Town": 0,
    "winter": 8,
    "storms": 1,
    "letter": 25,
    "ordinary": 5,
    "mail": 2,
    "post": 45,
    "Danielle": 0,
    "Murray": 0,
    "age": 7,
    "pen": 15,
    "##friend": 2,
    "whoever": 3,
    "flung": 1,
    "journey": 5,
    "Atlantic": 0,
    "Ocean": 0,
    "##ott": 0,
    "##weiler": 1,
    "##ddler": 1,
    "rot": 1,
    "dog": 5,
    "belonging": 5,
    "elderly": 4,
    "couple": 20,
    "savage": 1,
    "grandson": 4,
    "##oy": 1,
    "front": 14,
    "garden": 5,
    "grandparents": 2,
    "house": 26,
    "##der": 1,
    "##bi": 1,
    "##park": 1,
    "Johannesburg": 0,
    "His": 20,
    "bloody": 3,
    "body": 14,
    "lying": 3,
    "parents": 5,
    "pick": 5,
    "unclear": 5,
    "Dogs": 1,
    "fierce": 3,
    "enough": 14,
    "scare": 2,
    "##urg": 1,
    "##lars": 1,
    "becoming": 6,
    "increasingly": 2,
    "crime": 14,
    "##fest": 1,
    "##CA": 7,
    "updated": 3,
    "indicators": 1,
    "CP": 3,
    "##yr": 5,
    "PP": 1,
    "Current": 6,
    "MIT": 0,
    "Gross": 3,
    "390": 5,
    "Un": 8,
    "##loy": 3,
    "Budget": 2,
    "122": 5,
    "bill": 19,
    "yields": 2,
    "%": 23,
    "##mo": 8,
    "Government": 10,
    "1998": 13,
    "##BB": 2,
    "minus": 2,
    "Phelps": 0,
    "##BC": 0,
    "Thomson": 0,
    "##atch": 0,
    "plus": 11,
    "Moody": 0,
    "##tors": 8,
    "Credit": 0,
    "Rat": 8,
    "Agency": 0,
    "flow": 7,
    "Budapest": 0,
    "Fifty": 1,
    "die": 6,
    "##x": 6,
    "least": 35,
    "se": 39,
    "##par": 30,
    "##ati": 38,
    "##ech": 0,
    "##nya": 0,
    "interior": 3,
    "##cona": 1,
    "##isan": 1,
    "mission": 20,
    "clashed": 2,
    "##ut": 1,
    "Square": 0,
    "independently": 3,
    "confirmed": 27,
    "##maker": 7,
    "##bed": 1,
    "Mask": 0,
    "##had": 1,
    "##ov": 3,
    "agreement": 43,
    "hostilities": 1,
    "noon": 5,
    "##00": 20,
    "detachment": 1,
    "1500": 4,
    "rage": 2,
    "1600": 2,
    "outnumbered": 1,
    "school": 26,
    "##girl": 4,
    "##mail": 3,
    "textbooks": 2,
    "letters": 5,
    "threatening": 12,
    "explained": 6,
    "money": 41,
    "extract": 2,
    "z": 4,
    "##ys": 10,
    "residents": 11,
    "##era": 1,
    "##wi": 5,
    "lives": 8,
    "nearby": 9,
    "##sk": 0,
    "railway": 7,
    "Interview": 1,
    "psychologist": 1,
    "books": 19,
    "clothes": 3,
    "##mie": 3,
    "case": 36,
    "poor": 26,
    "family": 17,
    "##age": 11,
    "offenders": 4,
    "120": 19,
    "index": 43,
    "broad": 3,
    "measure": 3,
    "e": 20,
    "##quities": 2,
    "ten": 2,
    "sector": 23,
    "##al": 27,
    "##dices": 5,
    "banking": 3,
    "242": 10,
    "sign": 19,
    "Boris": 0,
    "##lts": 0,
    "security": 53,
    "renewed": 6,
    "document": 9,
    "negotiated": 5,
    "village": 24,
    "officially": 4,
    "disclosed": 2,
    "##ss": 1,
    "provided": 5,
    "##ga": 3,
    "##gement": 1,
    "aide": 9,
    "Talk": 2,
    "detailed": 3,
    "Press": 2,
    "Bar": 1,
    "##kha": 0,
    "##tov": 2,
    "br": 7,
    "##isk": 1,
    "mood": 3,
    "completed": 26,
    "signature": 2,
    "showed": 30,
    "clip": 1,
    "laughing": 1,
    "smiling": 2,
    "nominee": 5,
    "inaugurated": 1,
    "returned": 24,
    "##lin": 7,
    "lake": 1,
    "##lands": 1,
    "northwestern": 4,
    "Bosnia": 0,
    "Sarajevo": 0,
    "Bosnian": 0,
    "federation": 9,
    "launches": 2,
    "common": 18,
    "taxes": 6,
    "din": 1,
    "k": 30,
    "##una": 6,
    "Deutsche": 1,
    "currency": 20,
    "introduced": 14,
    "Refuge": 1,
    "##laced": 0,
    "Persons": 0,
    "##mar": 1,
    "survivors": 4,
    "massacre": 7,
    "Sr": 0,
    "##ui": 1,
    "##shing": 3,
    "laborers": 1,
    "Serbian": 0,
    "mines": 5,
    "According": 9,
    "400": 39,
    "male": 3,
    "mine": 11,
    "Aleksandr": 0,
    "##ova": 3,
    "##VN": 0,
    "Slovenian": 0,
    "briefly": 6,
    "##tain": 6,
    "Ljubljana": 0,
    "cancel": 4,
    "Mari": 0,
    "##bor": 0,
    "overnight": 19,
    "raids": 4,
    "pounded": 1,
    "planes": 5,
    "artillery": 5,
    "calmed": 1,
    "although": 17,
    "##poradic": 2,
    "explosions": 1,
    "heard": 11,
    "correspondent": 2,
    "Lawrence": 0,
    "speaking": 6,
    "Yu": 0,
    "arrival": 6,
    "flew": 11,
    "firing": 7,
    "anything": 14,
    "clinched": 2,
    "##sts": 20,
    "halt": 7,
    "threatened": 14,
    "bombing": 6,
    "assault": 13,
    "Boat": 1,
    "passengers": 30,
    "rescued": 8,
    "Colombian": 0,
    "coast": 10,
    "Coast": 0,
    "Guard": 0,
    "boat": 18,
    "Pacific": 0,
    "missing": 14,
    "tiny": 4,
    "##rgon": 0,
    "southwest": 4,
    "sights": 2,
    "##eers": 2,
    "trip": 31,
    "fuel": 8,
    "Navy": 0,
    "Lt": 1,
    "coconut": 3,
    "rain": 27,
    "##water": 2,
    "sea": 9,
    "towed": 2,
    "##uen": 0,
    "##aven": 0,
    "##tura": 0,
    "Argentine": 0,
    "raw": 2,
    "steel": 4,
    "AI": 1,
    "Steel": 0,
    "Center": 0,
    "Primary": 2,
    "iron": 6,
    "700": 26,
    "##minate": 3,
    "production": 35,
    "Production": 2,
    "cold": 7,
    "Webb": 0,
    "Buenos": 0,
    "Aires": 0,
    "##55": 1,
    "Peru": 0,
    "kill": 10,
    "jungle": 3,
    "Peruvian": 0,
    "northeastern": 3,
    "anti": 13,
    "terrorist": 6,
    "sources": 18,
    "Mao": 0,
    "Shin": 0,
    "Path": 0,
    "small": 30,
    "345": 3,
    "550": 2,
    "northeast": 6,
    "Lima": 0,
    "villagers": 2,
    "listen": 1,
    "propaganda": 7,
    "speeches": 3,
    "centre": 27,
    "passing": 4,
    "##ists": 5,
    "slogan": 3,
    "By": 6,
    "whereabouts": 1,
    "severely": 3,
    "weakened": 4,
    "capture": 4,
    "stepping": 2,
    "activities": 8,
    "conflicts": 4,
    "cost": 23,
    "damage": 18,
    "infrastructure": 4,
    "1980": 6,
    "Former": 16,
    "##ina": 1,
    "##boy": 2,
    "##ant": 6,
    "##iname": 0,
    "Ron": 0,
    "custody": 9,
    "charged": 26,
    "attempted": 6,
    "murder": 19,
    "turned": 22,
    "himself": 24,
    "Freddy": 0,
    "##nas": 0,
    "visitor": 3,
    "room": 10,
    "bra": 3,
    "##wl": 3,
    "mining": 6,
    "Moe": 0,
    "east": 14,
    "##aja": 0,
    "##dha": 0,
    "showing": 8,
    "cuts": 13,
    "bruises": 2,
    "feared": 4,
    "Jungle": 0,
    "Command": 1,
    "shoot": 4,
    "objected": 1,
    "advances": 3,
    "wife": 25,
    "bodyguard": 2,
    "charges": 31,
    "merely": 5,
    "defended": 1,
    "less": 24,
    "thief": 1,
    "##ocks": 1,
    "uprising": 2,
    "regime": 7,
    "conflict": 13,
    "caused": 16,
    "thousands": 13,
    "flee": 4,
    "neighbouring": 11,
    "Guiana": 0,
    "1980s": 6,
    "eventually": 5,
    "paved": 1,
    "Despite": 6,
    "numerous": 2,
    "businessman": 5,
    "logging": 3,
    "interests": 11,
    "manages": 3,
    "occasionally": 1,
    "saw": 24,
    "leads": 10,
    "Thai": 1,
    "heroin": 10,
    "hide": 6,
    "##KO": 1,
    "Hong": 0,
    "Kong": 0,
    "carpenter": 1,
    "arrested": 50,
    "seas": 1,
    "Pat": 1,
    "kg": 11,
    "complaints": 4,
    "noisy": 2,
    "Cheung": 0,
    "searched": 5,
    "bags": 2,
    "hidden": 3,
    "hollow": 1,
    "spaces": 1,
    "wooden": 3,
    "hired": 3,
    "Police": 39,
    "several": 48,
    "escaping": 1,
    "door": 2,
    "street": 8,
    "Official": 11,
    "hunting": 6,
    "collaborators": 2,
    "detained": 9,
    "pending": 5,
    "formal": 8,
    "Down": 0,
    "follows": 6,
    "friction": 1,
    "nations": 7,
    "Qi": 0,
    "##chen": 0,
    "consul": 7,
    "sovereignty": 2,
    "colony": 6,
    "strained": 3,
    "sell": 28,
    "uranium": 1,
    "issues": 19,
    "affecting": 2,
    "include": 13,
    "plans": 43,
    "pact": 16,
    "Canberra": 0,
    "Tibet": 0,
    "exiled": 5,
    "spiritual": 4,
    "Lama": 0,
    "conservative": 9,
    "##cc": 17,
    "##use": 3,
    "##AB": 2,
    "##eller": 3,
    "Information": 2,
    "undertaking": 4,
    "distribute": 4,
    "written": 12,
    "critics": 6,
    "self": 10,
    "deals": 17,
    "anyone": 7,
    "legal": 20,
    "destroy": 1,
    "Am": 8,
    "##kka": 0,
    "owner": 7,
    "##lus": 2,
    "copies": 7,
    "Edward": 0,
    "Said": 0,
    "prominent": 4,
    "scholar": 2,
    "citizen": 6,
    "origin": 4,
    "outspoken": 2,
    "critic": 5,
    "confiscated": 6,
    "Director": 3,
    "##wa": 0,
    "##kel": 0,
    "##ha": 1,
    "insisted": 5,
    "Authority": 0,
    "strategy": 5,
    "suppress": 1,
    "freedom": 6,
    "expression": 1,
    "whatsoever": 2,
    "##lev": 2,
    "##ent": 8,
    "legislation": 3,
    "resulted": 6,
    "mistakes": 5,
    "explain": 6,
    "journalists": 7,
    "writers": 2,
    "authors": 1,
    "Seal": 0,
    "banned": 14,
    "shop": 2,
    "sure": 5,
    "selling": 9,
    "think": 39,
    "afraid": 1,
    "?": 13,
    "Strip": 0,
    "Jewish": 0,
    "handed": 15,
    "parts": 8,
    "blame": 9,
    "Istanbul": 0,
    "tower": 4,
    "carrier": 4,
    "airport": 34,
    "Boeing": 0,
    "##hot": 1,
    "runway": 2,
    "fire": 29,
    "taxi": 5,
    "skipped": 1,
    "onto": 9,
    "line": 27,
    "Mohamed": 0,
    "##ahi": 0,
    "Ray": 0,
    "##yan": 0,
    "conference": 36,
    "instead": 7,
    "250": 10,
    "yards": 6,
    "steep": 3,
    "aviation": 5,
    "noted": 14,
    "pilot": 6,
    "misleading": 1,
    "rains": 8,
    "Its": 7,
    "wet": 4,
    "brake": 1,
    "medium": 4,
    "wrong": 3,
    "private": 31,
    "##hl": 0,
    "wants": 13,
    "nothing": 15,
    "Sudan": 0,
    "rulers": 2,
    "Egyptian": 0,
    "shelter": 3,
    "militants": 11,
    "##bara": 0,
    "speech": 11,
    "##sle": 0,
    "##dis": 2,
    "Security": 6,
    "Council": 2,
    "flights": 10,
    "incident": 12,
    "effect": 14,
    "fails": 6,
    "##dit": 5,
    "cannot": 11,
    "Ethiopia": 0,
    "eager": 1,
    "whatever": 2,
    "academics": 2,
    "Front": 0,
    "bitter": 2,
    "terrorists": 4,
    "##ort": 4,
    "far": 26,
    "relations": 18,
    "ostensibly": 1,
    "shares": 98,
    "shed": 8,
    "profit": 74,
    "##ding": 3,
    "amid": 6,
    "178": 6,
    "volume": 23,
    "trillion": 9,
    "Prof": 2,
    "actually": 4,
    "reaction": 3,
    "rise": 28,
    "tomorrow": 2,
    "##cin": 0,
    "##tun": 0,
    "##roke": 3,
    "approached": 3,
    "cheap": 2,
    "attracted": 2,
    "pierced": 1,
    "session": 14,
    "gained": 11,
    "utility": 2,
    "##uku": 0,
    "##rov": 0,
    "Of": 7,
    "218": 6,
    "loser": 3,
    "stable": 9,
    "##75": 6,
    "Miss": 0,
    "Universe": 0,
    "hides": 1,
    "silence": 3,
    "##eran": 0,
    "##UC": 1,
    "Alicia": 0,
    "Mac": 0,
    "Mexico": 0,
    "questions": 6,
    "claims": 7,
    "crash": 10,
    "Los": 0,
    "Angeles": 0,
    "slipping": 2,
    "desert": 1,
    "Las": 0,
    "##ces": 1,
    "attended": 7,
    "Teen": 0,
    "USA": 0,
    "pageant": 3,
    "contestant": 1,
    "scrutiny": 1,
    "##mat": 4,
    "drop": 13,
    "losing": 17,
    "swollen": 1,
    "wisdom": 1,
    "teeth": 2,
    "extracted": 1,
    "Marta": 0,
    "##rdo": 0,
    "weighed": 2,
    "Vegas": 0,
    "habits": 1,
    "Everybody": 1,
    "addiction": 2,
    "eats": 1,
    "cakes": 1,
    "crazy": 2,
    "Organ": 4,
    "flatly": 1,
    "wraps": 1,
    "blocked": 5,
    "access": 4,
    "##essed": 1,
    "strap": 1,
    "gown": 1,
    "heavier": 3,
    "contestants": 1,
    "##ave": 2,
    "reviews": 2,
    "appearance": 5,
    "stage": 26,
    "Are": 1,
    "kidding": 1,
    "fantastic": 1,
    "Nikki": 0,
    "Very": 1,
    "sexy": 1,
    "stay": 21,
    "promotional": 1,
    "sponsors": 3,
    "returning": 5,
    "Sept": 19,
    "Beauty": 1,
    "queen": 3,
    "profile": 3,
    "personalities": 1,
    "alleged": 11,
    "page": 3,
    "eased": 3,
    "##lge": 1,
    "passion": 1,
    "cake": 1,
    "putting": 7,
    "fine": 9,
    "wished": 2,
    "happened": 8,
    "mentally": 1,
    "te": 9,
    "##fic": 7,
    "lifestyle": 1,
    "associated": 5,
    "routine": 5,
    "exercise": 4,
    "ability": 3,
    "type": 4,
    "regiment": 2,
    "##out": 16,
    "exist": 1,
    "don": 1,
    "talked": 1,
    "##vor": 2,
    "attends": 1,
    "suicide": 10,
    "bringing": 6,
    "Missouri": 0,
    "suffering": 10,
    "multiple": 6,
    "##cle": 4,
    "##rosis": 4,
    "emergency": 14,
    "##nos": 0,
    "Pontiac": 0,
    "##ath": 2,
    "Patricia": 0,
    "Smith": 0,
    "Summit": 0,
    "##day": 7,
    "para": 7,
    "##sed": 3,
    "assisted": 2,
    "37th": 4,
    "attending": 7,
    "starting": 14,
    "##rus": 1,
    "##ade": 2,
    "doctor": 7,
    "lawyer": 11,
    "Geoffrey": 0,
    "##ege": 3,
    "husband": 17,
    "father": 13,
    "James": 0,
    "patients": 3,
    "location": 3,
    "rapidly": 3,
    "##ult": 3,
    "Louise": 0,
    "##yo": 11,
    "##tro": 16,
    "##phic": 1,
    "lateral": 1,
    "Lou": 0,
    "##eh": 1,
    "##rig": 1,
    "Judith": 0,
    "Massachusetts": 0,
    "suffered": 18,
    "chronic": 4,
    "fatigue": 2,
    "syndrome": 1,
    "terminal": 1,
    "life": 23,
    "##view": 0,
    "Ann": 5,
    "##nce": 6,
    "Issue": 4,
    "TX": 0,
    "Sale": 8,
    "Ex": 12,
    "##pect": 6,
    "Municipal": 0,
    "1650": 6,
    "##fia": 2,
    "neo": 0,
    "Nazi": 0,
    "jailed": 10,
    "Gray": 0,
    "sentenced": 10,
    "Lau": 0,
    "pumping": 1,
    "##mist": 4,
    "Lincoln": 0,
    "Nebraska": 0,
    "yelled": 1,
    "abuse": 8,
    "conviction": 3,
    "##citing": 1,
    "racial": 3,
    "hatred": 1,
    "struggle": 8,
    "shouted": 3,
    "escorted": 2,
    "arguing": 1,
    "client": 2,
    "offence": 3,
    "hailed": 3,
    "Nazis": 0,
    "network": 9,
    "Semitic": 0,
    "material": 14,
    "flowing": 3,
    "1970s": 3,
    "possessed": 1,
    "machine": 4,
    "##ned": 12,
    "presiding": 1,
    "judge": 11,
    "Bert": 0,
    "##ram": 1,
    "cannon": 2,
    "praising": 2,
    "Hitler": 0,
    "greatest": 7,
    "describing": 1,
    "slaughter": 7,
    "millions": 12,
    "Jews": 0,
    "myth": 2,
    "##ager": 1,
    "bars": 3,
    "complex": 5,
    "prosecutor": 7,
    "##urus": 0,
    "offences": 3,
    "demanded": 9,
    "satisfied": 6,
    "sentence": 7,
    "Publishing": 1,
    "distributing": 2,
    "illegal": 26,
    "argued": 2,
    "laws": 5,
    "meant": 4,
    "produce": 8,
    "##was": 1,
    "covered": 5,
    "magazines": 8,
    "videos": 3,
    "flags": 2,
    "Interior": 5,
    "Manfred": 0,
    "welcomed": 4,
    "prosecution": 2,
    "ring": 4,
    "##leader": 1,
    "biggest": 16,
    "vicious": 3,
    "racist": 2,
    "publications": 1,
    "Social": 2,
    "Democrats": 0,
    "dressed": 3,
    "sober": 2,
    "blue": 6,
    "suit": 10,
    "sporting": 2,
    "trademark": 1,
    "##que": 1,
    "##che": 1,
    "emotion": 1,
    "spent": 11,
    "explaining": 1,
    "blurted": 1,
    "virtually": 4,
    "##com": 20,
    "##hen": 3,
    "##sible": 2,
    "##be": 9,
    "Neither": 4,
    "Socialist": 7,
    "nor": 9,
    "communists": 4,
    "dared": 1,
    "kidnap": 9,
    "oblique": 1,
    "reference": 4,
    "##dition": 9,
    "truth": 7,
    "attorney": 4,
    "Hans": 0,
    "Otto": 0,
    "courtroom": 1,
    "judges": 3,
    "actions": 7,
    "carried": 9,
    "obsessed": 2,
    "devoted": 2,
    "Workers": 3,
    "##AP": 2,
    "derives": 1,
    "name": 20,
    "During": 4,
    "dealt": 3,
    "Battle": 0,
    "Cry": 0,
    "magazine": 6,
    "references": 1,
    "##ryan": 0,
    "supremacy": 1,
    "def": 12,
    "##tory": 2,
    "statements": 2,
    "rejected": 2,
    "argument": 4,
    "request": 11,
    "convicted": 13,
    "##sse": 1,
    "##mina": 1,
    "##ting": 32,
    "symbols": 1,
    "constitutional": 4,
    "organisations": 7,
    "arrest": 18,
    "sub": 12,
    "##tracted": 1,
    "occur": 3,
    "arrangements": 5,
    "implement": 2,
    "quite": 10,
    "##pec": 3,
    "##ulate": 1,
    "preparations": 1,
    "anxious": 1,
    "##tary": 4,
    "##sus": 1,
    "##kas": 0,
    "sooner": 1,
    "monitors": 11,
    "carry": 10,
    "Department": 0,
    "Human": 4,
    "##itarian": 0,
    "deputy": 17,
    "speculated": 4,
    "##spect": 2,
    "killers": 4,
    "bishop": 3,
    "Algeria": 0,
    "TV": 5,
    "Algerian": 0,
    "suspected": 14,
    "killing": 22,
    "sought": 15,
    "slain": 2,
    "assassination": 4,
    "Roman": 0,
    "Catholic": 0,
    "Bishop": 1,
    "Pierre": 0,
    "##erie": 2,
    "##ret": 1,
    "Algiers": 0,
    "110": 13,
    "foreigners": 7,
    "pit": 7,
    "radical": 7,
    "Islam": 0,
    "commanding": 9,
    "flown": 7,
    "table": 11,
    "shows": 8,
    "volumes": 3,
    "handled": 1,
    "airports": 11,
    "exclude": 4,
    "truck": 20,
    "##ight": 6,
    "association": 5,
    "Berlin": 0,
    "##hof": 0,
    "202": 10,
    "##feld": 0,
    "Bremen": 0,
    "Dresden": 0,
    "Due": 2,
    "##dorf": 0,
    "Frankfurt": 0,
    "240": 3,
    "Han": 0,
    "##nov": 0,
    "Cologne": 0,
    "182": 2,
    "Leipzig": 0,
    "Halle": 0,
    "Munich": 0,
    "##rue": 1,
    "Nuremberg": 0,
    "##cke": 0,
    "113": 8,
    "Air": 1,
    "Car": 0,
    "Tel": 3,
    "161": 12,
    "##ax": 8,
    "501": 5,
    "repeats": 1,
    "##ego": 0,
    "research": 10,
    "Company": 5,
    "Not": 7,
    "forecast": 37,
    "performance": 15,
    "##iter": 6,
    "##ates": 6,
    "##imate": 3,
    "EP": 14,
    "##vide": 6,
    "##40": 6,
    "Clinton": 0,
    "##nio": 0,
    "fans": 12,
    "resort": 7,
    "##wind": 3,
    "Irish": 0,
    "America": 0,
    "Dick": 0,
    "Spring": 3,
    "convention": 26,
    "bring": 8,
    "##cards": 2,
    "waved": 2,
    "addressed": 7,
    "packed": 7,
    "Dublin": 0,
    "backs": 2,
    "requested": 3,
    "us": 35,
    "guests": 1,
    "Frank": 0,
    "##uilt": 0,
    "triumph": 6,
    "process": 29,
    "observe": 2,
    "assurance": 2,
    "Wolfgang": 0,
    "##ching": 1,
    "assured": 2,
    "valid": 3,
    "##rima": 0,
    "pledge": 3,
    "seek": 18,
    "solution": 9,
    "Cooperation": 0,
    "q": 16,
    "##uo": 4,
    "Klaus": 0,
    "personal": 6,
    "urge": 4,
    "threat": 8,
    "##aut": 2,
    "initiative": 3,
    "intention": 2,
    "positive": 18,
    "##iman": 0,
    "responsible": 13,
    "global": 6,
    "nuclear": 28,
    "treaty": 24,
    "Delhi": 0,
    "intended": 6,
    "##ral": 1,
    "block": 9,
    "adoption": 1,
    "Geneva": 0,
    "entering": 13,
    "signing": 7,
    "kind": 4,
    "weapons": 20,
    "1974": 4,
    "##pert": 2,
    "assemble": 1,
    "veto": 2,
    "Comprehensive": 0,
    "Ban": 0,
    "Treaty": 0,
    "bilateral": 10,
    "visual": 1,
    "straining": 1,
    "text": 3,
    "position": 27,
    "clause": 5,
    "providing": 4,
    "modified": 1,
    "Ask": 6,
    "forward": 20,
    "Assembly": 0,
    "bridge": 2,
    "cross": 13,
    "##ated": 12,
    "objections": 3,
    "negotiation": 2,
    "fact": 18,
    "weapon": 6,
    "##mony": 1,
    "concerns": 8,
    "impossible": 6,
    "option": 6,
    "exercised": 1,
    "restraint": 1,
    "carrying": 23,
    "tests": 11,
    "lone": 3,
    "accept": 13,
    "constraints": 1,
    "rely": 1,
    "##als": 3,
    "sour": 1,
    "Bangladeshi": 0,
    "Dhaka": 0,
    "Bangladesh": 0,
    "attached": 1,
    "importance": 5,
    "tragic": 1,
    "##aj": 0,
    "Mia": 0,
    "Commonwealth": 0,
    "Affairs": 6,
    "Liam": 0,
    "Fox": 0,
    "##tion": 13,
    "arriving": 6,
    "bore": 1,
    "injuries": 13,
    "relatives": 4,
    "complained": 6,
    "murdered": 4,
    "tortured": 1,
    "drunk": 5,
    "wrist": 8,
    "act": 14,
    "seriously": 6,
    "reasons": 9,
    "important": 22,
    "relationship": 3,
    "leave": 24,
    "Nepal": 0,
    "governments": 6,
    "House": 0,
    "Commons": 0,
    "matter": 5,
    "thorough": 1,
    "investigation": 10,
    "outcome": 5,
    "harassment": 1,
    "nationals": 4,
    "Criminal": 0,
    "Investigation": 0,
    "immigration": 4,
    "connection": 8,
    "business": 41,
    "suburb": 4,
    "disrupt": 4,
    "Kashmir": 0,
    "polls": 17,
    "SR": 1,
    "planning": 9,
    "troubled": 7,
    "Jammu": 0,
    "seems": 5,
    "##jit": 0,
    "Gupta": 0,
    "##nagar": 0,
    "1987": 6,
    "clamped": 1,
    "direct": 12,
    "##bet": 1,
    "mi": 8,
    "##lit": 5,
    "##ancy": 1,
    "valley": 2,
    "##abad": 0,
    "##rating": 3,
    "create": 10,
    "disturbance": 2,
    "noticed": 1,
    "among": 17,
    "growing": 13,
    "mercenaries": 1,
    "independence": 27,
    "1947": 5,
    "Dev": 0,
    "hopes": 7,
    "restore": 3,
    "##ity": 14,
    "ins": 10,
    "##urgency": 3,
    "Over": 10,
    "militant": 4,
    "engineering": 6,
    "banks": 22,
    "edged": 8,
    "sharply": 6,
    "institutional": 2,
    "investors": 23,
    "Stock": 4,
    "Exchange": 0,
    "DS": 0,
    "156": 7,
    "turnover": 6,
    "remained": 19,
    "unchanged": 14,
    "228": 5,
    "Eastern": 0,
    "Cable": 0,
    "Tanner": 0,
    "recovered": 8,
    "edge": 6,
    "covering": 3,
    "ratio": 6,
    "Reserve": 1,
    "bank": 57,
    "governor": 19,
    "##nga": 1,
    "maintained": 5,
    "reduced": 9,
    "yes": 2,
    "addressing": 2,
    "industrialist": 1,
    "having": 23,
    "theoretical": 1,
    "supply": 14,
    "instrument": 1,
    "regulate": 2,
    "reducing": 1,
    "increasing": 6,
    "context": 1,
    "stood": 8,
    "commitment": 5,
    "response": 9,
    "##20": 16,
    "##24": 1,
    "viable": 1,
    "Governor": 1,
    "gross": 13,
    "product": 14,
    "GDP": 10,
    "sustainable": 2,
    "cu": 10,
    "##rr": 1,
    "##rent": 5,
    "real": 12,
    "reduction": 5,
    "Bombay": 0,
    "265": 4,
    "Mother": 1,
    "Teresa": 0,
    "##LC": 0,
    "Saint": 1,
    "Nobel": 0,
    "Prize": 0,
    "1979": 3,
    "hope": 18,
    "dignity": 2,
    "unwanted": 2,
    "simple": 3,
    "love": 9,
    "heap": 2,
    "honours": 3,
    "regards": 1,
    "saint": 1,
    "nun": 6,
    "Albanian": 0,
    "descent": 1,
    "maintains": 2,
    "joy": 2,
    "f": 64,
    "##ulf": 2,
    "neglected": 2,
    "need": 23,
    "sympathy": 2,
    "pity": 2,
    "compassion": 2,
    "dim": 5,
    "##utive": 1,
    "missionary": 5,
    "respiratory": 1,
    "intensive": 5,
    "Indian": 0,
    "heart": 16,
    "turns": 3,
    "conscious": 3,
    "condition": 19,
    "task": 8,
    "alone": 6,
    "##lums": 1,
    "densely": 1,
    "populated": 1,
    "Calcutta": 0,
    "grew": 5,
    "hearts": 2,
    "characteristic": 1,
    "##worthy": 2,
    "shower": 7,
    "##hara": 1,
    "Jewel": 0,
    "highest": 7,
    "award": 6,
    "##ior": 2,
    "fitted": 2,
    "pace": 8,
    "Vatican": 0,
    "Superior": 1,
    "Mission": 0,
    "##aries": 2,
    "Charity": 0,
    "More": 17,
    "delegates": 9,
    "elect": 10,
    "successor": 3,
    "agree": 4,
    "bacterial": 2,
    "pneumonia": 2,
    "Rome": 0,
    "ribs": 1,
    "receive": 6,
    "malaria": 4,
    "complicated": 1,
    "lung": 4,
    "fractured": 2,
    "collar": 2,
    "bone": 4,
    "##rail": 2,
    "art": 3,
    "##itis": 6,
    "failing": 7,
    "eyes": 4,
    "stopped": 9,
    "travels": 1,
    "min": 4,
    "##gle": 3,
    "desperate": 2,
    "Agnes": 0,
    "Serbia": 0,
    "1910": 1,
    "deeply": 1,
    "religious": 13,
    "hoping": 2,
    "Order": 4,
    "Abbey": 0,
    "begin": 13,
    "##tia": 1,
    "teach": 1,
    "geography": 1,
    "convent": 2,
    "divine": 1,
    "1946": 1,
    "belonged": 1,
    "superior": 1,
    "approved": 14,
    "training": 11,
    "missionaries": 9,
    "##lum": 1,
    "Child": 1,
    "Jesus": 0,
    "simply": 3,
    "dying": 3,
    "Hindu": 0,
    "rest": 25,
    "Named": 1,
    "##rmal": 0,
    "##rida": 0,
    "chain": 4,
    "150": 19,
    "homes": 14,
    "des": 9,
    "##tu": 9,
    "admitting": 1,
    "founded": 7,
    "documentary": 1,
    "mixture": 1,
    "##yper": 4,
    "##uli": 4,
    "Catholics": 0,
    "alien": 2,
    "boost": 19,
    "Bernard": 0,
    "##ckey": 1,
    "Media": 3,
    "baron": 1,
    "Rupert": 0,
    "Murdoch": 0,
    "Ltd": 0,
    "profits": 21,
    "film": 10,
    "Independence": 0,
    "Day": 0,
    "97": 36,
    "From": 5,
    "perspective": 3,
    "begun": 10,
    "promise": 4,
    "motion": 6,
    "picture": 6,
    "announcing": 3,
    "mode": 8,
    "solid": 6,
    "orders": 19,
    "advertising": 10,
    "Broadcasting": 0,
    "budget": 43,
    "attain": 1,
    "##oth": 1,
    "shareholders": 14,
    "abnormal": 3,
    "cents": 57,
    "Ana": 7,
    "disappointing": 9,
    "outlook": 8,
    "First": 13,
    "Lac": 0,
    "Drummond": 0,
    "offset": 6,
    "publishing": 4,
    "divisions": 1,
    "##fty": 1,
    "Asian": 0,
    "operations": 10,
    "Higher": 2,
    "##print": 2,
    "Throughout": 1,
    "operating": 11,
    "Times": 0,
    "Advertising": 1,
    "revenues": 7,
    "surprises": 1,
    "insert": 2,
    "Guide": 0,
    "dramatically": 1,
    "arm": 7,
    "Harper": 0,
    "Collins": 0,
    "healthy": 4,
    "operation": 18,
    "demise": 1,
    "Book": 0,
    "Agreement": 0,
    "hurt": 10,
    "San": 0,
    "minimum": 6,
    "setting": 5,
    "expired": 3,
    "publishers": 1,
    "pulled": 14,
    "spotlight": 1,
    "##state": 2,
    "internal": 7,
    "declined": 19,
    "04": 30,
    "soft": 3,
    "savings": 4,
    "RB": 0,
    "slash": 2,
    "useful": 2,
    "contribution": 3,
    "realised": 5,
    "raising": 6,
    "consolidation": 2,
    "und": 7,
    "restrict": 3,
    "ambiguous": 1,
    "Coalition": 0,
    "underlying": 3,
    "pledged": 7,
    "Det": 1,
    "##ermined": 1,
    "credible": 1,
    "favourable": 1,
    "effects": 5,
    "activity": 14,
    "generally": 10,
    "saving": 4,
    "tend": 3,
    "promote": 2,
    "investment": 17,
    "lowering": 1,
    "NZ": 0,
    "fixed": 5,
    "lending": 10,
    "cutting": 5,
    "responding": 3,
    "wholesale": 2,
    "##xed": 2,
    "Wellington": 0,
    "##34": 2,
    "Power": 0,
    "##val": 4,
    "##uation": 2,
    "reflected": 3,
    "extensions": 1,
    "##span": 1,
    "consistent": 4,
    "approach": 5,
    "followed": 15,
    "prevent": 12,
    "##ative": 1,
    "equipment": 7,
    "##grading": 2,
    "undertaken": 1,
    "disclosure": 2,
    "requirements": 4,
    "Commerce": 0,
    "hunt": 7,
    "Thailand": 0,
    "launched": 14,
    "Bangkok": 0,
    "awaiting": 3,
    "drug": 25,
    "possession": 2,
    "##lake": 0,
    "Victoria": 0,
    "##cess": 4,
    "escape": 7,
    "outskirts": 1,
    "massive": 5,
    "confident": 8,
    "##iv": 3,
    "##ction": 2,
    "trafficking": 5,
    "##rill": 1,
    "cell": 2,
    "window": 5,
    "climbed": 6,
    "metre": 4,
    "foot": 19,
    "wall": 4,
    "rope": 2,
    "bed": 9,
    "sheets": 1,
    "correction": 2,
    "department": 9,
    "##bing": 2,
    "inmates": 2,
    "chained": 1,
    "##outs": 2,
    "Australians": 0,
    "Tokyo": 0,
    "parent": 5,
    "Year": 14,
    "ye": 30,
    "specified": 6,
    "ACT": 5,
    "Sales": 12,
    "specialised": 1,
    "manufacturer": 4,
    "wear": 2,
    "HK": 0,
    "certificate": 1,
    "privately": 4,
    "placed": 10,
    "sole": 1,
    "arranger": 1,
    "Markets": 2,
    "facility": 3,
    "tenor": 1,
    "pays": 2,
    "coup": 11,
    "basis": 16,
    "Off": 3,
    "##ered": 6,
    "Rate": 3,
    "Clear": 1,
    "Money": 0,
    "##market": 2,
    "Unit": 0,
    "##47": 5,
    "##39": 2,
    "ni": 16,
    "usage": 1,
    "chicken": 2,
    "##biotic": 1,
    "applications": 5,
    "believes": 6,
    "cancer": 2,
    "breed": 2,
    "##mill": 1,
    "##bide": 1,
    "respect": 6,
    "safety": 6,
    "Chu": 0,
    "maximum": 6,
    "2000": 15,
    "##KS": 9,
    "watch": 5,
    "Indonesian": 0,
    "Jakarta": 0,
    "involving": 12,
    "Mega": 0,
    "##put": 3,
    "Around": 3,
    "stationed": 2,
    "demons": 5,
    "##tra": 14,
    "streak": 14,
    "tobacco": 4,
    "beating": 6,
    "composite": 1,
    "bargain": 2,
    "##liner": 3,
    "##iah": 14,
    "trading": 42,
    "Pack": 1,
    "##aging": 2,
    "Super": 2,
    "##dah": 0,
    "offer": 23,
    "##kt": 0,
    "wholly": 3,
    "subsidiary": 5,
    "Singapore": 0,
    "listed": 5,
    "Der": 1,
    "Private": 1,
    "obtaining": 2,
    "fresh": 4,
    "syndicated": 1,
    "loans": 5,
    "management": 20,
    "##shu": 2,
    "##ffle": 4,
    "equity": 4,
    "build": 12,
    "property": 15,
    "projects": 5,
    "worth": 19,
    "##aba": 0,
    "stock": 38,
    "movements": 3,
    "exchanges": 3,
    "change": 26,
    "dates": 4,
    "Also": 6,
    "Japanese": 0,
    "pound": 28,
    "gold": 27,
    "##ion": 7,
    "closes": 7,
    "brackets": 1,
    "134": 5,
    "Jun": 3,
    "Apr": 4,
    "204": 5,
    "Feb": 3,
    "Dollar": 2,
    "##35": 2,
    "Pound": 1,
    "ounce": 6,
    "AND": 21,
    "##HS": 1,
    "Nik": 0,
    "Dec": 8,
    "##dina": 2,
    "##ries": 10,
    "340": 4,
    "Hang": 0,
    "Sen": 3,
    "201": 2,
    "hail": 2,
    "##ost": 1,
    "##islav": 0,
    "celebrates": 1,
    "Soviet": 0,
    "achievement": 2,
    "effectively": 5,
    "blow": 8,
    "empire": 3,
    "centuries": 2,
    "Tajikistan": 0,
    "achievements": 1,
    "preservation": 1,
    "harmony": 1,
    "Leon": 0,
    "televised": 2,
    "Unlike": 2,
    "situations": 2,
    "peaceful": 3,
    "initially": 8,
    "accompanied": 7,
    "inflation": 11,
    "collapse": 4,
    "signs": 7,
    "turn": 14,
    "##around": 1,
    "##lation": 4,
    "respectable": 1,
    "economy": 24,
    "grow": 4,
    "solemn": 1,
    "Palace": 0,
    "turning": 2,
    "reforms": 7,
    "doubt": 8,
    "##bert": 0,
    "##nob": 0,
    "##eta": 1,
    "Fund": 0,
    "proud": 2,
    "postponed": 9,
    "replace": 9,
    "ka": 3,
    "##nets": 3,
    "##ble": 11,
    "trades": 4,
    "introduce": 2,
    "Pro": 16,
    "promptly": 2,
    "NATO": 0,
    "Partnership": 0,
    "policy": 29,
    "##rang": 3,
    "##ending": 3,
    "unofficial": 3,
    "delegation": 3,
    "protest": 24,
    "Kiev": 0,
    "##dy": 2,
    "##ven": 11,
    "##cting": 1,
    "seeing": 4,
    "itself": 6,
    "##ising": 10,
    "eastern": 21,
    "strategic": 12,
    "aim": 3,
    "integration": 1,
    "economically": 1,
    "oriented": 2,
    "though": 14,
    "circles": 2,
    "push": 5,
    "membership": 5,
    "associate": 4,
    "grouping": 2,
    "closer": 4,
    "con": 31,
    "##gra": 2,
    "##lated": 5,
    "anniversary": 5,
    "promising": 4,
    "stab": 6,
    "##ilis": 10,
    "factor": 6,
    "united": 6,
    "Old": 2,
    "disappears": 2,
    "century": 10,
    "earliest": 2,
    "example": 9,
    "disappeared": 2,
    "archives": 1,
    "##pta": 0,
    "##jon": 0,
    "dating": 3,
    "155": 1,
    "discovered": 3,
    "1740": 1,
    "seminary": 1,
    "published": 15,
    "language": 7,
    "sons": 1,
    "lame": 3,
    "##nted": 3,
    "Musa": 0,
    "Ham": 0,
    "##iti": 0,
    "library": 3,
    "grateful": 2,
    "##venting": 1,
    "##co": 7,
    "##pies": 2,
    "##lamp": 1,
    "adopt": 5,
    "concerned": 8,
    "viewing": 1,
    "disguised": 3,
    "##kova": 0,
    "Committee": 0,
    "exported": 4,
    "##port": 3,
    "Bart": 2,
    "actual": 1,
    "issued": 13,
    "decree": 10,
    "regulation": 4,
    "substantially": 1,
    "situation": 16,
    "traders": 21,
    "obliged": 3,
    "180": 9,
    "fines": 1,
    "##sta": 1,
    "loop": 1,
    "##hole": 3,
    "##ckling": 3,
    "technical": 7,
    "##ities": 12,
    "feature": 3,
    "imp": 13,
    "##etus": 1,
    "popped": 1,
    "preferred": 5,
    "reliable": 1,
    "transfer": 3,
    "systems": 8,
    "various": 7,
    "sorts": 2,
    "##fers": 1,
    "experienced": 4,
    "ones": 3,
    "Dmitry": 0,
    "Solo": 0,
    "Via": 0,
    "sequel": 4,
    "Paramount": 0,
    "Pictures": 0,
    "Cruise": 0,
    "##buster": 2,
    "Impossible": 0,
    "release": 19,
    "Variety": 0,
    "screen": 3,
    "version": 9,
    "spy": 3,
    "grossed": 1,
    "175": 8,
    "Forrest": 0,
    "plot": 4,
    "roles": 1,
    "co": 23,
    "producer": 5,
    "Academy": 0,
    "Award": 0,
    "screenwriter": 1,
    "Goldman": 0,
    "write": 3,
    "script": 2,
    "Brian": 0,
    "Palma": 0,
    "Oscar": 0,
    "Butch": 0,
    "Cassidy": 0,
    "Sundance": 0,
    "Kid": 1,
    "criticised": 5,
    "entertaining": 3,
    "movie": 2,
    "batsman": 5,
    "endure": 1,
    "##rust": 1,
    "##suming": 4,
    "quest": 2,
    "maiden": 2,
    "Heavy": 3,
    "##riz": 1,
    "##zle": 1,
    "improvement": 7,
    "weather": 14,
    "umpire": 4,
    "announce": 10,
    "141": 5,
    "131": 6,
    "event": 16,
    "unbeaten": 5,
    "spotted": 3,
    "##tr": 1,
    "##ming": 3,
    "dressing": 1,
    "damp": 2,
    "patches": 1,
    "square": 6,
    "brighter": 2,
    "bowled": 5,
    "1900": 1,
    "##GI": 0,
    "##IX": 5,
    "practice": 2,
    "Gerhard": 0,
    "Berger": 0,
    "##etto": 1,
    "seconds": 92,
    "##hard": 0,
    "McLaren": 0,
    "Jacques": 0,
    "Ville": 0,
    "##uve": 0,
    "Heinz": 0,
    "Harald": 0,
    "##zen": 1,
    "##esi": 0,
    "101": 10,
    "Damon": 0,
    "Hill": 0,
    "281": 3,
    "Schumacher": 0,
    "333": 3,
    "##dle": 2,
    "385": 4,
    "##uben": 0,
    "Barr": 1,
    "##iche": 0,
    "Herbert": 0,
    "Olivier": 0,
    "##gie": 0,
    "[": 5,
    "]": 5,
    "##bat": 4,
    "##ini": 6,
    "Kat": 0,
    "##arina": 0,
    "Karin": 0,
    "##bs": 12,
    "##udo": 0,
    "##cts": 3,
    "Portsmouth": 0,
    "Queens": 0,
    "##mere": 0,
    "Grimsby": 0,
    "Stirling": 0,
    "Albion": 0,
    "Hard": 0,
    "194": 1,
    "##och": 1,
    "105": 7,
    "Robinson": 0,
    "Hooper": 0,
    "Pen": 4,
    "##hy": 2,
    "Curran": 0,
    "310": 7,
    "##nton": 0,
    "Lam": 0,
    "##pit": 0,
    "181": 6,
    "109": 12,
    "162": 8,
    "##bro": 0,
    "##ther": 0,
    "##OP": 3,
    "Shaun": 0,
    "Poll": 1,
    "##ock": 0,
    "ankle": 4,
    "county": 11,
    "returns": 5,
    "swap": 3,
    "counties": 1,
    "##plain": 1,
    "premature": 3,
    "departure": 3,
    "##oid": 1,
    "106": 17,
    "295": 4,
    "wicket": 18,
    "229": 4,
    "Middlesbrough": 0,
    "Italian": 0,
    "##ab": 3,
    "##elli": 0,
    "sponsor": 1,
    "shirt": 4,
    "seen": 37,
    "Every": 4,
    "grey": 1,
    "haired": 2,
    "pulls": 1,
    "salute": 1,
    "spectacle": 1,
    "Having": 1,
    "celebrate": 3,
    "fun": 7,
    "besides": 1,
    "chest": 5,
    "##vated": 2,
    "Chelsea": 0,
    "Forest": 0,
    "Bryan": 0,
    "Robson": 0,
    "##ssie": 0,
    "reached": 26,
    "victories": 3,
    "noteworthy": 1,
    "advanced": 8,
    "eliminating": 2,
    "Americans": 0,
    "##came": 2,
    "getting": 6,
    "handle": 2,
    "pretty": 7,
    "easily": 3,
    "Put": 1,
    "things": 16,
    "missed": 7,
    "Before": 4,
    "felt": 16,
    "midnight": 9,
    "wake": 1,
    "routines": 1,
    "happier": 1,
    "person": 9,
    "aggressive": 6,
    "wind": 5,
    "affected": 8,
    "ATP": 0,
    "Haven": 0,
    "285": 4,
    "hitting": 10,
    "ball": 22,
    "mental": 4,
    "competing": 3,
    "lot": 23,
    "shots": 7,
    "Still": 4,
    "ma": 8,
    "##rve": 1,
    "##lling": 2,
    "exciting": 1,
    "stroke": 3,
    "joked": 3,
    "Today": 4,
    "mostly": 15,
    "##GB": 1,
    "SEC": 10,
    "##ap": 1,
    "##lder": 0,
    "Pre": 4,
    "##toria": 0,
    "##rban": 0,
    "spa": 2,
    "fitness": 2,
    "bruised": 2,
    "thigh": 1,
    "##af": 1,
    "means": 11,
    "Trans": 0,
    "cap": 4,
    "alongside": 3,
    "colleague": 3,
    "Dani": 0,
    "##wy": 0,
    "Wing": 2,
    "Pieter": 0,
    "speculation": 10,
    "shortly": 14,
    "denote": 2,
    "##ings": 12,
    "##jay": 0,
    "Gang": 0,
    "##BI": 5,
    "##mis": 1,
    "Rubin": 0,
    "Championships": 0,
    "##tis": 4,
    "##lined": 5,
    "##fort": 2,
    "##une": 2,
    "lucky": 2,
    "assignments": 1,
    "17th": 5,
    "player": 22,
    "moved": 12,
    "slot": 2,
    "notable": 1,
    "withdrawal": 4,
    "Mary": 0,
    "Pierce": 0,
    "20th": 5,
    "Meredith": 0,
    "McGrath": 0,
    "Becker": 0,
    "540": 1,
    "425": 8,
    "##head": 2,
    "SL": 6,
    "##iol": 0,
    "##yer": 3,
    "##iring": 1,
    "slam": 7,
    "routed": 2,
    "tag": 7,
    "pair": 17,
    "##ere": 0,
    "##aux": 0,
    "Brady": 0,
    "Anderson": 0,
    "walked": 16,
    "none": 8,
    "struck": 26,
    "Charlton": 0,
    "batter": 8,
    "seal": 1,
    "Ken": 0,
    "##riff": 0,
    "Jr": 0,
    "Edgar": 0,
    "stroked": 1,
    "Rocky": 0,
    "##pping": 1,
    "Jay": 0,
    "##uh": 0,
    "advantage": 11,
    "Right": 2,
    "touched": 1,
    "Things": 1,
    "wild": 7,
    "card": 7,
    "heading": 5,
    "pitches": 3,
    "dwell": 2,
    "Troy": 0,
    "Leary": 0,
    "foul": 4,
    "pole": 3,
    "Roger": 0,
    "##lem": 2,
    "shut": 18,
    "pinch": 7,
    "Matt": 0,
    "##air": 0,
    "triple": 5,
    "##sley": 0,
    "Stein": 0,
    "du": 2,
    "longest": 4,
    "majors": 6,
    "pitched": 6,
    "##lie": 2,
    "##piece": 5,
    "Edmond": 0,
    "highlighted": 2,
    "battered": 3,
    "Rogers": 0,
    "outs": 5,
    "##core": 4,
    "Travis": 0,
    "Fry": 0,
    "doubled": 4,
    "Melvin": 0,
    "##eves": 2,
    "claimed": 13,
    "handing": 2,
    "halted": 2,
    "Thompson": 0,
    "Bel": 0,
    "##cher": 0,
    "route": 8,
    "hot": 9,
    "contests": 2,
    "yielded": 2,
    "Erik": 0,
    "Hanson": 0,
    "##due": 2,
    "Fernandez": 0,
    "Jacob": 0,
    "##rum": 6,
    "Otis": 0,
    "blank": 7,
    "shortened": 2,
    "Sporting": 0,
    "Luis": 0,
    "##osa": 2,
    "Lisbon": 0,
    "cruise": 4,
    "##ho": 1,
    "drilled": 2,
    "Although": 12,
    "##sir": 0,
    "35th": 5,
    "restored": 5,
    "##iga": 0,
    "38th": 5,
    "##aph": 0,
    "reigning": 5,
    "Porto": 0,
    "##fica": 0,
    "Portuguese": 0,
    "tipped": 1,
    "candidates": 8,
    "relegation": 2,
    "produced": 8,
    "Bundesliga": 0,
    "raced": 2,
    "cushion": 2,
    "afterwards": 3,
    "Springer": 0,
    "thanks": 5,
    "##bot": 1,
    "##rsten": 0,
    "##eron": 0,
    "##zzling": 2,
    "##so": 0,
    "Hai": 0,
    "##ela": 0,
    "##nge": 0,
    "##ille": 0,
    "##hon": 1,
    "34th": 2,
    "##mot": 0,
    "Nancy": 0,
    "Germain": 0,
    "Warner": 0,
    "##lana": 0,
    "Master": 0,
    "smashed": 2,
    "mile": 5,
    "Zurich": 0,
    "ate": 2,
    "swift": 3,
    "lap": 17,
    "##have": 1,
    "Mozambique": 0,
    "stadium": 7,
    "pushed": 6,
    "finishing": 4,
    "bonus": 5,
    "historic": 4,
    "capacity": 8,
    "dominated": 5,
    "middle": 6,
    "distance": 9,
    "races": 2,
    "Atlanta": 0,
    "mater": 1,
    "##nity": 1,
    "richest": 1,
    "slashed": 2,
    "##ilo": 5,
    "fort": 1,
    "##night": 3,
    "laid": 1,
    "comparable": 1,
    "surface": 3,
    "softer": 4,
    "enjoyed": 2,
    "gear": 3,
    "strides": 1,
    "pointing": 2,
    "delight": 2,
    "crossed": 2,
    "Evolution": 1,
    "##ted": 39,
    "##ach": 0,
    "##tel": 0,
    "adjusted": 4,
    "129": 6,
    "130": 8,
    "132": 2,
    "Diego": 0,
    "133": 3,
    "Willis": 0,
    "Ames": 0,
    "Trinidad": 0,
    "Tobago": 0,
    "Cole": 0,
    "Chapman": 0,
    "135": 3,
    "Mason": 0,
    "Barry": 0,
    "Lane": 0,
    "Webster": 0,
    "UP": 9,
    "##MP": 6,
    "Dennis": 0,
    "Mitchell": 0,
    "ups": 5,
    "##tage": 3,
    "trio": 4,
    "present": 9,
    "customary": 1,
    "bright": 5,
    "outfit": 3,
    "scalp": 1,
    "Donovan": 0,
    "Bailey": 0,
    "Christie": 0,
    "1988": 6,
    "lucrative": 1,
    "sport": 5,
    "blocks": 1,
    "burst": 4,
    "celebration": 3,
    "bronze": 6,
    "medal": 14,
    "##list": 7,
    "Bold": 0,
    "limp": 3,
    "hurdles": 13,
    "##ied": 5,
    "brilliant": 4,
    "01": 28,
    "Colin": 0,
    "Jackson": 0,
    "fastest": 6,
    "##dler": 2,
    "Kingdom": 0,
    "seemed": 6,
    "##lish": 1,
    "dominating": 1,
    "faster": 6,
    "stepped": 9,
    "##quist": 0,
    "crashed": 10,
    "footing": 1,
    "silver": 4,
    "##ita": 0,
    "##uk": 0,
    "Jamaican": 0,
    "Michelle": 0,
    "Freeman": 0,
    "Cuban": 0,
    "Ali": 0,
    "Lopez": 0,
    "jack": 2,
    "##pot": 3,
    "Golden": 0,
    "Seven": 6,
    "prize": 4,
    "##kins": 0,
    "alive": 4,
    "Gail": 0,
    "##rlene": 0,
    "##tte": 0,
    "settle": 6,
    "Gwen": 0,
    "Torre": 1,
    "costly": 2,
    "athletics": 3,
    "disc": 4,
    "##lina": 0,
    "Diet": 0,
    "Natal": 0,
    "Met": 0,
    "Bergman": 0,
    "Nicole": 0,
    "Olga": 0,
    "##ern": 0,
    "##skaya": 0,
    "##rina": 0,
    "##enko": 0,
    "Jamaica": 0,
    "Cuba": 0,
    "Dion": 0,
    "##udi": 1,
    "Julie": 0,
    "Dawn": 0,
    "Bowl": 0,
    "Emilio": 0,
    "Hubert": 0,
    "##ard": 3,
    "Lisa": 0,
    "##beth": 0,
    "Roberta": 0,
    "##ibe": 1,
    "Sally": 0,
    "##sio": 0,
    "Kenya": 0,
    "Paula": 0,
    "Radcliffe": 0,
    "Julia": 0,
    "##aque": 0,
    "Catherine": 0,
    "##ier": 1,
    "Annette": 0,
    "Peters": 0,
    "Pauline": 0,
    "Davidson": 0,
    "##zin": 0,
    "Nigeria": 0,
    "Samuel": 0,
    "##ete": 1,
    "Zambia": 1,
    "##oh": 1,
    "##rance": 0,
    "##cs": 20,
    "Calvin": 0,
    "Laurent": 0,
    "Doll": 0,
    "##end": 4,
    "##orf": 0,
    "##yal": 0,
    "##aines": 0,
    "##hanna": 0,
    "Natalia": 0,
    "##nova": 0,
    "Juliet": 0,
    "Cuthbert": 0,
    "Regina": 0,
    "Carla": 0,
    "Sacramento": 0,
    "##kat": 0,
    "##erina": 0,
    "##yev": 0,
    "Crowley": 0,
    "Leah": 0,
    "Sarah": 0,
    "Thor": 0,
    "##sett": 1,
    "Sin": 0,
    "##ead": 0,
    "Del": 4,
    "##chase": 2,
    "Joseph": 0,
    "Sang": 0,
    "Moses": 0,
    "Gideon": 0,
    "##rch": 1,
    "##hat": 0,
    "Mills": 0,
    "##uan": 10,
    "Uganda": 0,
    "Samson": 0,
    "Kit": 0,
    "Richardson": 0,
    "##ouse": 0,
    "Frankie": 0,
    "Frederick": 0,
    "Namibia": 2,
    "Stevens": 0,
    "Garcia": 0,
    "##yme": 4,
    "##ont": 0,
    "##gor": 0,
    "##za": 0,
    "##eer": 1,
    "##ae": 6,
    "##gh": 1,
    "##eon": 0,
    "##ora": 4,
    "##rland": 0,
    "Jacqueline": 0,
    "##rand": 0,
    "Chandra": 0,
    "##und": 1,
    "##agi": 0,
    "##ali": 1,
    "##chu": 0,
    "##gin": 0,
    "Cathy": 0,
    "Marie": 0,
    "##ec": 5,
    "##lat": 4,
    "##gun": 7,
    "Fat": 0,
    "##ima": 1,
    "Mai": 0,
    "##cel": 0,
    "Malone": 0,
    "Khalid": 0,
    "Bob": 0,
    "##hs": 0,
    "##yar": 0,
    "##ured": 1,
    "##dine": 0,
    "Dub": 0,
    "Virgil": 0,
    "##hul": 0,
    "##ass": 5,
    "##ili": 2,
    "##pt": 1,
    "##kh": 0,
    "##ac": 2,
    "##lava": 0,
    "##ika": 0,
    "##llen": 0,
    "##beck": 0,
    "jump": 9,
    "Edwards": 0,
    "##vis": 2,
    "Que": 0,
    "Bermuda": 0,
    "Harrison": 0,
    "Francis": 0,
    "##gy": 2,
    "##ogel": 0,
    "##jer": 0,
    "Isaac": 0,
    "Vic": 0,
    "##ios": 0,
    "Tan": 0,
    "Elijah": 0,
    "Sullivan": 0,
    "Mayo": 0,
    "Lab": 0,
    "##otic": 0,
    "##stad": 0,
    "Baba": 0,
    "##ale": 0,
    "Kazakhstan": 0,
    "##lena": 0,
    "Hanna": 0,
    "##ele": 1,
    "##rga": 0,
    "##zig": 0,
    "##uru": 1,
    "Mathias": 0,
    "##lik": 0,
    "##ura": 0,
    "Rwanda": 0,
    "Abel": 0,
    "Anton": 0,
    "##ase": 2,
    "Work": 1,
    "Paulo": 0,
    "Juventus": 0,
    "member": 26,
    "Oliveira": 0,
    "coaches": 2,
    "Bai": 0,
    "Santos": 0,
    "Held": 0,
    "##risto": 0,
    "Secret": 0,
    "##ario": 0,
    "##ix": 0,
    "##uto": 0,
    "##oso": 0,
    "Ricardo": 0,
    "Forward": 2,
    "Domingo": 0,
    "##ao": 0,
    "Cadet": 0,
    "Train": 1,
    "##og": 7,
    "faith": 1,
    "entire": 7,
    "friendly": 11,
    "Instead": 3,
    "nominated": 5,
    "veterans": 2,
    "Jen": 0,
    "##dt": 1,
    "however": 11,
    "##iber": 1,
    "Matthias": 0,
    "##mer": 1,
    "##fen": 1,
    "##eu": 1,
    "defender": 18,
    "Schneider": 0,
    "formally": 7,
    "ll": 19,
    "themselves": 6,
    "Oliver": 0,
    "Kahn": 0,
    "Markus": 0,
    "##bbe": 0,
    "##uter": 0,
    "Mario": 0,
    "##sler": 0,
    "##ilt": 0,
    "##ess": 5,
    "##ller": 0,
    "##hm": 5,
    "##hol": 0,
    "##hoff": 0,
    "##lins": 0,
    "##WS": 2,
    "draws": 3,
    "cup": 7,
    "x": 2,
    "Olympia": 0,
    "Warsaw": 0,
    "indicates": 3,
    "competitions": 1,
    "Club": 3,
    "Casino": 1,
    "##raz": 1,
    "##ker": 1,
    "##sik": 0,
    "##len": 0,
    "##bee": 0,
    "Alan": 0,
    "Vlad": 0,
    "##rcle": 0,
    "healed": 1,
    "Lankan": 0,
    "guilty": 10,
    "##mper": 6,
    "spin": 5,
    "##ith": 0,
    "##aran": 0,
    "throwing": 5,
    "controversial": 6,
    "proper": 1,
    "##jun": 0,
    "Rana": 0,
    "eve": 4,
    "XI": 1,
    "Cam": 0,
    "##ters": 1,
    "excellent": 5,
    "Colombo": 0,
    "heavy": 15,
    "##keeper": 1,
    "##aly": 0,
    "Angola": 0,
    "proposing": 2,
    "definite": 1,
    "generals": 2,
    "joint": 11,
    "formation": 3,
    "Unity": 0,
    "circulation": 2,
    "peoples": 2,
    "guaranteed": 4,
    "administration": 15,
    "installed": 7,
    "deputies": 1,
    "occupy": 2,
    "delays": 4,
    "occupation": 3,
    "dem": 2,
    "##tar": 2,
    "substituted": 3,
    "Do": 2,
    "proposes": 3,
    "definitive": 2,
    "timetable": 7,
    "tasks": 3,
    "obligations": 2,
    "sending": 5,
    "##vise": 4,
    "execution": 2,
    "estimates": 11,
    "##cor": 1,
    "McCarthy": 0,
    "125": 18,
    "##hold": 1,
    "172": 2,
    "170": 9,
    "Group": 9,
    "111": 8,
    "##oo": 2,
    "Ulster": 0,
    "Petroleum": 0,
    "falls": 5,
    "232": 6,
    "167": 11,
    "Bureau": 0,
    "j": 12,
    "##eo": 6,
    "##pard": 5,
    "##ize": 1,
    "restrictions": 2,
    "circumstances": 4,
    "discuss": 21,
    "tier": 3,
    "fever": 8,
    "handful": 4,
    "##ross": 0,
    "720": 2,
    "##pion": 0,
    "##rals": 0,
    "junior": 10,
    "exploration": 3,
    "properties": 2,
    "changing": 5,
    "hands": 13,
    "eyebrows": 2,
    "aware": 4,
    "developments": 5,
    "formed": 6,
    "Exploration": 1,
    "upgraded": 2,
    "##ington": 0,
    "Research": 1,
    "Associates": 0,
    "##uff": 0,
    "##ett": 0,
    "Property": 0,
    "stake": 15,
    "Omaha": 0,
    "billionaire": 1,
    "Warren": 0,
    "Trust": 0,
    "filing": 2,
    "Securities": 0,
    "estate": 2,
    "trust": 3,
    "ranging": 4,
    "holding": 9,
    "purchased": 2,
    "investor": 2,
    "Berkshire": 0,
    "Hat": 0,
    "##haw": 0,
    "holds": 5,
    "investments": 5,
    "large": 15,
    "reach": 6,
    "allow": 6,
    "Airlines": 0,
    "operate": 6,
    "Transportation": 0,
    "Miami": 0,
    "shift": 5,
    "weekly": 12,
    "gateway": 1,
    "design": 1,
    "permitted": 1,
    "add": 11,
    "Category": 1,
    "##ditional": 2,
    "status": 11,
    "Aviation": 0,
    "Safety": 0,
    "services": 26,
    "routes": 1,
    "airlines": 3,
    "resolved": 3,
    "arose": 3,
    "propose": 2,
    "##vian": 0,
    "AC": 0,
    "Clean": 1,
    "tanker": 1,
    "fixtures": 2,
    "##quiries": 4,
    "1754": 1,
    "##polis": 0,
    "##eas": 0,
    "##PC": 0,
    "##19": 2,
    "##bul": 0,
    "Rainbow": 0,
    "Okinawa": 0,
    "190": 4,
    "Pembroke": 0,
    "##14": 3,
    "##ente": 0,
    "Croix": 0,
    "Hess": 0,
    "AP": 7,
    "options": 19,
    "##26": 2,
    "##acity": 3,
    "Samsung": 0,
    "SK": 0,
    "##NR": 0,
    "##sea": 0,
    "Chase": 0,
    "##16": 3,
    "##bon": 0,
    "Neptune": 0,
    "185": 4,
    "##lma": 0,
    "##CM": 0,
    "##80": 4,
    "sacks": 1,
    "golfer": 1,
    "sacked": 2,
    "##rmon": 0,
    "Akron": 0,
    "ways": 4,
    "mentor": 2,
    "drawing": 1,
    "tournaments": 3,
    "blonde": 1,
    "ad": 11,
    "##rift": 2,
    "##aki": 0,
    "worst": 10,
    "circuit": 2,
    "application": 4,
    "strange": 1,
    "Maybe": 6,
    "Sometimes": 2,
    "your": 17,
    "perform": 3,
    "Tai": 0,
    "fields": 5,
    "Pole": 0,
    "Arabs": 0,
    "1961": 1,
    "loyal": 2,
    "crowds": 5,
    "thing": 12,
    "promoted": 6,
    "Beta": 0,
    "Jerusalem": 0,
    "supporter": 2,
    "coached": 4,
    "closely": 5,
    "Death": 4,
    "marred": 3,
    "treatment": 8,
    "stone": 2,
    "driving": 10,
    "hearing": 7,
    "##unts": 1,
    "Same": 0,
    "resident": 2,
    "Hebrew": 0,
    "words": 1,
    "nobody": 1,
    "##hem": 2,
    "##ently": 2,
    "dusty": 1,
    "lacks": 1,
    "amenities": 1,
    "communities": 2,
    "discrimination": 3,
    "parks": 1,
    "empty": 4,
    "load": 5,
    "Aviv": 0,
    "ram": 3,
    "##ckle": 1,
    "seat": 12,
    "accessible": 1,
    "dirt": 2,
    "tracks": 5,
    "situated": 1,
    "elsewhere": 5,
    "Rahman": 0,
    "mayor": 6,
    "hopefully": 2,
    "refurbished": 1,
    "meantime": 2,
    "coastal": 4,
    "waiter": 1,
    "represents": 1,
    "withdrawn": 1,
    "##stein": 0,
    "Football": 0,
    "Liverpool": 0,
    "replacement": 9,
    "Damien": 0,
    "Lynch": 0,
    "660": 2,
    "##33": 2,
    "hopeful": 5,
    "runners": 1,
    "Rapid": 0,
    "Fen": 0,
    "##bah": 0,
    "Turin": 0,
    "##rafford": 0,
    "1990s": 2,
    "consistently": 3,
    "crashing": 3,
    "Barcelona": 0,
    "Trophy": 0,
    "1968": 4,
    "Wembley": 0,
    "conquer": 1,
    "ill": 8,
    "fate": 6,
    "1985": 2,
    "Hey": 0,
    "robbery": 4,
    "suspects": 10,
    "##koto": 0,
    "Shell": 0,
    "stealing": 2,
    "na": 5,
    "merchant": 1,
    "expulsion": 3,
    "imminent": 2,
    "Rep": 1,
    "##ria": 2,
    "refugees": 51,
    "##aire": 0,
    "lobby": 4,
    "Innocent": 0,
    "Rally": 0,
    "Return": 0,
    "Democracy": 0,
    "##DR": 0,
    "##tus": 0,
    "appealed": 2,
    "termed": 2,
    "##human": 2,
    "Orthodox": 1,
    "blown": 5,
    "##eur": 1,
    "Serb": 0,
    "orthodox": 2,
    "damaged": 4,
    "##ada": 1,
    "destroyed": 5,
    "casualties": 8,
    "find": 20,
    "##rators": 4,
    "hint": 3,
    "##erland": 2,
    "Serbs": 0,
    "Yugoslav": 0,
    "styled": 1,
    "proclaimed": 1,
    "minority": 12,
    "recaptured": 1,
    "vacant": 1,
    "##pop": 2,
    "##ulated": 2,
    "reserves": 7,
    "assets": 11,
    "256": 2,
    "510": 1,
    "tighten": 3,
    "intelligence": 4,
    "organised": 9,
    "##gni": 1,
    "##ew": 1,
    "##emia": 0,
    "Helmut": 0,
    "chancel": 1,
    "sealed": 5,
    "links": 5,
    "##zard": 0,
    "##nc": 0,
    "style": 7,
    "smuggling": 2,
    "radioactive": 1,
    "materials": 8,
    "observing": 1,
    "Rebel": 1,
    "fighters": 6,
    "soldiers": 18,
    "effective": 11,
    "gunfire": 2,
    "echoed": 1,
    "withdraw": 3,
    "mountains": 4,
    "relatively": 6,
    "##hab": 0,
    "beard": 1,
    "wearing": 2,
    "ca": 11,
    "##lage": 1,
    "trousers": 1,
    "Soon": 1,
    "rocked": 1,
    "courtyard": 1,
    "tank": 6,
    "roared": 1,
    "swept": 4,
    "##points": 1,
    "roads": 7,
    "soldier": 12,
    "##aro": 0,
    "dark": 8,
    "hair": 3,
    "poking": 2,
    "peaked": 1,
    "camouflage": 3,
    "overhead": 1,
    "flare": 2,
    "patrols": 4,
    "##ptic": 2,
    "try": 9,
    "closure": 3,
    "Independent": 0,
    "Weather": 1,
    "Gran": 0,
    "poised": 3,
    "landmark": 2,
    "##aving": 1,
    "Balkans": 0,
    "aboard": 5,
    "jet": 10,
    "counterparts": 2,
    "1000": 3,
    "endorsed": 2,
    "assessed": 3,
    "crucial": 4,
    "##sol": 4,
    "ensuring": 3,
    "restoration": 1,
    "print": 3,
    "internationally": 2,
    "recognised": 2,
    "borders": 4,
    "ends": 10,
    "##cession": 3,
    "powers": 10,
    "regard": 2,
    "twin": 1,
    "pillars": 1,
    "multinational": 1,
    "lasting": 2,
    "Abd": 0,
    "##uca": 0,
    "presidential": 18,
    "palace": 5,
    "different": 14,
    "blacks": 3,
    "exclusively": 1,
    "potent": 1,
    "protocol": 2,
    "peasant": 1,
    "sectors": 5,
    "elected": 11,
    "pop": 4,
    "platform": 5,
    "cultures": 2,
    "##ean": 0,
    "nation": 25,
    "indigenous": 2,
    "##craft": 4,
    "Amazon": 0,
    "##lying": 1,
    "waters": 4,
    "bid": 25,
    "difficulties": 8,
    "transportation": 3,
    "vast": 5,
    "##way": 1,
    "capable": 2,
    "tons": 2,
    "ferry": 9,
    "huge": 11,
    "river": 8,
    "##ways": 1,
    "distances": 1,
    "##sang": 0,
    "Donald": 0,
    "i": 6,
    "Muhammad": 0,
    "##ata": 0,
    "Ari": 0,
    "##bow": 0,
    "Deputy": 10,
    "Don": 0,
    "Birch": 0,
    "##pel": 5,
    "bread": 9,
    "riots": 11,
    "passed": 12,
    "peacefully": 2,
    "demonstrations": 2,
    "Ibrahim": 0,
    "attach": 3,
    "duties": 4,
    "##tible": 4,
    "norms": 3,
    "implying": 1,
    "spying": 5,
    "notified": 2,
    "##lusion": 1,
    "comment": 26,
    "assistant": 5,
    "##hala": 0,
    "expelled": 3,
    "tension": 8,
    "King": 12,
    "defect": 2,
    "##ions": 1,
    "##iated": 1,
    "##pelling": 1,
    "secure": 7,
    "flared": 3,
    "hundred": 4,
    "lingered": 1,
    "Omar": 0,
    "mosque": 4,
    "shouting": 1,
    "##sper": 2,
    "forming": 1,
    "enforced": 1,
    "loose": 4,
    "loud": 5,
    "##eak": 1,
    "Allah": 0,
    "Akbar": 1,
    "Greatest": 1,
    "##win": 0,
    "pulpit": 1,
    "##ees": 1,
    "houses": 15,
    "Armoured": 1,
    "streets": 11,
    "traditional": 5,
    "communist": 8,
    "ideology": 1,
    "socialism": 1,
    "1950s": 2,
    "guarded": 2,
    "entrances": 1,
    "hill": 1,
    "famed": 2,
    "Crusade": 1,
    "castle": 1,
    "crowded": 3,
    "smaller": 7,
    "clashes": 11,
    "quietly": 1,
    "riot": 6,
    "involvement": 4,
    "policies": 7,
    "##ship": 2,
    "##ision": 1,
    "protests": 15,
    "##ships": 1,
    "Anatolia": 0,
    "autonomy": 8,
    "southeastern": 3,
    "planted": 2,
    "exploded": 4,
    "fights": 1,
    "Leaders": 2,
    "mediated": 0,
    "##kes": 1,
    "##lyn": 0,
    "Davies": 0,
    "contacts": 5,
    "##zan": 0,
    "implementation": 4,
    "Assistant": 2,
    "Near": 0,
    "##elle": 7,
    "##ify": 5,
    "pursue": 5,
    "reconciliation": 3,
    "##pelled": 1,
    "wound": 4,
    "capturing": 2,
    "opposing": 2,
    "unite": 4,
    "mountainous": 3,
    "teen": 2,
    "##lumber": 2,
    "knife": 4,
    "neighbour": 5,
    "apparently": 8,
    "intent": 6,
    "sexual": 5,
    "invaded": 2,
    "teenage": 3,
    "girls": 20,
    "Came": 0,
    "subdivision": 1,
    "Virginia": 0,
    "entered": 16,
    "sexually": 5,
    "Detective": 2,
    "Chesapeake": 0,
    "Curtis": 0,
    "II": 1,
    "adults": 1,
    "detective": 5,
    "sketch": 2,
    "teenagers": 4,
    "reportedly": 3,
    "downstairs": 2,
    "watching": 4,
    "allegedly": 9,
    "teenager": 3,
    "sleeping": 2,
    "upstairs": 2,
    "commotion": 1,
    "confronted": 3,
    "stabbed": 7,
    "once": 17,
    "ass": 3,
    "##ail": 3,
    "mole": 2,
    "identified": 7,
    "##lick": 0,
    "USD": 0,
    "monitoring": 6,
    "##ox": 4,
    "Dan": 0,
    "corn": 6,
    "perennial": 1,
    "problematic": 1,
    "vomit": 3,
    "wheat": 26,
    "Republican": 0,
    "##ld": 1,
    "Senate": 0,
    "##ann": 0,
    "incumbent": 5,
    "Kerry": 0,
    "vote": 37,
    "FM": 0,
    "facing": 7,
    "Cambridge": 0,
    "friend": 9,
    "Tracy": 0,
    "Roosevelt": 0,
    "politics": 7,
    "granddaughter": 1,
    "Franklin": 0,
    "friends": 5,
    "descendant": 1,
    "Theodore": 0,
    "Ava": 1,
    "freight": 7,
    "kilometres": 4,
    "##ei": 2,
    "##ght": 1,
    "transport": 8,
    "Staff": 1,
    "Fuel": 4,
    "Flight": 1,
    "fees": 1,
    "##SC": 1,
    "Rice": 4,
    "Show": 3,
    "inch": 9,
    "mm": 6,
    "locally": 3,
    "coverage": 3,
    "##olate": 2,
    "High": 6,
    "isolated": 5,
    "##aria": 2,
    "clouds": 1,
    "Part": 1,
    "cloud": 1,
    "Low": 2,
    "Little": 0,
    "##OK": 2,
    "thunder": 2,
    "##storm": 3,
    "##ature": 2,
    "Source": 1,
    "Corporation": 0,
    "curb": 2,
    "Tamil": 0,
    "stamp": 1,
    "soil": 4,
    "directed": 6,
    "##ament": 1,
    "prevailing": 2,
    "framework": 4,
    "##rate": 2,
    "coordinator": 4,
    "counter": 4,
    "terrorism": 9,
    "Wilcox": 0,
    "finance": 10,
    "Liberation": 0,
    "king": 8,
    "leaves": 4,
    "##ire": 0,
    "##ndra": 0,
    "ascending": 1,
    "throne": 3,
    "1972": 3,
    "monarch": 3,
    "Jiang": 0,
    "Premier": 5,
    "Prakash": 0,
    "##hani": 0,
    "Him": 0,
    "##alaya": 0,
    "sandwich": 4,
    "traditionally": 3,
    "giant": 5,
    "neighbours": 8,
    "Queen": 5,
    "Tibetan": 0,
    "##hasa": 0,
    "##qing": 0,
    "servant": 4,
    "Nepali": 0,
    "bound": 5,
    "employer": 4,
    "Mad": 0,
    "##hus": 0,
    "informed": 4,
    "##light": 4,
    "locks": 1,
    "concealed": 3,
    "##hee": 0,
    "employed": 3,
    "steal": 2,
    "belongings": 1,
    "Post": 2,
    "vols": 2,
    "##group": 1,
    "##lity": 10,
    "falling": 8,
    "##mark": 3,
    "trader": 13,
    "##lter": 1,
    "floors": 2,
    "size": 7,
    "perhaps": 5,
    "historically": 1,
    "specialist": 3,
    "##ugh": 0,
    "##unds": 0,
    "makers": 7,
    "yielding": 2,
    "##side": 2,
    "upside": 2,
    "potential": 10,
    "recommend": 1,
    "##ngle": 1,
    "particular": 3,
    "vulnerable": 1,
    "fronts": 1,
    "enhance": 2,
    "yield": 6,
    "Bond": 3,
    "Sachs": 0,
    "warrant": 8,
    "Continental": 0,
    "##pie": 0,
    "controls": 7,
    "X": 9,
    "DD": 2,
    "FF": 2,
    "##EF": 4,
    "Legal": 3,
    "challenge": 11,
    "Diana": 0,
    "photographer": 2,
    "branded": 3,
    "stalk": 2,
    "Princess": 7,
    "approaching": 2,
    "criminal": 7,
    "contest": 7,
    "injunction": 4,
    "obtained": 3,
    "##ida": 3,
    "Benedict": 0,
    "##irn": 0,
    "everything": 7,
    "ice": 3,
    "brick": 1,
    "driver": 16,
    "motorcycle": 3,
    "dispatch": 2,
    "rider": 6,
    "convictions": 2,
    "##gis": 8,
    "##trate": 5,
    "compensation": 6,
    "freelance": 1,
    "divorce": 4,
    "heir": 3,
    "Prince": 4,
    "Charles": 0,
    "persistent": 1,
    "trailing": 1,
    "princess": 4,
    "chasing": 1,
    "remove": 8,
    "camera": 5,
    "##cape": 1,
    "photographers": 2,
    "Mr": 6,
    "shook": 3,
    "tentative": 2,
    "sake": 1,
    "asking": 5,
    "Alt": 0,
    "##hu": 1,
    "accompany": 2,
    "spring": 10,
    "frequent": 4,
    "drives": 2,
    "writer": 2,
    "##car": 5,
    "wider": 3,
    "effort": 10,
    "##mett": 0,
    "##aka": 0,
    "encouraged": 1,
    "uses": 4,
    "operated": 4,
    "Secondary": 0,
    "Market": 2,
    "distributed": 4,
    "district": 4,
    "rebuilding": 2,
    "104": 3,
    "650": 8,
    "subscription": 1,
    "375": 5,
    "Turn": 10,
    "288": 3,
    "##iment": 1,
    "##bana": 0,
    "1875": 1,
    "Blanc": 0,
    "##tern": 0,
    "Index": 1,
    "covers": 2,
    "editorial": 7,
    "##41": 2,
    "##48": 4,
    "##30": 7,
    "##17": 5,
    "lands": 3,
    "plant": 21,
    "consortium": 4,
    "Walt": 0,
    "Disney": 0,
    "digital": 4,
    "##ison": 2,
    "boxes": 9,
    "entertainment": 3,
    "struggled": 2,
    "Networks": 0,
    "Any": 3,
    "somebody": 3,
    "gets": 8,
    "##ared": 2,
    "Americas": 0,
    "develop": 6,
    "generation": 4,
    "addition": 9,
    "partners": 7,
    "phone": 1,
    "##tech": 0,
    "Bell": 0,
    "##outh": 0,
    "GT": 0,
    "Communications": 0,
    "Telecommunications": 0,
    "join": 14,
    "cable": 1,
    "##ridge": 0,
    "tubes": 2,
    "buys": 2,
    "competitors": 3,
    "financing": 4,
    "jobs": 10,
    "roll": 4,
    "convert": 1,
    "##hua": 0,
    "analogue": 1,
    "manufacture": 4,
    "profitable": 5,
    "subscribers": 3,
    "technology": 5,
    "retail": 5,
    "electronics": 2,
    "devices": 3,
    "divide": 7,
    "plagued": 2,
    "colour": 2,
    "reporting": 4,
    "Electronics": 0,
    "##ute": 2,
    "##nstein": 0,
    "##oor": 0,
    "##his": 2,
    "unique": 1,
    "Digital": 1,
    "happy": 4,
    "Natural": 0,
    "hundreds": 7,
    "yo": 3,
    "##gic": 2,
    "##iers": 1,
    "nature": 4,
    "##tating": 1,
    "comes": 9,
    "minor": 5,
    "candidate": 12,
    "##cend": 0,
    "##ental": 0,
    "physicist": 1,
    "running": 16,
    "claiming": 1,
    "ward": 2,
    "techniques": 1,
    "mass": 7,
    "meditation": 1,
    "stress": 3,
    "automatically": 3,
    "decrease": 2,
    "Many": 5,
    "practitioners": 1,
    "involves": 6,
    "repeated": 3,
    "word": 5,
    "phrase": 1,
    "followers": 2,
    "##tend": 3,
    "demonstration": 3,
    "bouncing": 1,
    "sitting": 4,
    "Windows": 0,
    "fail": 4,
    "introduction": 3,
    "Microsoft": 0,
    "computer": 13,
    "fallen": 7,
    "software": 12,
    "Even": 3,
    "unprecedented": 3,
    "##ype": 1,
    "launch": 7,
    "greet": 1,
    "lines": 13,
    "customers": 10,
    "##mond": 0,
    "tens": 2,
    "dollars": 9,
    "promoting": 2,
    "stunt": 2,
    "lighting": 1,
    "Empire": 0,
    "building": 18,
    "color": 1,
    "scheme": 3,
    "hardware": 2,
    "spike": 1,
    "expecting": 3,
    "coat": 1,
    "tails": 1,
    "somewhat": 2,
    "Winkler": 0,
    "impact": 14,
    "earth": 2,
    "shattering": 2,
    "##tec": 0,
    "posting": 3,
    "projections": 1,
    "Touch": 0,
    "lawsuit": 9,
    "tied": 7,
    "developers": 2,
    "suffer": 2,
    "shelves": 1,
    "jammed": 2,
    "resulting": 2,
    "shortage": 1,
    "space": 6,
    "seasonal": 5,
    "products": 20,
    "Stephens": 0,
    "accompanying": 1,
    "Office": 0,
    "upgrade": 2,
    "cement": 11,
    "dominant": 3,
    "executives": 1,
    "thrilled": 1,
    "sometime": 1,
    "##pass": 2,
    "older": 2,
    "computers": 4,
    "handling": 8,
    "frustrated": 2,
    "install": 3,
    "corporate": 10,
    "adopted": 5,
    "slow": 12,
    "proportion": 3,
    "users": 2,
    "mistake": 1,
    "thinking": 4,
    "sweeping": 5,
    "migration": 4,
    "intercepted": 5,
    "migrants": 2,
    "illegally": 4,
    "##uant": 1,
    "Naval": 0,
    "Base": 0,
    "enforcement": 2,
    "hi": 50,
    "##jack": 51,
    "remind": 1,
    "everyone": 5,
    "avoiding": 1,
    "##its": 2,
    "Havana": 0,
    "centred": 4,
    "##rants": 2,
    "Sixteen": 1,
    "emigrated": 1,
    "commercial": 7,
    "apply": 3,
    "welfare": 12,
    "pioneering": 1,
    "image": 3,
    "Wisconsin": 0,
    "submit": 3,
    "administrative": 6,
    "Tommy": 0,
    "submitted": 4,
    "grant": 4,
    "reform": 18,
    "curve": 1,
    "dubbed": 3,
    "wa": 2,
    "##ivers": 2,
    "acquire": 5,
    "residency": 1,
    "requirement": 2,
    "participation": 4,
    "collections": 2,
    "directly": 5,
    "##sto": 3,
    "##dial": 1,
    "limits": 6,
    "eligibility": 1,
    "Karen": 0,
    "Pier": 0,
    "Vietnamese": 0,
    "train": 30,
    "Alaska": 0,
    "locked": 4,
    "##hit": 0,
    "##tier": 0,
    "##shed": 3,
    "terrified": 1,
    "barge": 6,
    "Sgt": 1,
    "cooperative": 1,
    "Seeing": 1,
    "uniform": 1,
    "Jai": 3,
    "accidental": 2,
    "searching": 3,
    "fishing": 4,
    "sleep": 3,
    "coupled": 1,
    "transporting": 1,
    "lumber": 3,
    "Sound": 0,
    "fed": 3,
    "soup": 1,
    "breakfast": 2,
    "agents": 8,
    "Arkansas": 0,
    "fires": 4,
    "Barnes": 0,
    "si": 1,
    "##fted": 1,
    "rubble": 1,
    "predominantly": 3,
    "churches": 6,
    "burned": 4,
    "Mississippi": 0,
    "delta": 1,
    "Rock": 0,
    "located": 6,
    "investigating": 10,
    "idea": 8,
    "##rson": 3,
    "##clusive": 2,
    "established": 10,
    "Agents": 1,
    "Tobacco": 0,
    "##arm": 3,
    "scene": 8,
    "Zion": 0,
    "Missionary": 0,
    "Baptist": 0,
    "Church": 1,
    "Matthews": 0,
    "frame": 2,
    "structures": 1,
    "Turner": 0,
    "surrounded": 5,
    "cotton": 8,
    "rural": 9,
    "surprised": 3,
    "Fan": 1,
    "##nie": 1,
    "Matthew": 0,
    "Others": 2,
    "connected": 2,
    "shared": 6,
    "suspicion": 7,
    "motive": 3,
    "spite": 4,
    "Jerome": 0,
    "pastor": 1,
    "spared": 2,
    "wave": 4,
    "worship": 1,
    "Camden": 0,
    "Oak": 0,
    "initiated": 4,
    "Mines": 1,
    "Based": 1,
    "simulated": 1,
    "income": 14,
    "models": 2,
    "discount": 3,
    "averages": 3,
    "objective": 3,
    "Check": 0,
    "##ree": 0,
    "##holder": 0,
    "Systems": 0,
    "Business": 4,
    "finalized": 1,
    "##rms": 1,
    "Alpha": 0,
    "Tech": 0,
    "Lock": 1,
    "Technologies": 0,
    "Industries": 0,
    "adjustments": 1,
    "designer": 2,
    "sophisticated": 2,
    "thermal": 2,
    "##nin": 0,
    "Ned": 0,
    "marginal": 4,
    "scan": 3,
    "adjust": 1,
    "209": 6,
    "210": 13,
    "largely": 9,
    "view": 10,
    "Coming": 1,
    "overwhelming": 3,
    "surprising": 1,
    "Steven": 0,
    "continuing": 7,
    "sound": 8,
    "performer": 1,
    "sticking": 1,
    "140": 6,
    "weaker": 13,
    "##ours": 16,
    "Henderson": 0,
    "upgrades": 1,
    "Westminster": 0,
    "correct": 3,
    "u": 2,
    "uncertain": 1,
    "prospects": 8,
    "dissolve": 4,
    "Step": 0,
    "ordering": 5,
    "dissolution": 3,
    "poll": 25,
    "citing": 4,
    "convergence": 2,
    "Elections": 2,
    "originally": 4,
    "Libyan": 0,
    "Mohammed": 0,
    "pool": 4,
    "wounds": 7,
    "##vant": 1,
    "investigations": 5,
    "Bahn": 0,
    "tax": 28,
    "188": 3,
    "Full": 3,
    "ear": 3,
    "##marked": 4,
    "eventual": 2,
    "##vat": 4,
    "traffic": 20,
    "commuter": 1,
    "workforce": 3,
    "compare": 1,
    "compares": 2,
    "##65": 7,
    "##25": 5,
    "lion": 1,
    "##apa": 1,
    "whales": 5,
    "marine": 1,
    "biologist": 2,
    "lions": 5,
    "photograph": 4,
    "el": 5,
    "##usive": 2,
    "depths": 1,
    "Scientist": 0,
    "Harvey": 0,
    "Jennifer": 0,
    "##rley": 0,
    "Moss": 0,
    "Landing": 0,
    "Marine": 0,
    "Laboratories": 0,
    "natural": 2,
    "companions": 1,
    "species": 1,
    "whale": 4,
    "diver": 2,
    "knows": 4,
    "Beaver": 0,
    "undergone": 3,
    "amusement": 2,
    "park": 1,
    "accurately": 1,
    "transmitter": 2,
    "swim": 1,
    "mammals": 1,
    "filming": 2,
    "video": 5,
    "assignment": 1,
    "documenting": 1,
    "hum": 2,
    "Monterey": 0,
    "article": 6,
    "spell": 4,
    "exactly": 4,
    "taught": 2,
    "stick": 4,
    "plastic": 5,
    "model": 5,
    "using": 11,
    "cups": 1,
    "##ises": 2,
    "Howard": 0,
    "upper": 3,
    "##cks": 2,
    "environment": 4,
    "function": 4,
    "Senior": 4,
    "warned": 11,
    "hampered": 2,
    "contained": 4,
    "sharp": 7,
    "spending": 12,
    "partially": 2,
    "##stra": 4,
    "Greens": 0,
    "Labor": 0,
    "Toyota": 0,
    "workers": 29,
    "striking": 8,
    "voted": 8,
    "Melbourne": 0,
    "assembly": 9,
    "##page": 4,
    "surge": 6,
    "Mining": 0,
    "surged": 4,
    "confirmation": 3,
    "Mountain": 0,
    "considering": 10,
    "acquiring": 3,
    "minorities": 1,
    "copper": 22,
    "Papua": 0,
    "project": 10,
    "students": 14,
    "throw": 2,
    "##place": 3,
    "rocks": 4,
    "Students": 3,
    "samples": 1,
    "geology": 1,
    "collect": 3,
    "##eology": 1,
    "##sso": 1,
    "collection": 1,
    "gathered": 5,
    "pan": 2,
    "desk": 4,
    "forever": 2,
    "professor": 2,
    "staged": 7,
    "violent": 8,
    "university": 11,
    "unification": 1,
    "campus": 3,
    "##wo": 4,
    "belief": 2,
    "strengthen": 3,
    "##ught": 2,
    "insist": 2,
    "intervention": 10,
    "convinced": 3,
    "supporting": 6,
    "##ii": 0,
    "automation": 2,
    "286": 4,
    "350": 7,
    "##lut": 10,
    "Lynn": 0,
    "Donnell": 0,
    "Shanghai": 0,
    "bonded": 3,
    "warehouses": 4,
    "##found": 1,
    "belongs": 3,
    "Ying": 0,
    "##pile": 6,
    "stored": 3,
    "Just": 8,
    "guessing": 1,
    "metal": 5,
    "channel": 1,
    "Non": 1,
    "##fer": 3,
    "##rous": 0,
    "Metal": 0,
    "indication": 6,
    "administered": 2,
    "Planning": 1,
    "prohibit": 2,
    "##ively": 1,
    "otherwise": 5,
    "spend": 9,
    "moving": 8,
    "Once": 2,
    "Mystery": 1,
    "unsure": 3,
    "exact": 7,
    "Trading": 2,
    "depleted": 1,
    "purpose": 2,
    "backward": 2,
    "occurs": 2,
    "lent": 2,
    "behalf": 6,
    "Asia": 0,
    "somewhere": 3,
    "storage": 4,
    "Word": 2,
    "secret": 16,
    "ji": 4,
    "##tter": 1,
    "Bloom": 0,
    "##sbury": 0,
    "Economics": 0,
    "motivation": 1,
    "owners": 5,
    "fundamental": 9,
    "rumours": 2,
    "##omo": 0,
    "helping": 4,
    "decade": 4,
    "arrangement": 3,
    "unaware": 1,
    "irrelevant": 1,
    "commodities": 3,
    "desire": 3,
    "##43": 5,
    "##70": 2,
    "Companion": 0,
    "posts": 5,
    "Except": 2,
    "Holdings": 0,
    "Books": 2,
    "granite": 1,
    "distributor": 1,
    "##off": 6,
    "construction": 8,
    "Building": 1,
    "Material": 0,
    "Room": 0,
    "Soft": 0,
    "##cure": 8,
    "exchange": 19,
    "acquisition": 8,
    "Kingston": 0,
    "Technology": 0,
    "transactions": 2,
    "maker": 6,
    "memory": 2,
    "boards": 2,
    "acquisitions": 1,
    "157": 3,
    "asset": 1,
    "comparative": 3,
    "Equipment": 0,
    "##ited": 2,
    "decide": 11,
    "Les": 0,
    "Echo": 0,
    "Rothschild": 0,
    "##media": 1,
    "##listed": 4,
    "retailers": 1,
    "Metro": 0,
    "##dl": 0,
    "discussions": 7,
    "##tinent": 1,
    "generated": 3,
    "outline": 2,
    "##21": 12,
    "highlights": 5,
    "mortgage": 4,
    "Permanent": 0,
    "##tale": 2,
    "##mate": 2,
    "claim": 3,
    "owed": 2,
    "fund": 7,
    "Taylor": 0,
    "Corps": 0,
    "cat": 2,
    "mouse": 1,
    "Enterprise": 0,
    "Employment": 0,
    "widened": 2,
    "##set": 0,
    "Manager": 0,
    "##vern": 0,
    "Minor": 0,
    "council": 9,
    "zinc": 4,
    "Tipperary": 0,
    "refused": 3,
    "##tering": 3,
    "societies": 1,
    "variable": 2,
    "Members": 3,
    "Antrim": 0,
    "Protestant": 1,
    "driven": 1,
    "yesterday": 7,
    "defiance": 2,
    "hanging": 4,
    "Dunn": 0,
    "Stores": 0,
    "banker": 2,
    "Merrill": 0,
    "transferring": 1,
    "##cine": 1,
    "##ration": 3,
    "suitable": 4,
    "recycling": 1,
    "215": 7,
    "vehicle": 9,
    "engine": 6,
    "shareholder": 4,
    "##xi": 3,
    "Semifinals": 3,
    "MC": 0,
    "##nen": 0,
    "impressive": 2,
    "stages": 13,
    "Lakes": 0,
    "##owed": 1,
    "prospect": 6,
    "##holm": 0,
    "Mitsubishi": 0,
    "fined": 5,
    "sports": 6,
    "governing": 1,
    "rolled": 2,
    "##aru": 0,
    "Ring": 0,
    "##hur": 2,
    "boss": 5,
    "Richards": 0,
    "furious": 1,
    "##ishing": 2,
    "!": 1,
    "##nia": 0,
    "##nz": 0,
    "Bruno": 0,
    "transmission": 3,
    "shaft": 1,
    "##rid": 2,
    "226": 9,
    "##ph": 18,
    "Ferrari": 0,
    "Eddie": 0,
    "Irvine": 0,
    "152": 3,
    "grid": 1,
    "199": 15,
    "Ty": 0,
    "##rrell": 0,
    "Din": 0,
    "##iz": 0,
    "Arrow": 0,
    "##aya": 0,
    "Mina": 0,
    "Did": 9,
    "qualify": 3,
    "Giovanni": 0,
    "unnamed": 6,
    "Danish": 0,
    "##lough": 2,
    "kilometre": 8,
    "host": 4,
    "ski": 6,
    "##dded": 1,
    "##oned": 1,
    "suspended": 12,
    "resumed": 3,
    "##rac": 7,
    "Quarterfinals": 3,
    "##MS": 2,
    "Thunder": 1,
    "suspension": 6,
    "interrupted": 2,
    "##ched": 2,
    "rugby": 15,
    "Bradford": 0,
    "Wigan": 0,
    "Helens": 0,
    "Warrington": 0,
    "Sheffield": 0,
    "Halifax": 0,
    "Castle": 0,
    "Oldham": 0,
    "Leeds": 0,
    "325": 10,
    "##EP": 4,
    "Neil": 0,
    "deliver": 7,
    "252": 3,
    "slumped": 2,
    "Derbyshire": 0,
    "favour": 9,
    "thrust": 2,
    "removed": 8,
    "Dominic": 0,
    "##wson": 0,
    "Hancock": 0,
    "visitors": 4,
    "Graham": 0,
    "declaring": 3,
    "Captain": 4,
    "##rich": 0,
    "##lund": 2,
    "prevented": 2,
    "##hill": 2,
    "Alistair": 0,
    "##rta": 2,
    "##iled": 3,
    "Fourth": 1,
    "ropes": 1,
    "intervened": 1,
    "Pace": 1,
    "Gordon": 0,
    "Parsons": 0,
    "##kind": 1,
    "successive": 7,
    "defeats": 1,
    "arch": 3,
    "##acing": 1,
    "follow": 8,
    "206": 11,
    "Darren": 0,
    "##olis": 1,
    "##hing": 1,
    "176": 10,
    "239": 3,
    "Final": 9,
    "Match": 7,
    "abandoned": 12,
    "Alley": 0,
    "##shaw": 0,
    "##vil": 1,
    "Ambrose": 0,
    "117": 8,
    "##ring": 5,
    "Watkins": 0,
    "Speak": 0,
    "##nian": 0,
    "Rai": 0,
    "Dundee": 0,
    "Aberdeen": 0,
    "##onia": 1,
    "Fife": 0,
    "Clyde": 0,
    "Green": 0,
    "Morton": 0,
    "##alk": 2,
    "##irk": 0,
    "Johnstone": 0,
    "##rwick": 0,
    "##house": 0,
    "##chin": 0,
    "Hamilton": 0,
    "##mba": 1,
    "##rton": 0,
    "##rae": 0,
    "Livingston": 0,
    "##oa": 0,
    "##roa": 0,
    "##beat": 4,
    "##stro": 1,
    "##far": 0,
    "Inverness": 0,
    "Played": 23,
    "Newcastle": 0,
    "Shea": 0,
    "##rer": 0,
    "##egan": 0,
    "laden": 1,
    "##jan": 0,
    "Faust": 0,
    "##rilla": 0,
    "glancing": 1,
    "header": 6,
    "misery": 1,
    "Ferdinand": 0,
    "stretch": 4,
    "##where": 2,
    "newly": 6,
    "Sunderland": 0,
    "Tottenham": 0,
    "##spur": 0,
    "##lu": 2,
    "##lli": 1,
    "Coventry": 0,
    "Arsenal": 0,
    "Aston": 0,
    "Villa": 0,
    "Derby": 0,
    "Southampton": 0,
    "Bolton": 0,
    "Norwich": 0,
    "##rom": 2,
    "##wich": 0,
    "Crystal": 0,
    "Ipswich": 0,
    "Reading": 0,
    "Birmingham": 0,
    "Stoke": 0,
    "Swindon": 0,
    "Wolverhampton": 0,
    "##nsley": 0,
    "Huddersfield": 0,
    "Brent": 0,
    "Luton": 0,
    "Bristol": 0,
    "Blackpool": 0,
    "Burnley": 0,
    "##all": 0,
    "Chesterfield": 0,
    "Bury": 0,
    "Peterborough": 0,
    "Crewe": 0,
    "Preston": 0,
    "Rovers": 0,
    "Roth": 0,
    "##erham": 0,
    "Shrewsbury": 0,
    "Watford": 0,
    "##wall": 0,
    "##xham": 0,
    "Gill": 0,
    "Bournemouth": 0,
    "##net": 1,
    "Brighton": 0,
    "Carlisle": 0,
    "Hull": 0,
    "Chester": 0,
    "Darlington": 0,
    "Swansea": 0,
    "Exeter": 0,
    "Scarborough": 0,
    "Hart": 0,
    "##pool": 0,
    "Fulham": 0,
    "Hereford": 0,
    "Doncaster": 0,
    "##yton": 0,
    "Orient": 0,
    "Mansfield": 0,
    "##dale": 0,
    "##qua": 6,
    "Blacks": 0,
    "Each": 3,
    "tries": 5,
    "enemies": 2,
    "Wilson": 0,
    "flank": 1,
    "narrowed": 1,
    "gap": 4,
    "Joel": 0,
    "##sky": 0,
    "conversion": 3,
    "upright": 2,
    "scrambled": 1,
    "Brooke": 0,
    "Tri": 4,
    "##dom": 1,
    "##ties": 5,
    "##rank": 2,
    "##sy": 1,
    "##version": 4,
    "Simon": 0,
    "##hane": 0,
    "Drop": 1,
    "##uka": 0,
    "##lad": 0,
    "Bud": 0,
    "##uc": 0,
    "##nica": 0,
    "##dn": 2,
    "##rad": 0,
    "##nik": 0,
    "##rak": 0,
    "##chy": 0,
    "##zes": 1,
    "##cho": 0,
    "##tyn": 0,
    "##law": 1,
    "##od": 0,
    "##sla": 0,
    "Polo": 0,
    "##bie": 0,
    "##bin": 0,
    "Philippine": 0,
    "Basketball": 0,
    "Milk": 0,
    "Pure": 0,
    "##food": 0,
    "##dog": 2,
    "103": 3,
    "##ine": 4,
    "##bra": 0,
    "baseball": 5,
    "##yun": 0,
    "##dai": 0,
    "##tai": 0,
    "Lot": 0,
    "##bang": 0,
    "520": 2,
    "SAT": 5,
    "630": 2,
    "##ene": 1,
    "##avi": 1,
    "##PO": 2,
    "AJ": 0,
    "##altered": 1,
    "##sma": 4,
    "interval": 2,
    "Romeo": 0,
    "##eld": 1,
    "curled": 1,
    "goalkeeper": 8,
    "Edwin": 0,
    "defenders": 5,
    "Winston": 0,
    "##gard": 0,
    "##tman": 0,
    "gaps": 1,
    "rushed": 2,
    "##bbed": 2,
    "contender": 2,
    "curtain": 2,
    "raise": 3,
    "##ingen": 0,
    "Standard": 0,
    "Lok": 0,
    "Antwerp": 0,
    "##mme": 4,
    "Ghent": 0,
    "##rse": 1,
    "##rle": 0,
    "##roi": 0,
    "##iden": 2,
    "##ob": 14,
    "##nja": 0,
    "Xavier": 0,
    "Grave": 0,
    "##lain": 0,
    "Marseille": 0,
    "##cano": 0,
    "Lille": 0,
    "Monaco": 0,
    "Christopher": 0,
    "##uing": 4,
    "##amp": 0,
    "Nan": 0,
    "##tes": 2,
    "Nice": 0,
    "39th": 3,
    "Bordeaux": 0,
    "##xe": 0,
    "Metz": 0,
    "##ore": 0,
    "Bomb": 1,
    "Strasbourg": 0,
    "##vre": 1,
    "##aen": 0,
    "Lyon": 0,
    "Cave": 0,
    "##glia": 0,
    "##lier": 0,
    "Cannes": 0,
    "8th": 4,
    "##eti": 3,
    "##aal": 0,
    "Willem": 0,
    "Fort": 0,
    "Sit": 0,
    "Rotterdam": 0,
    "##wen": 0,
    "##sche": 0,
    "##ites": 0,
    "Utrecht": 0,
    "##ord": 0,
    "Rod": 0,
    "##rade": 0,
    "Arm": 0,
    "##inia": 0,
    "##iel": 0,
    "##nchen": 0,
    "##he": 3,
    "33rd": 6,
    "45th": 3,
    "Keller": 0,
    "##rde": 0,
    "##ota": 0,
    "1860": 0,
    "Heinrich": 0,
    "##kus": 0,
    "##ssel": 0,
    "See": 0,
    "Freiburg": 0,
    "##eyer": 0,
    "##ais": 1,
    "9th": 2,
    "Bayern": 0,
    "MS": 1,
    "VI": 2,
    "FC": 1,
    "##ack": 1,
    "Inn": 0,
    "##bruck": 0,
    "SV": 0,
    "Salzburg": 0,
    "Wien": 0,
    "##augh": 0,
    "describes": 1,
    "ordeal": 3,
    "worker": 2,
    "cocked": 2,
    "##rose": 0,
    "Action": 0,
    "Against": 1,
    "Hunger": 0,
    "physical": 3,
    "throat": 1,
    "Frederic": 0,
    "##eau": 0,
    "ransom": 13,
    "charity": 2,
    "regularly": 3,
    "bombardment": 1,
    "conventional": 1,
    "tanks": 5,
    "grenade": 1,
    "launcher": 1,
    "provides": 4,
    "civilians": 6,
    "depending": 3,
    "whom": 12,
    "##woman": 17,
    "fulfilled": 3,
    "dear": 2,
    "wish": 6,
    "carved": 1,
    "role": 14,
    "herself": 1,
    "sick": 3,
    "needy": 1,
    "marriage": 4,
    "##bled": 1,
    "praying": 3,
    "Doctors": 5,
    "caring": 1,
    "Arabia": 0,
    "Adventure": 1,
    "wilderness": 4,
    "About": 9,
    "adventure": 2,
    "climb": 5,
    "##aft": 2,
    "endurance": 2,
    "Challenge": 0,
    "racing": 5,
    "physically": 2,
    "diverse": 1,
    "terrain": 1,
    "participant": 1,
    "Utah": 0,
    "Maine": 0,
    "modelled": 1,
    "##rek": 1,
    "glaciers": 1,
    "horseback": 1,
    "ride": 4,
    "canoe": 1,
    "mountain": 6,
    "##berto": 0,
    "Vancouver": 0,
    "##cherous": 1,
    "peaks": 2,
    "thirds": 4,
    "participants": 4,
    "disqualified": 1,
    "Team": 2,
    "racer": 1,
    "bones": 3,
    "sun": 4,
    "exhaustion": 3,
    "##mini": 0,
    "rich": 5,
    "Damian": 0,
    "que": 3,
    "##ll": 5,
    "safer": 1,
    "drinking": 3,
    "##pid": 1,
    "##ics": 3,
    "pipe": 2,
    "usually": 1,
    "Malawi": 0,
    "Band": 0,
    "##zu": 0,
    "##get": 1,
    "##arian": 2,
    "tee": 2,
    "walking": 5,
    "clutched": 1,
    "symbol": 2,
    "obsession": 1,
    "##puted": 1,
    "ruler": 1,
    "decades": 3,
    "acquitted": 1,
    "1983": 4,
    "servants": 11,
    "Em": 0,
    "##ying": 1,
    "##rippled": 2,
    "essential": 2,
    "Public": 2,
    "##uary": 1,
    "attendant": 1,
    "firefighters": 1,
    "workplace": 2,
    "sum": 2,
    "##ily": 2,
    "dismissed": 12,
    "unavailable": 1,
    "Labour": 0,
    "Welfare": 0,
    "Florence": 0,
    "##uro": 1,
    "recruiting": 1,
    "contracting": 2,
    "firms": 8,
    "ignored": 1,
    "demands": 5,
    "stretched": 1,
    "hospitals": 1,
    "Cross": 0,
    "tourists": 2,
    "Falls": 0,
    "Opposition": 5,
    "civic": 1,
    "unions": 9,
    "denounced": 4,
    "Civil": 2,
    "camps": 5,
    "##rm": 3,
    "Gate": 0,
    "##gal": 1,
    "##frame": 2,
    "genocide": 5,
    "refuse": 2,
    "fear": 10,
    "##ris": 1,
    "##vu": 2,
    "counterpart": 9,
    "##fect": 2,
    "skull": 8,
    "lime": 2,
    "loving": 1,
    "sacred": 1,
    "tribal": 2,
    "ancestor": 1,
    "forensic": 2,
    "scientist": 6,
    "examined": 3,
    "supposed": 4,
    "##nts": 1,
    "##hos": 0,
    "tribe": 1,
    "Nicholas": 0,
    "##cale": 0,
    "skins": 1,
    "##try": 1,
    "witch": 1,
    "ancestors": 2,
    "dream": 1,
    "colonial": 2,
    "trophy": 3,
    "##headed": 1,
    "1835": 1,
    "cottage": 1,
    "lonely": 1,
    "Highland": 0,
    "forest": 7,
    "spirit": 2,
    "hurricane": 2,
    "royal": 4,
    "branding": 1,
    "shape": 1,
    "hole": 4,
    "bullet": 2,
    "reasonable": 4,
    "arrests": 6,
    "sewing": 2,
    "smug": 6,
    "##gler": 3,
    "machines": 1,
    "clothing": 1,
    "alliance": 10,
    "##vers": 3,
    "##ive": 5,
    "Author": 3,
    "laying": 2,
    "##uses": 6,
    "accusing": 5,
    "Alliance": 0,
    "umbrella": 2,
    "##mara": 0,
    "congress": 7,
    "##oning": 1,
    "Stalin": 0,
    "dictatorship": 4,
    "Balkan": 0,
    "concepts": 1,
    "electoral": 19,
    "class": 10,
    "ideological": 1,
    "Pop": 0,
    "##ull": 1,
    "reformed": 2,
    "heirs": 2,
    "Acting": 1,
    "ideas": 3,
    "Marx": 0,
    "stance": 8,
    "triggered": 3,
    "Gram": 0,
    "commentators": 2,
    "consensus": 6,
    "rift": 1,
    "unlikely": 4,
    "Nicaragua": 0,
    "Violet": 0,
    "##mor": 0,
    "column": 7,
    "examination": 3,
    "suffers": 3,
    "weaken": 3,
    "longtime": 1,
    "split": 6,
    "tool": 2,
    "##igi": 2,
    "intentions": 2,
    "widespread": 6,
    "activists": 7,
    "tourism": 2,
    "communications": 5,
    "hangs": 1,
    "hanged": 4,
    "##kers": 1,
    "##sal": 0,
    "kilograms": 1,
    "lbs": 2,
    "op": 6,
    "##ium": 4,
    "executions": 1,
    "Revolutionary": 0,
    "pedestrian": 2,
    "site": 12,
    "executed": 9,
    "##sses": 1,
    "gram": 2,
    "punish": 2,
    "##ict": 1,
    "transit": 3,
    "##gled": 1,
    "Main": 1,
    "Tunisian": 0,
    "HQ": 1,
    "Tunisia": 0,
    "rent": 3,
    "##fall": 3,
    "Movement": 0,
    "MD": 0,
    "bail": 3,
    "##iff": 1,
    "##cco": 9,
    "enable": 2,
    "represented": 3,
    "owing": 3,
    "sentences": 5,
    "secrets": 4,
    "judicial": 8,
    "proceedings": 2,
    "##hya": 0,
    "founding": 3,
    "politically": 2,
    "1978": 2,
    "withdrew": 5,
    "##aa": 0,
    "##RNA": 4,
    "affiliated": 1,
    "camp": 7,
    "west": 16,
    "pounding": 1,
    "independent": 5,
    "persuaded": 2,
    "patrolling": 1,
    "skies": 4,
    "shield": 2,
    "violating": 2,
    "Maj": 0,
    "allegations": 12,
    "constructing": 1,
    "observation": 1,
    "installing": 1,
    "mortar": 1,
    "cannons": 2,
    "tents": 2,
    "penetrating": 1,
    "rifle": 3,
    "grenades": 7,
    "chamber": 3,
    "commerce": 1,
    "urges": 1,
    "Ankara": 0,
    "##qa": 0,
    "Editorial": 2,
    "boom": 1,
    "shadow": 1,
    "supermarket": 2,
    "den": 4,
    "##nces": 1,
    "##planes": 1,
    "##laming": 2,
    "dirty": 3,
    "Laurence": 0,
    "##uil": 0,
    "intends": 5,
    "gathering": 8,
    "nominate": 2,
    "parade": 1,
    "designed": 4,
    "highlight": 2,
    "glow": 1,
    "concluded": 4,
    "##clave": 1,
    "carefully": 3,
    "orchestrated": 1,
    "bills": 4,
    "Congress": 0,
    "proudly": 1,
    "registry": 3,
    "sex": 18,
    "criminals": 2,
    "wherever": 1,
    "Actually": 1,
    "creation": 1,
    "underway": 2,
    "finger": 1,
    "Attorney": 2,
    "Janet": 0,
    "Reno": 0,
    "pages": 2,
    "##notes": 1,
    "offers": 8,
    "FBI": 0,
    "again": 37,
    "heads": 6,
    "drive": 11,
    "Such": 2,
    "happen": 7,
    "chess": 1,
    "mini": 3,
    "##mium": 2,
    "easier": 3,
    "existing": 11,
    "overhaul": 3,
    "remarkable": 5,
    "offering": 5,
    "demanding": 17,
    "responsibility": 3,
    "stronger": 13,
    "sense": 3,
    "families": 6,
    "theme": 2,
    "depart": 3,
    "Kentucky": 0,
    "Michigan": 0,
    "Indiana": 0,
    "fellow": 10,
    "attention": 6,
    "focus": 4,
    "programmes": 4,
    "Campaign": 1,
    "showcased": 1,
    "concentrating": 2,
    "delivers": 1,
    "acceptance": 4,
    "map": 1,
    "guides": 1,
    "Hurricane": 4,
    "Edo": 0,
    "##uard": 0,
    "swirled": 1,
    "winds": 6,
    "mph": 4,
    "##vila": 0,
    "indicate": 3,
    "northwest": 6,
    "islands": 3,
    "Lesser": 0,
    "Anti": 1,
    "##lles": 0,
    "latitude": 1,
    "longitude": 1,
    "ET": 0,
    "Basque": 0,
    "Ignacio": 0,
    "##coa": 1,
    "Homeland": 0,
    "Freedom": 0,
    "1960s": 1,
    "Rue": 0,
    "Defence": 3,
    "Son": 0,
    "##nta": 0,
    "mandate": 9,
    "##pire": 3,
    "completely": 2,
    "##pts": 3,
    "publication": 3,
    "impression": 2,
    "deployment": 1,
    "perceived": 1,
    "comics": 4,
    "joke": 2,
    "Boss": 0,
    "ancient": 6,
    "##can": 1,
    "##vie": 0,
    "mock": 1,
    "actor": 3,
    "##ign": 1,
    "declare": 3,
    "march": 4,
    "proceed": 2,
    "annexation": 1,
    "Sardinia": 0,
    "ironic": 1,
    "proclamation": 2,
    "##bria": 0,
    "balloon": 2,
    "rhetoric": 2,
    "talking": 8,
    "intensified": 1,
    "nationally": 1,
    "##ism": 2,
    "##cracy": 1,
    "farmer": 4,
    "##uti": 3,
    "##cid": 1,
    "##lating": 2,
    "bodies": 11,
    "##fra": 1,
    "##nco": 0,
    "##eva": 0,
    "Verona": 0,
    "magistrate": 2,
    "unable": 13,
    "recall": 2,
    "remembering": 3,
    "lifeless": 1,
    "##istic": 4,
    "prostitute": 4,
    "murdering": 4,
    "villa": 2,
    "corpses": 1,
    "##posed": 4,
    "sack": 2,
    "canal": 2,
    "dump": 2,
    "interrogation": 1,
    "investigators": 13,
    "digging": 2,
    "asks": 4,
    "##phi": 9,
    "##uded": 1,
    "Jeremy": 0,
    "scandal": 12,
    "kidnapping": 7,
    "pornography": 3,
    "shock": 3,
    "##wave": 2,
    "throughout": 9,
    "##ination": 1,
    "rap": 4,
    "managed": 12,
    "prey": 2,
    "##hin": 1,
    "##dered": 2,
    "starvation": 3,
    "freed": 12,
    "dungeon": 2,
    "compartment": 2,
    "##ienne": 0,
    "suburbs": 1,
    "##duction": 6,
    "imprisonment": 5,
    "##sters": 1,
    "proof": 1,
    "Michel": 0,
    "chase": 1,
    "##orn": 5,
    "tapes": 1,
    "featured": 1,
    "basement": 3,
    "rescue": 2,
    "disgust": 1,
    "Melissa": 0,
    "Russo": 0,
    "kidnapped": 15,
    "Lamb": 0,
    "##reck": 0,
    "unknown": 8,
    "prostitution": 2,
    "Bratislava": 0,
    "Five": 5,
    "##lice": 5,
    "disappearance": 3,
    "leaked": 1,
    "catalog": 1,
    "degree": 2,
    "##ence": 3,
    "##fference": 3,
    "Among": 5,
    "revelation": 1,
    "surveillance": 3,
    "code": 3,
    "##named": 1,
    "##the": 0,
    "cells": 2,
    "information": 13,
    "theft": 9,
    "accepted": 8,
    "cries": 1,
    "hear": 7,
    "Justice": 1,
    "##aan": 0,
    "inquiry": 5,
    "disbelief": 1,
    "unemployed": 3,
    "visible": 2,
    "toll": 3,
    "explosive": 4,
    "device": 3,
    "boys": 3,
    "explosion": 2,
    "appointed": 11,
    "Rights": 0,
    "Observatory": 0,
    "seize": 4,
    "cannabis": 5,
    "chill": 3,
    "sauce": 3,
    "commissioner": 2,
    "container": 5,
    "haul": 2,
    "flames": 2,
    "motorway": 4,
    "injuring": 3,
    "Spaniards": 3,
    "##nounce": 1,
    "permanently": 1,
    "##ndo": 0,
    "supported": 5,
    "##logical": 0,
    "Studies": 0,
    "achieving": 4,
    "Lara": 0,
    "neither": 6,
    "worse": 6,
    "Popular": 0,
    "margin": 8,
    "error": 2,
    "Thirty": 2,
    "floods": 1,
    "##lung": 2,
    "Lahore": 0,
    "chaos": 4,
    "flood": 2,
    "Pakistani": 0,
    "inches": 8,
    "##renched": 2,
    "Punjab": 0,
    "rivers": 2,
    "knocking": 1,
    "rail": 10,
    "Newspaper": 3,
    "witnesses": 10,
    "drowned": 2,
    "homeless": 1,
    "breach": 1,
    "##unda": 1,
    "residential": 1,
    "Army": 2,
    "evacuate": 2,
    "Ravi": 0,
    "alert": 2,
    "Internet": 0,
    "Start": 0,
    "Java": 0,
    "engineers": 3,
    "Micro": 2,
    "##ms": 3,
    "##oft": 1,
    "##gling": 2,
    "floor": 5,
    "venture": 8,
    "Venture": 0,
    "Partners": 0,
    "founder": 2,
    "acting": 6,
    "RS": 0,
    "Dynamics": 0,
    "doors": 2,
    "initial": 4,
    "combines": 3,
    "experience": 6,
    "Apple": 0,
    "Computer": 0,
    "Oracle": 0,
    "##ends": 2,
    "dramatic": 1,
    "engineer": 2,
    "programming": 1,
    "manner": 4,
    "Silicon": 0,
    "Valley": 0,
    "Klein": 0,
    "Perkins": 0,
    "Bye": 0,
    "##ups": 1,
    "developing": 3,
    "technologies": 2,
    "licensed": 2,
    "Machine": 0,
    "Prasad": 0,
    "aims": 5,
    "apple": 1,
    "downloaded": 1,
    "server": 1,
    "networks": 4,
    "individual": 9,
    "##ule": 1,
    "marketing": 8,
    "Web": 1,
    "www": 1,
    "internet": 1,
    "##star": 2,
    "pioneers": 1,
    "Individual": 1,
    "bird": 7,
    "Along": 2,
    "accomplish": 1,
    "exemption": 1,
    "PGA": 0,
    "brings": 3,
    "easy": 6,
    "feet": 11,
    "wedge": 1,
    "##eye": 2,
    "sudden": 2,
    "defending": 12,
    "contention": 2,
    "14th": 4,
    "287": 2,
    "290": 8,
    "Finals": 3,
    "Luke": 0,
    "Jensen": 0,
    "Murphy": 0,
    "Hand": 0,
    "##lica": 0,
    "##yt": 0,
    "##ht": 1,
    "##CC": 2,
    "##oto": 2,
    "##cross": 2,
    "##met": 0,
    "##ert": 6,
    "Door": 0,
    "Honda": 0,
    "Mart": 0,
    "Dirk": 0,
    "##TM": 0,
    "Danny": 0,
    "##bers": 4,
    "Shay": 0,
    "Boone": 0,
    "Lal": 0,
    "Claus": 0,
    "Mann": 0,
    "Nielsen": 0,
    "Overall": 3,
    "219": 3,
    "Darryl": 0,
    "##wasaki": 0,
    "Moore": 0,
    "Yamaha": 0,
    "Luigi": 0,
    "##nst": 0,
    "##inger": 2,
    "Charlie": 0,
    "##lle": 0,
    "Collin": 0,
    "##more": 0,
    "192": 2,
    "Michele": 0,
    "placing": 8,
    "##urance": 2,
    "laps": 5,
    "158": 2,
    "Luciano": 0,
    "della": 0,
    "##rro": 0,
    "##ds": 2,
    "##scher": 0,
    "F1": 0,
    "168": 4,
    "##abi": 0,
    "Giro": 0,
    "Denis": 0,
    "Muller": 0,
    "Owen": 0,
    "Henri": 0,
    "Rap": 2,
    "##uno": 0,
    "##erd": 0,
    "911": 1,
    "164": 8,
    "Konrad": 0,
    "##user": 0,
    "##60": 3,
    "Fast": 6,
    "##rka": 0,
    "##ark": 0,
    "Ash": 0,
    "Hansen": 0,
    "##escu": 0,
    "##mming": 0,
    "##avelin": 4,
    "Silk": 0,
    "Gillian": 0,
    "##rma": 0,
    "##rook": 0,
    "Margaret": 0,
    "vault": 3,
    "Manson": 0,
    "##sty": 1,
    "Back": 0,
    "Regis": 0,
    "Austin": 0,
    "Benson": 0,
    "Vincent": 0,
    "##smo": 0,
    "Mack": 0,
    "208": 6,
    "179": 3,
    "227": 1,
    "221": 2,
    "drivers": 5,
    "##ctors": 1,
    "Foot": 1,
    "##work": 3,
    "##trom": 0,
    "##CL": 19,
    "superb": 6,
    "##ike": 2,
    "##uchi": 0,
    "Take": 0,
    "##yuki": 0,
    "##kawa": 0,
    "##cat": 0,
    "306": 2,
    "Aaron": 0,
    "##ih": 0,
    "Fuji": 0,
    "##wara": 0,
    "253": 2,
    "Akira": 0,
    "##ishi": 0,
    "147": 7,
    "159": 3,
    "##oki": 0,
    "313": 2,
    "254": 4,
    "Francesco": 0,
    "##dgson": 0,
    "##lification": 3,
    "Suzuki": 0,
    "270": 1,
    "238": 5,
    "Teenage": 1,
    "##lass": 1,
    "names": 8,
    "##oise": 1,
    "##take": 2,
    "pursued": 1,
    "duo": 1,
    "flag": 4,
    "##solation": 3,
    "recording": 1,
    "challenged": 3,
    "strongly": 5,
    "elder": 1,
    "brother": 4,
    "duel": 1,
    "regained": 4,
    "##luck": 2,
    "riders": 5,
    "alter": 2,
    "flourish": 1,
    "interrupt": 1,
    "spare": 2,
    "reaching": 8,
    "sword": 1,
    "collecting": 2,
    "Glenn": 0,
    "##ddle": 0,
    "##cap": 6,
    "##ped": 9,
    "##cliffe": 0,
    "Left": 2,
    "##erton": 0,
    "recurring": 1,
    "groin": 2,
    "Sol": 0,
    "##hine": 0,
    "365": 2,
    "440": 1,
    "forget": 2,
    "##mission": 1,
    "dominance": 1,
    "fielding": 2,
    "disciplinary": 4,
    "touring": 1,
    "batted": 2,
    "solitary": 2,
    "attempting": 3,
    "lurking": 1,
    "prove": 2,
    "##oped": 3,
    "mate": 6,
    "Alec": 0,
    "whipped": 1,
    "waves": 1,
    "rattled": 1,
    "Rain": 2,
    "forcing": 6,
    "144": 6,
    "Maynard": 0,
    "Ronnie": 0,
    "Adam": 0,
    "Congo": 0,
    "Bach": 0,
    "ABA": 0,
    "##vez": 0,
    "##cie": 0,
    "##wski": 0,
    "Jace": 0,
    "##ins": 1,
    "##ze": 1,
    "##cz": 0,
    "##sz": 0,
    "Fed": 0,
    "Darius": 0,
    "Marius": 0,
    "Emmanuel": 0,
    "Wars": 0,
    "##zawa": 0,
    "##rsk": 0,
    "##ahl": 0,
    "##ea": 1,
    "##rges": 0,
    "##cia": 0,
    "Pit": 0,
    "##stant": 0,
    "Chin": 0,
    "Student": 0,
    "##itate": 1,
    "##iest": 0,
    "##oar": 0,
    "Bucharest": 0,
    "Dinamo": 0,
    "##zhi": 0,
    "Kali": 0,
    "Petersburg": 0,
    "##rets": 0,
    "##ssi": 7,
    "##mash": 0,
    "##grad": 0,
    "CS": 0,
    "##ryl": 4,
    "Novgorod": 0,
    "##nburg": 0,
    "precedence": 2,
    "AFL": 0,
    "Rules": 0,
    "Adelaide": 0,
    "Collingwood": 0,
    "151": 3,
    "Fitzroy": 0,
    "Carlton": 0,
    "##ray": 0,
    "##ssen": 0,
    "Kilda": 0,
    "Hawthorn": 0,
    "Brisbane": 0,
    "Fremantle": 0,
    "Geelong": 0,
    "163": 4,
    "1873": 2,
    "127": 4,
    "2009": 3,
    "1844": 2,
    "213": 4,
    "217": 5,
    "1803": 2,
    "1791": 2,
    "1820": 2,
    "1909": 3,
    "1958": 2,
    "1642": 2,
    "1912": 2,
    "Bulldogs": 0,
    "Queensland": 0,
    "##arra": 0,
    "##rith": 0,
    "Parramatta": 0,
    "Auckland": 0,
    "Premiership": 1,
    "257": 2,
    "560": 4,
    "258": 3,
    "395": 3,
    "##lene": 0,
    "Thom": 1,
    "##ang": 1,
    "Wan": 0,
    "##ook": 0,
    "610": 3,
    "470": 5,
    "Rafael": 0,
    "##oma": 0,
    "berth": 1,
    "trailed": 2,
    "relieve": 6,
    "Kyle": 0,
    "Abbott": 0,
    "sacrificed": 1,
    "Bragg": 0,
    "contact": 12,
    "##itzer": 0,
    "acquired": 6,
    "Marty": 0,
    "Yeah": 1,
    "Wally": 0,
    "Neill": 0,
    "Triple": 0,
    "Columbus": 0,
    "defeating": 3,
    "Cardinals": 0,
    "Padres": 0,
    "Rosa": 0,
    "Tucker": 0,
    "cellar": 1,
    "##BS": 0,
    "Braves": 0,
    "Cubs": 0,
    "hang": 2,
    "##tz": 0,
    "Colorado": 0,
    "Ellis": 0,
    "Rockies": 0,
    "Pirates": 0,
    "Cast": 1,
    "Dante": 0,
    "Kurt": 0,
    "tired": 2,
    "##dio": 0,
    "##azza": 0,
    "Holland": 0,
    "##sworth": 0,
    "Dodgers": 0,
    "Joey": 0,
    "Rick": 0,
    "Phillies": 0,
    "Giants": 0,
    "lasted": 1,
    "Houston": 0,
    "Orlando": 0,
    "##yre": 1,
    "Astros": 0,
    "virtual": 2,
    "NL": 0,
    "Shane": 0,
    "Reynolds": 0,
    "kicked": 2,
    "Set": 0,
    "##uba": 0,
    "squeeze": 1,
    "##iser": 7,
    "string": 4,
    "opportunities": 2,
    "##med": 9,
    "##quin": 0,
    "keeper": 1,
    "Rodrigo": 0,
    "lack": 12,
    "apparent": 4,
    "knee": 8,
    "##lta": 0,
    "tripped": 1,
    "referee": 2,
    "nose": 1,
    "Ida": 0,
    "whistle": 4,
    "Vicente": 0,
    "##uta": 0,
    "##ntina": 0,
    "perfect": 4,
    "birthday": 4,
    "1926": 1,
    "marked": 4,
    "Franco": 0,
    "Montenegrin": 0,
    "##vice": 0,
    "weaving": 1,
    "checking": 4,
    "Told": 0,
    "looming": 1,
    "Boca": 0,
    "Juniors": 0,
    "curling": 1,
    "dipping": 1,
    "##igo": 0,
    "##oring": 1,
    "reward": 3,
    "rusty": 1,
    "##ggio": 0,
    "substitute": 4,
    "##ppa": 1,
    "Norwegian": 0,
    "Viking": 0,
    "Rosen": 0,
    "##borg": 0,
    "Swiss": 0,
    "Boys": 0,
    "Luce": 0,
    "##rne": 0,
    "##gano": 0,
    "##alle": 1,
    "480": 2,
    "247": 3,
    "233": 1,
    "360": 1,
    "978": 1,
    "207": 2,
    "580": 2,
    "Payne": 0,
    "165": 4,
    "cycling": 9,
    "##gat": 3,
    "Muse": 0,
    "Armstrong": 0,
    "Casa": 0,
    "##nde": 0,
    "Alessandro": 0,
    "Baron": 0,
    "##uck": 0,
    "##lda": 0,
    "##chenko": 0,
    "weekends": 1,
    "similarly": 1,
    "narrow": 5,
    "237": 2,
    "pack": 4,
    "##drome": 2,
    "faded": 4,
    "##rito": 0,
    "##ntial": 2,
    "193": 1,
    "203": 5,
    "Emerson": 0,
    "Baker": 0,
    "Ernest": 0,
    "Faber": 0,
    "Ronald": 0,
    "Water": 0,
    "##reus": 0,
    "corner": 3,
    "Romano": 0,
    "##issa": 1,
    "dismissal": 2,
    "##vel": 2,
    "Erwin": 0,
    "Gaston": 0,
    "Pablo": 0,
    "Hare": 0,
    "##bek": 0,
    "##chel": 0,
    "##roo": 0,
    "7th": 3,
    "Arnold": 0,
    "##ime": 3,
    "Blind": 0,
    "selection": 1,
    "devote": 1,
    "opener": 3,
    "Singh": 0,
    "Sid": 0,
    "quit": 9,
    "##feit": 5,
    "Control": 0,
    "Cricket": 3,
    "##garh": 0,
    "Singer": 0,
    "Sahara": 0,
    "premiership": 2,
    "Sean": 0,
    "##patrick": 0,
    "magic": 1,
    "moments": 3,
    "##PA": 0,
    "moves": 4,
    "tackles": 1,
    "emotions": 1,
    "Marshall": 0,
    "emptied": 1,
    "punching": 1,
    "bucks": 1,
    "spontaneous": 2,
    "exhausted": 2,
    "gut": 1,
    "nowhere": 2,
    "choice": 7,
    "riding": 5,
    "amazing": 1,
    "winger": 2,
    "bug": 3,
    "4000": 2,
    "supporters": 6,
    "Message": 2,
    "##will": 4,
    "rang": 1,
    "##gratulations": 1,
    "thanked": 3,
    "nice": 3,
    "understand": 4,
    "tremendous": 3,
    "Rugby": 3,
    "apartheid": 13,
    "enforce": 2,
    "commission": 19,
    "##ena": 8,
    "dig": 2,
    "beneath": 1,
    "rational": 2,
    "sinister": 1,
    "whites": 2,
    "Archbishop": 4,
    "Desmond": 0,
    "Truth": 0,
    "paint": 5,
    "##pologies": 1,
    "hearings": 1,
    "confession": 1,
    "personally": 1,
    "crimes": 4,
    "testify": 3,
    "separate": 3,
    "souls": 1,
    "tell": 5,
    "confess": 2,
    "abuses": 7,
    "testimony": 4,
    "deeds": 1,
    "##zee": 0,
    "##rain": 3,
    "voluntarily": 4,
    "advising": 2,
    "regarded": 2,
    "achieve": 5,
    "cited": 4,
    "interviews": 3,
    "submission": 3,
    "##stand": 1,
    "##fied": 2,
    "caller": 3,
    "utterly": 1,
    "useless": 1,
    "Political": 3,
    "##ano": 0,
    "doubted": 2,
    "implemented": 2,
    "1948": 6,
    "##sman": 3,
    "##tling": 2,
    "burden": 3,
    "guilt": 1,
    "##pate": 1,
    "Therefore": 1,
    "doubts": 4,
    "yourself": 2,
    "historical": 3,
    "Professor": 1,
    "Lodge": 0,
    "##waters": 0,
    "irritation": 1,
    "jokes": 1,
    "anger": 3,
    "express": 6,
    "moral": 3,
    "une": 6,
    "##asi": 1,
    "##ons": 4,
    "##ibility": 2,
    "##cola": 1,
    "downward": 3,
    "Sami": 0,
    "partition": 3,
    "##ici": 2,
    "banner": 2,
    "displaced": 3,
    "angered": 3,
    "provision": 4,
    "Critics": 1,
    "billed": 1,
    "##int": 5,
    "shaping": 1,
    "facto": 1,
    "##ure": 4,
    "Dayton": 0,
    "truly": 1,
    "im": 3,
    "upon": 2,
    "municipality": 3,
    "Eleven": 1,
    "thousand": 2,
    "How": 2,
    "refugee": 7,
    "thrown": 5,
    "warning": 5,
    "fortune": 1,
    "applause": 1,
    "knot": 2,
    "ensured": 1,
    "mob": 3,
    "emotional": 3,
    "Line": 0,
    "dispersed": 1,
    "casino": 3,
    "blaze": 3,
    "deliberately": 1,
    "communism": 2,
    "engaged": 4,
    "armoured": 4,
    "##ait": 0,
    "carriers": 1,
    "##rries": 4,
    "element": 2,
    "Mexican": 0,
    "assertion": 2,
    "Commander": 6,
    "gun": 29,
    "Guerrero": 0,
    "irrational": 1,
    "ER": 0,
    "southwestern": 1,
    "manual": 2,
    "detailing": 2,
    "tactics": 2,
    "strategies": 1,
    "Basic": 2,
    "Course": 1,
    "basic": 4,
    "apparatus": 1,
    "commanders": 3,
    "granted": 4,
    "volatile": 1,
    "protesters": 6,
    "violently": 1,
    "unrelated": 1,
    "##tista": 0,
    "##ishes": 1,
    "dragged": 6,
    "killings": 4,
    "##dell": 0,
    "linking": 7,
    "Forces": 0,
    "##unity": 3,
    "##firmed": 4,
    "paramilitary": 1,
    "##rana": 0,
    "climbs": 1,
    "Burma": 0,
    "Burmese": 0,
    "##lint": 3,
    "ambushed": 2,
    "Buddhist": 0,
    "Mae": 0,
    "allied": 5,
    "##ltration": 1,
    "##trusion": 3,
    "reinforcements": 2,
    "##orous": 1,
    "frontier": 1,
    "intermittent": 1,
    "inhabitants": 1,
    "villages": 2,
    "reject": 3,
    "explanation": 3,
    "supplies": 9,
    "directs": 1,
    "catches": 2,
    "##urion": 0,
    "wheel": 1,
    "pilots": 1,
    "Airport": 2,
    "brigade": 1,
    "jar": 4,
    "reveal": 7,
    "mum": 4,
    "Arch": 1,
    "##ologists": 1,
    "pots": 2,
    "Egyptians": 0,
    "burial": 1,
    "rites": 1,
    "##fication": 3,
    "Museum": 1,
    "contain": 2,
    "##test": 4,
    "##ines": 2,
    "tomb": 3,
    "##hou": 1,
    "pyramid": 1,
    "Metropolitan": 0,
    "##gue": 1,
    "Dynasty": 0,
    "1786": 1,
    "BC": 0,
    "finding": 9,
    "contains": 1,
    "substances": 2,
    "conservation": 3,
    "cavity": 1,
    "analysis": 4,
    "liquid": 11,
    "execute": 1,
    "gang": 3,
    "Ahmad": 0,
    "Mecca": 0,
    "##heads": 1,
    "murderer": 2,
    "democracy": 12,
    "stability": 4,
    "tolerate": 2,
    "##ash": 0,
    "Bahrain": 0,
    "##bari": 1,
    "commit": 3,
    "ceiling": 2,
    "Sultan": 1,
    "releases": 3,
    "expresses": 2,
    "traditions": 1,
    "speaker": 11,
    "react": 2,
    "##ivate": 1,
    "legislative": 3,
    "##zman": 0,
    "consult": 2,
    "weighing": 1,
    "consulted": 2,
    "speak": 13,
    "Earlier": 7,
    "Ah": 0,
    "fitting": 1,
    "cool": 5,
    "bombers": 2,
    "##AA": 0,
    "donated": 1,
    "oppose": 10,
    "education": 6,
    "columns": 1,
    "##rah": 0,
    "Tam": 0,
    "establish": 5,
    "Cabinet": 3,
    "puts": 2,
    "Internal": 1,
    "warns": 1,
    "##oting": 4,
    "Lebanese": 0,
    "parliamentary": 14,
    "voters": 16,
    "eligible": 1,
    "choose": 4,
    "thin": 8,
    "trick": 9,
    "casting": 1,
    "ballots": 3,
    "polling": 3,
    "stations": 5,
    "invites": 1,
    "Caesar": 0,
    "ceremonial": 1,
    "architect": 3,
    "spoken": 1,
    "frequently": 2,
    "urging": 1,
    "Corporate": 2,
    "employee": 10,
    "skilled": 5,
    "nicely": 1,
    "contribute": 6,
    "consulting": 3,
    "Towers": 0,
    "performs": 1,
    "Present": 1,
    "accountant": 3,
    "salary": 2,
    "Sandra": 0,
    "principal": 3,
    "evaluated": 1,
    "solely": 1,
    "skill": 1,
    "abilities": 2,
    "skills": 3,
    "creative": 1,
    "sensitive": 3,
    "customer": 7,
    "needs": 2,
    "productivity": 2,
    "organisation": 3,
    "corporations": 2,
    "surveyed": 4,
    "restructuring": 4,
    "Next": 2,
    "agenda": 7,
    "structure": 3,
    "##ex": 1,
    "concept": 2,
    "defined": 1,
    "Multi": 1,
    "layers": 1,
    "ask": 7,
    "eliminate": 1,
    "increases": 2,
    "incentives": 2,
    "Companies": 1,
    "culture": 3,
    "rated": 11,
    "performing": 2,
    "managers": 1,
    "decisions": 7,
    "engaging": 1,
    "Gee": 0,
    "##FC": 0,
    "##ors": 11,
    "##secutor": 3,
    "Georges": 0,
    "insurance": 9,
    "fraud": 10,
    "forge": 2,
    "searches": 2,
    "sites": 4,
    "Gerard": 0,
    "Pig": 0,
    "##non": 0,
    "warehouse": 1,
    "stolen": 2,
    "##urer": 4,
    "##erry": 0,
    "abducted": 4,
    "disagreement": 2,
    "Another": 4,
    "##EG": 1,
    "funding": 3,
    "pub": 1,
    "##ished": 4,
    "texts": 1,
    "practically": 1,
    "##iera": 0,
    "fortress": 1,
    "widely": 5,
    "##AF": 1,
    "##zad": 0,
    "instantly": 2,
    "##bad": 0,
    "##bull": 0,
    "##ope": 3,
    "##tled": 3,
    "Supreme": 2,
    "##ordination": 0,
    "powerful": 4,
    "warlord": 1,
    "Rashid": 0,
    "##ddin": 0,
    "rejoined": 2,
    "persuade": 4,
    "burn": 1,
    "Has": 0,
    "battled": 1,
    "Sheikh": 4,
    "##rica": 1,
    "ruling": 13,
    "##wami": 1,
    "battles": 1,
    "##tha": 2,
    "alleging": 2,
    "tear": 1,
    "stones": 1,
    "bombs": 2,
    "Nationalist": 2,
    "##NP": 0,
    "coincided": 1,
    "Local": 4,
    "policeman": 4,
    "gunshot": 2,
    "section": 2,
    "grants": 1,
    "urged": 3,
    "legislators": 2,
    "##ncing": 2,
    "Hundreds": 2,
    "raided": 2,
    "outsider": 1,
    "student": 5,
    "dorm": 1,
    "##izing": 1,
    "stormed": 2,
    "halls": 2,
    "flushed": 1,
    "baggage": 1,
    "revolver": 1,
    "shotgun": 4,
    "knives": 1,
    "Chancellor": 3,
    "##eds": 4,
    "##tles": 1,
    "##gum": 0,
    "##hale": 0,
    "blanket": 1,
    "possess": 2,
    "firearms": 1,
    "##spective": 1,
    "identities": 2,
    "Nearly": 5,
    "crashes": 1,
    "##ile": 2,
    "drought": 6,
    "Irene": 0,
    "##ush": 0,
    "##HC": 0,
    "shiny": 1,
    "Deer": 0,
    "parked": 1,
    "hectare": 4,
    "acre": 4,
    "grain": 14,
    "regions": 7,
    "fill": 4,
    "##gro": 1,
    "enthusiasm": 2,
    "diesel": 5,
    "breakdown": 3,
    "machinery": 2,
    "loaned": 1,
    "Ukrainian": 0,
    "harvest": 4,
    "harsh": 1,
    "##pes": 1,
    "transition": 7,
    "fertile": 1,
    "boots": 1,
    "reputation": 6,
    "##ket": 1,
    "brutal": 2,
    "dictator": 7,
    "Josef": 0,
    "quality": 7,
    "Institute": 0,
    "##grarian": 0,
    "temperature": 2,
    "electricity": 3,
    "unpaid": 4,
    "dry": 3,
    "rainfall": 6,
    "harvesting": 1,
    "strains": 1,
    "resistant": 1,
    "extreme": 3,
    "continental": 1,
    "climate": 1,
    "agricultural": 3,
    "Collective": 2,
    "farms": 5,
    "##scent": 1,
    "herb": 2,
    "##icides": 3,
    "repair": 2,
    "priced": 3,
    "pigs": 1,
    "solutions": 1,
    "horizon": 1,
    "260": 4,
    "acres": 5,
    "borrow": 2,
    "lane": 2,
    "passes": 2,
    "occasional": 1,
    "horse": 2,
    "collective": 4,
    "neat": 1,
    "##idy": 2,
    "decay": 1,
    "##unta": 1,
    "strapped": 1,
    "##ety": 1,
    "tractor": 1,
    "badly": 5,
    "dedication": 1,
    "sit": 1,
    "cry": 2,
    "harvested": 2,
    "Plant": 2,
    "autumn": 5,
    "item": 1,
    "grows": 2,
    "Further": 3,
    "resources": 2,
    "subsidies": 2,
    "hectares": 4,
    "124": 6,
    "willing": 4,
    "hurry": 2,
    "##lect": 1,
    "negative": 8,
    "swell": 2,
    "##backs": 3,
    "Melanie": 0,
    "##ear": 0,
    "swelled": 1,
    "##but": 8,
    "stream": 2,
    "variety": 2,
    "divisional": 1,
    "##pp": 5,
    "illusion": 1,
    "arising": 2,
    "weakness": 4,
    "relative": 1,
    "Platinum": 0,
    "substantial": 5,
    "obvious": 1,
    "corporation": 1,
    "furnace": 2,
    "Coal": 0,
    "flooding": 2,
    "##lang": 0,
    "##loom": 7,
    "blocking": 2,
    "merger": 8,
    "platinum": 2,
    "disappointment": 1,
    "Looking": 2,
    "challenges": 1,
    "structured": 2,
    "##rud": 1,
    "financed": 2,
    "blessed": 1,
    "portfolio": 6,
    "businesses": 2,
    "##iting": 1,
    "disposal": 3,
    "holdings": 2,
    "concentrate": 3,
    "core": 2,
    "clean": 8,
    "commodity": 3,
    "invested": 1,
    "coal": 3,
    "cheaper": 1,
    "snapping": 2,
    "liked": 1,
    "##turn": 2,
    "Finally": 1,
    "offshore": 2,
    "Advanced": 0,
    "Medical": 1,
    "IV": 1,
    "Lilly": 0,
    "##fusion": 8,
    "therapy": 6,
    "merge": 1,
    "pumps": 2,
    "fluid": 2,
    "patient": 2,
    "proprietary": 3,
    "combined": 3,
    "provider": 1,
    "plants": 7,
    "Creed": 0,
    "##moor": 0,
    "DL": 1,
    "Merchant": 0,
    "Banking": 1,
    "expects": 6,
    "delivery": 13,
    "pump": 2,
    "regulated": 1,
    "##tric": 1,
    "fully": 3,
    "Mercer": 0,
    "CEO": 2,
    "Mall": 0,
    "##rod": 0,
    "regulatory": 3,
    "approval": 4,
    "Morris": 0,
    "mirror": 1,
    "bonds": 33,
    "NAS": 0,
    "fraction": 4,
    "##gged": 2,
    "Treasury": 0,
    "th": 4,
    "##rash": 1,
    "inaugural": 1,
    "secured": 7,
    "Know": 0,
    "Road": 0,
    "1975": 2,
    "soaked": 1,
    "Hunt": 0,
    "grabbed": 1,
    "##love": 0,
    "##kick": 1,
    "Gould": 0,
    "reign": 1,
    "toast": 1,
    "Broncos": 0,
    "offs": 1,
    "Sebastian": 0,
    "##olm": 0,
    "Made": 0,
    "Angelo": 0,
    "Finn": 0,
    "doubling": 2,
    "decisive": 5,
    "gearbox": 2,
    "strengthened": 1,
    "retirement": 3,
    "nearest": 1,
    "##DS": 5,
    "Sharpe": 0,
    "##ples": 2,
    "anchored": 1,
    "slice": 2,
    "fee": 2,
    "Rush": 0,
    "feeding": 1,
    "gal": 2,
    "##vour": 2,
    "arc": 3,
    "Wilkinson": 0,
    "becomes": 2,
    "feat": 1,
    "cricketer": 1,
    "Tests": 1,
    "##lee": 0,
    "Malcolm": 0,
    "Indies": 0,
    "Gibbs": 0,
    "True": 0,
    "307": 3,
    "Courtney": 0,
    "Walsh": 0,
    "bowling": 5,
    "Middlesex": 0,
    "137": 5,
    "118": 4,
    "142": 6,
    "231": 3,
    "136": 2,
    "Lord": 1,
    "requiring": 4,
    "950": 3,
    "Rica": 0,
    "Gonzalez": 0,
    "##ych": 1,
    "##elles": 0,
    "bowed": 3,
    "Trail": 2,
    "Mauritius": 0,
    "qualifiers": 2,
    "FIFA": 0,
    "breakthrough": 1,
    "##tian": 0,
    "crude": 10,
    "tackle": 1,
    "responded": 2,
    "Ashley": 0,
    "##ello": 0,
    "Botswana": 0,
    "Wind": 0,
    "Cameroon": 0,
    "Gabon": 0,
    "Tanzania": 0,
    "overcome": 4,
    "legs": 5,
    "elimination": 2,
    "##ilia": 1,
    "##tania": 0,
    "Benin": 0,
    "##tt": 1,
    "##chuk": 0,
    "##kla": 0,
    "##ori": 0,
    "##hak": 0,
    "##hta": 0,
    "Done": 0,
    "##tsk": 0,
    "##rp": 0,
    "Lviv": 0,
    "##tty": 0,
    "Odessa": 0,
    "##rop": 1,
    "swimming": 5,
    "freestyle": 2,
    "titles": 5,
    "##lov": 0,
    "expert": 1,
    "medicine": 5,
    "Olympics": 0,
    "abdomen": 1,
    "##mel": 1,
    "seller": 3,
    "kidney": 3,
    "##TV": 0,
    "worry": 2,
    "cheerful": 1,
    "attackers": 2,
    "Vita": 0,
    "swimmer": 2,
    "chosen": 3,
    "Slovak": 0,
    "##vid": 0,
    "##etal": 0,
    "Hungarian": 0,
    "Video": 0,
    "##of": 0,
    "##ok": 0,
    "##asa": 0,
    "III": 0,
    "Name": 2,
    "Parma": 0,
    "Petra": 0,
    "##ej": 0,
    "FK": 0,
    "##lone": 0,
    "Viktor": 0,
    "Sigma": 0,
    "Bohemian": 0,
    "##rvin": 0,
    "##ava": 0,
    "##lante": 0,
    "Atlas": 0,
    "Guadalajara": 0,
    "Monte": 0,
    "##rrey": 0,
    "Veracruz": 0,
    "Pac": 0,
    "##bla": 1,
    "##eca": 1,
    "##lay": 1,
    "##wood": 0,
    "catch": 7,
    "Janeiro": 0,
    "chartered": 1,
    "usual": 5,
    "package": 4,
    "##nac": 0,
    "##ctic": 3,
    "arrive": 3,
    "##lio": 0,
    "##aga": 1,
    "features": 1,
    "struggling": 2,
    "AR": 6,
    "##ante": 0,
    "##este": 0,
    "##die": 0,
    "##nte": 0,
    "Plate": 0,
    "##nus": 0,
    "##rrie": 0,
    "##ntes": 0,
    "Racing": 0,
    "Rosario": 0,
    "Plata": 0,
    "Lorenzo": 0,
    "Deportivo": 0,
    "Honduras": 0,
    "Castro": 0,
    "3rd": 3,
    "Enrique": 0,
    "##von": 0,
    "##ric": 0,
    "##uma": 1,
    "##inen": 0,
    "Formula": 0,
    "Moroccan": 0,
    "Casablanca": 0,
    "##tat": 0,
    "##esh": 0,
    "##dir": 0,
    "YOU": 2,
    "reads": 1,
    "please": 2,
    "shade": 1,
    "drink": 5,
    "plenty": 2,
    "fluids": 2,
    "advisory": 1,
    "concluding": 2,
    "##aris": 3,
    "##hly": 1,
    "coloured": 2,
    "litre": 1,
    "sustaining": 1,
    "##lous": 1,
    "noting": 1,
    "notorious": 1,
    "insult": 1,
    "offended": 1,
    "baked": 2,
    "las": 3,
    "Yorker": 0,
    "Rebecca": 0,
    "hungry": 2,
    "fork": 1,
    "pronounced": 3,
    "Carol": 0,
    "Perry": 0,
    "##imed": 2,
    "ridiculous": 1,
    "wine": 2,
    "Indeed": 1,
    "##nay": 1,
    "##del": 2,
    "alcoholic": 1,
    "##urger": 1,
    "##rench": 1,
    "snack": 1,
    "thirst": 1,
    "Make": 1,
    "cheese": 1,
    "rolls": 2,
    "Tuscany": 0,
    "Larry": 0,
    "Fine": 0,
    "youthful": 2,
    "finalist": 1,
    "Magdalena": 0,
    "Male": 0,
    "sunny": 1,
    "honoured": 1,
    "Stadium": 0,
    "##olio": 0,
    "worries": 4,
    "Hop": 1,
    "engagement": 1,
    "Meadows": 0,
    "float": 1,
    "semifinals": 4,
    "momentum": 3,
    "rhythm": 2,
    "errors": 2,
    "Manhattan": 0,
    "Beach": 1,
    "rookie": 1,
    "celebrated": 2,
    "removing": 3,
    "ringing": 2,
    "endorsement": 2,
    "newest": 1,
    "proven": 1,
    "##tle": 2,
    "quarters": 4,
    "conditioning": 1,
    "advance": 4,
    "scared": 2,
    "##aunt": 1,
    "Brenda": 0,
    "Schultz": 0,
    "Nana": 0,
    "Helena": 0,
    "prevailed": 2,
    "Barbara": 0,
    "Jing": 0,
    "fi": 6,
    "glad": 2,
    "sweating": 1,
    "Haas": 0,
    "embarrassing": 1,
    "cried": 1,
    "##making": 1,
    "kids": 1,
    "enjoy": 2,
    "tradition": 3,
    "strict": 3,
    "accordance": 2,
    "##tism": 1,
    "spots": 4,
    "ranking": 7,
    "approximately": 3,
    "outrage": 1,
    "mind": 6,
    "damaging": 2,
    "ought": 2,
    "focused": 4,
    "energies": 1,
    "##grown": 1,
    "controversy": 3,
    "engulfed": 1,
    "original": 7,
    "bumped": 2,
    "unfair": 3,
    "exits": 1,
    "##ddling": 1,
    "Rank": 1,
    "deserves": 2,
    "everybody": 3,
    "##ael": 0,
    "##gado": 0,
    "Paraguay": 0,
    "Henrietta": 0,
    "Sabine": 0,
    "##ppel": 0,
    "##mans": 0,
    "Cristina": 0,
    "heat": 4,
    "Die": 0,
    "##rama": 0,
    "##cchi": 0,
    "Anna": 0,
    "##urn": 0,
    "Richter": 0,
    "Debbie": 0,
    "Stephanie": 0,
    "Devil": 0,
    "##itt": 0,
    "##tina": 1,
    "Brand": 0,
    "Glass": 0,
    "Jaime": 0,
    "##rar": 0,
    "##iu": 0,
    "Linda": 0,
    "Wild": 0,
    "Sung": 0,
    "Meg": 0,
    "Rand": 0,
    "##rian": 0,
    "##fy": 1,
    "Madagascar": 0,
    "Elena": 0,
    "Flora": 0,
    "Lea": 0,
    "Neville": 0,
    "Alexandra": 0,
    "##sai": 0,
    "Jill": 0,
    "Christina": 0,
    "Jane": 0,
    "Call": 4,
    "Tyler": 0,
    "sweep": 4,
    "Foster": 0,
    "##ball": 2,
    "rotate": 1,
    "##lug": 4,
    "Wilkins": 0,
    "fielded": 3,
    "Hubbard": 0,
    "Chad": 0,
    "##nant": 2,
    "Reed": 0,
    "shoulder": 4,
    "530": 4,
    "405": 1,
    "appearing": 1,
    "battling": 1,
    "##tring": 3,
    "MR": 0,
    "mild": 5,
    "strain": 2,
    "lineup": 2,
    "exiting": 1,
    "outfielder": 3,
    "Sammy": 0,
    "baseman": 3,
    "Gas": 8,
    "Boer": 0,
    "Berg": 0,
    "##iger": 0,
    "Winter": 0,
    "##nale": 0,
    "Real": 0,
    "Madrid": 0,
    "31st": 3,
    "##nai": 0,
    "##tic": 0,
    "Slater": 0,
    "##reak": 0,
    "230": 8,
    "Flower": 0,
    "Deck": 0,
    "Shah": 0,
    "Wish": 0,
    "Evans": 0,
    "##kker": 0,
    "toss": 4,
    "Teams": 3,
    "Stuart": 0,
    "Dame": 0,
    "Fleming": 0,
    "Heath": 0,
    "story": 4,
    "##bic": 0,
    "Map": 0,
    "files": 2,
    "reorganization": 4,
    "app": 4,
    "##arel": 1,
    "filed": 14,
    "creditors": 4,
    "Between": 2,
    "##ization": 2,
    "reaches": 3,
    "Management": 1,
    "##lution": 3,
    "Passenger": 2,
    "blazing": 1,
    "safely": 1,
    "##uernsey": 0,
    "##dent": 7,
    "boats": 5,
    "Jersey": 0,
    "cluster": 1,
    "voting": 18,
    "municipal": 22,
    "nationwide": 1,
    "ballot": 11,
    "assemblies": 4,
    "Tomorrow": 3,
    "Provisional": 0,
    "Election": 0,
    "consider": 7,
    "select": 5,
    "specify": 3,
    "electorate": 1,
    "citizens": 2,
    "slated": 3,
    "canton": 3,
    "Representatives": 0,
    "Presidency": 1,
    "SD": 0,
    "Ambassador": 7,
    "systematically": 2,
    "discouraged": 1,
    "register": 6,
    "cast": 5,
    "##sing": 3,
    "Diploma": 4,
    "pivotal": 1,
    "voter": 5,
    "ethnicity": 1,
    "##sia": 0,
    "##vina": 0,
    "Jesse": 0,
    "Petersen": 0,
    "Special": 2,
    "sect": 1,
    "drumming": 1,
    "constituencies": 1,
    "memories": 1,
    "Macdonald": 0,
    "abandon": 2,
    "wrap": 1,
    "compromise": 5,
    "settlement": 21,
    "insistence": 5,
    "smoking": 1,
    "##pan": 1,
    "kn": 1,
    "arrange": 3,
    "ambitious": 1,
    "conclude": 1,
    "Say": 1,
    "##omy": 0,
    "undisclosed": 2,
    "meanwhile": 1,
    "departments": 2,
    "##ulation": 2,
    "limb": 1,
    "hardly": 2,
    "reelection": 2,
    "pains": 1,
    "suddenly": 1,
    "risked": 1,
    "acceptable": 2,
    "letting": 1,
    "Federation": 0,
    "encourage": 1,
    "tendencies": 1,
    "Caucasus": 0,
    "recover": 6,
    "receives": 1,
    "packet": 1,
    "factory": 5,
    "wages": 6,
    "revive": 3,
    "stubborn": 3,
    "strength": 2,
    "##sist": 1,
    "##agu": 0,
    "revival": 1,
    "consumed": 1,
    "Montenegro": 0,
    "##rag": 0,
    "bitterness": 1,
    "stirring": 1,
    "Late": 7,
    "branch": 2,
    "exaggerated": 1,
    "222": 3,
    "trim": 2,
    "Zagreb": 0,
    "settlements": 5,
    "Supply": 1,
    "calculated": 1,
    "##rates": 2,
    "##86": 2,
    "##bina": 0,
    "##CD": 0,
    "controllers": 8,
    "380": 2,
    "technicians": 1,
    "charter": 1,
    "carries": 3,
    "resorts": 2,
    "minimal": 1,
    "separation": 2,
    "Lil": 0,
    "##iana": 0,
    "satisfactory": 3,
    "Clinical": 0,
    "treats": 1,
    "Mrs": 4,
    "permanent": 4,
    "daughters": 1,
    "eye": 6,
    "Holding": 0,
    "convertible": 1,
    "##owski": 0,
    "premium": 15,
    "paying": 4,
    "##BR": 1,
    "exchanged": 3,
    "proceeds": 1,
    "modern": 1,
    "Unknown": 2,
    "##nap": 1,
    "##mber": 1,
    "Jett": 0,
    "##rio": 1,
    "fleeing": 4,
    "Preliminary": 1,
    "##gua": 0,
    "##cas": 0,
    "Santa": 0,
    "supposedly": 2,
    "tourist": 6,
    "guide": 3,
    "Reg": 2,
    "##fried": 0,
    "Nicola": 0,
    "##aus": 1,
    "bizarre": 3,
    "twist": 2,
    "Julio": 0,
    "##oja": 0,
    "sentiment": 7,
    "attachment": 1,
    "photographs": 5,
    "Rican": 0,
    "##cion": 1,
    "projection": 2,
    "Alonso": 0,
    "revision": 2,
    "chiefly": 1,
    "fueled": 2,
    "##sca": 3,
    "loosened": 1,
    "commitments": 3,
    "schemes": 1,
    "Trick": 0,
    "##come": 0,
    "appreciation": 2,
    "Moreno": 0,
    "promotion": 1,
    "wire": 1,
    "transfers": 1,
    "accumulated": 2,
    "shy": 2,
    "typical": 3,
    "sq": 5,
    "helps": 3,
    "limit": 6,
    "Deal": 10,
    "Guillermo": 0,
    "##44": 7,
    "##him": 0,
    "Brasil": 0,
    "Latin": 0,
    "underwent": 4,
    "compression": 1,
    "Johns": 0,
    "Hopkins": 0,
    "drown": 1,
    "Venezuelan": 0,
    "sank": 3,
    "Lake": 0,
    "Mara": 0,
    "sinking": 1,
    "stern": 2,
    "##ject": 4,
    "secondary": 2,
    "credit": 6,
    "unidentified": 4,
    "Fifteen": 1,
    "suburban": 1,
    "ambulance": 2,
    "Transport": 0,
    "##ylon": 1,
    "##ailed": 4,
    "rear": 1,
    "overturned": 2,
    "spilling": 1,
    "Station": 0,
    "##ably": 1,
    "nasty": 1,
    "hunted": 1,
    "Shore": 0,
    "Sergeant": 1,
    "Pearson": 0,
    "##agan": 0,
    "##oper": 3,
    "##cote": 0,
    "##46": 4,
    "##itive": 2,
    "unsuccessful": 3,
    "disturbed": 1,
    "keeps": 1,
    "##tracts": 1,
    "mutually": 1,
    "contracts": 7,
    "308": 1,
    "slides": 1,
    "topped": 1,
    "##aring": 1,
    "takeover": 2,
    "operators": 2,
    "Spot": 6,
    "ample": 3,
    "respectively": 4,
    "deposed": 6,
    "PD": 0,
    "sued": 2,
    "##sting": 1,
    "##jou": 1,
    "##rned": 1,
    "lawyers": 3,
    "discussing": 4,
    "resign": 10,
    "Oman": 0,
    "Crown": 1,
    "Abdullah": 0,
    "Jed": 0,
    "shake": 2,
    "Pentagon": 0,
    "Pennsylvania": 0,
    "entirely": 2,
    "Airways": 1,
    "##elling": 1,
    "Airbus": 0,
    "surrender": 6,
    "asylum": 8,
    "dozens": 5,
    "cooperate": 4,
    "offensive": 1,
    "dividing": 1,
    "Raw": 0,
    "##inate": 2,
    "priest": 2,
    "protected": 2,
    "##uss": 0,
    "consequences": 2,
    "Bed": 0,
    "##cked": 1,
    "##cam": 6,
    "##pment": 1,
    "expansion": 4,
    "necklace": 1,
    "##maging": 1,
    "luggage": 2,
    "destroying": 1,
    "##hack": 3,
    "barn": 1,
    "##eep": 1,
    "miracle": 2,
    "zone": 1,
    "##rner": 0,
    "pursuing": 3,
    "Dead": 0,
    "metals": 3,
    "works": 3,
    "##num": 5,
    "grade": 10,
    "nominal": 1,
    "Lead": 3,
    "Grade": 1,
    "pp": 1,
    "melting": 1,
    "Copper": 2,
    "alloy": 2,
    "##38": 2,
    "Midwest": 0,
    "Turning": 1,
    "Mixed": 1,
    "clips": 1,
    "##fine": 4,
    "Bright": 1,
    "Burn": 1,
    "batteries": 1,
    "Producer": 1,
    "transaction": 1,
    "aluminum": 3,
    "##10": 3,
    "ing": 4,
    "Nora": 0,
    "pure": 3,
    "Run": 0,
    "backyard": 1,
    "nervous": 7,
    "teasing": 1,
    "Parkway": 0,
    "younger": 2,
    "brothers": 3,
    "tree": 5,
    "##row": 1,
    "Sheriff": 0,
    "stool": 1,
    "flashlight": 1,
    "bounce": 5,
    "##old": 2,
    "remains": 4,
    "Talbot": 0,
    "##robe": 0,
    "Ottawa": 0,
    "Georg": 0,
    "pattern": 3,
    "consultation": 2,
    "calendar": 3,
    "fairly": 5,
    "Haiti": 0,
    "sparked": 6,
    "Iowa": 0,
    "Illinois": 0,
    "matching": 1,
    "##gs": 5,
    "##tem": 2,
    "Producers": 1,
    "##mand": 1,
    "prepares": 2,
    "Gore": 0,
    "presents": 1,
    "##sner": 0,
    "Convention": 0,
    "Crow": 1,
    "anxiously": 1,
    "thrusting": 2,
    "grip": 3,
    "scream": 1,
    "marshal": 1,
    "stiff": 4,
    "transformed": 1,
    "energetic": 2,
    "gesturing": 1,
    "ripped": 1,
    "favorite": 1,
    "foil": 3,
    "roaring": 1,
    "labor": 1,
    "evil": 1,
    "mentioning": 1,
    "Housing": 2,
    "Kemp": 0,
    "ignorance": 1,
    "au": 4,
    "##city": 2,
    "monster": 1,
    "##ops": 1,
    "downtown": 1,
    "taste": 1,
    "coalition": 20,
    "justice": 7,
    "nominations": 3,
    "painted": 5,
    "horror": 2,
    "Republicans": 0,
    "liberties": 1,
    "##ering": 3,
    "vine": 1,
    "Education": 2,
    "productive": 3,
    "vision": 1,
    "lifts": 1,
    "builds": 3,
    "##oodoo": 1,
    "economics": 1,
    "warmed": 1,
    "ditch": 1,
    "rid": 3,
    "defense": 1,
    "praised": 5,
    "courage": 1,
    "regulations": 1,
    "dairy": 1,
    "comparison": 2,
    "milk": 3,
    "repeal": 1,
    "Act": 2,
    "criticized": 2,
    "stark": 1,
    "stakes": 2,
    "Actor": 2,
    "Reeve": 0,
    "mix": 3,
    "##versity": 1,
    "latter": 2,
    "advocate": 1,
    "politicians": 9,
    "##hardt": 0,
    "Das": 0,
    "Here": 2,
    "thumb": 1,
    "##nail": 2,
    "profiles": 1,
    "speakers": 1,
    "Reagan": 0,
    "passage": 3,
    "campaigned": 2,
    "##stop": 2,
    "1981": 3,
    "requires": 2,
    "mandatory": 1,
    "background": 3,
    "checks": 2,
    "##kley": 0,
    "comic": 1,
    "hero": 2,
    "Superman": 0,
    "movies": 2,
    "heroic": 1,
    "accomplished": 3,
    "horses": 1,
    "shattered": 3,
    "neck": 2,
    "##rte": 2,
    "##brae": 2,
    "equestrian": 1,
    "##ulp": 0,
    "paralyzed": 1,
    "extensive": 1,
    "spine": 1,
    "classical": 1,
    "##pical": 1,
    "handsome": 1,
    "performed": 2,
    "soap": 1,
    "operas": 1,
    "plucked": 1,
    "ambitions": 3,
    "congressional": 3,
    "sufficiently": 2,
    "legislature": 6,
    "##ruly": 1,
    "advocated": 2,
    "abortion": 12,
    "jaw": 1,
    "fiery": 2,
    "##ator": 1,
    "nomination": 11,
    "Dakota": 0,
    "surprisingly": 1,
    "presented": 1,
    "moderate": 3,
    "steam": 1,
    "##roll": 3,
    "##vering": 1,
    "gas": 8,
    "prairie": 1,
    "protecting": 1,
    "##ened": 3,
    "Agent": 0,
    "Orange": 0,
    "##olia": 1,
    "spray": 1,
    "Vietnam": 0,
    "healthcare": 2,
    "adult": 2,
    "Force": 0,
    "Dallas": 0,
    "##ough": 0,
    "Oklahoma": 0,
    "arguments": 1,
    "Karachi": 0,
    "##51": 4,
    "NW": 2,
    "dull": 2,
    "Puerto": 0,
    "##llan": 0,
    "##finery": 2,
    "functioning": 2,
    "Manuel": 0,
    "notion": 2,
    "sa": 7,
    "NY": 2,
    "##rage": 2,
    "##grade": 1,
    "##right": 1,
    "heating": 1,
    "Oil": 2,
    "bear": 1,
    "bids": 6,
    "scarce": 2,
    "Prairie": 3,
    "frost": 5,
    "anywhere": 2,
    "##belt": 1,
    "Environment": 0,
    "Apparently": 1,
    "Alberta": 0,
    "##eor": 1,
    "##ologist": 1,
    "Gerald": 0,
    "Manitoba": 0,
    "sky": 2,
    "moisture": 7,
    "##zing": 1,
    "Grande": 0,
    "proponent": 1,
    "moon": 1,
    "##rush": 0,
    "##lium": 4,
    "lawsuits": 3,
    "affects": 3,
    "immune": 3,
    "susceptible": 1,
    "remaining": 3,
    "suits": 5,
    "liability": 1,
    "typically": 2,
    "Timothy": 0,
    "Reid": 0,
    "vigorously": 1,
    "216": 3,
    "##fining": 2,
    "margins": 8,
    "Diamond": 0,
    "##rock": 0,
    "versus": 7,
    "Energy": 0,
    "Marion": 0,
    "NYC": 0,
    "Time": 0,
    "1200": 1,
    "Exempt": 1,
    "None": 3,
    "approx": 1,
    "Wes": 0,
    "##mont": 0,
    "Clark": 0,
    "##sburg": 0,
    "Ferris": 0,
    "Watts": 0,
    "Charleston": 0,
    "330": 5,
    "MB": 1,
    "@": 2,
    "##mos": 1,
    "##upon": 3,
    "##nding": 2,
    "OH": 0,
    "ACC": 2,
    "A1": 2,
    "##NF": 5,
    "##iver": 3,
    "##urity": 2,
    "List": 2,
    "Sons": 0,
    "Investment": 1,
    "Season": 0,
    "##good": 0,
    "Mayer": 0,
    "rode": 1,
    "rails": 1,
    "##lines": 5,
    "shaking": 2,
    "excited": 3,
    "Hillary": 0,
    "Huntington": 0,
    "rigorous": 1,
    "Friends": 0,
    "##minated": 1,
    "lady": 4,
    "interested": 3,
    "drifted": 2,
    "depressed": 2,
    "topping": 1,
    "shrugged": 2,
    "214": 2,
    "Engineering": 1,
    "Claude": 0,
    "##lou": 0,
    "stars": 1,
    "##guin": 0,
    "bankrupt": 1,
    "thus": 2,
    "ineligible": 3,
    "##lizzard": 1,
    "starring": 1,
    "instructions": 5,
    "cruel": 1,
    "comedy": 1,
    "mixing": 1,
    "careers": 1,
    "artist": 1,
    "##ub": 2,
    "strip": 2,
    "procedure": 5,
    "judgement": 1,
    "immunity": 1,
    "courts": 2,
    "rig": 1,
    "appealing": 1,
    "drains": 1,
    "drained": 1,
    "securities": 4,
    "##pur": 2,
    "##ders": 2,
    "##teral": 3,
    "satisfying": 2,
    "allotted": 1,
    "operative": 1,
    "Herman": 0,
    "##ffe": 1,
    "depend": 2,
    "##asing": 4,
    "##writing": 1,
    "digits": 1,
    "Garry": 0,
    "permits": 3,
    "hearted": 1,
    "##iation": 1,
    "foods": 2,
    "##ffs": 1,
    "##ropriations": 1,
    "speeding": 2,
    "epidemic": 10,
    "checked": 4,
    "booked": 1,
    "debate": 13,
    "lacking": 1,
    "ethical": 1,
    "corrupt": 1,
    "accusations": 1,
    "convenient": 1,
    "accusation": 1,
    "seats": 3,
    "##fighting": 2,
    "Chart": 0,
    "fix": 5,
    "##ontaine": 0,
    "fashion": 1,
    "Manila": 0,
    "Philippines": 0,
    "##llers": 1,
    "##mura": 1,
    "##graded": 2,
    "institute": 1,
    "assigns": 1,
    "direction": 4,
    "225": 9,
    "primary": 3,
    "Aziz": 0,
    "inspector": 4,
    "shuttle": 1,
    "detection": 1,
    "destruction": 2,
    "##quisite": 2,
    "##rip": 1,
    "##pling": 3,
    "invading": 3,
    "ticket": 3,
    "altogether": 1,
    "backwards": 1,
    "Fear": 2,
    "locations": 2,
    "occupied": 2,
    "splitting": 1,
    "Maltese": 0,
    "Visitors": 1,
    "cheating": 1,
    "interviewed": 2,
    "complain": 1,
    "discipline": 1,
    "195": 7,
    "##ges": 1,
    "Alfred": 0,
    "Sant": 0,
    "demonstrate": 1,
    "demonstrated": 2,
    "##dar": 1,
    "Tiger": 0,
    "##urs": 0,
    "Santo": 0,
    "##relli": 0,
    "claw": 1,
    "##stead": 1,
    "uncertainty": 3,
    "monetary": 4,
    "Tank": 0,
    "hunters": 1,
    "patch": 3,
    "culminating": 1,
    "##settled": 2,
    "pulling": 1,
    "Shortly": 2,
    "##quished": 2,
    "##cker": 2,
    "##ahn": 0,
    "Consequently": 1,
    "rapid": 4,
    "swings": 2,
    "Floor": 1,
    "chemical": 2,
    "fantasy": 1,
    "squeezed": 1,
    "##tters": 3,
    "Besides": 1,
    "##lai": 2,
    "regain": 1,
    "##por": 2,
    "##ncies": 1,
    "##MU": 0,
    "Silver": 2,
    "diverted": 5,
    "trace": 1,
    "contacted": 3,
    "explosives": 7,
    "batch": 3,
    "Later": 3,
    "builders": 2,
    "Edna": 0,
    "##ndes": 0,
    "##cological": 1,
    "warfare": 2,
    "hurts": 2,
    "##cribed": 2,
    "Famous": 1,
    "conglomerate": 2,
    "targeted": 3,
    "##ivist": 2,
    "harmless": 1,
    "rag": 1,
    "hip": 1,
    "Harding": 0,
    "mobile": 2,
    "phones": 1,
    "communicate": 1,
    "gather": 1,
    "demos": 1,
[...]
