{
  "B": {
    "IL": 2059,
    "-": 155,
    "2": 15,
    "gene": 7,
    "expression": 4,
    "and": 28,
    "N": 2515,
    "##F": 2580,
    "ka": 119,
    "##ppa": 308,
    "B": 373,
    "activation": 19,
    "through": 0,
    "CD": 825,
    "##28": 127,
    "requires": 0,
    "reactive": 0,
    "oxygen": 1,
    "production": 0,
    "by": 0,
    "5": 125,
    "lip": 12,
    "##ox": 38,
    "##y": 98,
    "##gen": 62,
    "##ase": 127,
    ".": 0,
    "Act": 6,
    "##ivation": 13,
    "of": 0,
    "the": 1,
    "surface": 14,
    "receptor": 24,
    "provides": 0,
    "a": 18,
    "major": 51,
    "cost": 4,
    "##im": 10,
    "##ulatory": 15,
    "signal": 40,
    "for": 0,
    "T": 1475,
    "cell": 54,
    "resulting": 0,
    "in": 79,
    "enhanced": 0,
    "inter": 450,
    "##le": 390,
    "##uki": 381,
    "##n": 588,
    "(": 11,
    ")": 0,
    "proliferation": 1,
    "In": 8,
    "primary": 6,
    "l": 143,
    "##ymph": 80,
    "##ocytes": 0,
    "we": 0,
    "show": 0,
    "that": 0,
    "##iga": 0,
    "##tion": 0,
    "leads": 0,
    "to": 0,
    "rapid": 0,
    "##tra": 39,
    "##cellular": 68,
    "formation": 0,
    "intermediate": 1,
    "##s": 358,
    "R": 150,
    "##O": 92,
    "##I": 124,
    "which": 0,
    "are": 0,
    "required": 0,
    "mediated": 0,
    "/": 57,
    "re": 125,
    "##sp": 59,
    "##ons": 29,
    "##ive": 8,
    "complex": 7,
    "Del": 0,
    "##ine": 94,
    "##ation": 6,
    "signaling": 16,
    "ca": 120,
    "##sca": 0,
    "##de": 14,
    "was": 0,
    "found": 0,
    "involve": 0,
    "protein": 188,
    "t": 125,
    "##yr": 65,
    "##os": 151,
    "kinase": 24,
    "activity": 0,
    ",": 0,
    "followed": 0,
    "p": 913,
    "##hos": 59,
    "##ph": 57,
    "##oli": 12,
    "##pas": 12,
    "##e": 47,
    "A2": 4,
    "These": 0,
    "findings": 0,
    "should": 0,
    "be": 0,
    "useful": 0,
    "therapeutic": 0,
    "strategies": 0,
    "development": 0,
    "im": 109,
    "##mu": 110,
    "##nos": 5,
    "##up": 3,
    "##press": 8,
    "##ants": 1,
    "targeting": 0,
    "pathway": 0,
    "The": 0,
    "per": 16,
    "##i": 27,
    "site": 11,
    "media": 1,
    "##tes": 0,
    "human": 435,
    "##no": 93,
    "##ficiency": 0,
    "virus": 3,
    "type": 41,
    "enhance": 74,
    "##r": 234,
    "mon": 67,
    "but": 0,
    "not": 0,
    "cells": 0,
    "HIV": 204,
    "1": 55,
    "display": 0,
    "significant": 0,
    "differences": 0,
    "nuclei": 0,
    "##c": 381,
    "acid": 2,
    "sequence": 19,
    "natural": 7,
    "history": 0,
    "clinical": 0,
    "disease": 0,
    "Con": 2,
    "##sist": 1,
    "##ent": 3,
    "with": 0,
    "these": 0,
    "have": 0,
    "previously": 1,
    "demonstrated": 0,
    "promoter": 142,
    "region": 7,
    "functions": 0,
    "quite": 0,
    "differently": 0,
    "from": 0,
    "Whereas": 0,
    "following": 0,
    "stimulation": 0,
    "is": 12,
    "largely": 0,
    "binding": 55,
    "transcription": 690,
    "factor": 7,
    "two": 6,
    "adjacent": 7,
    "sites": 1,
    "long": 30,
    "terminal": 5,
    "repeat": 1,
    "dependent": 0,
    "on": 25,
    "four": 2,
    "c": 1342,
    "##is": 71,
    "acting": 0,
    "elements": 6,
    ":": 0,
    "single": 11,
    "pu": 16,
    "##rine": 46,
    "rich": 0,
    "P": 600,
    "##u": 25,
    "##B": 785,
    "##1": 1166,
    "##2": 740,
    "pets": 1,
    "We": 0,
    "now": 0,
    "identified": 0,
    "novel": 25,
    "element": 7,
    "within": 0,
    "immediately": 0,
    "upstream": 36,
    "designated": 0,
    "This": 0,
    "conserved": 14,
    "among": 0,
    "##olate": 2,
    "closely": 1,
    "related": 0,
    "si": 21,
    "##mian": 8,
    "trans": 70,
    "##fect": 0,
    "##ion": 2,
    "ass": 0,
    "##ays": 0,
    "this": 0,
    "##te": 134,
    "##oc": 145,
    "##ytic": 18,
    "lines": 0,
    "Further": 0,
    "while": 0,
    "specific": 19,
    "con": 23,
    "##st": 32,
    "##it": 27,
    "##utive": 23,
    "seen": 0,
    "##hor": 9,
    "##bol": 7,
    "est": 34,
    "##ers": 0,
    "induce": 1,
    "additional": 0,
    "E": 762,
    "##A": 523,
    "su": 3,
    "##ce": 4,
    "##pt": 7,
    "##ibility": 3,
    "killing": 0,
    "##K": 636,
    "immortal": 0,
    "##ization": 1,
    "ad": 71,
    "##eno": 35,
    "##virus": 30,
    "infection": 0,
    "Aden": 1,
    "##ov": 3,
    "##ir": 1,
    "##us": 56,
    "Ad": 19,
    "were": 0,
    "used": 0,
    "model": 0,
    "changes": 0,
    "caused": 0,
    "##ient": 1,
    "vs": 0,
    "stable": 0,
    "Only": 0,
    "stab": 0,
    "##ly": 40,
    "##fected": 5,
    "target": 11,
    "exhibited": 0,
    "##yt": 545,
    "##oly": 25,
    "##tic": 214,
    "despite": 0,
    "equivalent": 0,
    "levels": 0,
    "proteins": 2,
    "infected": 0,
    "targets": 0,
    "inability": 0,
    "products": 0,
    "during": 0,
    "explained": 0,
    "an": 12,
    "inhibitor": 20,
    "effect": 7,
    "viral": 75,
    "otherwise": 0,
    "susceptible": 1,
    "or": 6,
    "effects": 0,
    "class": 69,
    "I": 802,
    "M": 248,
    "##HC": 83,
    "anti": 277,
    "differential": 1,
    "##hen": 30,
    "##otype": 1,
    "suggests": 0,
    "provide": 0,
    "effective": 0,
    "##log": 30,
    "##ic": 78,
    "barrier": 0,
    "against": 0,
    "v": 73,
    "##ivo": 1,
    "survival": 1,
    "neo": 2,
    "##p": 368,
    "##lastic": 0,
    "progression": 0,
    "##ized": 12,
    "may": 0,
    "emerge": 0,
    "reservoir": 0,
    "persistent": 0,
    "host": 6,
    "##4": 200,
    "core": 22,
    "##ceptor": 4,
    "interact": 0,
    "non": 28,
    "##morphic": 4,
    "regions": 0,
    "his": 20,
    "##to": 71,
    "##com": 4,
    "##pa": 20,
    "##ti": 22,
    "##bility": 1,
    "II": 1,
    "molecules": 0,
    "presenting": 0,
    "contributes": 0,
    "investigated": 0,
    "trigger": 0,
    "##ing": 5,
    "act": 43,
    "##ivating": 11,
    "signals": 1,
    "##oma": 22,
    "using": 0,
    "##lon": 38,
    "##al": 324,
    "antibodies": 22,
    "m": 223,
    "##b": 169,
    "recognize": 0,
    "different": 0,
    "e": 51,
    "##pit": 14,
    "##ope": 10,
    "demonstrate": 0,
    "delivers": 0,
    "capable": 0,
    "AT": 26,
    "Lac": 0,
    "##k": 54,
    "full": 11,
    "could": 0,
    "correlated": 0,
    "dramatically": 0,
    "reduced": 0,
    "capacity": 0,
    "calcium": 10,
    "flux": 0,
    "complement": 6,
    "##ed": 20,
    "ion": 1,
    "##op": 108,
    "##hore": 0,
    "results": 0,
    "identify": 0,
    "functional": 12,
    "distinct": 0,
    "involved": 0,
    "Ra": 95,
    "C": 460,
    "pathways": 0,
    "Liga": 0,
    "##nd": 10,
    "repression": 3,
    "er": 83,
    "##hr": 99,
    "##oid": 269,
    "GA": 315,
    "##TA": 369,
    "##rogen": 76,
    "High": 1,
    "dose": 0,
    "administration": 0,
    "##emia": 0,
    "mammals": 0,
    "chickens": 0,
    "stimulate": 1,
    "out": 0,
    "##gro": 1,
    "##wth": 0,
    "bone": 0,
    "ma": 28,
    "##rrow": 1,
    "derived": 0,
    "pro": 200,
    "##itor": 1,
    "delay": 0,
    "their": 0,
    "mat": 0,
    "##uration": 0,
    "associated": 1,
    "down": 1,
    "regulation": 0,
    "many": 0,
    "genes": 36,
    "including": 0,
    "alpha": 96,
    "beta": 108,
    "g": 361,
    "##lo": 103,
    "##bin": 63,
    "band": 5,
    "3": 44,
    "4": 13,
    "##tone": 18,
    "H": 374,
    "##5": 354,
    "here": 0,
    "also": 0,
    "reduce": 0,
    "number": 0,
    "cultures": 0,
    "strongly": 0,
    "##pressed": 1,
    "ER": 115,
    "##igan": 13,
    "##d": 105,
    "manner": 0,
    "##versible": 0,
    "presence": 0,
    "h": 139,
    "##ydro": 6,
    "##xy": 0,
    "##tam": 0,
    "##ife": 0,
    "bind": 0,
    "each": 0,
    "other": 0,
    "##ro": 5,
    "absence": 0,
    "DNA": 164,
    "Map": 0,
    "##ping": 0,
    "experiments": 0,
    "indicate": 0,
    "form": 0,
    "at": 5,
    "least": 0,
    "contacts": 0,
    "finger": 1,
    "domain": 3,
    "s": 74,
    "##pec": 0,
    "##ulate": 0,
    "ex": 48,
    "##ert": 1,
    "##oi": 41,
    "##esis": 0,
    "##od": 9,
    "##ulating": 1,
    "interaction": 1,
    "Mouse": 1,
    "Inter": 76,
    "control": 0,
    "via": 0,
    "shown": 0,
    "##R": 540,
    "##8": 50,
    "##uri": 155,
    "##ne": 333,
    "##yte": 68,
    "precursor": 2,
    "Here": 0,
    "map": 0,
    "##ness": 0,
    "mouse": 37,
    "thy": 29,
    "##mic": 63,
    "hybrid": 7,
    "PC": 15,
    "##60": 8,
    "synthesis": 0,
    "independent": 1,
    "appearance": 0,
    "##RNA": 88,
    "blocked": 0,
    "segment": 0,
    "as": 2,
    "##du": 29,
    "##cible": 27,
    "lies": 0,
    "becomes": 0,
    "D": 92,
    "##N": 504,
    "##yper": 5,
    "##sen": 13,
    "##sitive": 4,
    "normal": 5,
    "has": 0,
    "been": 0,
    "induced": 1,
    "three": 1,
    "Two": 0,
    "potential": 3,
    "ST": 433,
    "##AT": 484,
    "He": 11,
    "##mat": 29,
    "##etic": 3,
    "lineage": 8,
    "commitment": 0,
    "role": 0,
    "factors": 5,
    "review": 0,
    "focuses": 0,
    "roles": 0,
    "hem": 43,
    "##ato": 21,
    "##po": 80,
    "##iet": 23,
    "A": 82,
    "brief": 0,
    "introduction": 0,
    "##ym": 3,
    "##metric": 1,
    "division": 0,
    "discussion": 0,
    "several": 3,
    "methods": 0,
    "important": 0,
    "specify": 0,
    "types": 0,
    "Next": 0,
    "presented": 0,
    "use": 0,
    "em": 2,
    "##ryo": 5,
    "##nic": 6,
    "stem": 5,
    "analysis": 0,
    "targeted": 1,
    "disruption": 0,
    "analyze": 0,
    "##ies": 0,
    "Finally": 0,
    "status": 0,
    "our": 0,
    "current": 0,
    "knowledge": 0,
    "concerning": 0,
    "my": 45,
    "##elo": 37,
    "##id": 84,
    "summarized": 0,
    "##ps": 73,
    "##tein": 65,
    "Barr": 0,
    "replica": 0,
    "##tive": 1,
    "de": 10,
    "no": 0,
    "##vo": 0,
    "##mo": 21,
    "##cy": 98,
    "simultaneous": 0,
    "early": 18,
    "##Z": 129,
    "##LF": 85,
    "its": 0,
    "##or": 24,
    "RA": 137,
    "others": 0,
    "##V": 121,
    "can": 0,
    "subset": 0,
    "accompanied": 0,
    "linear": 2,
    "genome": 0,
    "8": 1,
    "##cular": 0,
    "detected": 0,
    "contrast": 0,
    "where": 0,
    "circular": 0,
    "##ize": 0,
    "24": 8,
    "fusion": 19,
    "##cript": 0,
    "comprised": 0,
    "lo": 9,
    "##cus": 10,
    "BR": 32,
    "##T": 470,
    "Z": 124,
    "##E": 328,
    "##BR": 47,
    "##re": 14,
    "##ci": 8,
    "addition": 0,
    "##NA": 149,
    "##cribed": 1,
    "F": 220,
    "rather": 0,
    "than": 0,
    "W": 24,
    "late": 26,
    "##ntly": 0,
    "observations": 0,
    "suggest": 0,
    "differs": 0,
    "##dent": 4,
    "##ification": 0,
    "##rification": 0,
    "St": 200,
    "##at": 197,
    "activated": 12,
    "response": 3,
    "key": 3,
    "##oki": 425,
    "immune": 6,
    "Following": 0,
    "encoding": 0,
    "various": 3,
    "chains": 0,
    "##ally": 6,
    "turn": 0,
    "secret": 3,
    "serves": 0,
    "differentiation": 5,
    "lead": 0,
    "set": 0,
    "Human": 23,
    "peripheral": 2,
    "blood": 1,
    "observed": 0,
    "contain": 0,
    "activities": 0,
    "Similar": 0,
    "transformed": 1,
    "line": 0,
    "termed": 1,
    "Y": 40,
    "##rified": 5,
    "principal": 1,
    "component": 0,
    "bears": 0,
    "##la": 21,
    "##ct": 93,
    "##in": 301,
    "first": 5,
    "sheep": 0,
    "##mma": 2,
    "##ry": 12,
    "##land": 3,
    "tissue": 19,
    "##pot": 1,
    "##hes": 10,
    "##S": 234,
    "##tat": 5,
    "helps": 0,
    "govern": 0,
    "biological": 1,
    "##lin": 49,
    "like": 0,
    "repair": 0,
    "enzyme": 10,
    "u": 35,
    "##rac": 3,
    "##il": 5,
    "##cos": 4,
    "##yla": 12,
    "##se": 26,
    "evidence": 0,
    "auto": 9,
    "##gu": 2,
    "##lator": 4,
    "mechanism": 0,
    "cycle": 0,
    "regulate": 0,
    "species": 0,
    "U": 32,
    "##D": 201,
    "##G": 220,
    "o": 101,
    "##ste": 12,
    "##osa": 0,
    "##rc": 6,
    "Sa": 0,
    "put": 22,
    "##ative": 23,
    "downstream": 11,
    "located": 0,
    "##on": 145,
    "##P": 468,
    "relationship": 0,
    "between": 3,
    "product": 0,
    "##ay": 0,
    "result": 0,
    "##hetical": 0,
    "integrate": 0,
    "one": 0,
    "likely": 0,
    "imp": 0,
    "##lica": 0,
    "multi": 13,
    "##function": 2,
    "enzymes": 3,
    "possibly": 0,
    "damage": 0,
    "negative": 19,
    "##fer": 119,
    "gamma": 90,
    "IF": 372,
    "##nor": 15,
    "##eg": 14,
    "produced": 0,
    "predominantly": 0,
    "large": 0,
    "##ran": 69,
    "##ular": 0,
    "L": 401,
    "##L": 435,
    "extra": 24,
    "particular": 0,
    "##ns": 19,
    "12": 10,
    "potent": 2,
    "##rs": 14,
    "both": 0,
    "Although": 0,
    "it": 0,
    "reported": 0,
    "there": 0,
    "some": 0,
    "produce": 0,
    "yet": 0,
    "report": 0,
    "killer": 0,
    "responds": 0,
    "similar": 0,
    "present": 0,
    "##3": 524,
    "measured": 0,
    "increases": 0,
    "##ulo": 74,
    "mac": 23,
    "##rop": 31,
    "##hage": 26,
    "colony": 3,
    "##mulating": 1,
    "GM": 124,
    "CS": 12,
    "##las": 68,
    "new": 3,
    "induction": 0,
    "appears": 0,
    "only": 0,
    "partially": 1,
    "depend": 0,
    "Furthermore": 0,
    "transforming": 9,
    "growth": 24,
    "##eni": 0,
    "##stein": 1,
    "suppress": 1,
    "generally": 0,
    "inactive": 8,
    "It": 8,
    "suppression": 0,
    "agents": 0,
    "##hibition": 0,
    "data": 0,
    "leading": 0,
    "serve": 0,
    "di": 32,
    "##sse": 0,
    "##cting": 1,
    "bio": 1,
    "##chemical": 0,
    "molecular": 3,
    "events": 0,
    "##9": 114,
    "##va": 10,
    "##v": 19,
    "##ulation": 0,
    "##CR": 238,
    "multiple": 22,
    "##ory": 49,
    "##lation": 11,
    "numerous": 0,
    "substrates": 0,
    "contains": 0,
    "structural": 4,
    "motifs": 0,
    "Sr": 13,
    "ho": 14,
    "##mology": 0,
    "##cks": 1,
    "##tri": 4,
    "domains": 0,
    "##uan": 3,
    "n": 55,
    "##uc": 89,
    "##leo": 40,
    "##tide": 16,
    "exchange": 0,
    "processes": 0,
    "unclear": 0,
    "over": 0,
    "##ex": 1,
    "alone": 0,
    "Ju": 1,
    "##rka": 1,
    "##t": 91,
    "nuclear": 402,
    "##FA": 337,
    "G": 422,
    "coupled": 0,
    "##ulated": 1,
    "suggesting": 0,
    "removal": 0,
    "67": 3,
    "amino": 39,
    "acids": 0,
    "activate": 1,
    "##H": 142,
    "function": 1,
    "further": 0,
    "mimic": 0,
    "##ked": 0,
    "though": 0,
    "upon": 0,
    "##f": 117,
    "To": 4,
    "involvement": 0,
    "analyzed": 0,
    "mutant": 25,
    "def": 4,
    "##icient": 0,
    "showed": 0,
    "intact": 2,
    "However": 0,
    "does": 0,
    "appear": 0,
    "influence": 0,
    "free": 0,
    "Take": 0,
    "together": 0,
    "plays": 0,
    "unidentified": 3,
    "##ximal": 41,
    "position": 5,
    "Po": 1,
    "AM": 73,
    "consensus": 35,
    "consists": 0,
    "subunit": 2,
    "There": 0,
    "A1": 6,
    "bound": 1,
    "driven": 0,
    "reporter": 51,
    "##mi": 27,
    "un": 18,
    "O": 85,
    "te": 12,
    "##cano": 1,
    "##yl": 29,
    "13": 2,
    "ace": 3,
    "##tate": 0,
    "##hy": 33,
    "##hem": 18,
    "##ag": 28,
    "##g": 352,
    "##lut": 34,
    "##ini": 23,
    "suppressed": 0,
    "Co": 6,
    "determined": 0,
    "ratio": 0,
    "extract": 0,
    "contained": 0,
    "cross": 2,
    "reacted": 0,
    "##mous": 1,
    "Northern": 0,
    "b": 69,
    "##lot": 3,
    "indicated": 0,
    "au": 0,
    "##gment": 0,
    "LP": 24,
    "responses": 0,
    "referred": 0,
    "##rim": 3,
    "well": 0,
    "established": 0,
    "occurs": 0,
    "poorly": 0,
    "defined": 0,
    "Using": 0,
    "##umour": 15,
    "ne": 9,
    "##rosis": 0,
    "##NF": 465,
    "designed": 0,
    "anal": 0,
    "##ys": 21,
    "detail": 0,
    "primarily": 0,
    "manifest": 0,
    "level": 0,
    "accumulation": 0,
    "pre": 5,
    "treatment": 0,
    "affected": 0,
    "magnitude": 0,
    "sensitivity": 0,
    "occurred": 0,
    "after": 0,
    "hours": 0,
    "prime": 1,
    "state": 0,
    "either": 0,
    "Prime": 0,
    "higher": 3,
    "rate": 0,
    "freshly": 0,
    "isolated": 2,
    "An": 0,
    "finding": 0,
    "much": 0,
    "more": 0,
    "increased": 0,
    "6": 1,
    "fold": 0,
    "possessed": 0,
    "89": 0,
    "ABS": 0,
    "##TR": 96,
    "##AC": 10,
    "##UN": 0,
    "##CA": 122,
    "##TE": 0,
    "250": 1,
    "##OR": 13,
    "##DS": 1,
    "developmental": 1,
    "minimal": 12,
    "##uta": 11,
    "##genesis": 0,
    "analyses": 0,
    "##iti": 5,
    "##ator": 1,
    "cap": 6,
    "##ts": 71,
    "My": 13,
    "zinc": 29,
    "MA": 79,
    "predominant": 1,
    "last": 1,
    "resembles": 0,
    "ME": 29,
    "##a": 158,
    "##AG": 4,
    "motif": 0,
    "critical": 1,
    "therefore": 0,
    "believe": 0,
    "play": 0,
    "##throp": 4,
    "##eti": 42,
    "##AL": 35,
    "SC": 44,
    "originally": 0,
    "##current": 0,
    "ch": 123,
    "##rom": 53,
    "##oso": 44,
    "##mal": 14,
    "##location": 4,
    "most": 0,
    "frequent": 0,
    "les": 0,
    "recognized": 0,
    "acute": 4,
    "##ob": 14,
    "le": 42,
    "##uke": 6,
    "##mia": 5,
    "basic": 21,
    "he": 86,
    "##lix": 12,
    "loop": 2,
    "characteristic": 0,
    "family": 1,
    "canonical": 3,
    "CA": 82,
    "##NT": 22,
    "##tero": 113,
    "##di": 38,
    "##mers": 13,
    "chemical": 0,
    "##ole": 3,
    "suggested": 0,
    "might": 0,
    "aspects": 0,
    "el": 17,
    "##icit": 0,
    "increase": 0,
    "increasing": 0,
    "##ili": 0,
    "##zing": 0,
    "##VA": 0,
    "subsequently": 0,
    "decay": 0,
    "##cc": 4,
    "##um": 2,
    "##duction": 1,
    "temporal": 0,
    "acts": 0,
    "post": 1,
    "##cription": 26,
    "Friend": 0,
    "##last": 9,
    "establish": 0,
    "link": 3,
    "mechanisms": 0,
    "member": 0,
    "diverse": 1,
    "Non": 0,
    "##rad": 0,
    "##io": 4,
    "##active": 1,
    "q": 0,
    "##uant": 0,
    "##lu": 186,
    "##co": 229,
    "##cor": 184,
    "##37": 2,
    "describe": 0,
    "method": 0,
    "relative": 0,
    "based": 0,
    "strand": 0,
    "competition": 0,
    "identical": 1,
    "sequences": 1,
    "##tin": 43,
    "flu": 0,
    "##ores": 0,
    "labeled": 0,
    "am": 2,
    "##lic": 17,
    "probe": 0,
    "##bel": 4,
    "As": 0,
    "quantity": 0,
    "double": 11,
    "decreased": 0,
    "accordance": 0,
    "mass": 0,
    "action": 0,
    "law": 0,
    "technique": 0,
    "successfully": 0,
    "applied": 0,
    "evaluate": 0,
    "before": 0,
    "##PA": 6,
    "combination": 0,
    "all": 15,
    "##tino": 55,
    "25": 2,
    "##dr": 6,
    "##vi": 1,
    "V": 130,
    "[": 4,
    "]": 0,
    "##xa": 1,
    "##met": 0,
    "##has": 0,
    "##one": 4,
    "up": 0,
    "perceived": 0,
    "S": 283,
    "ok": 2,
    "##ada": 2,
    "purely": 0,
    "##nes": 174,
    "such": 0,
    "regulatory": 58,
    "OK": 8,
    "responding": 0,
    "##ifer": 29,
    "construct": 0,
    "depended": 0,
    "ability": 0,
    "box": 2,
    "intense": 0,
    "expressed": 1,
    "nucleus": 0,
    "property": 0,
    "shared": 1,
    "##er": 49,
    "##HA": 32,
    "Re": 133,
    "deleted": 0,
    "Ta": 57,
    "Our": 0,
    "SP": 45,
    "selective": 2,
    "se": 30,
    "th": 42,
    "##oni": 0,
    "##pha": 193,
    "##tase": 15,
    "PP": 49,
    "facilitate": 0,
    "involving": 0,
    "general": 6,
    "would": 0,
    "independently": 0,
    "##yne": 0,
    "##rgy": 0,
    "low": 14,
    "basal": 4,
    "understand": 0,
    "bases": 0,
    "red": 6,
    "##unda": 0,
    "##ncy": 0,
    "##iot": 5,
    "compared": 0,
    "##BL": 0,
    "actions": 0,
    "rapidly": 0,
    "fresh": 0,
    "##activated": 1,
    "7": 1,
    "15": 15,
    "same": 0,
    "complexes": 2,
    "feature": 0,
    "existence": 0,
    "##lated": 16,
    "dock": 1,
    "studies": 0,
    "combinations": 0,
    "under": 0,
    "physiological": 1,
    "conditions": 0,
    "##hibit": 1,
    "retaining": 0,
    "##m": 45,
    "Various": 0,
    "stimuli": 0,
    "typically": 0,
    "those": 0,
    "stress": 7,
    "path": 0,
    "##ogen": 91,
    "##act": 34,
    "##ivate": 0,
    "##iber": 0,
    "##ates": 0,
    "##loc": 7,
    "##ate": 0,
    "initiate": 0,
    "defense": 0,
    "organism": 0,
    "co": 63,
    "##rrel": 0,
    "##sis": 7,
    "residues": 2,
    "del": 7,
    "examine": 0,
    "'": 0,
    "flank": 1,
    "150": 4,
    "fragment": 0,
    "AP": 435,
    "high": 16,
    "##CI": 3,
    "##M": 172,
    "K": 35,
    "##6": 203,
    "respectively": 0,
    "reflecting": 0,
    "lacking": 0,
    "necessary": 0,
    "Pro": 14,
    "CC": 27,
    "##GC": 2,
    "##CC": 14,
    "By": 0,
    "able": 0,
    "highly": 1,
    "active": 6,
    "although": 0,
    "comparable": 0,
    "Rather": 0,
    "depends": 0,
    "coordination": 0,
    "Over": 0,
    "DR": 53,
    "nm": 10,
    "##23": 59,
    "encoded": 0,
    "##pop": 7,
    "##tosis": 6,
    "32": 8,
    "##13": 26,
    "Ch": 6,
    "##ronic": 0,
    "##ous": 69,
    "evolve": 0,
    "stages": 0,
    "chronic": 1,
    "blast": 1,
    "crisis": 0,
    "phase": 0,
    "transition": 0,
    "unknown": 0,
    "clone": 8,
    "library": 0,
    "approximately": 0,
    "70": 16,
    "%": 0,
    "similarity": 0,
    "meta": 2,
    "##static": 1,
    "prefer": 0,
    "##ential": 1,
    "##34": 12,
    "+": 2,
    "Its": 0,
    "causes": 0,
    "death": 6,
    "consistent": 0,
    "raise": 0,
    "possibility": 0,
    "arrest": 0,
    "transformation": 3,
    "##C": 231,
    "Express": 1,
    "elevated": 0,
    "peaked": 0,
    "exposure": 0,
    "Nuclear": 24,
    "run": 2,
    "revealed": 0,
    "Trans": 29,
    "##ions": 0,
    "containing": 0,
    "##IC": 1,
    "into": 0,
    "20": 4,
    "surrounding": 0,
    "start": 1,
    "##ting": 0,
    "initiation": 2,
    "##IR": 4,
    "74": 1,
    "17": 10,
    "positions": 7,
    "51": 1,
    "35": 9,
    "conferred": 0,
    "##el": 5,
    "shift": 0,
    "involves": 0,
    "J": 252,
    "##ak": 91,
    "##TL": 32,
    "##ot": 3,
    "##ropic": 7,
    "et": 16,
    "##iol": 0,
    "##ogical": 0,
    "agent": 0,
    "adult": 9,
    "tropical": 0,
    "spa": 0,
    "##stic": 0,
    "para": 1,
    "##par": 7,
    "##pathy": 0,
    "exhibit": 0,
    "initial": 0,
    ";": 0,
    "time": 0,
    "become": 0,
    "##cer": 3,
    "##iva": 43,
    "##tor": 40,
    "Ni": 1,
    "##tric": 3,
    "oxide": 0,
    "decreases": 0,
    "end": 49,
    "##oth": 17,
    "##eli": 17,
    "test": 1,
    "hypothesis": 0,
    "ni": 3,
    "NO": 11,
    "limits": 0,
    "treated": 0,
    "sa": 1,
    "##phe": 0,
    "##nous": 0,
    "vein": 0,
    "donors": 0,
    "assessed": 0,
    "vascular": 18,
    "##hesion": 34,
    "molecule": 0,
    "VC": 73,
    "##AM": 109,
    "parallel": 0,
    "##ola": 0,
    "##yers": 0,
    "##af": 2,
    "##GM": 4,
    "analogue": 0,
    "quantitative": 0,
    "tumor": 142,
    "bacterial": 6,
    "##sa": 4,
    "##hari": 3,
    "##uk": 11,
    "select": 0,
    "lesser": 0,
    "extent": 0,
    "##able": 1,
    "electro": 1,
    "##ore": 1,
    "mobility": 0,
    "##es": 2,
    "part": 0,
    "propose": 0,
    "limit": 0,
    "contribute": 0,
    "##ather": 0,
    "##ogenic": 6,
    "##lam": 27,
    "properties": 0,
    "vessel": 0,
    "wall": 0,
    "MI": 14,
    "##NP": 13,
    "crucial": 0,
    "Secret": 0,
    "GO": 2,
    "##19": 32,
    "primitive": 0,
    "home": 6,
    "##ost": 3,
    "##atic": 0,
    "Therefore": 0,
    "Previous": 0,
    "work": 0,
    "widely": 0,
    "affect": 0,
    "communication": 0,
    "##action": 0,
    "fast": 1,
    "mi": 1,
    "##grating": 0,
    "mob": 0,
    "##ilities": 0,
    "mutation": 1,
    "##bro": 16,
    "##gate": 0,
    "reduces": 0,
    "##fold": 0,
    "constitutes": 0,
    "Tor": 0,
    "##em": 34,
    "##lea": 9,
    "varied": 0,
    "After": 0,
    "short": 4,
    "term": 0,
    "##rote": 31,
    "receptors": 11,
    "##53": 25,
    "##l": 531,
    "take": 0,
    "place": 1,
    "view": 0,
    "##est": 11,
    "cancer": 0,
    "therapy": 0,
    "prevention": 0,
    "obvious": 0,
    "merit": 0,
    "conducted": 0,
    "##yn": 14,
    "prop": 0,
    "##aga": 0,
    "##ino": 12,
    "##phi": 37,
    "##ls": 1,
    "min": 0,
    "GT": 15,
    "##21": 56,
    "##ras": 24,
    "##late": 0,
    "studied": 0,
    "##ome": 27,
    "##gal": 1,
    "HC": 1,
    "few": 0,
    "cellular": 64,
    "unlike": 0,
    "another": 0,
    "did": 0,
    "any": 0,
    "specifically": 0,
    "machinery": 0,
    "affinity": 1,
    "##roma": 22,
    "##tography": 0,
    "translation": 5,
    "directly": 0,
    "life": 0,
    "endemic": 0,
    "population": 0,
    "insights": 0,
    "slow": 0,
    "replication": 1,
    "possible": 0,
    "##ige": 1,
    "##side": 3,
    "dip": 0,
    "##phate": 0,
    "skin": 0,
    "##his": 1,
    "study": 0,
    "NDP": 5,
    "variety": 0,
    "inverse": 0,
    "order": 0,
    "determine": 0,
    "whether": 0,
    "marker": 0,
    "9": 2,
    "k": 4,
    "##era": 3,
    "##aca": 0,
    "##nt": 73,
    "##hom": 15,
    "##as": 105,
    "##As": 0,
    "26": 6,
    "sq": 0,
    "##ua": 0,
    "car": 29,
    "##cin": 12,
    "##Cs": 1,
    "BC": 79,
    "##chemistry": 0,
    "difference": 0,
    "statistical": 0,
    "##dict": 1,
    "significance": 0,
    "cut": 1,
    "##aneous": 0,
    "remain": 0,
    "RB": 24,
    "##II": 117,
    "defect": 3,
    "en": 3,
    "##code": 0,
    "##genic": 6,
    "##eptide": 4,
    "presentation": 0,
    "wide": 0,
    "examined": 0,
    "series": 0,
    "generated": 0,
    "Bar": 0,
    "##drome": 0,
    "##LS": 1,
    "patients": 0,
    "matrix": 3,
    "detect": 0,
    "cases": 0,
    "indicating": 0,
    "loss": 0,
    "responsible": 0,
    "second": 6,
    "apparently": 0,
    "positive": 22,
    "known": 1,
    "normally": 0,
    "Thus": 0,
    "block": 0,
    "due": 0,
    "whose": 0,
    "super": 6,
    "##family": 0,
    "Recently": 0,
    "##tors": 4,
    "recently": 0,
    "regulated": 2,
    "recent": 0,
    "demonstration": 0,
    "Te": 0,
    "##mper": 0,
    "##ature": 0,
    "##psis": 0,
    "##ptic": 1,
    "shock": 0,
    "##J": 3,
    "##EC": 18,
    "##TI": 1,
    "##VE": 1,
    "##hala": 0,
    "pit": 3,
    "##uit": 3,
    "##ary": 3,
    "##rena": 1,
    "axis": 0,
    "vital": 0,
    "importance": 0,
    "illness": 0,
    "adaptive": 0,
    "occur": 0,
    "tissues": 0,
    "##U": 137,
    "##TS": 2,
    "Fifteen": 0,
    "age": 0,
    "79": 0,
    "who": 0,
    "admitted": 0,
    "intensive": 0,
    "care": 0,
    "unit": 0,
    "group": 1,
    "consisted": 0,
    "healthy": 0,
    "laboratory": 0,
    "employees": 0,
    "##AS": 9,
    "##UR": 4,
    "##EM": 6,
    "##EN": 0,
    "plasma": 9,
    "##rt": 12,
    "##ol": 4,
    "concentrations": 0,
    "##ther": 0,
    "variations": 0,
    "composition": 0,
    "change": 0,
    "controls": 0,
    "weak": 0,
    "correlation": 0,
    "body": 0,
    "temperature": 1,
    "patient": 0,
    "relation": 0,
    "circulating": 1,
    "CO": 13,
    "##NC": 1,
    "##US": 0,
    "##ION": 0,
    "adaptation": 0,
    "##yk": 25,
    "aspect": 0,
    "##rin": 33,
    "##HP": 1,
    "fi": 22,
    "##nect": 15,
    "sets": 0,
    "about": 0,
    "65": 7,
    "75": 3,
    "120": 4,
    "125": 6,
    "##50": 186,
    "##65": 127,
    "immediate": 43,
    "components": 0,
    "subsequent": 0,
    "include": 0,
    "##ax": 3,
    "##ill": 3,
    "pp": 27,
    "##12": 16,
    "SH": 34,
    "FA": 4,
    "##hering": 0,
    "##och": 5,
    "##ala": 8,
    "##sin": 2,
    "message": 1,
    "New": 0,
    "World": 0,
    "##rima": 2,
    "<": 0,
    "0": 1,
    "01": 0,
    "when": 0,
    "mixed": 0,
    "prepared": 0,
    "rat": 3,
    "##mus": 0,
    "heat": 16,
    "lab": 1,
    "##ile": 1,
    "try": 5,
    "sensitive": 0,
    "Peak": 0,
    "200": 2,
    "fraction": 1,
    "Sep": 0,
    "##ha": 6,
    "##ryl": 0,
    "ultra": 0,
    "##fi": 4,
    "##ltration": 0,
    "Sc": 4,
    "##atch": 0,
    "##ard": 2,
    "diminished": 0,
    "apparent": 0,
    "competitive": 0,
    "prevents": 0,
    "##gnate": 8,
    "Di": 1,
    "##rup": 5,
    "Duffy": 5,
    "##ishes": 0,
    "individuals": 0,
    "##dium": 0,
    "##x": 109,
    "malaria": 0,
    "parasite": 0,
    "##AR": 59,
    "composed": 0,
    "blacks": 0,
    "carry": 0,
    "silent": 2,
    "##Y": 62,
    "*": 0,
    "##ele": 14,
    "substitution": 0,
    "46": 0,
    "##air": 0,
    "disrupt": 0,
    "With": 0,
    "characterization": 0,
    "basis": 0,
    "system": 0,
    "explanation": 0,
    "##90": 25,
    "##rsk": 4,
    "##oke": 3,
    "##weed": 3,
    "mit": 51,
    "##W": 15,
    "##GR": 44,
    "fragments": 0,
    "linked": 1,
    "##lora": 31,
    "##mp": 30,
    "##ico": 50,
    "##ty": 3,
    "##lt": 4,
    "##top": 0,
    "signalling": 1,
    "##h": 21,
    "CT": 19,
    "##AA": 24,
    "larger": 0,
    "##ali": 11,
    "they": 0,
    "give": 0,
    "six": 2,
    "bands": 0,
    "competed": 0,
    "parts": 0,
    "inverted": 0,
    "repeats": 0,
    "depending": 0,
    "##con": 4,
    "##itution": 0,
    "Considering": 0,
    "strong": 2,
    "coordinated": 0,
    "help": 0,
    "##FI": 50,
    "##ur": 7,
    "##7": 91,
    "##EE": 1,
    "dies": 0,
    "PM": 67,
    "##IN": 5,
    "linking": 0,
    "belongs": 0,
    "orphan": 1,
    "binds": 0,
    "classified": 0,
    "sub": 6,
    "##type": 1,
    "BA": 13,
    "##ilization": 0,
    "Since": 0,
    "preventing": 0,
    "degradation": 0,
    "##pi": 62,
    "um": 0,
    "##bil": 1,
    "##ical": 0,
    "##TH": 1,
    "##OD": 1,
    "AND": 0,
    "##ES": 28,
    "##LT": 0,
    "ranging": 0,
    "10": 4,
    "mm": 0,
    "range": 0,
    "hardly": 0,
    "appeared": 0,
    "prevent": 0,
    "since": 0,
    "consequence": 0,
    "marked": 0,
    "thereby": 0,
    "providing": 0,
    "##cu": 4,
    "##bation": 0,
    "even": 0,
    "stimulus": 0,
    "##mer": 43,
    "fundamental": 0,
    "exhibits": 0,
    "##ties": 0,
    "far": 1,
    "40": 9,
    "integration": 0,
    "nearly": 1,
    "90": 1,
    "decrease": 0,
    "earlier": 0,
    "SE": 18,
    "Chinese": 0,
    "ha": 0,
    "##ms": 4,
    "##ter": 3,
    "##vary": 0,
    "CH": 17,
    "##pressing": 0,
    "resulted": 0,
    "profiles": 0,
    "Maxim": 0,
    "recorded": 0,
    "cooperative": 0,
    "##ta": 39,
    "##phy": 6,
    "##cal": 7,
    "enter": 0,
    "##oto": 14,
    "##xin": 16,
    "sufficient": 0,
    "amounts": 0,
    "whereas": 0,
    "triple": 0,
    "##ant": 5,
    "Oct": 193,
    "remained": 0,
    "samples": 0,
    "Super": 2,
    "substantial": 0,
    "marginal": 0,
    "Jun": 75,
    "Fr": 5,
    "partly": 0,
    "account": 0,
    "##ch": 10,
    "##lor": 0,
    "##ibe": 0,
    "##nz": 0,
    "##o": 18,
    "##CD": 22,
    "##bul": 67,
    "steady": 1,
    "gel": 4,
    "criteria": 0,
    "Ah": 12,
    "interfere": 0,
    "BS": 49,
    "##AP": 84,
    "common": 8,
    "participate": 0,
    "##sta": 5,
    "still": 0,
    "Native": 1,
    "##EL": 0,
    "60": 6,
    "##comb": 34,
    "##ina": 43,
    "M1": 1,
    "Moreover": 0,
    "##runcated": 11,
    "do": 1,
    "restricted": 1,
    "without": 0,
    "##ity": 0,
    "Li": 0,
    "continuous": 0,
    "##eric": 5,
    "##idal": 1,
    "##me": 15,
    "##ability": 0,
    "End": 2,
    "express": 0,
    "##ut": 5,
    "##hil": 15,
    "inflammation": 0,
    "peaks": 0,
    "gradually": 0,
    "returns": 0,
    "r": 44,
    "##PI": 2,
    "BP": 7,
    "added": 0,
    "reverse": 8,
    "interrupting": 0,
    "going": 0,
    "So": 4,
    "called": 0,
    "interactions": 0,
    "soluble": 12,
    "complete": 0,
    "powerful": 0,
    "respond": 0,
    "mainly": 0,
    "described": 0,
    "##RE": 88,
    "members": 0,
    "tax": 21,
    "cooperate": 0,
    "Tax": 161,
    "shows": 0,
    "degree": 0,
    "Dana": 0,
    "##zo": 1,
    "Administration": 0,
    "da": 0,
    "##na": 0,
    "month": 0,
    "50": 6,
    "alter": 0,
    "release": 0,
    "##dom": 16,
    "##nce": 0,
    "reduction": 0,
    "expressions": 0,
    "Fun": 0,
    "##ctional": 0,
    "event": 0,
    "inflammatory": 36,
    "process": 0,
    "trim": 0,
    "la": 12,
    "screened": 0,
    "gal": 10,
    "##idas": 4,
    "610": 0,
    "530": 0,
    "micro": 23,
    "compounds": 0,
    "At": 0,
    "Both": 0,
    "reaction": 0,
    "reversed": 1,
    "Conversely": 0,
    "resistant": 1,
    "altered": 0,
    "causing": 0,
    "##tar": 0,
    "##ded": 1,
    "##ac": 2,
    "##uo": 2,
    "##lar": 3,
    "ATP": 1,
    "##iating": 0,
    "Mon": 4,
    "studying": 0,
    "begun": 0,
    "structure": 0,
    "Is": 0,
    "##quencing": 0,
    "reveal": 0,
    "less": 0,
    "content": 0,
    "foot": 2,
    "##print": 2,
    "coding": 1,
    "##liga": 1,
    "##tory": 0,
    "f": 27,
    "##lication": 0,
    "##toon": 9,
    "##gene": 21,
    "controlled": 0,
    "main": 1,
    "Ki": 7,
    "##nas": 6,
    "serum": 20,
    "SR": 49,
    "CR": 120,
    "presumably": 0,
    "calm": 7,
    "##ulin": 7,
    "little": 0,
    "combined": 0,
    "##sko": 0,
    "plus": 0,
    "##X": 103,
    "greatly": 0,
    "Analysis": 0,
    "confirms": 0,
    "requirements": 0,
    "Signal": 2,
    "needed": 0,
    "efficient": 0,
    "neither": 1,
    "That": 0,
    "relevant": 1,
    "supported": 0,
    "fact": 0,
    "##ducing": 0,
    "620": 1,
    "34": 1,
    "##LE": 13,
    "54": 2,
    "31": 2,
    "##but": 0,
    "85": 2,
    "76": 1,
    "101": 1,
    "92": 5,
    "mutations": 0,
    "##CL": 20,
    "##los": 6,
    "##por": 7,
    "resembling": 0,
    "confirmed": 0,
    "##cine": 103,
    "substitute": 0,
    "##rg": 3,
    "##verse": 0,
    "however": 0,
    "assembly": 0,
    "affects": 0,
    "driving": 0,
    "##inate": 0,
    "Use": 0,
    "markers": 0,
    "##vu": 0,
    "Biological": 0,
    "great": 0,
    "past": 0,
    "fallen": 0,
    "##suse": 0,
    "diffusion": 0,
    "##physical": 0,
    "ones": 0,
    "explore": 0,
    "modifications": 0,
    "reproductive": 0,
    "behaviour": 0,
    "Album": 0,
    "Plate": 8,
    "##let": 33,
    "Factor": 0,
    "IV": 0,
    "indicator": 0,
    "##gg": 5,
    "##regation": 0,
    "Type": 21,
    "42": 3,
    "women": 0,
    "undergoing": 0,
    "observation": 0,
    "33": 0,
    "them": 0,
    "had": 0,
    "developed": 0,
    "syndrome": 0,
    "##stituting": 0,
    "models": 0,
    "opposite": 0,
    "situation": 0,
    "All": 0,
    "considered": 0,
    "sufficiently": 0,
    "reliable": 0,
    "##rmon": 0,
    "quality": 0,
    "MR": 16,
    "##life": 0,
    "##rate": 0,
    "Yet": 0,
    "generation": 0,
    "##ito": 0,
    "phosphate": 0,
    "Upon": 0,
    "kinetic": 0,
    "never": 0,
    "reach": 0,
    "similarly": 0,
    "lower": 1,
    "abnormal": 1,
    "##ities": 0,
    "Cross": 0,
    "##30": 30,
    "AC": 3,
    "especially": 0,
    "organs": 0,
    "contact": 0,
    "##ve": 0,
    "directed": 0,
    "##box": 36,
    "terminus": 0,
    "deficiency": 0,
    "Four": 0,
    "groups": 0,
    "##ID": 9,
    "##Q": 38,
    "remaining": 0,
    "113": 0,
    "##0": 93,
    "X": 51,
    "off": 0,
    "switch": 2,
    "availability": 0,
    "##ota": 6,
    "##ctic": 5,
    "see": 0,
    "comments": 0,
    "outside": 0,
    "point": 0,
    "MC": 33,
    "plate": 25,
    "Inc": 0,
    "##reased": 0,
    "##th": 4,
    "##roid": 18,
    "stage": 1,
    "z": 22,
    "##eta": 17,
    "##stal": 21,
    "occupied": 0,
    "systematically": 0,
    "Three": 0,
    "positively": 1,
    "##etal": 8,
    "On": 0,
    "hand": 0,
    "dual": 1,
    "##bi": 33,
    "##quito": 25,
    "##rich": 0,
    "Mu": 5,
    "##tation": 0,
    "d": 10,
    "dim": 10,
    "##eth": 0,
    "##lf": 2,
    "##oxide": 1,
    "remarkable": 0,
    "indeed": 0,
    "##omer": 9,
    "converting": 0,
    "##tro": 6,
    "##sy": 0,
    "residue": 0,
    "producers": 0,
    "##ynth": 0,
    "##esi": 0,
    "##ze": 9,
    "bearing": 0,
    "completely": 0,
    "Similarly": 0,
    "producing": 0,
    "El": 40,
    "##ec": 12,
    "consisting": 0,
    "weaker": 0,
    "faster": 1,
    "##dis": 0,
    "##pen": 0,
    "##sable": 0,
    "##lins": 5,
    "regulator": 1,
    "provided": 0,
    "Chemical": 0,
    "essentially": 0,
    "profile": 0,
    "##ki": 2,
    "##tt": 1,
    "evidenced": 0,
    "j": 43,
    "##un": 44,
    "##MP": 114,
    "opposed": 0,
    "##cho": 0,
    "##tom": 3,
    "underlying": 0,
    "whereby": 0,
    "##lled": 0,
    "##body": 8,
    "react": 0,
    "##ivity": 0,
    "##gens": 14,
    "Graves": 0,
    "19": 3,
    "radioactive": 0,
    "i": 5,
    "maintained": 0,
    "##uth": 0,
    "##thy": 2,
    "drugs": 0,
    "Twenty": 0,
    "subjects": 0,
    "matched": 0,
    "sex": 3,
    "served": 0,
    "##BM": 3,
    "##rog": 5,
    "day": 0,
    "surgery": 0,
    "weeks": 0,
    "months": 0,
    "thereafter": 0,
    "spanned": 0,
    "entire": 1,
    "Six": 0,
    "##tal": 0,
    "average": 0,
    "##su": 1,
    "values": 0,
    "Response": 0,
    "reflect": 0,
    "shorter": 0,
    "period": 0,
    "##ist": 0,
    "##ri": 2,
    "probably": 0,
    "whole": 0,
    "##ync": 0,
    "##ono": 0,
    "recognition": 2,
    "158": 1,
    "176": 0,
    "248": 0,
    "sign": 0,
    "##mission": 0,
    "predict": 0,
    "##ism": 0,
    "##cum": 0,
    "##vention": 0,
    "tolerance": 0,
    "##CF": 74,
    "##ni": 1,
    "##zation": 4,
    "knock": 0,
    "mice": 0,
    "Molecular": 0,
    "##lie": 0,
    "##otypic": 0,
    "understood": 0,
    "candidate": 3,
    "##codes": 0,
    "pattern": 0,
    "##nat": 0,
    "hampered": 0,
    "difficulty": 0,
    "extreme": 1,
    "evolutionary": 0,
    "conservation": 0,
    "numbers": 0,
    "generate": 0,
    "readily": 0,
    "yield": 0,
    "##ser": 0,
    "##iter": 1,
    "Wild": 0,
    "litter": 0,
    "##mates": 0,
    "##res": 0,
    "mount": 0,
    "Mal": 1,
    "##tos": 1,
    "Bin": 0,
    "##ding": 0,
    "MB": 22,
    "Subsequently": 0,
    "##ple": 2,
    "##ens": 4,
    "##zed": 1,
    "illustrate": 0,
    "almost": 0,
    "demonstrates": 0,
    "broken": 0,
    "interest": 0,
    "##sco": 0,
    "##red": 0,
    "##ated": 7,
    "##cup": 2,
    "##ied": 2,
    "UV": 0,
    "SD": 1,
    "Western": 0,
    "Access": 0,
    "der": 0,
    "SS": 4,
    "##si": 18,
    "##vity": 2,
    "##len": 0,
    "##cing": 0,
    "##til": 0,
    "##izing": 6,
    "base": 2,
    "pair": 0,
    "led": 0,
    "##ep": 4,
    "##ression": 0,
    "Fine": 0,
    "##cted": 0,
    "localized": 0,
    "centered": 0,
    "tandem": 9,
    "##ling": 0,
    "##uka": 3,
    "central": 1,
    "genetic": 2,
    "program": 0,
    "tightly": 0,
    "compartment": 0,
    "##graded": 0,
    "Specifically": 0,
    "36": 2,
    "failed": 0,
    "Growth": 1,
    "conditioned": 0,
    "medium": 0,
    "##dition": 0,
    "greater": 0,
    "counting": 0,
    "##lining": 0,
    "##state": 2,
    "PS": 6,
    "##kel": 3,
    "##eton": 1,
    "##taining": 0,
    "slides": 0,
    "##IS": 8,
    "procedures": 0,
    "From": 0,
    "along": 0,
    "##ivated": 1,
    "##ulator": 0,
    "semi": 1,
    "##pur": 0,
    "##ified": 0,
    "estimated": 0,
    "weight": 0,
    "000": 0,
    "Da": 0,
    "commonly": 1,
    "##pid": 3,
    "PA": 37,
    "Pre": 1,
    "##tre": 0,
    "##ment": 0,
    "##tus": 5,
    "##ra": 10,
    "##rol": 3,
    "##thi": 0,
    "##ar": 1,
    "##ba": 2,
    "##mate": 0,
    "diver": 6,
    "##gent": 3,
    "##lone": 1,
    "expresses": 0,
    "##LA": 121,
    "Indeed": 0,
    "operates": 0,
    "141": 0,
    "pairs": 0,
    "##li": 12,
    "##gon": 1,
    "spanning": 0,
    "rescued": 0,
    "wild": 45,
    "Sub": 1,
    "then": 0,
    "boxes": 0,
    "replaced": 1,
    "analogous": 0,
    "None": 0,
    "parental": 0,
    "Ji": 0,
    "##joy": 0,
    "##lue": 0,
    "##ncing": 0,
    "Restoration": 0,
    "unique": 3,
    "her": 10,
    "##pes": 10,
    "##vir": 6,
    "employed": 0,
    "simple": 0,
    "VP": 13,
    "##16": 40,
    "nor": 0,
    "nature": 0,
    "##ilon": 10,
    "Evidence": 0,
    "Jan": 27,
    "##cripts": 2,
    "##AF": 7,
    "##ru": 1,
    "robust": 0,
    "com": 0,
    "##ig": 0,
    "##rated": 0,
    "engagement": 0,
    "Does": 0,
    "majority": 0,
    "?": 0,
    "##ediatric": 0,
    "##cology": 0,
    "Almost": 0,
    "AL": 15,
    "rear": 2,
    "##rang": 0,
    "##ement": 0,
    "harbor": 0,
    "##ranged": 2,
    "Hence": 0,
    "proposed": 0,
    "promotes": 0,
    "din": 0,
    "subtle": 0,
    "alterations": 0,
    "affecting": 0,
    "##ify": 0,
    "##MD": 0,
    "seven": 3,
    "Then": 0,
    "##rn": 4,
    "##45": 31,
    "##IA": 10,
    "moderate": 0,
    "##my": 10,
    "##OL": 0,
    "##LL": 1,
    "differentiate": 0,
    "toward": 0,
    "showing": 0,
    "elevation": 0,
    "differentiated": 0,
    "Treatment": 0,
    "met": 2,
    "##hyl": 2,
    "##lant": 0,
    "##hren": 0,
    "significantly": 0,
    "x": 1,
    "##biotics": 0,
    "eventual": 0,
    "environmental": 0,
    "##eu": 3,
    "sharing": 0,
    "being": 0,
    "coordinate": 0,
    "course": 0,
    "extensively": 0,
    "##DC": 0,
    "mix": 0,
    "highest": 0,
    "mature": 3,
    "##en": 15,
    "lack": 0,
    "makes": 0,
    "unlikely": 0,
    "drive": 0,
    "When": 0,
    "best": 0,
    "41": 2,
    "207": 0,
    "95": 1,
    "lost": 0,
    "##ins": 15,
    "missing": 0,
    "classical": 7,
    "Point": 0,
    "230": 0,
    "37": 0,
    "240": 0,
    "relatively": 0,
    "accepted": 0,
    "individual": 1,
    "essential": 4,
    "Ph": 14,
    "none": 0,
    "tested": 0,
    "##ero": 4,
    "##ids": 1,
    "very": 1,
    "##ma": 43,
    "diseases": 0,
    "small": 7,
    "proportion": 0,
    "resistance": 0,
    "##har": 1,
    "##kin": 1,
    "Dex": 0,
    "##ame": 69,
    "##tha": 0,
    "##son": 1,
    "sustained": 0,
    "##matic": 0,
    "##ast": 4,
    "##hm": 0,
    "impaired": 0,
    "because": 0,
    "available": 0,
    "##10": 66,
    "viruses": 0,
    "ta": 26,
    "##tations": 0,
    "Several": 0,
    "releases": 0,
    "##ong": 2,
    "explain": 0,
    "absent": 0,
    "##heses": 0,
    "stop": 1,
    "##don": 5,
    "competent": 1,
    "carrying": 0,
    "Large": 0,
    "RNA": 17,
    "particles": 0,
    "synthesized": 0,
    "infections": 0,
    "modified": 3,
    "propagation": 0,
    "releasing": 0,
    "absolutely": 0,
    "length": 0,
    "Direct": 0,
    "##version": 0,
    "prolonged": 0,
    "implications": 0,
    "application": 0,
    "alternative": 7,
    "discussed": 0,
    "HM": 36,
    "sustain": 0,
    "forms": 0,
    "III": 0,
    "encountered": 0,
    "disorders": 0,
    "##tology": 0,
    "objective": 0,
    "investigate": 0,
    "newly": 1,
    "discovered": 0,
    "##nob": 0,
    "obtained": 0,
    "underwent": 0,
    "cop": 1,
    "physical": 0,
    "association": 0,
    "##shi": 0,
    "##fted": 0,
    "Red": 0,
    "##uce": 0,
    "##gno": 0,
    "parameter": 0,
    "breast": 0,
    "prospective": 0,
    "longitudinal": 0,
    "##ema": 5,
    "##ju": 0,
    "##vant": 0,
    "##otherapy": 0,
    "##MF": 0,
    "receiving": 0,
    "continued": 0,
    "##xi": 6,
    "##fen": 0,
    ">": 0,
    "00": 0,
    "##oper": 0,
    "23": 0,
    "experienced": 0,
    "drop": 0,
    "14": 8,
    "61": 0,
    "59": 3,
    "abolished": 0,
    "Sign": 0,
    "##ificant": 0,
    "always": 0,
    "heavy": 2,
    "chain": 0,
    "thus": 0,
    "Core": 1,
    "CB": 51,
    "SL": 49,
    "##mmal": 24,
    "##ian": 23,
    "##mina": 1,
    "##nts": 0,
    "##ously": 1,
    "45": 5,
    "longest": 0,
    "187": 0,
    "lacked": 0,
    "148": 0,
    "They": 0,
    "support": 0,
    "understanding": 0,
    "how": 0,
    "remains": 0,
    "##idated": 0,
    "previous": 0,
    "blocking": 1,
    "terms": 0,
    "examination": 0,
    "reveals": 0,
    "membrane": 27,
    "judged": 0,
    "transform": 0,
    "rode": 1,
    "##blast": 14,
    "protects": 0,
    "##lates": 0,
    "plausible": 0,
    "##ifies": 0,
    "ultimately": 0,
    "controlling": 0,
    "regulating": 1,
    "expressing": 0,
    "turnover": 0,
    "will": 0,
    "aid": 0,
    "determining": 0,
    "published": 0,
    "##rat": 0,
    "1995": 0,
    "Nov": 4,
    "270": 0,
    "44": 0,
    "SV": 4,
    "##40": 163,
    "hormone": 11,
    "55": 5,
    "38": 1,
    "##TT": 1,
    "##TC": 16,
    "translated": 2,
    "##ilo": 0,
    "##dal": 0,
    "##tons": 0,
    "##sso": 0,
    "##ciation": 0,
    "constant": 0,
    "=": 0,
    "swap": 0,
    "transfer": 2,
    "##ime": 28,
    "##ric": 26,
    "AR": 22,
    "flanked": 0,
    "Together": 0,
    "represent": 0,
    "Det": 0,
    "chromosome": 40,
    "16": 2,
    "##H1": 18,
    "##mon": 4,
    "Ka": 0,
    "##pic": 0,
    "detection": 0,
    "difficult": 0,
    "Character": 0,
    "##q": 24,
    "##22": 12,
    "allowed": 0,
    "polymer": 2,
    "11": 3,
    "typical": 0,
    "case": 4,
    "distinctive": 0,
    "fluorescent": 0,
    "sit": 0,
    "29": 8,
    "vast": 0,
    "incidence": 0,
    "##poradic": 0,
    "reports": 0,
    "techniques": 0,
    "screening": 0,
    "performed": 0,
    "regardless": 0,
    "##olo": 11,
    "##gic": 0,
    "features": 0,
    "allow": 0,
    "accurate": 0,
    "evaluation": 0,
    "##fies": 0,
    "##iation": 0,
    "##city": 1,
    "##sm": 4,
    "mitochondrial": 2,
    "##da": 6,
    "Dec": 0,
    "##ath": 6,
    "##ione": 6,
    "##dized": 1,
    "72": 2,
    "longer": 0,
    "reflected": 0,
    "##SS": 5,
    "considerations": 0,
    "optimal": 1,
    "doses": 0,
    "schedules": 0,
    "extensive": 0,
    "28": 1,
    "unnecessary": 0,
    "superior": 0,
    "##dn": 0,
    "##ison": 0,
    "conventional": 0,
    "##qui": 8,
    "##rea": 1,
    "##sing": 0,
    "success": 0,
    "childhood": 0,
    "awareness": 0,
    "##vas": 0,
    "potentially": 0,
    "##bling": 0,
    "sequel": 0,
    "adolescent": 0,
    "young": 0,
    "characterized": 0,
    "##BF": 56,
    "mapped": 0,
    "105": 6,
    "unrelated": 0,
    "##hel": 2,
    "##ial": 3,
    "eliminated": 0,
    "depleted": 0,
    "direct": 1,
    "##ral": 0,
    "##pressive": 1,
    "disorder": 0,
    "MD": 6,
    "Major": 0,
    "##yclic": 19,
    "##tis": 1,
    "open": 12,
    "label": 0,
    "meeting": 0,
    "DS": 9,
    "##line": 35,
    "106": 1,
    "versus": 0,
    "56": 2,
    "49": 1,
    "18": 4,
    "bi": 5,
    "distributed": 0,
    "differing": 0,
    "##nders": 0,
    "accurately": 0,
    "percent": 0,
    "80": 6,
    "05": 0,
    "requirement": 0,
    "##ancy": 0,
    "starting": 0,
    "earliest": 0,
    "Regulation": 0,
    "##ND": 32,
    "##amine": 3,
    "Philadelphia": 0,
    "Cell": 1,
    "exhibiting": 0,
    "originating": 0,
    "##here": 1,
    "disco": 0,
    "##rda": 0,
    "certain": 0,
    "Changes": 0,
    "opposing": 0,
    "Ba": 12,
    "already": 0,
    "##dation": 0,
    "sizes": 0,
    "encompassing": 0,
    "135": 1,
    "No": 0,
    "clearly": 0,
    "##rose": 0,
    "gradient": 0,
    "too": 0,
    "standard": 0,
    "Si": 1,
    "##lta": 0,
    "Terminal": 0,
    "extinction": 0,
    "resemble": 0,
    "##structure": 1,
    "##ord": 0,
    "exclusively": 0,
    "define": 0,
    "173": 0,
    "strongest": 0,
    "Run": 2,
    "implicated": 0,
    "share": 0,
    "evolution": 3,
    "##arily": 3,
    "counterpart": 0,
    "break": 0,
    "##points": 0,
    "21": 18,
    "prominent": 0,
    "newborn": 0,
    "week": 0,
    "old": 0,
    "persisted": 0,
    "nodes": 0,
    "populations": 0,
    "throughout": 0,
    "supporting": 0,
    "notion": 0,
    "liver": 2,
    "Effects": 0,
    "##oids": 0,
    "##ita": 0,
    "latter": 0,
    "local": 0,
    "coupling": 0,
    "Different": 0,
    "rest": 0,
    "##gy": 0,
    "lived": 0,
    "amount": 0,
    "##25": 6,
    "appropriate": 0,
    "resting": 0,
    "##gi": 0,
    "##RC": 8,
    "##ergic": 0,
    "eight": 0,
    "trace": 0,
    "preparation": 0,
    "Be": 0,
    "Drop": 0,
    "Plus": 0,
    "##DP": 1,
    "##eva": 0,
    "##he": 16,
    "##uma": 0,
    "art": 2,
    "##itis": 1,
    "aim": 0,
    "den": 0,
    "##uring": 0,
    "conclusion": 0,
    "culture": 0,
    "intro": 14,
    "##ft": 0,
    "families": 0,
    "light": 2,
    "context": 2,
    "frequently": 0,
    "me": 7,
    "##ga": 7,
    "##kar": 25,
    "##yo": 8,
    "mast": 0,
    "gain": 0,
    "insight": 0,
    "##oa": 0,
    "##lle": 0,
    "Five": 0,
    "##og": 10,
    "year": 0,
    "EP": 29,
    "concentration": 0,
    "delta": 21,
    "##lev": 0,
    "supplemented": 0,
    "switched": 0,
    "promoted": 0,
    "actively": 1,
    "influences": 0,
    "programming": 0,
    "##ure": 1,
    "became": 0,
    "und": 0,
    "##ete": 0,
    "Per": 9,
    "##ip": 14,
    "##her": 2,
    "##enter": 0,
    "##lants": 0,
    "124": 0,
    "117": 0,
    "coincide": 0,
    "preceded": 0,
    "cycling": 0,
    "spectrum": 0,
    "differ": 0,
    "extremely": 0,
    "##MS": 0,
    "##CE": 14,
    "##sistence": 0,
    "Whether": 0,
    "favors": 0,
    "focused": 0,
    "First": 0,
    "secondary": 2,
    "Another": 0,
    "processing": 0,
    "prevailing": 0,
    "##ulates": 0,
    "so": 0,
    "interference": 0,
    "enhancing": 0,
    "introducing": 0,
    "vector": 0,
    "##ira": 2,
    "slightly": 0,
    "limited": 0,
    "##duced": 0,
    "##eas": 0,
    "approach": 0,
    "approved": 0,
    "##menclature": 0,
    "article": 0,
    "Rep": 0,
    "##lace": 0,
    "IS": 19,
    "##15": 9,
    "restored": 0,
    "inserted": 0,
    "En": 1,
    "##han": 3,
    "30": 2,
    "days": 0,
    "efficiently": 0,
    "attain": 0,
    "goal": 0,
    "lasting": 0,
    "permanent": 0,
    "##OX": 23,
    "##pel": 5,
    "libraries": 0,
    "regional": 0,
    "##izations": 0,
    "##ulse": 0,
    "field": 0,
    "##GE": 8,
    "physically": 0,
    "##24": 33,
    "450": 0,
    "eighteen": 0,
    "nine": 0,
    "580": 0,
    "##fluenza": 1,
    "exposed": 0,
    "elderly": 0,
    "persons": 0,
    "##ham": 0,
    "##mm": 2,
    "##uno": 0,
    "##cent": 0,
    "stain": 0,
    "flow": 0,
    "##ometric": 0,
    "Few": 0,
    "stained": 0,
    "failure": 0,
    "DE": 6,
    "##SI": 4,
    "CE": 1,
    "##RA": 93,
    "##rist": 0,
    "weakly": 0,
    "unchanged": 0,
    "administered": 0,
    "##ctions": 0,
    "##sul": 3,
    "##nology": 0,
    "##path": 0,
    "##ology": 0,
    "##nological": 5,
    "ant": 0,
    "##agon": 0,
    "##ior": 3,
    "##ck": 32,
    "##fy": 7,
    "hydrogen": 0,
    "##des": 0,
    "partial": 1,
    "pool": 0,
    "##aque": 0,
    "AIDS": 1,
    "##nal": 0,
    "preliminary": 0,
    "Recent": 0,
    "poor": 0,
    "RC": 0,
    "mostly": 0,
    "switching": 0,
    "humans": 0,
    "Understanding": 0,
    "scientific": 0,
    "relevance": 0,
    "adulthood": 0,
    "sick": 0,
    "patterns": 0,
    "##cap": 0,
    "experimental": 0,
    "##itors": 0,
    "##RI": 19,
    "cord": 0,
    "zero": 0,
    "`": 7,
    "##herence": 1,
    "Within": 0,
    "##cco": 0,
    "##any": 0,
    "##hered": 0,
    "instead": 0,
    "Interest": 0,
    "##ingly": 0,
    "##aper": 2,
    "##HL": 10,
    "##guous": 1,
    "##stituted": 1,
    "partner": 0,
    "##eri": 9,
    "##biotic": 0,
    "surprisingly": 0,
    "correct": 0,
    "folding": 0,
    "conform": 0,
    "interesting": 0,
    "##hesis": 0,
    "steps": 0,
    "comparison": 0,
    "herb": 0,
    "cause": 0,
    "##mb": 12,
    "##rane": 7,
    "transmitted": 0,
    "Reporter": 1,
    "yeast": 4,
    "##ere": 0,
    "##vis": 0,
    "##iae": 0,
    "Transfer": 0,
    "onto": 0,
    "created": 0,
    "thoroughly": 0,
    "exact": 0,
    "##ses": 1,
    "received": 0,
    "attention": 0,
    "presently": 0,
    "91": 1,
    "84": 1,
    "##ef": 21,
    "##ined": 0,
    "indirectly": 0,
    "modify": 0,
    "##quest": 0,
    "##ered": 1,
    "##ky": 9,
    "intrinsic": 1,
    "own": 0,
    "##chan": 0,
    "##istic": 0,
    "##100": 21,
    "##ede": 0,
    "Sur": 1,
    "##rising": 0,
    "assumed": 0,
    "triggered": 0,
    "coincided": 0,
    "incorporation": 0,
    "towards": 0,
    "documented": 0,
    "grown": 0,
    "investigations": 0,
    "operative": 1,
    "promote": 0,
    "Culture": 0,
    "promotion": 0,
    "opera": 0,
    "##ration": 0,
    "undertaken": 0,
    "boundaries": 0,
    "rise": 0,
    "##ati": 4,
    "networks": 0,
    "tags": 0,
    "##ST": 17,
    "##IG": 5,
    "##18": 13,
    "DD": 1,
    "##PC": 5,
    "ventral": 0,
    "correspond": 0,
    "sperm": 0,
    "Mo": 2,
    "##fication": 0,
    "original": 0,
    "protocol": 0,
    "frequency": 0,
    "false": 0,
    "merits": 0,
    "discovery": 0,
    "##gna": 0,
    "##ncies": 0,
    "Tri": 4,
    "##gger": 0,
    "##ture": 0,
    "internal": 2,
    "included": 0,
    "character": 0,
    "##izes": 0,
    "consequences": 0,
    "repertoire": 0,
    "##nity": 0,
    "##hin": 0,
    "Their": 0,
    "systemic": 0,
    "locally": 0,
    "##udes": 0,
    "##tica": 0,
    "Before": 0,
    "regular": 0,
    "intervals": 0,
    "finally": 0,
    "termination": 0,
    "##hall": 0,
    "solution": 0,
    "Ser": 3,
    "##rina": 0,
    "insulin": 16,
    "IT": 4,
    "wash": 0,
    "##out": 0,
    "until": 0,
    "recommended": 0,
    "according": 0,
    "leave": 0,
    "noticeable": 0,
    "side": 0,
    "usually": 0,
    "takes": 0,
    "points": 0,
    "neutral": 5,
    "prevented": 0,
    "##quent": 0,
    "times": 0,
    "Cy": 23,
    "emerges": 0,
    "defines": 0,
    "template": 0,
    "why": 0,
    "nearby": 0,
    "procedure": 0,
    "160": 1,
    "##finger": 1,
    "Dr": 10,
    "defining": 0,
    "subfamily": 0,
    "##AB": 1,
    "tram": 1,
    "##track": 1,
    "acidic": 13,
    "fingers": 0,
    "Anti": 9,
    "##ara": 0,
    "##dant": 0,
    "initiated": 0,
    "Studies": 0,
    "overall": 0,
    "begins": 0,
    "##omy": 2,
    "individually": 0,
    "distinguish": 0,
    "Wu": 0,
    "##rz": 0,
    "##burg": 0,
    "simplest": 0,
    "way": 0,
    "accounting": 0,
    "47": 8,
    "step": 0,
    "##eted": 0,
    "Al": 14,
    "##agi": 0,
    "transport": 0,
    "selection": 0,
    "AG": 0,
    "entity": 0,
    "assigned": 0,
    "arm": 0,
    "##del": 4,
    "##using": 0,
    "##11": 63,
    "##rm": 2,
    "##ose": 3,
    "##itive": 1,
    "##gating": 0,
    "##20": 28,
    "##41": 19,
    "##42": 7,
    "##ami": 2,
    "AD": 3,
    "##rion": 1,
    "PR": 56,
    "##IP": 25,
    "Rest": 0,
    "Length": 0,
    "Pol": 1,
    "##phism": 3,
    "RF": 31,
    "##LP": 19,
    "anonymous": 0,
    "##17": 4,
    "total": 2,
    "cent": 0,
    "##rome": 5,
    "us": 0,
    "exclude": 0,
    "paired": 4,
    "tool": 0,
    "mapping": 0,
    "obtaining": 0,
    "inform": 0,
    "##tract": 2,
    "Such": 0,
    "##age": 0,
    "composite": 5,
    "96": 3,
    "66": 0,
    "##OH": 9,
    "vectors": 0,
    "genuine": 1,
    "Miss": 0,
    "##ense": 0,
    "Clinical": 0,
    "severe": 0,
    "##SC": 14,
    "arise": 0,
    "defects": 0,
    "constituent": 0,
    "opportunity": 0,
    "##gni": 1,
    "carriers": 0,
    "variable": 3,
    "Finding": 0,
    "prompted": 0,
    "##ree": 0,
    "miss": 0,
    "portion": 0,
    "males": 0,
    "brother": 0,
    "humor": 0,
    "immunity": 0,
    "Post": 0,
    "##ida": 0,
    "##iss": 4,
    "##ue": 4,
    "represents": 0,
    "##bri": 10,
    "deposition": 0,
    "virtue": 0,
    "##nea": 0,
    "##cence": 0,
    "##lemma": 0,
    "##48": 7,
    "drives": 0,
    "identification": 0,
    "##rod": 0,
    "##ibly": 0,
    "##fers": 0,
    "fails": 0,
    "fully": 0,
    "must": 0,
    "##mor": 16,
    "##phon": 0,
    "##stro": 4,
    "men": 0,
    "pregnancy": 0,
    "##32": 9,
    "350": 0,
    "reading": 0,
    "frame": 0,
    "directs": 0,
    "##ntal": 1,
    "##ho": 25,
    "Zhang": 0,
    "##ington": 0,
    "Chen": 0,
    "Ten": 1,
    "1994": 0,
    "88": 0,
    "protected": 1,
    "Competition": 0,
    "includes": 0,
    "##mote": 2,
    "concert": 0,
    "PD": 7,
    "blocks": 0,
    "##gram": 0,
    "##ide": 1,
    "##rab": 0,
    "##fu": 0,
    "##rano": 0,
    "500": 3,
    "##gated": 0,
    "##phological": 0,
    "##nu": 2,
    "##cle": 1,
    "100": 0,
    "occurrence": 0,
    "##pical": 3,
    "displayed": 0,
    "doubling": 0,
    "sat": 0,
    "density": 0,
    "plastic": 0,
    "occurring": 0,
    "##fa": 5,
    "##lies": 0,
    "##ases": 10,
    "limiting": 0,
    "##lution": 0,
    "differed": 0,
    "striking": 0,
    "##ted": 14,
    "minus": 0,
    "phenomenon": 0,
    "liberated": 0,
    "pools": 0,
    "##run": 1,
    "##cation": 1,
    "extraction": 0,
    "released": 0,
    "cat": 37,
    "##ating": 0,
    "##vage": 2,
    "special": 0,
    "##ca": 0,
    "##ution": 0,
    "taken": 0,
    "making": 0,
    "restriction": 7,
    "##ges": 22,
    "##var": 0,
    "outcome": 0,
    "predicted": 0,
    "83": 1,
    "Ireland": 0,
    "Germany": 0,
    "Southern": 0,
    "##PR": 10,
    "represented": 0,
    "characterised": 0,
    "respect": 0,
    "representation": 0,
    "Irish": 0,
    "German": 0,
    "02": 0,
    "distribution": 0,
    "distributions": 0,
    "Hardy": 0,
    "Wei": 0,
    "##nberg": 0,
    "subgroup": 0,
    "screen": 0,
    "associates": 0,
    "recognizes": 0,
    "expected": 0,
    "supply": 0,
    "##tine": 0,
    "Because": 0,
    "systems": 0,
    "excess": 0,
    "fashion": 0,
    "variance": 0,
    "peak": 0,
    "lasted": 0,
    "accounted": 0,
    "waves": 0,
    "##iated": 1,
    "wave": 0,
    "burst": 0,
    "totally": 0,
    "Alto": 0,
    "##get": 0,
    "means": 0,
    "separate": 0,
    "produces": 0,
    "August": 0,
    "1992": 0,
    "Meg": 0,
    "nap": 0,
    "##ht": 0,
    "periodic": 0,
    "##hi": 5,
    "##ff": 1,
    "##ori": 2,
    "Ultra": 0,
    "##ructural": 0,
    "##ules": 4,
    "dem": 0,
    "spontaneous": 0,
    "##ond": 0,
    "##ria": 0,
    "dense": 0,
    "bodies": 0,
    "Un": 0,
    "undergo": 0,
    "investigation": 0,
    "seems": 0,
    "paper": 0,
    "stability": 0,
    "inappropriate": 0,
    "variant": 2,
    "##Vs": 0,
    "##j": 0,
    "##14": 71,
    "contribution": 0,
    "five": 1,
    "22": 2,
    "du": 0,
    "##plication": 0,
    "##ds": 7,
    "infectious": 0,
    "stocks": 0,
    "except": 0,
    "##lusion": 0,
    "##ui": 0,
    "assist": 0,
    "##voked": 0,
    "Mac": 6,
    "calf": 0,
    "ordered": 0,
    "vitamin": 30,
    "##ural": 0,
    "al": 8,
    "##olar": 0,
    "blockade": 0,
    "##rien": 0,
    "400": 1,
    "Steel": 9,
    "forming": 0,
    "##rating": 0,
    "colonies": 0,
    "progressively": 0,
    "size": 0,
    "greatest": 0,
    "expansion": 0,
    "dominant": 29,
    "version": 0,
    "##gement": 0,
    "AI": 7,
    "Under": 0,
    "##ind": 0,
    "talk": 0,
    "indirect": 0,
    "next": 0,
    "##zac": 0,
    "Collective": 0,
    "again": 0,
    "##iler": 0,
    "##ia": 2,
    "##lat": 0,
    "##ised": 0,
    "describes": 0,
    "81": 3,
    "metal": 6,
    "##lop": 16,
    "##inas": 3,
    "demonstrating": 0,
    "##logue": 0,
    "protection": 0,
    "considerable": 0,
    "conditional": 0,
    "half": 1,
    "##rative": 0,
    "die": 0,
    "maintenance": 0,
    "##quential": 1,
    "modification": 0,
    "competence": 0,
    "terminating": 0,
    "##long": 0,
    "consequently": 0,
    "chicken": 10,
    "Note": 0,
    "##born": 0,
    "##iro": 0,
    "1991": 0,
    "313": 0,
    "near": 0,
    "perfect": 0,
    "insert": 0,
    "proven": 0,
    "characteristics": 0,
    "across": 0,
    "world": 0,
    "units": 0,
    "##fied": 1,
    "Max": 3,
    "compensate": 0,
    "restore": 0,
    "imply": 0,
    "SM": 6,
    "##ML": 13,
    "productive": 0,
    "##kata": 0,
    "##lice": 8,
    "joining": 0,
    "abundant": 1,
    "Site": 1,
    "controversial": 0,
    "pivotal": 0,
    "Band": 3,
    "##det": 0,
    "##table": 0,
    "Raj": 0,
    "bare": 1,
    "drastically": 0,
    "Previously": 0,
    "228": 0,
    "137": 0,
    "64": 2,
    "93": 1,
    "complexity": 0,
    "##generate": 1,
    "63": 1,
    "originate": 0,
    "##ailed": 0,
    "array": 0,
    "variation": 0,
    "Kennedy": 0,
    "typing": 0,
    "rare": 0,
    "##men": 0,
    "sample": 0,
    "spinal": 0,
    "bulb": 0,
    "muscular": 0,
    "More": 0,
    "largest": 0,
    "68": 2,
    "contraction": 0,
    "One": 0,
    "39": 2,
    "900": 1,
    "##aris": 0,
    "supports": 0,
    "origin": 0,
    "Benz": 0,
    "##ene": 0,
    "toxicity": 0,
    "thought": 0,
    "##ites": 0,
    "ben": 0,
    "##zen": 0,
    "##quin": 0,
    "##AD": 11,
    "##uin": 0,
    "Q": 12,
    "protect": 0,
    "##bate": 0,
    "##rb": 19,
    "sodium": 6,
    "##pan": 0,
    "blue": 0,
    "exclusion": 0,
    "protective": 0,
    "##ite": 4,
    "fifty": 0,
    "synthetic": 2,
    "##ben": 0,
    "##zoic": 0,
    "frames": 0,
    "extension": 0,
    "disc": 0,
    "stomach": 0,
    "JR": 0,
    "57": 1,
    "##jo": 0,
    "##gren": 0,
    "##pecific": 1,
    "##anti": 11,
    "La": 5,
    "##by": 0,
    "Se": 0,
    "exists": 0,
    "evident": 0,
    "##licing": 0,
    "suggestion": 0,
    "dependence": 0,
    "##mot": 0,
    "Ty": 6,
    "##ros": 1,
    "shortly": 0,
    "Little": 0,
    "tons": 0,
    "##illa": 0,
    "##ny": 1,
    "##lal": 0,
    "##LC": 3,
    "if": 0,
    "##athy": 0,
    "OH": 0,
    "2D": 0,
    "glands": 0,
    "##rem": 0,
    "animals": 0,
    "carried": 0,
    "surgical": 0,
    "removed": 0,
    "##take": 0,
    "labelled": 0,
    "transplant": 0,
    "subjected": 0,
    "came": 0,
    "females": 0,
    "tiny": 2,
    "ring": 1,
    "Mental": 0,
    "constellation": 0,
    "##ital": 0,
    "##orm": 2,
    "##ations": 0,
    "Turner": 0,
    "mosaic": 0,
    "##of": 7,
    "##orms": 2,
    "marking": 0,
    "tow": 0,
    "XI": 10,
    "Ana": 0,
    "##IM": 13,
    "##DA": 1,
    "##KA": 9,
    "##cribe": 0,
    "ago": 1,
    "##nist": 1,
    "conjunction": 0,
    "perform": 0,
    "lent": 0,
    "##iv": 0,
    "##uses": 0,
    "##ire": 0,
    "monkeys": 0,
    "reconcile": 0,
    "died": 0,
    "survived": 0,
    "rendered": 0,
    "strains": 0,
    "passage": 0,
    "Not": 8,
    "intricate": 0,
    "arrangement": 0,
    "skeletal": 0,
    "muscle": 4,
    "Complex": 3,
    "substituted": 0,
    "conclude": 0,
    "Me": 2,
    "##and": 2,
    "##ational": 0,
    "And": 3,
    "dig": 1,
    "Part": 0,
    "resisting": 0,
    "##ilis": 0,
    "extended": 0,
    "hi": 2,
    "##nge": 2,
    "antagonist": 0,
    "##fference": 0,
    "##uro": 2,
    "neural": 1,
    "SK": 1,
    "##over": 1,
    "##zy": 7,
    "proved": 0,
    "##ber": 0,
    "##rant": 0,
    "ET": 20,
    "smaller": 0,
    "SA": 11,
    "##val": 0,
    "enables": 0,
    "decline": 0,
    "Gene": 0,
    "##actor": 0,
    "neurons": 0,
    "participates": 0,
    "##uron": 1,
    "virtual": 0,
    "identity": 0,
    "identifying": 0,
    "corresponding": 1,
    "panels": 0,
    "##bred": 0,
    "Cal": 5,
    "##31": 2,
    "augmented": 0,
    "cooperation": 0,
    "##cid": 1,
    "##ual": 1,
    "##trom": 1,
    "##base": 0,
    "governing": 0,
    "Based": 0,
    "Pit": 8,
    "##cre": 0,
    "restrict": 0,
    "##rre": 0,
    "##spective": 0,
    "sharp": 0,
    "##iff": 0,
    "##nti": 0,
    "shares": 0,
    "attempted": 0,
    "##ute": 0,
    "crude": 0,
    "Sol": 1,
    "3D": 0,
    "##MR": 13,
    "##tite": 5,
    "flexible": 1,
    "##HD": 6,
    "adjoining": 0,
    "##scher": 2,
    "##ichi": 2,
    "dimensional": 0,
    "magnetic": 0,
    "resonance": 0,
    "##pect": 0,
    "##copy": 1,
    "Complete": 0,
    "assignment": 0,
    "##ety": 0,
    "calculated": 0,
    "distance": 0,
    "geometry": 0,
    "simulated": 0,
    "##lient": 0,
    "crystal": 0,
    "structures": 0,
    "folds": 0,
    "flexibility": 0,
    "survivor": 0,
    "strain": 0,
    "##yra": 0,
    "Na": 4,
    "##sace": 0,
    "##BA": 0,
    "confirming": 0,
    "Alone": 0,
    "##nis": 0,
    "formulation": 0,
    "Rat": 0,
    "MP": 1,
    "EC": 5,
    "rats": 0,
    "utilized": 0,
    "mg": 0,
    "kg": 0,
    "drug": 2,
    "Animals": 0,
    "sacrificed": 0,
    "dos": 0,
    "##cise": 0,
    "measuring": 0,
    "##dine": 8,
    "##linear": 0,
    "##ster": 11,
    "treatments": 0,
    "returning": 0,
    "efficacy": 0,
    "##ction": 0,
    "invariant": 1,
    "109": 0,
    "118": 0,
    "163": 1,
    "172": 0,
    "##lia": 0,
    "##arate": 0,
    "Ho": 6,
    "Seven": 0,
    "##teen": 0,
    "selected": 0,
    "##BE": 0,
    "EA": 10,
    "##go": 5,
    "##robe": 0,
    "Results": 0,
    "counts": 0,
    "##bent": 0,
    "Demons": 0,
    "##tration": 0,
    "##ogy": 0,
    "vary": 0,
    "mode": 0,
    "formed": 0,
    "##GA": 28,
    "Unlike": 0,
    "rib": 4,
    "##70": 40,
    "Ok": 0,
    "radical": 0,
    "##venge": 0,
    "##das": 1,
    "##nin": 6,
    "revealing": 0,
    "generating": 0,
    "mum": 0,
    "displacement": 0,
    "##quisite": 0,
    "explains": 0,
    "retained": 0,
    "percentage": 0,
    "declined": 0,
    "supposed": 0,
    "distinguished": 0,
    "challenge": 0,
    "##ren": 0,
    "##ort": 9,
    "##rato": 0,
    "pregnant": 0,
    "##per": 4,
    "injection": 0,
    "##RB": 16,
    "gram": 0,
    "novelty": 0,
    "ACT": 2,
    "HP": 0,
    "disturbed": 0,
    "brain": 0,
    "vulnerability": 0,
    "develop": 0,
    "mental": 0,
    "inadequate": 0,
    "##lan": 0,
    "##gnant": 0,
    "diagnosis": 0,
    "derive": 0,
    "staging": 0,
    "morphology": 0,
    "pig": 0,
    "##mentation": 0,
    "58": 1,
    "Ramos": 0,
    "above": 0,
    "370": 0,
    "##GS": 1,
    "##NE": 4,
    "##PS": 1,
    "##SD": 1,
    "##RS": 4,
    "##oe": 0,
    "##lect": 0,
    "wider": 0,
    "recovered": 0,
    "lesions": 0,
    "Les": 0,
    "##SV": 5,
    "butt": 0,
    "##ock": 0,
    "thigh": 0,
    "minority": 0,
    "approximate": 0,
    "locations": 0,
    "73": 1,
    "82": 1,
    "425": 0,
    "background": 0,
    "Mark": 0,
    "##cter": 1,
    "##ium": 0,
    "tuberculosis": 0,
    "symptoms": 0,
    "##tok": 15,
    "##ines": 8,
    "##mas": 0,
    "animal": 0,
    "##mett": 0,
    "##uer": 0,
    "##oar": 1,
    "##abi": 1,
    "##mann": 1,
    "##an": 1,
    "LA": 24,
    "virtually": 0,
    "devoid": 0,
    "orientation": 0,
    "128": 4,
    "eliminate": 0,
    "##media": 1,
    "creation": 0,
    "zipper": 0,
    "fused": 0,
    "tolerant": 0,
    "##viation": 0,
    "##cilla": 0,
    "##ace": 0,
    "But": 0,
    "##ged": 8,
    "subordinate": 0,
    "##rra": 0,
    "##diation": 0,
    "believed": 0,
    "Normal": 0,
    "gave": 0,
    "seconds": 0,
    "bypass": 0,
    "Expo": 0,
    "##sure": 0,
    "##agu": 3,
    "Base": 0,
    "##cluded": 0,
    "strength": 0,
    "migrate": 0,
    "##bo": 6,
    "##dies": 3,
    "ten": 1,
    "##etus": 0,
    "##ring": 0,
    "##ap": 16,
    "##pear": 0,
    "areas": 0,
    "insult": 0,
    "matrices": 0,
    "wound": 0,
    "healing": 0,
    "##ably": 0,
    "later": 0,
    "influenced": 0,
    "idea": 0,
    "##pp": 2,
    "##rai": 0,
    "##sal": 0,
    "index": 0,
    "value": 0,
    "reservoirs": 0,
    "##olic": 0,
    "breaking": 0,
    "##ven": 0,
    "##ging": 0,
    "permanently": 1,
    "itself": 0,
    "limitation": 0,
    "##rap": 0,
    "warrant": 0,
    "##rudence": 0,
    "design": 0,
    "aimed": 0,
    "##gold": 0,
    "electron": 0,
    "##py": 1,
    "separation": 0,
    "layer": 0,
    "##ll": 4,
    "residing": 0,
    "##itative": 0,
    "##55": 17,
    "FM": 8,
    "ve": 2,
    "##cles": 0,
    "fur": 0,
    "##nish": 0,
    "Auto": 0,
    "stores": 0,
    "Those": 0,
    "toxic": 1,
    "Mi": 1,
    "indicates": 0,
    "implying": 0,
    "implies": 0,
    "Alpha": 1,
    "##pher": 0,
    "##rot": 1,
    "beneficial": 0,
    "ng": 0,
    "##bu": 1,
    "While": 0,
    "unusual": 0,
    "##lial": 0,
    "column": 0,
    "reproduced": 0,
    "nervous": 1,
    "interacting": 2,
    "Sen": 0,
    "entry": 0,
    "Translation": 0,
    "##MC": 2,
    "scanning": 0,
    "Internal": 0,
    "##icorn": 1,
    "##avi": 1,
    "##rus": 1,
    "tract": 0,
    "rabbit": 5,
    "source": 0,
    "##pe": 1,
    "##ides": 0,
    "##rator": 0,
    "auxiliary": 1,
    "separated": 0,
    "behave": 0,
    "acquire": 0,
    "effectively": 0,
    "stronger": 0,
    "copies": 0,
    "Most": 0,
    "accompanying": 0,
    "##lug": 0,
    "issue": 0,
    "influx": 0,
    "participant": 0,
    "seventeen": 0,
    "##dy": 15,
    "advanced": 0,
    "configuration": 0,
    "Ai": 11,
    "assess": 0,
    "search": 0,
    "constitutional": 0,
    "losses": 0,
    "comparing": 0,
    "Eleven": 0,
    "seem": 0,
    "distant": 0,
    "##bos": 4,
    "##ped": 2,
    "pan": 0,
    "spread": 0,
    "##ani": 0,
    "##oga": 0,
    "##PM": 0,
    "##26": 9,
    "Rev": 5,
    "##erse": 0,
    "prevalent": 0,
    "center": 0,
    "206": 0,
    "195": 1,
    "##gam": 39,
    "radiation": 0,
    "rays": 0,
    "maximum": 0,
    "Time": 0,
    "Alternative": 0,
    "generates": 0,
    "lacks": 0,
    "190": 1,
    "##ffin": 0,
    "Structure": 0,
    "embedded": 0,
    "island": 0,
    "often": 0,
    "house": 3,
    "##keeping": 3,
    "##ade": 1,
    "displays": 0,
    "integral": 5,
    "envelope": 0,
    "inner": 0,
    "spans": 0,
    "##phobic": 4,
    "segments": 0,
    "evolved": 0,
    "##ination": 0,
    "organization": 0,
    "##rte": 1,
    "##bra": 1,
    "Virtual": 0,
    "information": 0,
    "##38": 45,
    "Some": 0,
    "##sol": 0,
    "##apa": 0,
    "##ver": 0,
    "##au": 0,
    "##ret": 0,
    "##ya": 6,
    "##phine": 0,
    "messenger": 1,
    "circulation": 0,
    "strategy": 0,
    "balance": 0,
    "favor": 0,
    "##mba": 0,
    "##lance": 0,
    "Study": 0,
    "Evaluation": 0,
    "respiratory": 0,
    "For": 0,
    "safety": 0,
    "reasons": 0,
    "theoretical": 0,
    "evaluating": 0,
    "CF": 1,
    "nasal": 0,
    "br": 3,
    "##chia": 0,
    "brushing": 0,
    "52": 2,
    "copy": 0,
    "protocols": 0,
    "utilizing": 0,
    "consider": 0,
    "Le": 3,
    "##ul": 0,
    "female": 1,
    "Path": 0,
    "##ological": 0,
    "grade": 0,
    "effort": 0,
    "better": 0,
    "biology": 0,
    "occasional": 0,
    "aggregate": 0,
    "attempt": 0,
    "tumors": 0,
    "##IF": 14,
    "parent": 1,
    "##isms": 0,
    "06": 0,
    "goat": 1,
    "Neither": 0,
    "Elements": 0,
    "##DR": 79,
    "parameters": 0,
    "indicators": 0,
    "##lase": 2,
    "metabolic": 0,
    "native": 6,
    "27": 2,
    "261": 0,
    "256": 0,
    "145": 0,
    "186": 0,
    "responded": 0,
    "representative": 0,
    "minor": 1,
    "130": 2,
    "##EX": 2,
    "110": 2,
    "FK": 23,
    "##ela": 0,
    "authentic": 0,
    "spite": 0,
    "terminals": 0,
    "sexes": 0,
    "Fi": 4,
    "##osterone": 1,
    "##bell": 0,
    "##ulf": 0,
    "somewhat": 0,
    "classic": 0,
    "fertile": 0,
    "mean": 0,
    "##urable": 0,
    "184": 0,
    "hormones": 0,
    "##otes": 0,
    "##dos": 6,
    "compete": 0,
    "app": 0,
    "##cia": 0,
    "##bly": 0,
    "1881": 0,
    "raises": 0,
    "##pet": 0,
    "uses": 0,
    "additionally": 0,
    "##bs": 9,
    "##quence": 0,
    "functioned": 0,
    "rap": 2,
    "##am": 2,
    "achieved": 0,
    "ps": 0,
    "##oria": 0,
    "delivery": 0,
    "##bial": 4,
    "Paul": 0,
    "##hol": 0,
    "Rai": 0,
    "##eh": 0,
    "discuss": 0,
    "advances": 0,
    "##mini": 1,
    "##shed": 0,
    "##sted": 0,
    "##vert": 0,
    "##formation": 0,
    "Abel": 0,
    "arrested": 0,
    "mineral": 9,
    "##aldo": 0,
    "pseudo": 2,
    "##ushing": 0,
    "adults": 0,
    "aged": 0,
    "picture": 0,
    "##mogeneous": 0,
    "treat": 0,
    "analog": 0,
    "pot": 0,
    "##ency": 0,
    "hour": 0,
    "ineffective": 0,
    "derivative": 1,
    "possess": 0,
    "discrete": 0,
    "currently": 0,
    "make": 0,
    "clear": 0,
    "introduced": 0,
    "Neo": 1,
    "behavior": 0,
    "done": 0,
    "adding": 0,
    "##pox": 0,
    "##che": 0,
    "##fusion": 0,
    "sought": 0,
    "##uba": 0,
    "Production": 0,
    "##ab": 1,
    "##oration": 0,
    "norm": 0,
    "pulmonary": 0,
    "##asis": 0,
    "IP": 6,
    "lung": 4,
    "##omb": 15,
    "##oro": 0,
    "##rud": 0,
    "##RP": 2,
    "SF": 0,
    "##fra": 0,
    "##ctor": 4,
    "dramatic": 0,
    "highlight": 0,
    "lying": 0,
    "nevertheless": 0,
    "##lve": 0,
    "##LD": 23,
    "##dic": 0,
    "##sio": 0,
    "incorporated": 0,
    "ethanol": 0,
    "##lysis": 0,
    "##oh": 3,
    "##acy": 0,
    "##gly": 0,
    "Up": 0,
    "delayed": 1,
    "Henderson": 0,
    "Rowe": 0,
    "Gregory": 0,
    "Wang": 0,
    "Rick": 0,
    "111": 0,
    "##tain": 1,
    "artifact": 0,
    "tolerate": 0,
    "48": 0,
    "whilst": 0,
    "Long": 0,
    "minutes": 0,
    "unable": 0,
    "gross": 0,
    "##33": 3,
    "##dia": 0,
    "##sed": 0,
    "French": 0,
    "American": 0,
    "British": 0,
    "Multi": 0,
    "##color": 0,
    "deeply": 0,
    "##gin": 0,
    "scan": 0,
    "fine": 0,
    "##zu": 0,
    "finely": 0,
    "Sudan": 0,
    "black": 0,
    "remarkably": 0,
    "particularly": 0,
    "##gra": 1,
    "##ning": 0,
    "sorting": 0,
    "designation": 0,
    "##cognition": 0,
    "distinguishing": 0,
    "true": 0,
    "##mpo": 1,
    "material": 0,
    "##ans": 0,
    "quickly": 0,
    "Alternatively": 0,
    "Fast": 0,
    "##ris": 0,
    "smooth": 2,
    "##inator": 0,
    "##ubi": 0,
    "salt": 1,
    "regard": 0,
    "reviewed": 0,
    "resolution": 0,
    "##cca": 1,
    "##some": 5,
    "around": 0,
    "470": 0,
    "##play": 0,
    "transmit": 0,
    "Very": 0,
    "classes": 0,
    "acceleration": 0,
    "Chang": 0,
    "##dra": 1,
    "288": 0,
    "OR": 13,
    "During": 0,
    "serious": 0,
    "##ody": 0,
    "##nam": 0,
    "instability": 0,
    "concerns": 0,
    "##ces": 1,
    "investigators": 0,
    "##nent": 1,
    "264": 0,
    "consistently": 0,
    "Abbott": 0,
    "abortion": 0,
    "##ols": 0,
    "third": 3,
    "##ester": 0,
    "threatened": 0,
    "##ler": 0,
    "##ance": 0,
    "##culture": 0,
    "##ilized": 0,
    "##ilize": 0,
    "destroyed": 0,
    "creating": 0,
    "tentative": 0,
    "preference": 0,
    "Target": 0,
    "rescue": 0,
    "entirely": 0,
    "##yon": 0,
    "##ery": 0,
    "##ible": 1,
    "##ram": 0,
    "##med": 0,
    "Role": 0,
    "monitored": 0,
    "##uni": 1,
    "##ved": 0,
    "Gen": 0,
    "##bank": 0,
    "match": 0,
    "matches": 0,
    "covering": 0,
    "migration": 0,
    "301": 0,
    "varying": 0,
    "##cede": 0,
    "##uction": 0,
    "importantly": 0,
    "allows": 0,
    "FC": 1,
    "##lement": 0,
    "##ura": 1,
    "kit": 2,
    "recruitment": 0,
    "liquid": 0,
    "suspension": 0,
    "##ge": 0,
    "pulse": 0,
    "master": 2,
    "##lino": 12,
    "##link": 0,
    "##nch": 0,
    "##ron": 1,
    "##onized": 0,
    "##51": 4,
    "##47": 11,
    "partners": 0,
    "segregation": 0,
    "##ten": 0,
    "MS": 16,
    "1999": 0,
    "Jul": 0,
    "repeated": 0,
    "##bet": 48,
    "##sha": 0,
    "##ble": 0,
    "expand": 0,
    "##bot": 9,
    "carries": 0,
    "Ara": 0,
    "##ngo": 1,
    "##elin": 0,
    "##tral": 0,
    "##KS": 2,
    "Comparative": 0,
    "identifies": 0,
    "##human": 1,
    "naturally": 0,
    "##gence": 0,
    "##oons": 0,
    "##hic": 0,
    "comparative": 0,
    "Nevertheless": 0,
    "retain": 0,
    "Multiple": 0,
    "##XT": 5,
    "##eus": 0,
    "##36": 21,
    "##idy": 3,
    "duct": 0,
    "##UC": 1,
    "77": 1,
    "##lative": 0,
    "Lo": 1,
    "##bula": 0,
    "##so": 1,
    "associations": 0,
    "node": 0,
    "##et": 0,
    "breakdown": 0,
    "169": 1,
    "##lm": 0,
    "##mel": 0,
    "##ept": 3,
    "##ido": 0,
    "##can": 1,
    "rates": 0,
    "respective": 0,
    "Experiment": 0,
    "##ld": 0,
    "gang": 0,
    "##lio": 0,
    "Additionally": 0,
    "dispersed": 0,
    "General": 1,
    "DL": 0,
    "NHL": 0,
    "precise": 0,
    "definition": 0,
    "ongoing": 0,
    "engineered": 0,
    "contributing": 0,
    "risk": 0,
    "monitor": 0,
    "tools": 0,
    "monitoring": 0,
    "residual": 0,
    "##lap": 0,
    "##bbe": 3,
    "1993": 0,
    "Pan": 11,
    "##rip": 0,
    "##ote": 0,
    "organ": 0,
    "##lage": 0,
    "gut": 0,
    "##use": 0,
    "##chy": 0,
    "develops": 0,
    "Early": 2,
    "##uds": 0,
    "branching": 0,
    "##ud": 0,
    "eventually": 0,
    "##ode": 0,
    "##rmal": 0,
    "##der": 0,
    "years": 0,
    "sum": 0,
    "##mar": 0,
    "focus": 0,
    "Ko": 1,
    "find": 0,
    "Generation": 0,
    "##itic": 0,
    "giant": 0,
    "DC": 2,
    "convert": 0,
    "Tu": 13,
    "##lating": 0,
    "##bor": 0,
    "demons": 0,
    "MG": 1,
    "constitute": 0,
    "MAC": 0,
    "treating": 0,
    "plaque": 0,
    "##39": 5,
    "##43": 2,
    "##sia": 0,
    "##cans": 0,
    "bore": 0,
    "##aly": 1,
    "##valent": 0,
    "killed": 0,
    "##29": 18,
    "cry": 1,
    "feedback": 0,
    "##ang": 0,
    "recognised": 0,
    "##logical": 0,
    "##mental": 0,
    "require": 0,
    "assign": 0,
    "##olin": 0,
    "##ony": 0,
    "##pipe": 0,
    "##raz": 0,
    "compound": 0,
    "##azi": 0,
    "##quire": 0,
    "achieving": 0,
    "yielded": 0,
    "GP": 16,
    "86": 2,
    "Su": 0,
    "Des": 0,
    "##CP": 9,
    "##ish": 0,
    "van": 0,
    "Rapid": 0,
    "PT": 31,
    "explored": 0,
    "##vana": 0,
    "##date": 0,
    "notably": 0,
    "globally": 0,
    "hall": 0,
    "##marks": 0,
    "delivered": 0,
    "culminating": 0,
    "programme": 0,
    "##trar": 0,
    "channel": 0,
    "&": 0,
    "overlapping": 4,
    "##alo": 13,
    "##mis": 0,
    "##sive": 0,
    "namely": 0,
    "##ka": 189,
    "fail": 0,
    "trip": 1,
    "##art": 1,
    "##light": 0,
    "##usal": 0,
    "His": 0,
    "comprising": 0,
    "Primary": 0,
    "independence": 0,
    "tube": 1,
    "##rous": 1,
    "methodology": 0,
    "constructed": 0,
    "complementary": 6,
    "##psy": 0,
    "prominently": 0,
    "pyramid": 0,
    "cerebral": 0,
    "cortex": 0,
    "motor": 0,
    "brains": 0,
    "##tem": 0,
    "##otic": 1,
    "exception": 0,
    "widespread": 0,
    "metabolism": 0,
    "elimination": 0,
    "self": 2,
    "##oan": 1,
    "negatively": 0,
    "aggressive": 0,
    "fatal": 0,
    "##SR": 1,
    "associate": 0,
    "##hab": 2,
    "##sar": 0,
    "##altered": 0,
    "exploited": 0,
    "Among": 0,
    "participation": 0,
    "access": 1,
    "reactions": 0,
    "##ference": 0,
    "##raft": 0,
    "##cological": 0,
    "interfering": 0,
    "pm": 5,
    "donor": 0,
    "challenged": 0,
    "pulsed": 0,
    "approaches": 0,
    "##not": 0,
    "108": 0,
    "damp": 0,
    "pronounced": 0,
    "accumulated": 0,
    "140": 1,
    "##omo": 3,
    "##ain": 7,
    "location": 0,
    "##CS": 19,
    "profound": 0,
    "alternatively": 1,
    "##bound": 0,
    "withdrawal": 0,
    "contrasts": 0,
    "employ": 0,
    "outcomes": 0,
    "##arma": 0,
    "##oda": 0,
    "##lity": 0,
    "De": 0,
    "##be": 0,
    "Beth": 0,
    "Israel": 0,
    "Hospital": 0,
    "Boston": 0,
    "reviews": 0,
    "regarding": 0,
    "pen": 0,
    "##llin": 0,
    "##rov": 0,
    "prove": 0,
    "forced": 0,
    "volume": 0,
    "Pat": 0,
    "##ients": 0,
    "morning": 1,
    "w": 4,
    "oral": 0,
    "twice": 0,
    "daily": 0,
    "reverted": 0,
    "##valence": 0,
    "random": 1,
    "##rates": 0,
    "##mark": 0,
    "prevalence": 0,
    "Eli": 0,
    "##gible": 0,
    "prior": 0,
    "Low": 1,
    "id": 0,
    "##ifiable": 0,
    "Du": 0,
    "needle": 0,
    "aspirations": 0,
    "median": 0,
    "Gail": 0,
    "projected": 0,
    "probability": 0,
    "developing": 0,
    "09": 0,
    "noted": 0,
    "substances": 0,
    "Sal": 0,
    "##rp": 13,
    "##ona": 0,
    "##ival": 0,
    "Hu": 1,
    "78": 0,
    "##onal": 1,
    "231": 0,
    "genetically": 0,
    "333": 0,
    "##ke": 3,
    "##wer": 0,
    "naive": 0,
    "addressed": 0,
    "question": 0,
    "memory": 0,
    "atop": 1,
    "polar": 0,
    "Consequently": 0,
    "equal": 0,
    "##wing": 0,
    "recruited": 0,
    "##UT": 5,
    "insect": 0,
    "converted": 0,
    "##UM": 10,
    "##Ps": 0,
    "##TP": 7,
    "harbour": 0,
    "##alytic": 13,
    "NH": 9,
    "address": 0,
    "##king": 0,
    "radio": 1,
    "Besides": 0,
    "attack": 0,
    "think": 0,
    "##dit": 2,
    "attacks": 0,
    "Novel": 0,
    "movements": 0,
    "##ton": 2,
    "onset": 0,
    "1000": 0,
    "##cton": 0,
    "just": 0,
    "directing": 0,
    "##ER": 12,
    "authors": 0,
    "representing": 0,
    "measure": 0,
    "##ign": 0,
    "add": 0,
    "heart": 0,
    "health": 0,
    "improved": 0,
    "compensation": 0,
    "helpful": 0,
    "raising": 0,
    "proper": 0,
    "comparatively": 0,
    "##ficient": 0,
    "1997": 0,
    "Apr": 0,
    "235": 0,
    "##lify": 0,
    "244": 1,
    "overlap": 0,
    "##BS": 9,
    "confirm": 0,
    "FL": 4,
    "knockout": 0,
    "##oll": 3,
    "##icular": 0,
    "##ils": 0,
    "##lasia": 0,
    "centers": 0,
    "area": 0,
    "zone": 0,
    "specialized": 0,
    "substrate": 0,
    "fall": 0,
    "altering": 0,
    "##lani": 0,
    "impact": 0,
    "##tron": 0,
    "terminate": 0,
    "confined": 0,
    "testing": 0,
    "duration": 0,
    "appearing": 0,
    "made": 0,
    "boundary": 0,
    "196": 0,
    "##do": 1,
    "cold": 0,
    "air": 0,
    "##eat": 0,
    "clearance": 0,
    "condition": 0,
    "##NL": 0,
    "replacement": 0,
    "blind": 0,
    "regime": 0,
    "began": 0,
    "every": 0,
    "log": 0,
    "minimize": 0,
    "subject": 0,
    "var": 1,
    "##iability": 0,
    "approx": 0,
    "304": 0,
    "139": 0,
    "04": 0,
    "##MB": 0,
    "311": 0,
    "##OS": 29,
    "Fresh": 0,
    "isolation": 0,
    "Level": 0,
    "adapted": 0,
    "purposes": 0,
    "Region": 0,
    "locate": 0,
    "##cha": 2,
    "##rted": 1,
    "##ype": 0,
    "belonging": 0,
    "escape": 0,
    "baby": 0,
    "kidney": 0,
    "280": 1,
    "##iology": 0,
    "suspected": 0,
    "joints": 0,
    "##oat": 2,
    "cu": 0,
    "##umi": 0,
    "contents": 0,
    "##80": 16,
    "##tern": 0,
    "abundance": 0,
    "Ya": 2,
    "##ndo": 0,
    "##EF": 32,
    "consist": 0,
    "Visual": 0,
    "sections": 0,
    "network": 0,
    "clusters": 0,
    "massive": 0,
    "scattered": 0,
    "Present": 0,
    "transmission": 0,
    "outlined": 0,
    "figure": 0,
    "import": 1,
    "Once": 0,
    "similarities": 0,
    "enters": 0,
    "anchor": 0,
    "functioning": 0,
    "promoting": 0,
    "sensor": 0,
    "attributed": 0,
    "Ace": 0,
    "Second": 0,
    "na": 0,
    "##ryn": 0,
    "NL": 5,
    "##isation": 0,
    "Of": 0,
    "right": 0,
    "##ward": 0,
    "compatible": 0,
    "entering": 0,
    "exploit": 0,
    "Down": 0,
    "enable": 0,
    "##vade": 0,
    "surveillance": 0,
    "##ean": 0,
    "##alog": 0,
    "##ues": 0,
    "300": 1,
    "##duct": 0,
    "##imus": 0,
    "necessity": 0,
    "consolidation": 0,
    "##75": 13,
    "Alt": 1,
    "##eration": 0,
    "ghost": 0,
    "clinic": 0,
    "##gado": 0,
    "##tur": 0,
    "refer": 0,
    "ghosts": 0,
    "medications": 0,
    "##way": 0,
    "Do": 1,
    "requiring": 0,
    "ranged": 0,
    "management": 0,
    "##27": 31,
    "##ks": 0,
    "Go": 0,
    "153": 0,
    "178": 0,
    "286": 0,
    "87": 0,
    "panel": 0,
    "growing": 0,
    "##RO": 1,
    "Formation": 0,
    "Now": 0,
    "capacities": 0,
    "probable": 0,
    "depression": 0,
    "shut": 0,
    "##tling": 0,
    "discrimination": 0,
    "need": 0,
    "##yna": 0,
    "pulses": 0,
    "maintain": 0,
    "Subsequent": 0,
    "ii": 0,
    "retention": 0,
    "##rel": 0,
    "##hips": 0,
    "surfaces": 0,
    "physiology": 0,
    "##iate": 0,
    "Gran": 11,
    "Earlier": 0,
    "recover": 0,
    "replaces": 0,
    "BT": 1,
    "nude": 0,
    "43": 2,
    "##upe": 0,
    "closest": 0,
    "##CT": 7,
    "170": 0,
    "Likewise": 0,
    "examining": 0,
    "##iably": 0,
    "unrest": 0,
    "##ricted": 0,
    "conversion": 0,
    "Currently": 0,
    "exist": 0,
    "##cute": 0,
    "Twelve": 0,
    "redundant": 0,
    "##got": 0,
    "artificial": 1,
    "##aire": 0,
    "participating": 0,
    "##balt": 0,
    "nickel": 0,
    "mercury": 0,
    "ins": 0,
    "236": 0,
    "152": 0,
    "147": 0,
    "181": 0,
    "observe": 0,
    "180": 0,
    "##vere": 0,
    "male": 0,
    "siblings": 0,
    "infants": 0,
    "born": 0,
    "##sang": 0,
    "parents": 0,
    "children": 0,
    "initially": 0,
    "##pis": 0,
    "253": 0,
    "257": 0,
    "properly": 0,
    "positioned": 0,
    "Product": 0,
    "98": 0,
    "stranded": 0,
    "##ced": 0,
    "##end": 3,
    "##HF": 3,
    "dictated": 0,
    "choice": 0,
    "slower": 1,
    "alternate": 0,
    "correctly": 0,
    "##uel": 0,
    "##ches": 0,
    "##gos": 0,
    "##them": 0,
    "acquired": 0,
    "detailed": 0,
    "##imo": 0,
    "##rgan": 0,
    "searched": 0,
    "##etics": 0,
    "##pathic": 0,
    "instance": 0,
    "##sat": 0,
    "##elli": 0,
    "comparisons": 0,
    "##iz": 0,
    "Loss": 0,
    "masked": 0,
    "##ila": 0,
    "##teral": 0,
    "inactivated": 0,
    "star": 0,
    "Important": 0,
    "sense": 0,
    "shifts": 0,
    "decreasing": 0,
    "##ordination": 0,
    "injury": 0,
    "directional": 0,
    "discourse": 0,
    "##voke": 0,
    "##LR": 26,
    "modes": 0,
    "contributed": 0,
    "programmed": 0,
    "##ima": 1,
    "close": 0,
    "specification": 0,
    "##aen": 2,
    "##egan": 0,
    "ultimate": 0,
    "relates": 0,
    "elaborate": 0,
    "##44": 17,
    "243": 0,
    "era": 0,
    "adverse": 0,
    "safe": 0,
    "vaccine": 0,
    "##ei": 0,
    "named": 0,
    "##suming": 0,
    "organisms": 0,
    "sometimes": 0,
    "##nose": 0,
    "progressive": 0,
    "aging": 0,
    "emergence": 0,
    "purpose": 0,
    "advancing": 0,
    "divided": 0,
    "Other": 0,
    "cluster": 0,
    "600": 0,
    "##umatic": 0,
    "##obe": 1,
    "exit": 0,
    "##zer": 0,
    "corrected": 0,
    "date": 0,
    "142": 1,
    "gas": 0,
    "oriented": 0,
    "Late": 3,
    "affirmed": 0,
    "##lets": 0,
    "##sk": 0,
    "##lla": 18,
    "maintaining": 0,
    "##shes": 0,
    "Der": 0,
    "having": 0,
    "##logy": 0,
    "raised": 0,
    "Along": 0,
    "##uated": 0,
    "thick": 0,
    "##ious": 0,
    "##lent": 0,
    "##pol": 0,
    "vol": 0,
    "##OC": 15,
    "##isco": 0,
    "##sity": 0,
    "##put": 0,
    "133": 0,
    "##oise": 0,
    "Despite": 0,
    "##rrence": 0,
    "code": 0,
    "##lification": 0,
    "options": 0,
    "autonomous": 1,
    "neon": 0,
    "##ata": 0,
    "##itating": 0,
    "inherent": 0,
    "Dual": 0,
    "##ice": 1,
    "daughter": 0,
    "une": 0,
    "##voc": 0,
    "Dexter": 0,
    "mirror": 0,
    "overnight": 0,
    "71": 1,
    "interpreted": 0,
    "234": 0,
    "1796": 0,
    "720": 0,
    "345": 0,
    "154": 0,
    "distinctly": 0,
    "render": 0,
    "rejection": 0,
    "##nga": 0,
    "##usa": 0,
    "disrupted": 0,
    "string": 0,
    "unexpectedly": 0,
    "bond": 0,
    "##cci": 0,
    "amid": 0,
    "Natural": 0,
    "processed": 0,
    "given": 0,
    "unwanted": 0,
    "hazardous": 0,
    "storage": 0,
    "##cision": 0,
    "NE": 8,
    "##mento": 0,
    "##ayne": 0,
    "mother": 0,
    "##w": 1,
    "presents": 0,
    "concept": 0,
    "actually": 0,
    "contrary": 0,
    "white": 0,
    "pulp": 0,
    "preferred": 0,
    "Pi": 1,
    "##fo": 3,
    "##HS": 0,
    "##FP": 5,
    "variants": 0,
    "Self": 0,
    "renewal": 0,
    "Kit": 0,
    "perfectly": 0,
    "global": 0,
    "ions": 0,
    "Bob": 8,
    "prototype": 1,
    "groove": 0,
    "fifth": 1,
    "expose": 0,
    "allowing": 0,
    "##eve": 0,
    "##oz": 4,
    "twin": 0,
    "twins": 0,
    "hair": 0,
    "##icles": 0,
    "son": 0,
    "sister": 0,
    "permitted": 0,
    "Single": 1,
    "##bal": 1,
    "directions": 0,
    "maternal": 1,
    "paternal": 2,
    "nephew": 0,
    "uneven": 0,
    "spatial": 0,
    "alignment": 0,
    "insertion": 0,
    "##wise": 0,
    "bends": 0,
    "bend": 0,
    "agreement": 0,
    "constantly": 0,
    "possesses": 0,
    "overcome": 0,
    "problem": 0,
    "##sus": 2,
    "precisely": 0,
    "##ad": 10,
    "themselves": 0,
    "simultaneously": 0,
    "reducing": 0,
    "yields": 0,
    "112": 0,
    "##ulus": 0,
    "achieve": 0,
    "utilize": 0,
    "intervention": 0,
    "##hra": 0,
    "##cline": 3,
    "lives": 0,
    "##all": 0,
    "##fts": 0,
    "##titis": 2,
    "follow": 0,
    "Accordingly": 0,
    "Active": 0,
    "Class": 2,
    "##gation": 0,
    "extend": 0,
    "barriers": 0,
    "##ments": 0,
    "Mat": 0,
    "establishment": 0,
    "insufficient": 0,
    "accelerated": 0,
    "##rations": 0,
    "Third": 0,
    "##ws": 0,
    "AS": 0,
    "selecting": 0,
    "candidates": 0,
    "database": 0,
    "computer": 0,
    "##lium": 0,
    "questioned": 0,
    "##pass": 0,
    "minimum": 0,
    "Step": 0,
    "adds": 0,
    "list": 0,
    "##hal": 0,
    "##formed": 3,
    "##gan": 0,
    "obscure": 0,
    "sur": 5,
    "##rogate": 5,
    "provoked": 0,
    "##led": 0,
    "##kal": 3,
    "phenomena": 0,
    "##ech": 0,
    "##mine": 0,
    "##mit": 1,
    "Nor": 0,
    "##pine": 0,
    "generalized": 0,
    "Through": 0,
    "states": 0,
    "Bo": 0,
    "##urg": 0,
    "##dorf": 0,
    "proceeds": 0,
    "Like": 0,
    "##arte": 0,
    "##chet": 2,
    "lend": 0,
    "proposal": 0,
    "##SP": 23,
    "description": 0,
    "dot": 0,
    "variously": 0,
    "dots": 0,
    "##lapping": 1,
    "exactly": 0,
    "visual": 0,
    "traffic": 0,
    "integrated": 0,
    "##MT": 6,
    "excluded": 0,
    "risks": 0,
    "definite": 0,
    "exquisite": 0,
    "IN": 2,
    "##ressed": 0,
    "emerged": 0,
    "##chi": 0,
    "##lite": 0,
    "Vita": 2,
    "##min": 3,
    "Rex": 11,
    "export": 0,
    "manuscript": 0,
    "shuttle": 0,
    "94": 2,
    "substantially": 0,
    "Select": 0,
    "woman": 0,
    "She": 0,
    "International": 0,
    "Working": 0,
    "Formula": 0,
    "vicinity": 0,
    "sort": 0,
    "depressed": 0,
    "Let": 0,
    "##hali": 0,
    "##nia": 0,
    "recovery": 0,
    "##rippled": 0,
    "relationships": 0,
    "Cooperation": 0,
    "focusing": 0,
    "critically": 0,
    "210": 0,
    "specified": 0,
    "expanded": 0,
    "progress": 0,
    "varies": 0,
    "Age": 0,
    "##cies": 0,
    "##stant": 0,
    "analyzing": 0,
    "utilizes": 0,
    "Cry": 0,
    "##form": 1,
    "Can": 0,
    "##bic": 0,
    "fun": 1,
    "##risto": 1,
    "research": 0,
    "perspectives": 0,
    "fascinating": 0,
    "damaging": 0,
    "Much": 0,
    "necessarily": 0,
    "accelerate": 0,
    "capabilities": 0,
    "recruiting": 0,
    "distinction": 0,
    "offers": 0,
    "advantage": 0,
    "anatomy": 0,
    "peculiar": 0,
    "##oy": 0,
    "##ctive": 2,
    "experiment": 0,
    "serving": 0,
    "Pa": 35,
    "mid": 0,
    "module": 0,
    "##eb": 7,
    "##fish": 1,
    "sea": 3,
    "##rch": 0,
    "258": 0,
    "501": 0,
    "##ndi": 2,
    "fatty": 1,
    "##tized": 0,
    "highlights": 0,
    "bridge": 0,
    "##arity": 0,
    "##ence": 0,
    "Reed": 0,
    "Stern": 0,
    "##berg": 0,
    "arguments": 0,
    "RS": 0,
    "determination": 0,
    "serial": 1,
    "146": 0,
    "##ear": 0,
    "##thal": 0,
    "##az": 0,
    "AN": 5,
    "washing": 0,
    "reached": 0,
    "##ano": 0,
    "experience": 0,
    "episodes": 0,
    "Gram": 0,
    "bacteria": 0,
    "Many": 0,
    "Her": 0,
    "##iri": 1,
    "creates": 0,
    "AB": 0,
    "proximity": 0,
    "##point": 0,
    "severity": 0,
    "signs": 0,
    "span": 0,
    "Abu": 0,
    "##nda": 0,
    "##zes": 0,
    "Ma": 1,
    "occupy": 0,
    "albeit": 0,
    "cycles": 0,
    "continuously": 0,
    "Ray": 0,
    "##alle": 1,
    "Gonzalez": 0,
    "##ache": 0,
    "156": 0,
    "visible": 0,
    "##MA": 6,
    "masses": 0,
    "migrated": 0,
    "slowly": 0,
    "##NI": 0,
    "149": 0,
    "efficiency": 0,
    "cache": 0,
    "##xia": 0,
    "##zone": 0,
    "lethal": 0,
    "Ulrich": 0,
    "Bloom": 0,
    "Mei": 0,
    "##rell": 0,
    "##immer": 0,
    "##man": 0,
    "Schmidt": 0,
    "##yer": 0,
    "##ova": 0,
    "##sky": 0,
    "Donnell": 0,
    "##ey": 0,
    "##uca": 0,
    "##rry": 0,
    "Man": 0,
    "##ogue": 0,
    "Ce": 5,
    "Trace": 0,
    "254": 0,
    "##abe": 0,
    "Cohen": 0,
    "##ney": 0,
    "1996": 0,
    "Ex": 1,
    "press": 0,
    "##ub": 1,
    "##hu": 4,
    "contributions": 0,
    "principle": 0,
    "whatever": 0,
    "##lang": 0,
    "##ie": 0,
    "##asi": 0,
    "suffering": 0,
    "107": 1,
    "codes": 0,
    "##ass": 1,
    "##plex": 1,
    "##tured": 0,
    "##onic": 0,
    "buffer": 0,
    "##ads": 0,
    "##ption": 0,
    "##bed": 0,
    "degrees": 0,
    "equilibrium": 0,
    "noticed": 0,
    "competing": 0,
    "##ering": 0,
    "links": 0,
    "##net": 0,
    "##ics": 0,
    "empty": 1,
    "loaded": 0,
    "fever": 0,
    "151": 1,
    "##rable": 0,
    "null": 0,
    "Richter": 0,
    "perhaps": 0,
    "##fe": 2,
    "##edly": 0,
    "extending": 0,
    "principally": 0,
    "reasoned": 0,
    "manga": 0,
    "##bey": 0,
    "Ku": 2,
    "trap": 0,
    "HD": 3,
    "attractive": 0,
    "op": 0,
    "##mized": 0,
    "Lin": 0,
    "97": 3,
    "660": 0,
    "##86": 9,
    "Para": 0,
    "##dox": 0,
    "##ically": 1,
    "NW": 0,
    "genera": 0,
    "ID": 1,
    "##Es": 1,
    "##ont": 0,
    "##aph": 5,
    "##reus": 0,
    "entered": 0,
    "##ib": 4,
    "changed": 0,
    "##oam": 2,
    "external": 0,
    "##tina": 2,
    "permitting": 0,
    "Compared": 0,
    "##esta": 0,
    "##lished": 0,
    "##actions": 0,
    "parallels": 0,
    "Au": 0,
    "##the": 0,
    "##ake": 0,
    "##xe": 1,
    "##pin": 2,
    "##tamine": 2,
    "53": 0,
    "##max": 0,
    "existed": 0,
    "competitors": 0,
    "extracted": 0,
    "##BB": 1,
    "maps": 0,
    "69": 1,
    "recruits": 0,
    "##ME": 0,
    "maintains": 0,
    "Nat": 0,
    "go": 0,
    "tail": 0,
    "Jiang": 0,
    "Wen": 0,
    "Hansen": 0,
    "Ring": 0,
    "##z": 0,
    "Klein": 0,
    "Rosen": 0,
    "whom": 0,
    "121": 0,
    "Investigation": 0,
    "promises": 0,
    "shed": 0,
    "##ea": 2,
    "##avia": 0,
    "##cell": 0,
    "pigs": 0,
    "begin": 0,
    "Forty": 0,
    "##ways": 0,
    "##uda": 0,
    "collapse": 0,
    "##verted": 0,
    "Stefan": 0,
    "##escu": 0,
    "##bla": 0,
    "Men": 0,
    "##ez": 0,
    "convenient": 0,
    "compare": 0,
    "unstable": 0,
    "##eral": 0,
    "##qua": 0,
    "##tative": 0,
    "improvement": 0,
    "99": 0,
    "stretch": 0,
    "Op": 0,
    "##eo": 0,
    "Permanent": 0,
    "LL": 0,
    "##35": 3,
    "excellent": 0,
    "resolve": 0,
    "controversy": 0,
    "future": 0,
    "successful": 0,
    "balanced": 2,
    "##mented": 0,
    "colour": 0,
    "lie": 0,
    "interrupt": 0,
    "Sai": 0,
    "##mir": 0,
    "permits": 0,
    "symmetry": 0,
    "ensure": 0,
    "##jection": 0,
    "severely": 1,
    "Resolution": 0,
    "incomplete": 0,
    "##prints": 0,
    "bulk": 0,
    "##om": 0,
    "fewer": 0,
    "##gs": 2,
    "##mium": 0,
    "Animal": 0,
    "Gale": 1,
    "notable": 0,
    "102": 0,
    "##uctive": 0,
    "resident": 0,
    "connect": 0,
    "##ves": 0,
    "##llar": 1,
    "lungs": 0,
    "absolute": 0,
    "##tage": 0,
    "derivatives": 0,
    "rough": 0,
    "surf": 1,
    "y": 0,
    "##yu": 0,
    "##cat": 0,
    "##NS": 0,
    "##ilitating": 0,
    "##gli": 0,
    "##glia": 0,
    "Even": 0,
    "literature": 0,
    "##ography": 0,
    "##ving": 0,
    "classification": 0,
    "emphasized": 0,
    "come": 0,
    "##come": 0,
    "##gio": 1,
    "Page": 0,
    "##lass": 0,
    "##ifying": 0,
    "##aft": 0,
    "relocation": 0,
    "taut": 0,
    "broad": 0,
    "##yam": 0,
    "relations": 0,
    "Experimental": 0,
    "invasive": 0,
    "Statistical": 0,
    "practice": 0,
    "##ceps": 3,
    "Surface": 0,
    "follows": 0,
    "##rice": 0,
    "fl": 1,
    "##av": 13,
    "##lav": 0,
    "plant": 0,
    "kingdom": 0,
    "protecting": 0,
    "Copyright": 0,
    "Wiley": 0,
    "##ss": 2,
    "Bad": 2,
    "##lit": 0,
    "##tub": 6,
    "##ule": 3,
    "move": 0,
    "disturb": 0,
    "kill": 0,
    "##01": 1,
    "gradual": 0,
    "interpret": 0,
    "reflection": 0,
    "threshold": 0,
    "avid": 3,
    "riding": 0,
    "evaluated": 0,
    "##pu": 0,
    "leak": 0,
    "album": 1,
    "lava": 0,
    "fluids": 0,
    "fluid": 0,
    "becoming": 0,
    "impending": 0,
    "##pian": 0,
    "##EA": 6,
    "nitrogen": 0,
    "unless": 0,
    "Force": 0,
    "producer": 0,
    "conservative": 0,
    "Body": 0,
    "fat": 0,
    "lean": 0,
    "glucose": 3,
    "##rig": 0,
    "##nado": 0,
    "Said": 0,
    "Also": 0,
    "smoking": 0,
    "broader": 0,
    "pH": 1,
    "430": 0,
    "barely": 0,
    "washed": 0,
    "##enia": 0,
    "##phic": 0,
    "##opy": 1,
    "##pose": 0,
    "Due": 0,
    "unusually": 0,
    "##moto": 0,
    "comprehensive": 0,
    "clue": 0,
    "##position": 0,
    "older": 0,
    "Oral": 0,
    "coin": 0,
    "##bat": 0,
    "##ited": 0,
    "dominate": 0,
    "##tad": 0,
    "##eca": 0,
    "frequencies": 0,
    "vice": 0,
    "versa": 0,
    "ill": 0,
    "##ust": 0,
    "##sel": 0,
    "comprises": 0,
    "Certain": 0,
    "Abe": 0,
    "mantle": 0,
    "##lli": 0,
    "##icle": 0,
    "surveyed": 0,
    "firmly": 0,
    "circumstances": 0,
    "usage": 0,
    "Pass": 0,
    "##aging": 0,
    "HK": 0,
    "suppose": 0,
    "##well": 0,
    "Costa": 0,
    "##tile": 0,
    "particle": 0,
    "fibre": 0,
    "##cut": 0,
    "Cope": 0,
    "132": 0,
    "##old": 0,
    "##ith": 0,
    "what": 0,
    "##yme": 4,
    "concluded": 0,
    "Last": 0,
    "##vation": 0,
    "Central": 0,
    "Cut": 0,
    "edge": 0,
    "##arra": 0,
    "algorithm": 0,
    "##luster": 0,
    "manipulation": 0,
    "specimen": 0,
    "coherent": 0,
    "systematic": 0,
    "solid": 0,
    "##lid": 0,
    "##Ds": 0,
    "##olis": 0,
    "foam": 0,
    "existing": 0,
    "note": 0,
    "rely": 0,
    "##connected": 0,
    "modules": 0,
    "##omi": 0,
    "Side": 0,
    "locked": 0,
    "##hane": 0,
    "acquisition": 0,
    "sources": 0,
    "Den": 0,
    "emphasizes": 0,
    "##cula": 0,
    "receive": 0,
    "joint": 0,
    "argue": 0,
    "##uation": 0,
    "pharmaceutical": 0,
    "aims": 0,
    "sustaining": 0,
    "load": 0,
    "instances": 0,
    "randomly": 0,
    "tobacco": 0,
    "##aus": 0,
    "smoke": 0,
    "urine": 0,
    "##sai": 0,
    "traditionally": 0,
    "serpent": 0,
    "Prior": 0,
    "165": 0,
    "##riated": 0,
    "Classification": 0,
    "inherited": 0,
    "##plified": 0,
    "##sect": 0,
    "241": 0,
    "233": 0,
    "Ha": 0,
    "premature": 1,
    "branch": 1,
    "harmful": 0,
    "##une": 0,
    "ing": 1,
    "know": 0,
    "presenter": 0,
    "utility": 0,
    "handling": 0,
    "interchange": 0,
    "environment": 0,
    "Legion": 0,
    "##ella": 0,
    "##tham": 0,
    "caste": 0,
    "##llan": 0,
    "##ii": 0,
    "stationary": 0,
    "##gma": 2,
    "survive": 0,
    "##ari": 0,
    "paradigm": 0,
    "##uff": 0,
    "##iciency": 0,
    "##cess": 0,
    "default": 0,
    "switches": 0,
    "intriguing": 0,
    "describing": 0,
    "relies": 0,
    "challenging": 0,
    "##KO": 0,
    "sharply": 0,
    "Cat": 0,
    "##ego": 0,
    "##ries": 0,
    "VI": 0,
    "Category": 0,
    "sorted": 0,
    "documents": 0,
    "fixed": 0,
    "Examination": 0,
    "man": 0,
    "hairy": 0,
    "Delta": 10,
    "##ye": 0,
    "moth": 0,
    "##rk": 12,
    "slight": 0,
    "Instead": 0,
    "##ux": 1,
    "##posed": 1,
    "##IL": 20,
    "functionality": 0,
    "pull": 0,
    "##ien": 1,
    "203": 0,
    "former": 0,
    "bright": 0,
    "intensely": 0,
    "Energy": 0,
    "exercise": 0,
    "Eight": 0,
    "volunteers": 0,
    "pedal": 0,
    "##meter": 0,
    "wise": 0,
    "Each": 0,
    "volunteer": 0,
    "departure": 0,
    "vent": 0,
    "sudden": 0,
    "##load": 0,
    "Domain": 2,
    "sediment": 0,
    "Overall": 0,
    "integrity": 0,
    "Gang": 0,
    "blunt": 0,
    "##tum": 0,
    "Gender": 0,
    "tone": 0,
    "##udi": 0,
    "hence": 0,
    "shall": 0,
    "advance": 0,
    "193": 1,
    "placement": 0,
    "counter": 0,
    "255": 1,
    "285": 0,
    "Heat": 0,
    "below": 0,
    "presumed": 0,
    "WA": 0,
    "Shi": 1,
    "##gel": 1,
    "##ner": 0,
    "##cs": 2,
    "##ility": 0,
    "Dramatic": 0,
    "##rna": 0,
    "movement": 0,
    "List": 0,
    "##eria": 0,
    "feeds": 0,
    "bar": 0,
    "##ents": 0,
    "attachment": 0,
    "bacterium": 0,
    "peaking": 0,
    "soon": 0,
    "wished": 0,
    "##lk": 6,
    "Physical": 0,
    "laden": 0,
    "toll": 2,
    "inn": 0,
    "##ssi": 0,
    "##FC": 0,
    "##CH": 0,
    "intensity": 0,
    "nod": 0,
    "fix": 0,
    "formal": 1,
    "Strong": 0,
    "rose": 0,
    "##tting": 0,
    "##tically": 0,
    "deprived": 0,
    "supplement": 0,
    "hundred": 0,
    "mill": 0,
    "injected": 0,
    "started": 0,
    "returned": 0,
    "##dir": 0,
    "back": 0,
    "purity": 0,
    "1640": 0,
    "##VD": 0,
    "##ivable": 0,
    "disappearance": 0,
    "Resistance": 0,
    "accomplish": 0,
    "measurement": 0,
    "Block": 0,
    "grow": 0,
    "interpretation": 0,
    "Host": 0,
    "Numerous": 0,
    "medication": 0,
    "IRA": 6,
    "490": 0,
    "##tan": 0,
    "##rit": 6,
    "lining": 0,
    "depth": 0,
    "Mali": 0,
    "##pus": 0,
    "relieve": 0,
    "imposed": 0,
    "##try": 0,
    "ways": 0,
    "assumes": 0,
    "reorganization": 0,
    "##cts": 0,
    "##SF": 46,
    "shear": 0,
    "cm": 0,
    "Mr": 0,
    "threatening": 0,
    "specimens": 0,
    "preparations": 0,
    "bow": 0,
    "Looking": 0,
    "successes": 0,
    "failures": 0,
    "newer": 0,
    "tempting": 0,
    "draw": 0,
    "conclusions": 0,
    "proves": 0,
    "##ians": 0,
    "truly": 0,
    "works": 0,
    "benefit": 0,
    "Clinic": 0,
    "beginning": 0,
    "##lini": 0,
    "moment": 0,
    "##tics": 0,
    "Challenge": 0,
    "improving": 0,
    "definitions": 0,
    "armament": 0,
    "##arium": 0,
    "Live": 0,
    "forward": 0,
    "Reg": 1,
    "##retta": 0,
    "##ulent": 0,
    "##uate": 0,
    "##uating": 0,
    "proof": 0,
    "permit": 0,
    "live": 0,
    "pass": 0,
    "unprecedented": 0,
    "##ually": 0,
    "gained": 0,
    "246": 0,
    "diversity": 0,
    "narrowing": 0,
    "recall": 0,
    "challenges": 0,
    "took": 0,
    "##rik": 0,
    "narrow": 0,
    "adjusted": 0,
    "keep": 0,
    "window": 0,
    "imported": 0,
    "exported": 0,
    "##dh": 8,
    "definitive": 0,
    "Control": 0,
    "##geny": 0,
    "applications": 0,
    "correction": 0,
    "##bino": 0,
    "triangle": 1,
    "##NG": 0,
    "Programme": 0,
    "engages": 0,
    "needs": 0,
    "312": 0,
    "302": 0,
    "122": 0,
    "perspective": 0,
    "masks": 0,
    "VA": 1,
    "##kis": 0,
    "##ened": 0,
    "##iam": 0,
    "CP": 9,
    "Method": 0,
    "##NU": 0,
    "##igi": 0,
    "UP": 0,
    "favorable": 0,
    "transforms": 0,
    "##fining": 0,
    "destructive": 0,
    "spare": 0,
    "destruction": 0,
    "capability": 0,
    "##ality": 0,
    "newest": 0,
    "Lyon": 0,
    "supposedly": 0,
    "##yes": 0,
    "belong": 0,
    "merely": 0,
    "##ih": 0,
    "##tible": 0,
    "Association": 0,
    "conducts": 0,
    "diesel": 0,
    "organic": 0,
    "##yar": 0,
    "##car": 1,
    "##bon": 0,
    "exhaust": 0,
    "atmospheric": 0,
    "urban": 0,
    "pollution": 0,
    "##forcing": 0,
    "emission": 0,
    "##test": 0,
    "##inal": 1,
    "absorption": 0,
    "compelling": 0,
    "reflects": 0,
    "jagged": 1,
    "##AN": 0,
    "neighboring": 0,
    "wanted": 0,
    "Growing": 0,
    "example": 0,
    "##pm": 0,
    "227": 0,
    "179": 0,
    "171": 0,
    "System": 0,
    "##hn": 0,
    "ul": 0,
    "UC": 0,
    "Southwestern": 0,
    "Adult": 0,
    "##ava": 0,
    "Academic": 0,
    "Press": 0,
    "dominated": 0,
    "par": 0,
    "##site": 1,
    "##hora": 0,
    "secure": 0,
    "spreads": 0,
    "rendering": 0,
    "manage": 0,
    "avoid": 0,
    "convey": 0,
    "##mpt": 0,
    "Africans": 0,
    "West": 0,
    "African": 0,
    "East": 0,
    "##YP": 4,
    "resolved": 0,
    "##les": 0,
    "solutions": 0,
    "bank": 0,
    "Philips": 0,
    "sun": 0,
    "lamps": 0,
    "##itting": 0,
    "##ors": 0,
    "##tones": 0,
    "relieved": 0,
    "##kt": 2,
    "##EI": 2,
    "committed": 0,
    "document": 0,
    "##TO": 0,
    "check": 0,
    "strictly": 0,
    "submitted": 0,
    "engaged": 0,
    "##sign": 0,
    "##aling": 0,
    "burden": 0,
    "##guin": 0,
    "##kaya": 0,
    "vessels": 0,
    "create": 0,
    "mixture": 0,
    "talking": 0,
    "Better": 0,
    "artery": 0,
    "##64": 0,
    "card": 0,
    "versions": 0,
    "##ishing": 0,
    "Consider": 0,
    "proportions": 0,
    "repetitive": 0,
    "##gration": 0,
    "##ferred": 0,
    "emigration": 0,
    "computational": 0,
    "considers": 0,
    "ed": 0,
    "operating": 0,
    "Wide": 0,
    "Web": 0,
    "http": 0,
    "html": 0,
    "_": 0,
    "reportedly": 0,
    "##tens": 1,
    "##rona": 0,
    "##nta": 0,
    "Out": 0,
    "US": 10,
    "Yin": 1,
    "Yang": 0,
    "mutually": 0,
    "modest": 0,
    "concerned": 0,
    "Combined": 0,
    "tests": 0,
    "07": 0,
    "183": 0,
    "moderately": 0,
    "##ific": 0,
    "##spiration": 0,
    "##vos": 0,
    "##shing": 0,
    "62": 0,
    "NSA": 0,
    "##lind": 0,
    "connection": 0,
    "Escape": 0,
    "escapes": 0,
    "resides": 0,
    "##aa": 0,
    "##den": 0,
    "investigating": 0,
    "OF": 0,
    "habit": 0,
    "##ters": 0,
    "##IB": 1,
    "Nine": 0,
    "spreading": 0,
    "focal": 0,
    "fibers": 0,
    "fiber": 0,
    "Selection": 0,
    "Advances": 0,
    "technology": 0,
    "shape": 0,
    "refers": 0,
    "rescuing": 0,
    "emphasis": 0,
    "placed": 0,
    "Col": 0,
    "recognizable": 0,
    "##rsen": 0,
    "trio": 0,
    "##nex": 0,
    "##rid": 0,
    "##rial": 0,
    "##dam": 0,
    "123": 0,
    "western": 0,
    "phases": 0,
    "Media": 0,
    "simply": 0,
    "oppose": 0,
    "##vian": 1,
    "acted": 0,
    "establishing": 0,
    "Members": 0,
    "reason": 0,
    "##ick": 0,
    "Carter": 0,
    "##mund": 0,
    "##sson": 0,
    "##nning": 0,
    "##hak": 0,
    "1998": 0,
    "Am": 0,
    "275": 0,
    "Development": 0,
    "strategic": 0,
    "foreign": 2,
    "brought": 0,
    "organized": 0,
    "compose": 0,
    "Additional": 0,
    "pace": 0,
    "discusses": 0,
    "uniform": 0,
    "periphery": 0,
    "##osis": 0,
    "vulnerable": 0,
    "sibling": 0,
    "##mara": 1,
    "promising": 0,
    "complicated": 0,
    "excessive": 0,
    "younger": 0,
    "##wed": 0,
    "viable": 0,
    "hierarchy": 0,
    "cancelled": 0,
    "Fe": 0,
    "Fen": 0,
    "framework": 0,
    "lowered": 0,
    "remove": 0,
    "dishes": 0,
    "ensuring": 0,
    "once": 0,
    "offer": 0,
    "##junct": 0,
    "approached": 0,
    "caution": 0,
    "##lma": 0,
    "improve": 0,
    "Given": 0,
    "##eter": 0,
    "name": 0,
    "##IT": 12,
    "proposes": 0,
    "##ille": 0,
    "generations": 0,
    "hot": 0,
    "##gh": 0,
    "favour": 0,
    "slipped": 0,
    "recycling": 0,
    "regeneration": 0,
    "##romatic": 1,
    "deep": 0,
    "##rro": 0,
    "summary": 0,
    "final": 0,
    "imprint": 0,
    "Line": 0,
    "neglect": 0,
    "exceed": 0,
    "Anne": 0,
    "reaching": 0,
    "182": 0,
    "##ege": 0,
    "Poll": 0,
    "##ane": 5,
    "suitable": 0,
    "applicable": 0,
    "pin": 0,
    "##nk": 1,
    "##ev": 0,
    "##urity": 0,
    "Essential": 0,
    "##lene": 0,
    "##mes": 0,
    "Lu": 0,
    "##ng": 0,
    "##ssa": 0,
    "##ae": 0,
    "des": 0,
    "##rio": 0,
    "##gion": 0,
    "272": 1,
    "305": 0,
    "307": 1,
    "endowed": 0,
    "223": 1,
    "##mad": 14,
    "dead": 0,
    "Nicole": 0,
    "##tti": 0,
    "##ress": 0,
    "##erial": 0,
    "mechanical": 0,
    "##far": 0,
    "conflicting": 0,
    "stressed": 0,
    "beneath": 0,
    "inhaled": 0,
    "mild": 0,
    "sampling": 0,
    "measurements": 0,
    "157": 0,
    "Je": 0,
    "##orio": 0,
    "assessment": 0,
    "##aks": 1,
    "##ats": 0,
    "forcefully": 0,
    "deficit": 0,
    "##vide": 0,
    "compromised": 0,
    "##grade": 0,
    "overview": 0,
    "##lide": 0,
    "##rie": 0,
    "displaying": 0,
    "119": 0,
    "drastic": 0,
    "##witch": 0,
    "dividing": 0,
    "##dar": 0,
    "##rief": 0,
    "alike": 0,
    "collectively": 0,
    "bait": 0,
    "Data": 0,
    "increasingly": 0,
    "controller": 0,
    "occupation": 0,
    "##iable": 0,
    "adapt": 6,
    "##VS": 0,
    "instrumental": 0,
    "encounter": 0,
    "##DE": 0,
    "Ed": 3,
    "##Ms": 2,
    "##entation": 0,
    "categories": 0,
    "surrounded": 0,
    "##VI": 2,
    "strengthen": 0,
    "Rap": 24,
    "collected": 0,
    "clues": 0,
    "##usive": 0,
    "operational": 0,
    "lit": 0,
    "##hium": 0,
    "recruit": 0,
    "Extra": 1,
    "##lip": 1,
    "##iculate": 0,
    "##osy": 0,
    "##logist": 0,
    "##ago": 0,
    "enabling": 0,
    "Associated": 0,
    "lowering": 0,
    "scheme": 0,
    "##dina": 0,
    "##rily": 0,
    "##uto": 0,
    "##uter": 0,
    "elect": 0,
    "tub": 0,
    "##eto": 0,
    "interface": 0,
    "invasion": 0,
    "los": 0,
    "##yd": 0,
    "pneumonia": 0,
    "rolling": 0,
    "##udo": 0,
    "il": 0,
    "##eal": 0,
    "##section": 0,
    "##ej": 0,
    "##sto": 2,
    "she": 0,
    "stopped": 0,
    "herself": 0,
    "fatigue": 0,
    "nausea": 0,
    "pressure": 0,
    "2000": 0,
    "##VP": 0,
    "##eum": 0,
    "THE": 0,
    "ratios": 0,
    "episode": 0,
    "##pate": 1,
    "##rnal": 1,
    "divers": 0,
    "matter": 0,
    "debate": 0,
    "counterparts": 0,
    "centre": 0,
    "03": 0,
    "##ique": 0,
    "consuming": 0,
    "Application": 0,
    "valuable": 0,
    "##san": 0,
    "##ket": 0,
    "##ora": 0,
    "reside": 0,
    "disposition": 0,
    "Flow": 0,
    "##ena": 0,
    "##ition": 0,
    "If": 0,
    "bodily": 0,
    "borders": 0,
    "Form": 0,
    "Double": 0,
    "densely": 0,
    "populated": 0,
    "border": 0,
    "zones": 0,
    "irregular": 0,
    "##ern": 0,
    "played": 0,
    "IX": 0,
    "##IX": 5,
    "According": 0,
    "introduce": 0,
    "combining": 0,
    "freely": 0,
    "##ulum": 0,
    "good": 0,
    "##gar": 0,
    "velocity": 0,
    "variables": 0,
    "Aug": 0,
    "frozen": 0,
    "##bright": 0,
    "Initially": 0,
    "avoiding": 0,
    "governed": 0,
    "thin": 0,
    "##rone": 1,
    "##rf": 5,
    "Incident": 0,
    "##grad": 1,
    "uncovered": 0,
    "decade": 0,
    "attempts": 0,
    "pocket": 2,
    "convergence": 0,
    "programs": 0,
    "palm": 1,
    "##ional": 0,
    "##lus": 1,
    "realized": 0,
    "pouch": 0,
    "##sumption": 0,
    "situations": 0,
    "loosely": 0,
    "##cule": 0,
    "225": 0,
    "operate": 0,
    "mortality": 0,
    "denotes": 0,
    "##QL": 0,
    "partition": 0,
    "equally": 0,
    "shaped": 0,
    "firm": 0,
    "stresses": 0,
    "unexpected": 0,
    "silence": 11,
    "regarded": 0,
    "architectural": 1,
    "##ching": 0,
    "competes": 0,
    "distress": 0,
    "##RD": 0,
    "babies": 0,
    "##nged": 0,
    "##vening": 1,
    "##vio": 0,
    "absorb": 0,
    "diet": 0,
    "##bes": 0,
    "##ones": 0,
    "nutrition": 0,
    "##yal": 0,
    "##ming": 1,
    "##hesive": 0,
    "cleared": 0,
    "##hl": 0,
    "##ogist": 0,
    "cultivation": 0,
    "CDP": 0,
    "reporters": 0,
    "ram": 0,
    "##ifications": 0,
    "employing": 0,
    "##unity": 0,
    "Mar": 0,
    "smallest": 0,
    "preservation": 0,
    "306": 0,
    "260": 0,
    "295": 0,
    "exclusive": 0,
    "Fusion": 0,
    "restoration": 0,
    "sole": 0,
    "##tinent": 0,
    "medical": 0,
    "constituents": 0,
    "##igate": 0,
    "Hungarian": 0,
    "Hungary": 0,
    "country": 0,
    "continental": 0,
    "Europe": 0,
    "##cating": 0,
    "##int": 0,
    "kinds": 0,
    "Val": 1,
    "Il": 1,
    "##ln": 1,
    "Japanese": 0,
    "combine": 0,
    "grew": 0,
    "indefinitely": 0,
    "##plating": 0,
    "104": 1,
    "facilitated": 0,
    "limitations": 0,
    "regularly": 0,
    "rarely": 0,
    "adopt": 0,
    "gives": 0,
    "fate": 0,
    "squirrel": 2,
    "monkey": 0,
    "##tropical": 0,
    "Roth": 0,
    "##uge": 0,
    "##yre": 0,
    "Sino": 0,
    "##uss": 0,
    "formally": 0,
    "junction": 0,
    "##oning": 1,
    "##elles": 0,
    "deliver": 0,
    "vehicle": 0,
    "##tial": 0,
    "265": 0,
    "head": 0,
    "neck": 0,
    "informed": 0,
    "consent": 0,
    "preserved": 0,
    "radios": 0,
    "grades": 0,
    "##clusive": 0,
    "##BC": 4,
    "115": 0,
    "103": 1,
    "Thirteen": 0,
    "##roth": 0,
    "Gold": 0,
    "decades": 0,
    "gold": 0,
    "##plain": 0,
    "Met": 0,
    "nest": 1,
    "excluding": 0,
    "Chu": 0,
    "Strauss": 0,
    "##sitic": 0,
    "reality": 0,
    "remote": 1,
    "##aria": 0,
    "typed": 0,
    "2015": 0,
    "##ented": 0,
    "laboratories": 0,
    "tended": 0,
    "corresponds": 0,
    "exceptions": 0,
    "Chicken": 0,
    "##ful": 0,
    "emphasize": 0,
    "229": 1,
    "coil": 0,
    "flora": 0,
    "##que": 0,
    "unconventional": 1,
    "laser": 0,
    "Fu": 0,
    "voltage": 1,
    "gate": 0,
    "channels": 0,
    "proportional": 0,
    "gaining": 0,
    "helped": 0,
    "occasionally": 0,
    "universal": 0,
    "Gardner": 0,
    "##nosis": 0,
    "sexual": 0,
    "tracts": 0,
    "heated": 0,
    "accomplished": 0,
    "##ulos": 0,
    "routinely": 0,
    "ABC": 0,
    "##iment": 8,
    "##tec": 0,
    "notch": 1,
    "decisions": 0,
    "##ebrates": 0,
    "##TF": 32,
    "complications": 0,
    "##say": 0,
    "enabled": 0,
    "diabetes": 0,
    "##uria": 0,
    "316": 0,
    "##dicative": 0,
    "amidst": 0,
    "eccentric": 0,
    "round": 0,
    "##SE": 0,
    "cover": 0,
    "pits": 0,
    "maturity": 0,
    "##ger": 1,
    "arises": 0,
    "Ole": 0,
    "Mediterranean": 0,
    "##uns": 0,
    "saturated": 0,
    "1A": 0,
    "circuits": 0,
    "Indo": 0,
    "favored": 0,
    "##gia": 0,
    "pain": 0,
    "252": 0,
    "giving": 0,
    "solved": 0,
    "actual": 0,
    "##WS": 0,
    "seemed": 0,
    "obtain": 0,
    "optimization": 0,
    "##ilizer": 0,
    "broadly": 0,
    "joined": 0,
    "155": 1,
    "beyond": 0,
    "##ples": 0,
    "determines": 0,
    "chosen": 0,
    "faithful": 0,
    "concurrently": 0,
    "27th": 0,
    "infant": 0,
    "##adi": 0,
    "gears": 0,
    "##cot": 2,
    "ends": 0,
    "##rick": 0,
    "##llo": 3,
    "copied": 0,
    "##uli": 0,
    "spin": 0,
    "##dle": 0,
    "Schneider": 0,
    "knocked": 0,
    "winged": 1,
    "##sh": 0,
    "DB": 6,
    "survey": 0,
    "##fused": 0,
    "encompasses": 0,
    "Relations": 0,
    "##hip": 0,
    "effectiveness": 0,
    "repeatedly": 0,
    "exchanges": 0,
    "commit": 0,
    "derives": 0,
    "bladder": 0,
    "Feb": 0,
    "Chun": 0,
    "Fin": 0,
    "##zi": 0,
    "##gol": 0,
    "Chad": 0,
    "##wick": 0,
    "Schwartz": 0,
    "##iano": 0,
    "129": 0,
    "##nical": 1,
    "ranking": 0,
    "real": 0,
    "##ych": 0,
    "##ruit": 0,
    "looked": 0,
    "keeping": 0,
    "dans": 0,
    "##PD": 1,
    "sunlight": 0,
    "coded": 0,
    "##tensive": 0,
    "curves": 0,
    "disappears": 0,
    "verified": 0,
    "##ios": 0,
    "##hill": 0,
    "##yric": 0,
    "modeled": 0,
    "simplified": 0,
    "built": 0,
    "misleading": 0,
    "yellow": 0,
    "##ume": 0,
    "ingredient": 0,
    "##pice": 0,
    "ladder": 0,
    "topography": 0,
    "top": 4,
    "##ographic": 0,
    "constraints": 0,
    "Dom": 0,
    "##WR": 0,
    "Nam": 0,
    "##wa": 0,
    "218": 0,
    "##46": 0,
    "integrating": 0,
    "considerably": 0,
    "stay": 0,
    "##oire": 0,
    "force": 0,
    "objectives": 0,
    "##hine": 1,
    "Phase": 0,
    "Messenger": 1,
    "cocktail": 0,
    "Singh": 0,
    "##wal": 0,
    "MV": 0,
    "Blood": 1,
    "##ulous": 0,
    "##lous": 0,
    "reinforce": 0,
    "sophisticated": 0,
    "surprising": 0,
    "cues": 0,
    "versatile": 0,
    "intimate": 0,
    "cardiac": 0,
    "recipients": 0,
    "asked": 0,
    "consecutive": 0,
    "leaving": 0,
    "Helena": 0,
    "##ica": 0,
    "collective": 0,
    "flower": 0,
    "##heads": 0,
    "##tana": 0,
    "##olio": 0,
    "concentrated": 0,
    "##rix": 0,
    "##din": 0,
    "contention": 0,
    "##ride": 0,
    "##voking": 0,
    "##ested": 1,
    "setting": 0,
    "motion": 0,
    "victim": 0,
    "inheritance": 0,
    "thereof": 0,
    "output": 0,
    "makeup": 0,
    "contaminated": 0,
    "water": 0,
    "Mann": 0,
    "Whitney": 0,
    "Test": 0,
    "Kappa": 3,
    "displaced": 0,
    "competitor": 0,
    "plot": 0,
    "##lose": 0,
    "##ffer": 0,
    "##cis": 0,
    "corn": 0,
    "settled": 0,
    "simulation": 0,
    "tape": 0,
    "stored": 0,
    "prone": 0,
    "resembled": 0,
    "##mize": 0,
    "organisation": 0,
    "preceding": 0,
    "foundation": 0,
    "Individual": 0,
    "packaging": 0,
    "exceeding": 0,
    "couple": 0,
    "loading": 0,
    "Effect": 0,
    "strict": 0,
    "changing": 0,
    "##uf": 0,
    "##omorphic": 0,
    "##ois": 4,
    "##ou": 0,
    "##lich": 0,
    "##ensis": 0,
    "eh": 0,
    "##rl": 3,
    "United": 0,
    "States": 0,
    "undertook": 0,
    "127": 1,
    "168": 0,
    "##ier": 0,
    "##nier": 0,
    "renewed": 0,
    "Em": 0,
    "successive": 0,
    "caps": 0,
    "resist": 0,
    "impose": 0,
    "##itation": 0,
    "##encies": 0,
    "supplied": 0,
    "alphabet": 0,
    "Communication": 0,
    "oxidation": 0,
    "Construction": 0,
    "##lex": 5,
    "obstacle": 0,
    "designing": 0,
    "retains": 0,
    "packaged": 0,
    "AA": 0,
    "##zophrenia": 0,
    "relating": 0,
    "defence": 0,
    "benefits": 0,
    "##mart": 0,
    "3rd": 0,
    "##firmed": 0,
    "assumption": 0,
    "estimate": 0,
    "compares": 0,
    "##nate": 0,
    "emphasizing": 0,
    "comb": 0,
    "platforms": 0,
    "orchestra": 0,
    "es": 0,
    "signaled": 0,
    "##cious": 0,
    "Chi": 1,
    "proceeded": 0,
    "##rse": 0,
    "##tility": 0,
    "##OM": 0,
    "Either": 0,
    "prohibited": 0,
    "dynamics": 0,
    "employs": 0,
    "##eron": 0,
    "operator": 0,
    "Introduction": 0,
    "tip": 0,
    "coated": 0,
    "##stra": 0,
    "measures": 0,
    "helm": 0,
    "front": 0,
    "##meyer": 0,
    "226": 0,
    "162": 0,
    "Rescue": 0,
    "apparatus": 0,
    "Ion": 0,
    "Between": 0,
    "1830": 0,
    "##gnetic": 0,
    "beads": 0,
    "abilities": 0,
    "##eting": 0,
    "Cho": 1,
    "##kini": 2,
    "Luc": 0,
    "##cover": 0,
    "Nonetheless": 0,
    "Mode": 0,
    "tight": 0,
    "leaves": 0,
    "Relief": 0,
    "separates": 0,
    "opening": 0,
    "continuing": 0,
    "ambient": 0,
    "comprise": 0,
    "halted": 0,
    "trials": 0,
    "gaps": 0,
    "##bina": 1,
    "##SM": 0,
    "curve": 0,
    "AU": 3,
    "211": 0,
    "Box": 0,
    "Screen": 0,
    "portions": 0,
    "guardian": 0,
    "proceed": 0,
    "##lum": 0,
    "##mme": 0,
    "shortened": 0,
    "Heinz": 0,
    "appropriately": 0,
    "precipitation": 0,
    "color": 0,
    "Alzheimer": 0,
    "Giant": 0,
    "sized": 0,
    "##eries": 0,
    "##lanted": 0,
    "medicine": 0,
    "gauge": 0,
    "mentioned": 0,
    "##WI": 5,
    "correspondence": 0,
    "##amp": 0,
    "coefficient": 0,
    "valid": 0,
    "U2": 9,
    "fly": 0,
    "islands": 0,
    "##mani": 0,
    "PBS": 0,
    "replacing": 0,
    "estimates": 0,
    "contamination": 0,
    "harvest": 0,
    "collection": 0,
    "get": 0,
    "404": 0,
    "220": 0,
    "##medical": 0,
    "feasible": 0,
    "nerve": 0,
    "communications": 0,
    "outlines": 0,
    "bent": 0,
    "pointed": 0,
    "Rene": 0,
    "##rd": 2,
    "144": 0,
    "fore": 0,
    "##going": 0,
    "Mass": 0,
    "Remix": 0,
    "sound": 0,
    "progressed": 0,
    "exploring": 0,
    "interested": 0,
    "recognizing": 0,
    "pointing": 0,
    "solvent": 0,
    "Total": 0,
    "##poli": 0,
    "streak": 0,
    "collaboration": 0,
    "##zel": 0,
    "Being": 0,
    "merging": 0,
    "Link": 0,
    "##truct": 0,
    "##dio": 0,
    "##iper": 0,
    "breaks": 0,
    "noteworthy": 0,
    "indication": 0,
    "face": 0,
    "##vent": 0,
    "2d": 0,
    "##lly": 0,
    "##ess": 2,
    "spaced": 0,
    "204": 1,
    "encompassed": 0,
    "drove": 0,
    "Put": 0,
    "395": 0,
    "570": 0,
    "##vic": 0,
    "Huh": 0,
    "##uti": 0,
    "nail": 0,
    "tag": 0,
    "organize": 0,
    "seriously": 0,
    "resided": 0,
    "perennial": 0,
    "crossover": 0,
    "spray": 0,
    "dust": 0,
    "periods": 0,
    "scored": 0,
    "##vocation": 0,
    "score": 0,
    "237": 0,
    "Assembly": 0,
    "assessing": 0,
    "##rene": 0,
    "136": 0,
    "recipient": 0,
    "Preliminary": 0,
    "tend": 0,
    "Grave": 0,
    "##rue": 0,
    "segregated": 0,
    "professional": 0,
    "##gies": 0,
    "ensuing": 0,
    "405": 0,
    "##sation": 0,
    "delicate": 0,
    "dynamic": 0,
    "consumed": 0,
    "##bar": 0,
    "accounts": 0,
    "##rani": 0,
    "engineering": 0,
    "mirrored": 0,
    "proposing": 0,
    "##eur": 1,
    "##serve": 1,
    "ton": 0,
    "##rent": 0,
    "incapable": 0,
    "incorporate": 0,
    "iron": 3,
    "##uished": 0,
    "##nac": 0,
    "##iar": 0,
    "##GI": 0,
    "opted": 0,
    "solely": 0,
    "canceled": 0,
    "213": 0,
    "enforced": 0,
    "hosts": 0,
    "##xon": 0,
    "stretches": 0,
    "MW": 0,
    "##sities": 0,
    "##vie": 0,
    "##nsis": 0,
    "owl": 1,
    "cotton": 0,
    "TNT": 0,
    "ally": 0,
    "garlic": 0,
    "constitution": 0,
    "undergone": 0,
    "arising": 0,
    "##ices": 0,
    "opens": 0,
    "Review": 0,
    "##illo": 0,
    "lifelong": 0,
    "hiding": 0,
    "Ada": 0,
    "##gth": 0,
    "##yle": 1,
    "Car": 2,
    "Protection": 0,
    "starts": 0,
    "backbone": 0,
    "personality": 0,
    "sensation": 0,
    "seeking": 0,
    "weights": 0,
    "##ias": 0,
    "Trip": 0,
    "##tery": 0,
    "##ford": 0,
    "Hook": 0,
    "traditional": 0,
    "centuries": 0,
    "attempting": 0,
    "Bone": 0,
    "intend": 0,
    "emerging": 0,
    "##ici": 0,
    "##tism": 0,
    "##coming": 0,
    "##came": 0,
    "##vasive": 0,
    "##lim": 0,
    "traces": 0,
    "Lewis": 0,
    "read": 0,
    "ray": 0,
    "Mutual": 0,
    "mutual": 0,
    "ventilation": 0,
    "stretching": 0,
    "Silas": 0,
    "elongated": 0,
    "diameter": 0,
    "##ilated": 0,
    "##jured": 0,
    "Mechanical": 0,
    "extends": 0,
    "connected": 0,
    "##mps": 0,
    "reversal": 0,
    "look": 0,
    "650": 0,
    "uniquely": 0,
    "NRL": 3,
    "##urs": 0,
    "##ius": 0,
    "chloride": 0,
    "split": 0,
    "fourth": 1,
    "##PL": 0,
    "##besity": 0,
    "abdominal": 0,
    "138": 0,
    "##band": 0,
    "resume": 0,
    "clinics": 0,
    "Depending": 0,
    "roughly": 0,
    "Environmental": 0,
    "deal": 0,
    "##ale": 0,
    "##non": 0,
    "slope": 0,
    "Representative": 0,
    "industrial": 0,
    "orders": 0,
    "chamber": 0,
    "##PO": 12,
    "contexts": 0,
    "##lde": 2,
    "##ctors": 0,
    "##MO": 11,
    "relate": 0,
    "tried": 0,
    "##eous": 0,
    "sport": 0,
    "hip": 0,
    "##cam": 0,
    "athletes": 0,
    "soccer": 0,
    "players": 0,
    "agree": 0,
    "possibilities": 0,
    "sugar": 0,
    "kept": 0,
    "##gua": 0,
    "##ndy": 0,
    "disclosed": 0,
    "##vid": 0,
    "researchers": 0,
    "standardized": 0,
    "uncommon": 0,
    "##RL": 1,
    "fork": 4,
    "##kh": 2,
    "##head": 1,
    "dominance": 0,
    "arranged": 0,
    "Fourteen": 0,
    "certainly": 0,
    "falling": 0,
    "cavity": 0,
    "##ologies": 0,
    "Except": 0,
    "courses": 0,
    "evidently": 0,
    "removing": 0,
    "leader": 1,
    "bridges": 0,
    "1753": 1,
    "OS": 7,
    "##diction": 0,
    "twelve": 0,
    "easily": 0,
    "incorporates": 0,
    "Lim": 0,
    "##IE": 0,
    "##vers": 0,
    "KC": 2,
    "inward": 0,
    "##ifier": 0,
    "Hang": 0,
    "lobes": 0,
    "destined": 0,
    "Downs": 0,
    "Maria": 0,
    "Lori": 0,
    "##occo": 0,
    "Basel": 0,
    "##allo": 0,
    "Nature": 0,
    "##zin": 0,
    "Crowley": 0,
    "##rlin": 0,
    "Rama": 0,
    "##zzo": 0,
    "Visa": 0,
    "anytime": 0,
    "Tobacco": 0,
    "rational": 0,
    "Close": 0,
    "Initial": 0,
    "##itate": 1,
    "385": 0,
    "##eng": 0,
    "puzzles": 0,
    "What": 0,
    "How": 0,
    "##cion": 0,
    "Semi": 0,
    "##rr": 0,
    "##hoe": 0,
    "father": 0,
    "elbow": 0,
    "##hara": 0,
    "##lau": 0,
    "Stephan": 0,
    "Hay": 0,
    "Japan": 0,
    "pursued": 0,
    "Models": 0,
    "##ril": 0,
    "##MM": 0,
    "##tated": 1,
    "##citation": 0,
    "wet": 0,
    "dry": 0,
    "Aside": 0,
    "constructions": 0,
    "charged": 0,
    "brings": 0,
    "##bid": 0,
    "von": 1,
    "Will": 0,
    "##rand": 0,
    "##bit": 0,
    "visually": 0,
    "131": 1,
    "initiative": 0,
    "800": 1,
    "Xi": 3,
    "accommodate": 0,
    "##iden": 0,
    "##arian": 0,
    "Immediately": 0,
    "Ash": 0,
    "##ken": 0,
    "Jews": 0,
    "Brazilian": 0,
    "genetics": 0,
    "Establishment": 0,
    "##usion": 0,
    "##minate": 0,
    "highlighting": 0,
    "##uru": 0,
    "Garcia": 0,
    "##zar": 0,
    "##avan": 0,
    "Rao": 0,
    "Hogan": 0,
    "positioning": 0,
    "##pores": 0,
    "Work": 0,
    "##yun": 0,
    "useless": 0,
    "##oned": 0,
    "dying": 0,
    "overwhelming": 0,
    "clarified": 0,
    "constituted": 0,
    "##eil": 0,
    "Rich": 0,
    "combat": 0,
    "obviously": 0,
    "prescribed": 0,
    "Testing": 0,
    "##alan": 0,
    "Guthrie": 0,
    "Ken": 0,
    "USA": 1,
    "shifted": 0,
    "##ermined": 0,
    "epic": 1,
    "##vier": 0,
    "Science": 0,
    "Ltd": 0,
    "likewise": 0,
    "##pra": 0,
    "TD": 3,
    "tails": 0,
    "exploits": 0,
    "##utes": 0,
    "##rino": 2,
    "sixth": 0,
    "##hetic": 0,
    "Society": 0,
    "Where": 0,
    "##nded": 1,
    "unnoticed": 0,
    "##cribing": 0,
    "season": 0,
    "bed": 0,
    "circa": 0,
    "##dian": 0,
    "rhythms": 0,
    "exercises": 0,
    "##sea": 0,
    "kind": 0,
    "245": 0,
    "188": 0,
    "##gratory": 0,
    "uncertain": 0,
    "##rito": 0,
    "1650": 0,
    "221": 0,
    "Full": 0,
    "chemicals": 0,
    "regain": 0,
    "refined": 0,
    "draining": 0,
    "##gression": 0,
    "drained": 0,
    "lowest": 0,
    "##LM": 5,
    "Rear": 0,
    "Department": 0,
    "##rease": 0,
    "##hashi": 0,
    "126": 0,
    "##fuse": 0,
    "vigorously": 0,
    "Death": 1,
    "completion": 0,
    "##gum": 3,
    "provisional": 0,
    "247": 0,
    "Mini": 0,
    "tendency": 0,
    "Basic": 0,
    "capped": 0,
    "epidemic": 0,
    "considering": 0,
    "quasi": 0,
    "nineteen": 0,
    "impacted": 0,
    "decisive": 0,
    "Sox": 3,
    "Wing": 0,
    "##less": 1,
    "flies": 0,
    "counseling": 0,
    "Female": 0,
    "mothers": 0,
    "child": 0,
    "easy": 0,
    "January": 0,
    "1987": 0,
    "December": 0,
    "1988": 0,
    "Life": 0,
    "table": 0,
    "##tel": 0,
    "Cox": 0,
    "##FS": 0,
    "##dices": 0,
    "##iving": 0,
    "assembled": 0,
    "grouped": 0,
    "trend": 0,
    "116": 0,
    "count": 0,
    "NC": 0,
    "applying": 0,
    "##lov": 0,
    "communicate": 0,
    "abbreviated": 1,
    "provision": 0,
    "Lange": 0,
    "365": 0,
    "##inated": 0,
    "workers": 0,
    "##DF": 0,
    "##vale": 0,
    "Call": 0,
    "##chus": 0,
    "##lings": 0,
    "goals": 0,
    "upper": 0,
    "reference": 0,
    "##iant": 0,
    "taking": 0,
    "shaping": 0,
    "##lines": 0,
    "catalyst": 0,
    "##dor": 0,
    "Exploration": 0,
    "##tano": 0,
    "attached": 0,
    "gentle": 0,
    "##via": 0,
    "replace": 0,
    "##hend": 0,
    "looking": 0,
    "##ug": 0,
    "regained": 0,
    "##ana": 0,
    "chemist": 0,
    "biologist": 0,
    "Liu": 0,
    "##rsa": 1,
    "##OT": 2,
    "##roduced": 0,
    "held": 0,
    "transmitting": 0,
    "interactive": 0,
    "Half": 0,
    "inclusion": 0,
    "denoted": 0,
    "call": 0,
    "Group": 0,
    "##rgen": 0,
    "201": 0,
    "166": 0,
    "adequate": 0,
    "approximation": 0,
    "stock": 0,
    "performance": 0,
    "ideal": 0,
    "impossible": 0,
    "Simon": 0,
    "Or": 0,
    "unpublished": 0,
    "feel": 0,
    "hope": 0,
    "learn": 0,
    "arrests": 0,
    "##ages": 0,
    "##rle": 2,
    "living": 0,
    "##tical": 0,
    "##vate": 1,
    "restoring": 0,
    "mandatory": 0,
    "##aut": 1,
    "##DM": 0,
    "relatives": 0,
    "delivering": 0,
    "temporary": 0,
    "Basin": 0,
    "transferred": 0,
    "##cate": 1,
    "##nated": 1,
    "Has": 0,
    "##him": 0,
    "apart": 0,
    "##ich": 0,
    "influential": 0,
    "214": 0,
    "177": 0,
    "worked": 0,
    "cited": 0,
    "Agents": 0,
    "Problems": 0,
    "##pert": 0,
    "pilot": 0,
    "Perhaps": 0,
    "hit": 0,
    "experiences": 0,
    "##lamp": 0,
    "reflex": 0,
    "##card": 0,
    "suited": 0,
    "Beyond": 0,
    "coordinating": 0,
    "organizational": 0,
    "losing": 0,
    "Greene": 0,
    "308": 0,
    "##itt": 0,
    "Lane": 0,
    "Thompson": 0,
    "Fox": 0,
    "##zman": 0,
    "1989": 0,
    "Folk": 0,
    "Powell": 0,
    "Light": 0,
    "##foot": 0,
    "Ben": 0,
    "Martin": 0,
    "1986": 0,
    "Bernard": 0,
    "Leonard": 0,
    "850": 0,
    "Baltimore": 0,
    "London": 0,
    "08": 0,
    "arbitrary": 0,
    "Value": 0,
    "##more": 0,
    "TX": 0,
    "##HT": 0,
    "##ET": 0,
    "quantities": 0,
    "Mine": 0,
    "281": 0,
    "##sor": 0,
    "##achi": 0,
    "chick": 1,
    "agreed": 0,
    "##bing": 0,
    "exceeded": 0,
    "rigid": 0,
    "psychiatric": 0,
    "potassium": 0,
    "##port": 0,
    "##plicate": 0,
    "pigeon": 1,
    "runner": 0,
    "209": 0,
    "##traction": 0,
    "SPD": 0,
    "Mean": 0,
    "310": 0,
    "Radio": 1,
    "disappeared": 0,
    "chase": 0,
    "relaxing": 0,
    "322": 0,
    "relaxation": 0,
    "boost": 0,
    "engage": 0,
    "Mare": 0,
    "##DI": 5,
    "##liva": 0,
    "1st": 1,
    "2nd": 0,
    "hosted": 0,
    "198": 0,
    "developments": 0,
    "Photo": 0,
    "##finity": 0,
    "photo": 0,
    "Ali": 0,
    "##gn": 0,
    "assumptions": 0,
    "##SO": 0,
    "##our": 0,
    "dei": 0,
    "analogy": 0,
    "MLA": 0,
    "Simple": 0,
    "##graphic": 0,
    "lengths": 0,
    "messages": 0,
    "##mum": 0,
    "ISO": 0,
    "elevations": 0,
    "poised": 1,
    "fits": 0,
    "##ives": 0,
    "middle": 0,
    "510": 0,
    "ou": 0,
    "##aba": 0,
    "Stanley": 0,
    "concentrating": 0,
    "suggestions": 0,
    "grows": 0,
    "symmetric": 1,
    "##urn": 0,
    "rhythm": 0,
    "Therapy": 0,
    "details": 0,
    "##icidal": 0,
    "turning": 0,
    "destroys": 0,
    "denied": 0,
    "##tman": 0,
    "##rass": 0,
    "continue": 0,
    "practically": 0,
    "adequately": 0,
    "satisfy": 0,
    "questions": 0,
    "explaining": 0,
    "##ily": 0,
    "abuse": 0,
    "Addison": 0,
    "weakness": 0,
    "million": 0,
    "##graphy": 0,
    "aided": 0,
    "rules": 0,
    "VII": 1,
    "anchored": 1,
    "##inen": 0,
    "pure": 0,
    "entrance": 0,
    "abrupt": 0,
    "binary": 0,
    "##eon": 0,
    "Cao": 0,
    "251": 0,
    "##hop": 0,
    "editorial": 0,
    "papers": 0,
    "1956": 0,
    "June": 0,
    "away": 0,
    "Split": 0,
    "tracking": 0,
    "subdivided": 0,
    "##imation": 0,
    "Though": 0,
    "routes": 0,
    "##ims": 0,
    "verify": 0,
    "consideration": 0,
    "ease": 0,
    "##aring": 0,
    "carbon": 0,
    "##acts": 0,
    "getting": 0,
    "540": 0,
    "460": 0,
    "##noon": 0,
    "Every": 0,
    "##ffling": 0,
    "expectation": 0,
    "Hans": 0,
    "Michael": 0,
    "Owen": 0,
    "##hot": 0,
    "advancement": 0,
    "reared": 0,
    "lighting": 0,
    "lights": 0,
    "rhythmic": 0,
    "##uations": 0,
    "##maker": 0,
    "##lined": 0,
    "##cona": 0,
    "awaiting": 0,
    "JP": 0,
    "rank": 0,
    "theme": 0,
    "##smo": 0,
    "##truction": 0,
    "##VC": 0,
    "improvements": 0,
    "##flow": 0,
    "rises": 0,
    "##wan": 0,
    "Process": 0,
    "External": 0,
    "##ead": 0,
    "turns": 0,
    "assume": 0,
    "sheet": 0,
    "examines": 0,
    "##VB": 4,
    "hereditary": 0,
    "gender": 0,
    "##lak": 0,
    "ramp": 0,
    "layers": 0,
    "Vietnam": 0,
    "veterans": 0,
    "afternoon": 0,
    "anxiety": 0,
    "##usions": 0,
    "slide": 0,
    "power": 0,
    "tore": 0,
    "thirds": 0,
    "Disease": 0,
    "Index": 0,
    "##ED": 0,
    "alternatives": 0,
    "mating": 0,
    "symmetrical": 0,
    "##different": 0,
    "detached": 0,
    "##tia": 0,
    "return": 0,
    "##eim": 0,
    "wa": 0,
    "prescription": 0,
    "##wei": 0,
    "##hua": 0,
    "##lls": 0,
    "thermal": 0,
    "net": 0,
    "Rs": 0,
    "blur": 0,
    "Sixteen": 0,
    "1750": 0,
    "212": 0,
    "##loy": 0,
    "liberation": 0,
    "##ike": 1,
    "searching": 0,
    "empirical": 0,
    "predictions": 0,
    "accord": 0,
    "transformations": 0,
    "##tribution": 0,
    "##tinuum": 0,
    "ensures": 0,
    "Send": 0,
    "##ai": 0,
    "sulfur": 0,
    "##redo": 1,
    "consistency": 0,
    "##SB": 0,
    "##vocative": 0,
    "##EG": 0,
    "##coil": 0,
    "##dynamic": 0,
    "modeling": 0,
    "evening": 0,
    "Mega": 0,
    "##fs": 0,
    "Tam": 0,
    "Until": 0,
    "problems": 0,
    "diagnosed": 0,
    "que": 0,
    "stated": 0,
    "outnumbered": 0,
    "##ntin": 0,
    "tends": 0,
    "##ulon": 0,
    "114": 0,
    "Ice": 0,
    "##nko": 0,
    "bilateral": 0,
    "carriage": 0,
    "3000": 0,
    "Progressive": 0,
    "infancy": 0,
    "aunt": 0,
    "##ceived": 0,
    "social": 0,
    "prediction": 0,
    "Stage": 0,
    "ages": 0,
    "project": 0,
    "interview": 0,
    "discharged": 0,
    "hospital": 0,
    "##patient": 0,
    "visit": 0,
    "discharge": 0,
    "Higher": 0,
    "perception": 0,
    "emotional": 0,
    "spouse": 0,
    "physician": 0,
    "charcoal": 0,
    "dorsal": 1,
    "soft": 0,
    "Lie": 0,
    "##berman": 0,
    "Hard": 0,
    "Hayward": 0,
    "Leah": 0,
    "321": 0,
    "1990": 0,
    "##gt": 0,
    "##ets": 0,
    "ads": 0,
    "diagnostic": 0,
    "##rain": 0,
    "##rium": 0,
    "##SA": 2,
    "gag": 0,
    "himself": 0,
    "##rises": 0,
    "##mos": 0,
    "Card": 0,
    "##iac": 0,
    "carefully": 0,
    "Tan": 1,
    "phased": 0,
    "##OP": 1,
    "##pta": 2,
    "##iki": 0,
    "Yo": 0,
    "essays": 0,
    "written": 0,
    "language": 0,
    "sandwich": 0,
    "##self": 0,
    "remainder": 0,
    "ambiguous": 0,
    "rot": 0,
    "##ama": 0,
    "##mple": 1,
    "##mentary": 1,
    "Computer": 0,
    "assisted": 0,
    "disturbance": 0,
    "exploration": 0,
    "##gical": 0,
    "slot": 0,
    "Wallis": 0,
    "separately": 0,
    "approaching": 0,
    "##igma": 0,
    "Sex": 0,
    "##lton": 0,
    "Risk": 0,
    "##copic": 0,
    "##licity": 0,
    "##gat": 0,
    "margins": 0,
    "recurring": 0,
    "##scopic": 0,
    "##ahu": 0,
    "##ddin": 0,
    "1983": 0,
    "##odies": 0,
    "##tera": 0,
    "clip": 0,
    "ya": 0,
    "accessible": 0,
    "##gor": 0,
    "Kid": 0,
    "Qi": 0,
    "Lou": 0,
    "##cke": 0,
    "512": 0,
    "night": 0,
    "Lt": 3,
    "charge": 0,
    "##tu": 0,
    "afforded": 0,
    "##ldo": 0,
    "##ogel": 0,
    "Hi": 0,
    "Reynolds": 0,
    "Jay": 0,
    "335": 0,
    "##hs": 1,
    "Approximately": 0,
    "GDP": 0,
    "Markus": 0,
    "##hard": 0,
    "##ube": 0,
    "Warren": 0,
    "##quisition": 0,
    "Apparently": 0,
    "birth": 0,
    "concurrent": 0,
    "salts": 0,
    "Micro": 1,
    "trafficking": 0,
    "##tr": 0,
    "suicide": 0,
    "##00": 0,
    "##rough": 0,
    "##smatic": 0,
    "occasions": 0,
    "Later": 0,
    "intensified": 0,
    "cult": 0,
    "vigorous": 0,
    "##sten": 0,
    "##sible": 0,
    "Cup": 0,
    "Search": 0,
    "databases": 0,
    "##und": 0,
    "carrier": 0,
    "##mbe": 0,
    "colleagues": 0,
    "Rand": 0,
    "Goldberg": 0,
    "F1": 0,
    "320": 1,
    "##een": 0,
    "##ception": 0,
    "sexually": 0,
    "Safety": 0,
    "graded": 0,
    "##rri": 0,
    "##we": 0,
    "meaning": 0,
    "1858": 0,
    "1869": 0,
    "outer": 0,
    "alternating": 1,
    "224": 0,
    "Males": 0,
    "nonsense": 0,
    "215": 0,
    "attach": 0,
    "##fit": 0,
    "stone": 0,
    "marks": 0,
    "race": 0,
    "##sma": 0,
    "##tch": 0,
    "attendant": 0,
    "Organization": 0,
    "560": 1,
    "380": 1,
    "##rma": 0,
    "ours": 0,
    "reliability": 0,
    "worse": 0,
    "attract": 0,
    "angle": 0,
    "medial": 0,
    "##ik": 4,
    "Raja": 0,
    "##vations": 0,
    "encourage": 0,
    "speculation": 0,
    "tasks": 0,
    "lap": 0,
    "enrolled": 0,
    "examples": 0,
    "##hat": 0,
    "modular": 0,
    "##ops": 0,
    "##mona": 0,
    "flag": 0,
    "##ell": 0,
    "bleeding": 0,
    "trapping": 0,
    "space": 0,
    "trapped": 0,
    "seeded": 0,
    "overly": 0,
    "destroy": 0,
    "Sexual": 0,
    "puzzle": 0,
    "don": 0,
    "##NR": 0,
    "Dev": 0,
    "175": 0,
    "preserving": 0,
    "Having": 0,
    "##ogies": 0,
    "##sion": 0,
    "traps": 0,
    "Order": 0,
    "Taking": 0,
    "##BI": 0,
    "turned": 0,
    "assemblies": 0,
    "##dance": 0,
    "organizer": 0,
    "ZIP": 4,
    "bending": 0
  },
  "I": {
    "IL": 280,
    "-": 14364,
    "2": 1559,
    "gene": 1181,
    "expression": 35,
    "and": 573,
    "N": 309,
    "##F": 605,
    "ka": 2157,
    "##ppa": 2181,
    "B": 1797,
    "activation": 54,
    "through": 0,
    "CD": 253,
    "##28": 50,
    "requires": 0,
    "reactive": 3,
    "oxygen": 0,
    "production": 0,
    "by": 2,
    "5": 216,
    "lip": 50,
    "##ox": 46,
    "##y": 78,
    "##gen": 154,
    "##ase": 197,
    ".": 235,
    "Act": 5,
    "##ivation": 11,
    "of": 153,
    "the": 19,
    "surface": 47,
    "receptor": 860,
    "provides": 0,
    "a": 21,
    "major": 15,
    "cost": 3,
    "##im": 6,
    "##ulatory": 4,
    "signal": 27,
    "for": 6,
    "T": 362,
    "cell": 434,
    "resulting": 0,
    "in": 94,
    "enhanced": 0,
    "inter": 93,
    "##le": 56,
    "##uki": 51,
    "##n": 94,
    "(": 954,
    ")": 966,
    "proliferation": 1,
    "In": 0,
    "primary": 3,
    "l": 149,
    "##ymph": 49,
    "##ocytes": 6,
    "we": 0,
    "show": 0,
    "that": 0,
    "##iga": 3,
    "##tion": 0,
    "leads": 0,
    "to": 110,
    "rapid": 0,
    "##tra": 27,
    "##cellular": 17,
    "formation": 0,
    "intermediate": 0,
    "##s": 659,
    "R": 92,
    "##O": 48,
    "##I": 32,
    "which": 0,
    "are": 0,
    "required": 0,
    "mediated": 3,
    "/": 1076,
    "re": 168,
    "##sp": 102,
    "##ons": 104,
    "##ive": 94,
    "complex": 260,
    "Del": 0,
    "##ine": 86,
    "##ation": 3,
    "signaling": 18,
    "ca": 8,
    "##sca": 0,
    "##de": 48,
    "was": 0,
    "found": 0,
    "involve": 0,
    "protein": 987,
    "t": 92,
    "##yr": 68,
    "##os": 317,
    "kinase": 588,
    "activity": 2,
    ",": 231,
    "followed": 0,
    "p": 439,
    "##hos": 90,
    "##ph": 33,
    "##oli": 5,
    "##pas": 5,
    "##e": 66,
    "A2": 9,
    "These": 0,
    "findings": 0,
    "should": 0,
    "be": 0,
    "useful": 0,
    "therapeutic": 0,
    "strategies": 0,
    "development": 1,
    "im": 70,
    "##mu": 75,
    "##nos": 1,
    "##up": 0,
    "##press": 28,
    "##ants": 1,
    "targeting": 1,
    "pathway": 2,
    "The": 0,
    "per": 12,
    "##i": 17,
    "site": 475,
    "media": 18,
    "##tes": 0,
    "human": 42,
    "##no": 69,
    "##ficiency": 42,
    "virus": 146,
    "type": 169,
    "enhance": 299,
    "##r": 360,
    "mon": 50,
    "but": 4,
    "not": 4,
    "cells": 73,
    "HIV": 27,
    "1": 2618,
    "display": 1,
    "significant": 0,
    "differences": 0,
    "nuclei": 0,
    "##c": 340,
    "acid": 67,
    "sequence": 225,
    "natural": 0,
    "history": 0,
    "clinical": 0,
    "disease": 1,
    "Con": 1,
    "##sist": 0,
    "##ent": 3,
    "with": 0,
    "these": 0,
    "have": 0,
    "previously": 0,
    "demonstrated": 0,
    "promoter": 904,
    "region": 292,
    "functions": 0,
    "quite": 0,
    "differently": 0,
    "from": 1,
    "Whereas": 0,
    "following": 0,
    "stimulation": 1,
    "is": 68,
    "largely": 0,
    "binding": 705,
    "transcription": 408,
    "factor": 1367,
    "two": 2,
    "adjacent": 0,
    "sites": 283,
    "long": 71,
    "terminal": 245,
    "repeat": 120,
    "dependent": 89,
    "on": 101,
    "four": 1,
    "c": 373,
    "##is": 23,
    "acting": 69,
    "elements": 204,
    ":": 12,
    "single": 3,
    "pu": 7,
    "##rine": 15,
    "rich": 46,
    "P": 108,
    "##u": 32,
    "##B": 1018,
    "##1": 356,
    "##2": 247,
    "pets": 0,
    "We": 0,
    "now": 0,
    "identified": 0,
    "novel": 0,
    "element": 346,
    "within": 0,
    "immediately": 0,
    "upstream": 42,
    "designated": 1,
    "This": 0,
    "conserved": 8,
    "among": 0,
    "##olate": 1,
    "closely": 0,
    "related": 59,
    "si": 12,
    "##mian": 3,
    "trans": 276,
    "##fect": 1,
    "##ion": 2,
    "ass": 1,
    "##ays": 0,
    "this": 0,
    "##te": 61,
    "##oc": 93,
    "##ytic": 8,
    "lines": 0,
    "Further": 0,
    "while": 0,
    "specific": 287,
    "con": 3,
    "##st": 0,
    "##it": 6,
    "##utive": 0,
    "seen": 0,
    "##hor": 0,
    "##bol": 1,
    "est": 19,
    "##ers": 9,
    "induce": 2,
    "additional": 1,
    "E": 346,
    "##A": 227,
    "su": 1,
    "##ce": 1,
    "##pt": 9,
    "##ibility": 0,
    "killing": 0,
    "##K": 78,
    "immortal": 0,
    "##ization": 4,
    "ad": 71,
    "##eno": 23,
    "##virus": 4,
    "infection": 3,
    "Aden": 0,
    "##ov": 1,
    "##ir": 1,
    "##us": 5,
    "Ad": 2,
    "were": 0,
    "used": 0,
    "model": 0,
    "changes": 0,
    "caused": 0,
    "##ient": 0,
    "vs": 0,
    "stable": 1,
    "Only": 0,
    "stab": 0,
    "##ly": 28,
    "##fected": 1,
    "target": 22,
    "exhibited": 0,
    "##yt": 164,
    "##oly": 28,
    "##tic": 38,
    "despite": 0,
    "equivalent": 0,
    "levels": 0,
    "proteins": 530,
    "infected": 0,
    "targets": 1,
    "inability": 0,
    "products": 38,
    "during": 0,
    "explained": 0,
    "an": 9,
    "inhibitor": 44,
    "effect": 9,
    "viral": 19,
    "otherwise": 0,
    "susceptible": 0,
    "or": 53,
    "effects": 0,
    "class": 130,
    "I": 354,
    "M": 75,
    "##HC": 31,
    "anti": 270,
    "differential": 1,
    "##hen": 12,
    "##otype": 7,
    "suggests": 0,
    "provide": 0,
    "effective": 0,
    "##log": 11,
    "##ic": 25,
    "barrier": 0,
    "against": 0,
    "v": 13,
    "##ivo": 1,
    "survival": 3,
    "neo": 0,
    "##p": 244,
    "##lastic": 1,
    "progression": 0,
    "##ized": 1,
    "may": 0,
    "emerge": 0,
    "reservoir": 0,
    "persistent": 0,
    "host": 2,
    "##4": 58,
    "core": 23,
    "##ceptor": 3,
    "interact": 1,
    "non": 8,
    "##morphic": 3,
    "regions": 60,
    "his": 48,
    "##to": 63,
    "##com": 39,
    "##pa": 41,
    "##ti": 133,
    "##bility": 37,
    "II": 273,
    "molecules": 117,
    "presenting": 0,
    "contributes": 0,
    "investigated": 0,
    "trigger": 0,
    "##ing": 52,
    "act": 163,
    "##ivating": 39,
    "signals": 0,
    "##oma": 17,
    "using": 0,
    "##lon": 41,
    "##al": 184,
    "antibodies": 69,
    "m": 601,
    "##b": 272,
    "recognize": 0,
    "different": 0,
    "e": 76,
    "##pit": 20,
    "##ope": 18,
    "demonstrate": 0,
    "delivers": 0,
    "capable": 0,
    "AT": 281,
    "Lac": 0,
    "##k": 26,
    "full": 2,
    "could": 0,
    "correlated": 0,
    "dramatically": 0,
    "reduced": 0,
    "capacity": 0,
    "calcium": 2,
    "flux": 0,
    "complement": 3,
    "##ed": 10,
    "ion": 1,
    "##op": 67,
    "##hore": 0,
    "results": 0,
    "identify": 0,
    "functional": 5,
    "distinct": 0,
    "involved": 0,
    "Ra": 24,
    "C": 240,
    "pathways": 0,
    "Liga": 1,
    "##nd": 5,
    "repression": 2,
    "er": 49,
    "##hr": 20,
    "##oid": 42,
    "GA": 57,
    "##TA": 56,
    "##rogen": 21,
    "High": 0,
    "dose": 1,
    "administration": 0,
    "##emia": 3,
    "mammals": 0,
    "chickens": 0,
    "stimulate": 14,
    "out": 1,
    "##gro": 0,
    "##wth": 0,
    "bone": 0,
    "ma": 5,
    "##rrow": 0,
    "derived": 20,
    "pro": 137,
    "##itor": 0,
    "delay": 0,
    "their": 0,
    "mat": 1,
    "##uration": 1,
    "associated": 74,
    "down": 0,
    "regulation": 1,
    "many": 0,
    "genes": 440,
    "including": 0,
    "alpha": 1155,
    "beta": 395,
    "g": 253,
    "##lo": 169,
    "##bin": 146,
    "band": 1,
    "3": 396,
    "4": 479,
    "##tone": 8,
    "H": 127,
    "##5": 67,
    "here": 0,
    "also": 0,
    "reduce": 0,
    "number": 0,
    "cultures": 0,
    "strongly": 0,
    "##pressed": 1,
    "ER": 22,
    "##igan": 47,
    "##d": 95,
    "manner": 0,
    "##versible": 0,
    "presence": 0,
    "h": 65,
    "##ydro": 19,
    "##xy": 16,
    "##tam": 8,
    "##ife": 0,
    "bind": 0,
    "each": 0,
    "other": 1,
    "##ro": 5,
    "absence": 0,
    "DNA": 198,
    "Map": 0,
    "##ping": 0,
    "experiments": 0,
    "indicate": 0,
    "form": 17,
    "at": 0,
    "least": 0,
    "contacts": 0,
    "finger": 48,
    "domain": 315,
    "s": 167,
    "##pec": 0,
    "##ulate": 0,
    "ex": 14,
    "##ert": 0,
    "##oi": 8,
    "##esis": 0,
    "##od": 32,
    "##ulating": 1,
    "interaction": 3,
    "Mouse": 0,
    "Inter": 3,
    "control": 25,
    "via": 0,
    "shown": 0,
    "##R": 405,
    "##8": 37,
    "##uri": 8,
    "##ne": 118,
    "##yte": 40,
    "precursor": 17,
    "Here": 0,
    "map": 0,
    "##ness": 0,
    "mouse": 10,
    "thy": 14,
    "##mic": 46,
    "hybrid": 4,
    "PC": 7,
    "##60": 0,
    "synthesis": 0,
    "independent": 5,
    "appearance": 0,
    "##RNA": 517,
    "blocked": 0,
    "segment": 11,
    "as": 3,
    "##du": 80,
    "##cible": 44,
    "lies": 0,
    "becomes": 0,
    "D": 132,
    "##N": 49,
    "##yper": 14,
    "##sen": 16,
    "##sitive": 14,
    "normal": 2,
    "has": 0,
    "been": 0,
    "induced": 46,
    "three": 0,
    "Two": 0,
    "potential": 2,
    "ST": 84,
    "##AT": 93,
    "He": 1,
    "##mat": 3,
    "##etic": 1,
    "lineage": 8,
    "commitment": 0,
    "role": 0,
    "factors": 547,
    "review": 0,
    "focuses": 0,
    "roles": 0,
    "hem": 3,
    "##ato": 2,
    "##po": 13,
    "##iet": 2,
    "A": 193,
    "brief": 0,
    "introduction": 0,
    "##ym": 0,
    "##metric": 0,
    "division": 0,
    "discussion": 0,
    "several": 0,
    "methods": 0,
    "important": 2,
    "specify": 0,
    "types": 0,
    "Next": 0,
    "presented": 0,
    "use": 0,
    "em": 3,
    "##ryo": 6,
    "##nic": 5,
    "stem": 0,
    "analysis": 0,
    "targeted": 0,
    "disruption": 0,
    "analyze": 0,
    "##ies": 1,
    "Finally": 0,
    "status": 0,
    "our": 0,
    "current": 0,
    "knowledge": 0,
    "concerning": 0,
    "my": 134,
    "##elo": 18,
    "##id": 32,
    "summarized": 0,
    "##ps": 56,
    "##tein": 6,
    "Barr": 48,
    "replica": 0,
    "##tive": 0,
    "de": 34,
    "no": 0,
    "##vo": 0,
    "##mo": 52,
    "##cy": 14,
    "simultaneous": 0,
    "early": 83,
    "##Z": 16,
    "##LF": 30,
    "its": 0,
    "##or": 66,
    "RA": 71,
    "others": 0,
    "##V": 37,
    "can": 0,
    "subset": 1,
    "accompanied": 0,
    "linear": 1,
    "genome": 33,
    "8": 94,
    "##cular": 0,
    "detected": 0,
    "contrast": 0,
    "where": 0,
    "circular": 0,
    "##ize": 0,
    "24": 4,
    "fusion": 42,
    "##cript": 39,
    "comprised": 0,
    "lo": 54,
    "##cus": 45,
    "BR": 1,
    "##T": 100,
    "Z": 12,
    "##E": 72,
    "##BR": 4,
    "##re": 39,
    "##ci": 10,
    "addition": 0,
    "##NA": 77,
    "##cribed": 3,
    "F": 118,
    "rather": 0,
    "than": 0,
    "W": 3,
    "late": 19,
    "##ntly": 0,
    "observations": 0,
    "suggest": 0,
    "differs": 0,
    "##dent": 0,
    "##ification": 0,
    "##rification": 0,
    "St": 24,
    "##at": 22,
    "activated": 162,
    "response": 117,
    "key": 0,
    "##oki": 132,
    "immune": 10,
    "Following": 0,
    "encoding": 14,
    "various": 0,
    "chains": 14,
    "##ally": 0,
    "turn": 0,
    "secret": 2,
    "serves": 0,
    "differentiation": 12,
    "lead": 0,
    "set": 0,
    "Human": 0,
    "peripheral": 0,
    "blood": 3,
    "observed": 0,
    "contain": 0,
    "activities": 0,
    "Similar": 0,
    "transformed": 1,
    "line": 6,
    "termed": 0,
    "Y": 56,
    "##rified": 3,
    "principal": 0,
    "component": 16,
    "bears": 0,
    "##la": 6,
    "##ct": 44,
    "##in": 210,
    "first": 1,
    "sheep": 0,
    "##mma": 3,
    "##ry": 4,
    "##land": 2,
    "tissue": 1,
    "##pot": 0,
    "##hes": 1,
    "##S": 82,
    "##tat": 1,
    "helps": 0,
    "govern": 0,
    "biological": 0,
    "##lin": 6,
    "like": 120,
    "repair": 2,
    "enzyme": 17,
    "u": 7,
    "##rac": 0,
    "##il": 0,
    "##cos": 3,
    "##yla": 6,
    "##se": 25,
    "evidence": 0,
    "auto": 12,
    "##gu": 5,
    "##lator": 11,
    "mechanism": 0,
    "cycle": 19,
    "regulate": 0,
    "species": 10,
    "U": 22,
    "##D": 229,
    "##G": 62,
    "o": 64,
    "##ste": 2,
    "##osa": 0,
    "##rc": 7,
    "Sa": 0,
    "put": 4,
    "##ative": 5,
    "downstream": 6,
    "located": 1,
    "##on": 70,
    "##P": 247,
    "relationship": 0,
    "between": 1,
    "product": 43,
    "##ay": 1,
    "result": 0,
    "##hetical": 0,
    "integrate": 0,
    "one": 1,
    "likely": 0,
    "imp": 0,
    "##lica": 3,
    "multi": 2,
    "##function": 0,
    "enzymes": 8,
    "possibly": 0,
    "damage": 0,
    "negative": 39,
    "##fer": 79,
    "gamma": 412,
    "IF": 45,
    "##nor": 2,
    "##eg": 1,
    "produced": 2,
    "predominantly": 0,
    "large": 0,
    "##ran": 50,
    "##ular": 1,
    "L": 173,
    "##L": 93,
    "extra": 9,
    "particular": 0,
    "##ns": 16,
    "12": 142,
    "potent": 0,
    "##rs": 20,
    "both": 0,
    "Although": 0,
    "it": 0,
    "reported": 0,
    "there": 0,
    "some": 0,
    "produce": 0,
    "yet": 0,
    "report": 0,
    "killer": 5,
    "responds": 0,
    "similar": 0,
    "present": 1,
    "##3": 215,
    "measured": 0,
    "increases": 0,
    "##ulo": 7,
    "mac": 70,
    "##rop": 75,
    "##hage": 70,
    "colony": 81,
    "##mulating": 83,
    "GM": 33,
    "CS": 242,
    "##las": 60,
    "new": 0,
    "induction": 0,
    "appears": 0,
    "only": 2,
    "partially": 0,
    "depend": 0,
    "Furthermore": 0,
    "transforming": 4,
    "growth": 41,
    "##eni": 13,
    "##stein": 1,
    "suppress": 21,
    "generally": 0,
    "inactive": 2,
    "It": 1,
    "suppression": 0,
    "agents": 1,
    "##hibition": 0,
    "data": 0,
    "leading": 0,
    "serve": 0,
    "di": 13,
    "##sse": 0,
    "##cting": 0,
    "bio": 2,
    "##chemical": 0,
    "molecular": 4,
    "events": 0,
    "##9": 33,
    "##va": 0,
    "##v": 6,
    "##ulation": 0,
    "##CR": 28,
    "multiple": 0,
    "##ory": 17,
    "##lation": 4,
    "numerous": 0,
    "substrates": 9,
    "contains": 0,
    "structural": 2,
    "motifs": 76,
    "Sr": 3,
    "ho": 67,
    "##mology": 15,
    "##cks": 1,
    "##tri": 3,
    "domains": 75,
    "##uan": 1,
    "n": 35,
    "##uc": 71,
    "##leo": 33,
    "##tide": 24,
    "exchange": 5,
    "processes": 0,
    "unclear": 0,
    "over": 1,
    "##ex": 2,
    "alone": 0,
    "Ju": 0,
    "##rka": 0,
    "##t": 39,
    "nuclear": 115,
    "##FA": 39,
    "G": 86,
    "coupled": 5,
    "##ulated": 1,
    "suggesting": 0,
    "removal": 0,
    "67": 11,
    "amino": 45,
    "acids": 34,
    "activate": 0,
    "##H": 61,
    "function": 3,
    "further": 0,
    "mimic": 0,
    "##ked": 0,
    "though": 0,
    "upon": 2,
    "##f": 25,
    "To": 6,
    "involvement": 0,
    "analyzed": 0,
    "mutant": 68,
    "def": 1,
    "##icient": 1,
    "showed": 0,
    "intact": 0,
    "However": 0,
    "does": 0,
    "appear": 0,
    "influence": 0,
    "free": 3,
    "Take": 0,
    "together": 0,
    "plays": 0,
    "unidentified": 0,
    "##ximal": 29,
    "position": 2,
    "Po": 1,
    "AM": 30,
    "consensus": 37,
    "consists": 0,
    "subunit": 132,
    "There": 0,
    "A1": 7,
    "bound": 19,
    "driven": 11,
    "reporter": 104,
    "##mi": 38,
    "un": 14,
    "O": 29,
    "te": 6,
    "##cano": 1,
    "##yl": 6,
    "13": 87,
    "ace": 48,
    "##tate": 5,
    "##hy": 22,
    "##hem": 1,
    "##ag": 1,
    "##g": 126,
    "##lut": 5,
    "##ini": 4,
    "suppressed": 0,
    "Co": 3,
    "determined": 0,
    "ratio": 0,
    "extract": 2,
    "contained": 0,
    "cross": 1,
    "reacted": 0,
    "##mous": 0,
    "Northern": 0,
    "b": 125,
    "##lot": 1,
    "indicated": 0,
    "au": 2,
    "##gment": 1,
    "LP": 7,
    "responses": 0,
    "referred": 0,
    "##rim": 0,
    "well": 1,
    "established": 0,
    "occurs": 0,
    "poorly": 0,
    "defined": 0,
    "Using": 0,
    "##umour": 0,
    "ne": 190,
    "##rosis": 175,
    "##NF": 60,
    "designed": 0,
    "anal": 0,
    "##ys": 6,
    "detail": 0,
    "primarily": 0,
    "manifest": 0,
    "level": 0,
    "accumulation": 0,
    "pre": 2,
    "treatment": 0,
    "affected": 0,
    "magnitude": 0,
    "sensitivity": 0,
    "occurred": 0,
    "after": 0,
    "hours": 0,
    "prime": 3,
    "state": 4,
    "either": 0,
    "Prime": 0,
    "higher": 0,
    "rate": 0,
    "freshly": 0,
    "isolated": 0,
    "An": 0,
    "finding": 0,
    "much": 0,
    "more": 0,
    "increased": 0,
    "6": 294,
    "fold": 0,
    "possessed": 0,
    "89": 1,
    "ABS": 0,
    "##TR": 100,
    "##AC": 3,
    "##UN": 2,
    "##CA": 18,
    "##TE": 0,
    "250": 2,
    "##OR": 0,
    "##DS": 0,
    "developmental": 0,
    "minimal": 5,
    "##uta": 8,
    "##genesis": 0,
    "analyses": 0,
    "##iti": 2,
    "##ator": 0,
    "cap": 3,
    "##ts": 21,
    "My": 27,
    "zinc": 26,
    "MA": 56,
    "predominant": 0,
    "last": 0,
    "resembles": 0,
    "ME": 2,
    "##a": 257,
    "##AG": 2,
    "motif": 130,
    "critical": 0,
    "therefore": 0,
    "believe": 0,
    "play": 0,
    "##throp": 0,
    "##eti": 22,
    "##AL": 3,
    "SC": 5,
    "originally": 0,
    "##current": 0,
    "ch": 70,
    "##rom": 12,
    "##oso": 14,
    "##mal": 9,
    "##location": 14,
    "most": 5,
    "frequent": 0,
    "les": 0,
    "recognized": 0,
    "acute": 0,
    "##ob": 8,
    "le": 61,
    "##uke": 34,
    "##mia": 33,
    "basic": 10,
    "he": 129,
    "##lix": 43,
    "loop": 29,
    "characteristic": 0,
    "family": 247,
    "canonical": 0,
    "CA": 48,
    "##NT": 2,
    "##tero": 88,
    "##di": 101,
    "##mers": 54,
    "chemical": 0,
    "##ole": 1,
    "suggested": 0,
    "might": 0,
    "aspects": 0,
    "el": 7,
    "##icit": 0,
    "increase": 0,
    "increasing": 2,
    "##ili": 2,
    "##zing": 2,
    "##VA": 0,
    "subsequently": 0,
    "decay": 0,
    "##cc": 0,
    "##um": 2,
    "##duction": 3,
    "temporal": 0,
    "acts": 0,
    "post": 1,
    "##cription": 1,
    "Friend": 0,
    "##last": 0,
    "establish": 0,
    "link": 1,
    "mechanisms": 0,
    "member": 15,
    "diverse": 0,
    "Non": 0,
    "##rad": 0,
    "##io": 5,
    "##active": 0,
    "q": 48,
    "##uant": 0,
    "##lu": 22,
    "##co": 157,
    "##cor": 22,
    "##37": 2,
    "describe": 0,
    "method": 0,
    "relative": 0,
    "based": 2,
    "strand": 0,
    "competition": 0,
    "identical": 0,
    "sequences": 100,
    "##tin": 7,
    "flu": 2,
    "##ores": 0,
    "labeled": 5,
    "am": 2,
    "##lic": 3,
    "probe": 25,
    "##bel": 0,
    "As": 1,
    "quantity": 0,
    "double": 0,
    "decreased": 0,
    "accordance": 0,
    "mass": 1,
    "action": 0,
    "law": 0,
    "technique": 0,
    "successfully": 0,
    "applied": 0,
    "evaluate": 0,
    "before": 0,
    "##PA": 2,
    "combination": 3,
    "all": 32,
    "##tino": 11,
    "25": 40,
    "##dr": 17,
    "##vi": 8,
    "V": 24,
    "[": 9,
    "]": 13,
    "##xa": 0,
    "##met": 0,
    "##has": 0,
    "##one": 1,
    "up": 1,
    "perceived": 0,
    "S": 81,
    "ok": 0,
    "##ada": 0,
    "purely": 0,
    "##nes": 58,
    "such": 0,
    "regulatory": 148,
    "OK": 2,
    "responding": 1,
    "##ifer": 20,
    "construct": 124,
    "depended": 0,
    "ability": 0,
    "box": 129,
    "intense": 0,
    "expressed": 12,
    "nucleus": 0,
    "property": 0,
    "shared": 0,
    "##er": 41,
    "##HA": 1,
    "Re": 180,
    "deleted": 6,
    "Ta": 21,
    "Our": 0,
    "SP": 6,
    "selective": 1,
    "se": 11,
    "th": 32,
    "##oni": 27,
    "##pha": 148,
    "##tase": 61,
    "PP": 7,
    "facilitate": 0,
    "involving": 0,
    "general": 1,
    "would": 0,
    "independently": 0,
    "##yne": 0,
    "##rgy": 0,
    "low": 3,
    "basal": 2,
    "understand": 0,
    "bases": 2,
    "red": 4,
    "##unda": 0,
    "##ncy": 2,
    "##iot": 0,
    "compared": 0,
    "##BL": 1,
    "actions": 0,
    "rapidly": 0,
    "fresh": 0,
    "##activated": 0,
    "7": 79,
    "15": 34,
    "same": 0,
    "complexes": 155,
    "feature": 0,
    "existence": 0,
    "##lated": 24,
    "dock": 2,
    "studies": 0,
    "combinations": 0,
    "under": 0,
    "physiological": 0,
    "conditions": 0,
    "##hibit": 1,
    "retaining": 0,
    "##m": 18,
    "Various": 0,
    "stimuli": 0,
    "typically": 0,
    "those": 0,
    "stress": 4,
    "path": 0,
    "##ogen": 27,
    "##act": 99,
    "##ivate": 0,
    "##iber": 0,
    "##ates": 2,
    "##loc": 1,
    "##ate": 5,
    "initiate": 0,
    "defense": 1,
    "organism": 0,
    "co": 51,
    "##rrel": 1,
    "##sis": 2,
    "residues": 11,
    "del": 18,
    "examine": 0,
    "'": 221,
    "flank": 49,
    "150": 5,
    "fragment": 43,
    "AP": 84,
    "high": 0,
    "##CI": 1,
    "##M": 61,
    "K": 48,
    "##6": 100,
    "respectively": 0,
    "reflecting": 0,
    "lacking": 0,
    "necessary": 0,
    "Pro": 5,
    "CC": 10,
    "##GC": 2,
    "##CC": 2,
    "By": 0,
    "able": 0,
    "highly": 0,
    "active": 16,
    "although": 0,
    "comparable": 0,
    "Rather": 0,
    "depends": 0,
    "coordination": 0,
    "Over": 0,
    "DR": 59,
    "nm": 9,
    "##23": 13,
    "encoded": 20,
    "##pop": 5,
    "##tosis": 2,
    "32": 1,
    "##13": 18,
    "Ch": 5,
    "##ronic": 0,
    "##ous": 2,
    "evolve": 0,
    "stages": 0,
    "chronic": 0,
    "blast": 0,
    "crisis": 1,
    "phase": 6,
    "transition": 0,
    "unknown": 0,
    "clone": 34,
    "library": 17,
    "approximately": 0,
    "70": 42,
    "%": 0,
    "similarity": 0,
    "meta": 1,
    "##static": 1,
    "prefer": 0,
    "##ential": 0,
    "##34": 4,
    "+": 87,
    "Its": 0,
    "causes": 0,
    "death": 8,
    "consistent": 0,
    "raise": 0,
    "possibility": 0,
    "arrest": 0,
    "transformation": 0,
    "##C": 36,
    "Express": 1,
    "elevated": 0,
    "peaked": 0,
    "exposure": 0,
    "Nuclear": 0,
    "run": 3,
    "revealed": 0,
    "Trans": 0,
    "##ions": 0,
    "containing": 36,
    "##IC": 3,
    "into": 0,
    "20": 11,
    "surrounding": 0,
    "start": 39,
    "##ting": 3,
    "initiation": 30,
    "##IR": 2,
    "74": 1,
    "17": 22,
    "positions": 2,
    "51": 1,
    "35": 3,
    "conferred": 0,
    "##el": 0,
    "shift": 1,
    "involves": 0,
    "J": 26,
    "##ak": 6,
    "##TL": 11,
    "##ot": 10,
    "##ropic": 8,
    "et": 5,
    "##iol": 0,
    "##ogical": 0,
    "agent": 0,
    "adult": 4,
    "tropical": 0,
    "spa": 0,
    "##stic": 0,
    "para": 0,
    "##par": 1,
    "##pathy": 0,
    "exhibit": 0,
    "initial": 0,
    ";": 71,
    "time": 0,
    "become": 0,
    "##cer": 36,
    "##iva": 190,
    "##tor": 146,
    "Ni": 1,
    "##tric": 2,
    "oxide": 5,
    "decreases": 0,
    "end": 22,
    "##oth": 6,
    "##eli": 7,
    "test": 0,
    "hypothesis": 0,
    "ni": 3,
    "NO": 1,
    "limits": 0,
    "treated": 0,
    "sa": 1,
    "##phe": 1,
    "##nous": 0,
    "vein": 0,
    "donors": 0,
    "assessed": 0,
    "vascular": 4,
    "##hesion": 63,
    "molecule": 106,
    "VC": 4,
    "##AM": 7,
    "parallel": 0,
    "##ola": 2,
    "##yers": 0,
    "##af": 5,
    "##GM": 1,
    "analogue": 0,
    "quantitative": 0,
    "tumor": 29,
    "bacterial": 0,
    "##sa": 0,
    "##hari": 0,
    "##uk": 11,
    "select": 67,
    "lesser": 0,
    "extent": 0,
    "##able": 1,
    "electro": 0,
    "##ore": 1,
    "mobility": 6,
    "##es": 15,
    "part": 3,
    "propose": 0,
    "limit": 0,
    "contribute": 0,
    "##ather": 0,
    "##ogenic": 1,
    "##lam": 4,
    "properties": 0,
    "vessel": 0,
    "wall": 0,
    "MI": 4,
    "##NP": 1,
    "crucial": 0,
    "Secret": 1,
    "GO": 2,
    "##19": 6,
    "primitive": 0,
    "home": 20,
    "##ost": 1,
    "##atic": 0,
    "Therefore": 0,
    "Previous": 0,
    "work": 0,
    "widely": 0,
    "affect": 0,
    "communication": 0,
    "##action": 0,
    "fast": 0,
    "mi": 4,
    "##grating": 3,
    "mob": 1,
    "##ilities": 0,
    "mutation": 4,
    "##bro": 4,
    "##gate": 2,
    "reduces": 0,
    "##fold": 0,
    "constitutes": 0,
    "Tor": 0,
    "##em": 28,
    "##lea": 4,
    "varied": 0,
    "After": 0,
    "short": 1,
    "term": 3,
    "##rote": 79,
    "receptors": 309,
    "##53": 8,
    "##l": 290,
    "take": 0,
    "place": 1,
    "view": 0,
    "##est": 1,
    "cancer": 0,
    "therapy": 1,
    "prevention": 0,
    "obvious": 0,
    "merit": 0,
    "conducted": 0,
    "##yn": 4,
    "prop": 0,
    "##aga": 0,
    "##ino": 3,
    "##phi": 12,
    "##ls": 1,
    "min": 0,
    "GT": 8,
    "##21": 12,
    "##ras": 5,
    "##late": 1,
    "studied": 0,
    "##ome": 6,
    "##gal": 1,
    "HC": 0,
    "few": 0,
    "cellular": 11,
    "unlike": 0,
    "another": 0,
    "did": 0,
    "any": 0,
    "specifically": 1,
    "machinery": 0,
    "affinity": 21,
    "##roma": 2,
    "##tography": 0,
    "translation": 1,
    "directly": 0,
    "life": 0,
    "endemic": 0,
    "population": 0,
    "insights": 0,
    "slow": 0,
    "replication": 1,
    "possible": 0,
    "##ige": 0,
    "##side": 0,
    "dip": 3,
    "##phate": 6,
    "skin": 0,
    "##his": 0,
    "study": 0,
    "NDP": 4,
    "variety": 0,
    "inverse": 0,
    "order": 0,
    "determine": 0,
    "whether": 0,
    "marker": 2,
    "9": 49,
    "k": 211,
    "##era": 4,
    "##aca": 0,
    "##nt": 15,
    "##hom": 2,
    "##as": 20,
    "##As": 0,
    "26": 2,
    "sq": 0,
    "##ua": 0,
    "car": 11,
    "##cin": 3,
    "##Cs": 0,
    "BC": 12,
    "##chemistry": 0,
    "difference": 0,
    "statistical": 0,
    "##dict": 0,
    "significance": 0,
    "cut": 0,
    "##aneous": 0,
    "remain": 0,
    "RB": 3,
    "##II": 33,
    "defect": 2,
    "en": 5,
    "##code": 0,
    "##genic": 2,
    "##eptide": 12,
    "presentation": 0,
    "wide": 0,
    "examined": 0,
    "series": 0,
    "generated": 1,
    "Bar": 0,
    "##drome": 0,
    "##LS": 0,
    "patients": 0,
    "matrix": 7,
    "detect": 0,
    "cases": 0,
    "indicating": 0,
    "loss": 0,
    "responsible": 0,
    "second": 0,
    "apparently": 0,
    "positive": 8,
    "known": 0,
    "normally": 0,
    "Thus": 0,
    "block": 3,
    "due": 0,
    "whose": 0,
    "super": 30,
    "##family": 22,
    "Recently": 0,
    "##tors": 60,
    "recently": 0,
    "regulated": 46,
    "recent": 0,
    "demonstration": 0,
    "Te": 1,
    "##mper": 0,
    "##ature": 0,
    "##psis": 0,
    "##ptic": 1,
    "shock": 24,
    "##J": 0,
    "##EC": 2,
    "##TI": 0,
    "##VE": 0,
    "##hala": 0,
    "pit": 0,
    "##uit": 0,
    "##ary": 1,
    "##rena": 0,
    "axis": 0,
    "vital": 0,
    "importance": 0,
    "illness": 0,
    "adaptive": 0,
    "occur": 0,
    "tissues": 0,
    "##U": 25,
    "##TS": 0,
    "Fifteen": 0,
    "age": 0,
    "79": 4,
    "who": 0,
    "admitted": 0,
    "intensive": 0,
    "care": 0,
    "unit": 9,
    "group": 6,
    "consisted": 0,
    "healthy": 0,
    "laboratory": 0,
    "employees": 0,
    "##AS": 7,
    "##UR": 0,
    "##EM": 1,
    "##EN": 0,
    "plasma": 2,
    "##rt": 3,
    "##ol": 5,
    "concentrations": 0,
    "##ther": 1,
    "variations": 1,
    "composition": 0,
    "change": 0,
    "controls": 0,
    "weak": 0,
    "correlation": 0,
    "body": 0,
    "temperature": 0,
    "patient": 0,
    "relation": 0,
    "circulating": 0,
    "CO": 3,
    "##NC": 0,
    "##US": 0,
    "##ION": 0,
    "adaptation": 0,
    "##yk": 3,
    "aspect": 0,
    "##rin": 30,
    "##HP": 0,
    "fi": 7,
    "##nect": 3,
    "sets": 0,
    "about": 0,
    "65": 10,
    "75": 4,
    "120": 6,
    "125": 2,
    "##50": 60,
    "##65": 105,
    "immediate": 17,
    "components": 8,
    "subsequent": 0,
    "include": 0,
    "##ax": 0,
    "##ill": 0,
    "pp": 3,
    "##12": 13,
    "SH": 20,
    "FA": 0,
    "##hering": 0,
    "##och": 1,
    "##ala": 0,
    "##sin": 2,
    "message": 1,
    "New": 0,
    "World": 0,
    "##rima": 0,
    "<": 0,
    "0": 6,
    "01": 0,
    "when": 0,
    "mixed": 0,
    "prepared": 0,
    "rat": 0,
    "##mus": 0,
    "heat": 8,
    "lab": 3,
    "##ile": 3,
    "try": 0,
    "sensitive": 21,
    "Peak": 0,
    "200": 1,
    "fraction": 0,
    "Sep": 1,
    "##ha": 1,
    "##ryl": 0,
    "ultra": 0,
    "##fi": 0,
    "##ltration": 0,
    "Sc": 0,
    "##atch": 0,
    "##ard": 0,
    "diminished": 0,
    "apparent": 0,
    "competitive": 0,
    "prevents": 0,
    "##gnate": 0,
    "Di": 2,
    "##rup": 8,
    "Duffy": 0,
    "##ishes": 0,
    "individuals": 0,
    "##dium": 0,
    "##x": 39,
    "malaria": 0,
    "parasite": 0,
    "##AR": 7,
    "composed": 0,
    "blacks": 0,
    "carry": 0,
    "silent": 1,
    "##Y": 22,
    "*": 34,
    "##ele": 30,
    "substitution": 0,
    "46": 6,
    "##air": 0,
    "disrupt": 0,
    "With": 0,
    "characterization": 0,
    "basis": 0,
    "system": 4,
    "explanation": 0,
    "##90": 5,
    "##rsk": 0,
    "##oke": 0,
    "##weed": 0,
    "mit": 20,
    "##W": 2,
    "##GR": 14,
    "fragments": 20,
    "linked": 9,
    "##lora": 11,
    "##mp": 11,
    "##ico": 23,
    "##ty": 55,
    "##lt": 34,
    "##top": 0,
    "signalling": 0,
    "##h": 4,
    "CT": 4,
    "##AA": 7,
    "larger": 0,
    "##ali": 9,
    "they": 0,
    "give": 0,
    "six": 1,
    "bands": 3,
    "competed": 0,
    "parts": 0,
    "inverted": 1,
    "repeats": 20,
    "depending": 0,
    "##con": 0,
    "##itution": 0,
    "Considering": 0,
    "strong": 0,
    "coordinated": 0,
    "help": 7,
    "##FI": 7,
    "##ur": 9,
    "##7": 47,
    "##EE": 0,
    "dies": 0,
    "PM": 9,
    "##IN": 0,
    "linking": 0,
    "belongs": 0,
    "orphan": 5,
    "binds": 0,
    "classified": 0,
    "sub": 7,
    "##type": 2,
    "BA": 1,
    "##ilization": 0,
    "Since": 0,
    "preventing": 0,
    "degradation": 0,
    "##pi": 5,
    "um": 0,
    "##bil": 1,
    "##ical": 0,
    "##TH": 0,
    "##OD": 8,
    "AND": 0,
    "##ES": 3,
    "##LT": 0,
    "ranging": 0,
    "10": 215,
    "mm": 0,
    "range": 0,
    "hardly": 0,
    "appeared": 0,
    "prevent": 0,
    "since": 0,
    "consequence": 0,
    "marked": 0,
    "thereby": 0,
    "providing": 0,
    "##cu": 0,
    "##bation": 0,
    "even": 0,
    "stimulus": 2,
    "##mer": 51,
    "fundamental": 0,
    "exhibits": 0,
    "##ties": 0,
    "far": 0,
    "40": 31,
    "integration": 0,
    "nearly": 0,
    "90": 5,
    "decrease": 0,
    "earlier": 0,
    "SE": 2,
    "Chinese": 0,
    "ha": 3,
    "##ms": 4,
    "##ter": 7,
    "##vary": 0,
    "CH": 0,
    "##pressing": 0,
    "resulted": 0,
    "profiles": 1,
    "Maxim": 0,
    "recorded": 0,
    "cooperative": 0,
    "##ta": 7,
    "##phy": 0,
    "##cal": 0,
    "enter": 6,
    "##oto": 12,
    "##xin": 19,
    "sufficient": 0,
    "amounts": 0,
    "whereas": 0,
    "triple": 1,
    "##ant": 8,
    "Oct": 21,
    "remained": 0,
    "samples": 1,
    "Super": 0,
    "substantial": 0,
    "marginal": 0,
    "Jun": 107,
    "Fr": 0,
    "partly": 0,
    "account": 0,
    "##ch": 1,
    "##lor": 0,
    "##ibe": 0,
    "##nz": 4,
    "##o": 14,
    "##CD": 5,
    "##bul": 24,
    "steady": 1,
    "gel": 3,
    "criteria": 0,
    "Ah": 1,
    "interfere": 0,
    "BS": 6,
    "##AP": 7,
    "common": 4,
    "participate": 0,
    "##sta": 0,
    "still": 0,
    "Native": 0,
    "##EL": 0,
    "60": 7,
    "##comb": 4,
    "##ina": 4,
    "M1": 2,
    "Moreover": 0,
    "##runcated": 7,
    "do": 0,
    "restricted": 14,
    "without": 0,
    "##ity": 2,
    "Li": 0,
    "continuous": 0,
    "##eric": 2,
    "##idal": 1,
    "##me": 12,
    "##ability": 2,
    "End": 0,
    "express": 0,
    "##ut": 5,
    "##hil": 4,
    "inflammation": 0,
    "peaks": 0,
    "gradually": 0,
    "returns": 0,
    "r": 12,
    "##PI": 0,
    "BP": 17,
    "added": 0,
    "reverse": 1,
    "interrupting": 0,
    "going": 0,
    "So": 0,
    "called": 0,
    "interactions": 0,
    "soluble": 2,
    "complete": 0,
    "powerful": 0,
    "respond": 0,
    "mainly": 0,
    "described": 1,
    "##RE": 27,
    "members": 40,
    "tax": 14,
    "cooperate": 0,
    "Tax": 25,
    "shows": 0,
    "degree": 0,
    "Dana": 0,
    "##zo": 0,
    "Administration": 0,
    "da": 0,
    "##na": 0,
    "month": 0,
    "50": 7,
    "alter": 0,
    "release": 0,
    "##dom": 0,
    "##nce": 0,
    "reduction": 0,
    "expressions": 0,
    "Fun": 0,
    "##ctional": 0,
    "event": 0,
    "inflammatory": 13,
    "process": 1,
    "trim": 2,
    "la": 9,
    "screened": 0,
    "gal": 17,
    "##idas": 22,
    "610": 0,
    "530": 0,
    "micro": 4,
    "compounds": 0,
    "At": 0,
    "Both": 0,
    "reaction": 0,
    "reversed": 0,
    "Conversely": 0,
    "resistant": 6,
    "altered": 0,
    "causing": 0,
    "##tar": 0,
    "##ded": 0,
    "##ac": 2,
    "##uo": 1,
    "##lar": 2,
    "ATP": 13,
    "##iating": 0,
    "Mon": 1,
    "studying": 0,
    "begun": 0,
    "structure": 8,
    "Is": 0,
    "##quencing": 0,
    "reveal": 0,
    "less": 5,
    "content": 0,
    "foot": 3,
    "##print": 3,
    "coding": 11,
    "##liga": 0,
    "##tory": 0,
    "f": 177,
    "##lication": 0,
    "##toon": 11,
    "##gene": 90,
    "controlled": 4,
    "main": 0,
    "Ki": 4,
    "##nas": 7,
    "serum": 5,
    "SR": 9,
    "CR": 31,
    "presumably": 0,
    "calm": 15,
    "##ulin": 24,
    "little": 0,
    "combined": 0,
    "##sko": 0,
    "plus": 1,
    "##X": 23,
    "greatly": 0,
    "Analysis": 0,
    "confirms": 0,
    "requirements": 0,
    "Signal": 0,
    "needed": 0,
    "efficient": 0,
    "neither": 0,
    "That": 0,
    "relevant": 3,
    "supported": 0,
    "fact": 0,
    "##ducing": 19,
    "620": 1,
    "34": 10,
    "##LE": 3,
    "54": 5,
    "31": 4,
    "##but": 0,
    "85": 2,
    "76": 39,
    "101": 3,
    "92": 3,
    "mutations": 5,
    "##CL": 1,
    "##los": 1,
    "##por": 2,
    "resembling": 0,
    "confirmed": 0,
    "##cine": 4,
    "substitute": 0,
    "##rg": 5,
    "##verse": 0,
    "however": 0,
    "assembly": 0,
    "affects": 0,
    "driving": 0,
    "##inate": 0,
    "Use": 0,
    "markers": 31,
    "##vu": 0,
    "Biological": 0,
    "great": 0,
    "past": 0,
    "fallen": 0,
    "##suse": 0,
    "diffusion": 0,
    "##physical": 0,
    "ones": 0,
    "explore": 0,
    "modifications": 0,
    "reproductive": 0,
    "behaviour": 0,
    "Album": 0,
    "Plate": 0,
    "##let": 5,
    "Factor": 8,
    "IV": 11,
    "indicator": 0,
    "##gg": 0,
    "##regation": 0,
    "Type": 3,
    "42": 6,
    "women": 0,
    "undergoing": 0,
    "observation": 0,
    "33": 1,
    "them": 0,
    "had": 0,
    "developed": 0,
    "syndrome": 3,
    "##stituting": 0,
    "models": 0,
    "opposite": 0,
    "situation": 0,
    "All": 0,
    "considered": 0,
    "sufficiently": 0,
    "reliable": 0,
    "##rmon": 0,
    "quality": 0,
    "MR": 6,
    "##life": 10,
    "##rate": 0,
    "Yet": 0,
    "generation": 0,
    "##ito": 1,
    "phosphate": 1,
    "Upon": 0,
    "kinetic": 0,
    "never": 0,
    "reach": 0,
    "similarly": 0,
    "lower": 0,
    "abnormal": 0,
    "##ities": 0,
    "Cross": 0,
    "##30": 11,
    "AC": 1,
    "especially": 0,
    "organs": 0,
    "contact": 0,
    "##ve": 0,
    "directed": 2,
    "##box": 14,
    "terminus": 33,
    "deficiency": 1,
    "Four": 0,
    "groups": 1,
    "##ID": 4,
    "##Q": 38,
    "remaining": 0,
    "113": 1,
    "##0": 35,
    "X": 63,
    "off": 0,
    "switch": 9,
    "availability": 0,
    "##ota": 9,
    "##ctic": 6,
    "see": 0,
    "comments": 0,
    "outside": 0,
    "point": 2,
    "MC": 12,
    "plate": 5,
    "Inc": 0,
    "##reased": 0,
    "##th": 0,
    "##roid": 9,
    "stage": 1,
    "z": 32,
    "##eta": 37,
    "##stal": 3,
    "occupied": 0,
    "systematically": 0,
    "Three": 0,
    "positively": 0,
    "##etal": 2,
    "On": 0,
    "hand": 0,
    "dual": 1,
    "##bi": 4,
    "##quito": 2,
    "##rich": 4,
    "Mu": 0,
    "##tation": 0,
    "d": 6,
    "dim": 20,
    "##eth": 0,
    "##lf": 1,
    "##oxide": 2,
    "remarkable": 0,
    "indeed": 0,
    "##omer": 8,
    "converting": 3,
    "##tro": 2,
    "##sy": 2,
    "residue": 0,
    "producers": 0,
    "##ynth": 22,
    "##esi": 1,
    "##ze": 0,
    "bearing": 0,
    "completely": 0,
    "Similarly": 0,
    "producing": 0,
    "El": 7,
    "##ec": 1,
    "consisting": 0,
    "weaker": 0,
    "faster": 1,
    "##dis": 0,
    "##pen": 0,
    "##sable": 0,
    "##lins": 4,
    "regulator": 27,
    "provided": 0,
    "Chemical": 0,
    "essentially": 0,
    "profile": 1,
    "##ki": 0,
    "##tt": 0,
    "evidenced": 0,
    "j": 146,
    "##un": 146,
    "##MP": 16,
    "opposed": 0,
    "##cho": 0,
    "##tom": 0,
    "underlying": 0,
    "whereby": 0,
    "##lled": 0,
    "##body": 83,
    "react": 0,
    "##ivity": 1,
    "##gens": 43,
    "Graves": 0,
    "19": 13,
    "radioactive": 0,
    "i": 1,
    "maintained": 0,
    "##uth": 0,
    "##thy": 2,
    "drugs": 0,
    "Twenty": 0,
    "subjects": 0,
    "matched": 1,
    "sex": 5,
    "served": 0,
    "##BM": 0,
    "##rog": 0,
    "day": 0,
    "surgery": 0,
    "weeks": 0,
    "months": 0,
    "thereafter": 0,
    "spanned": 0,
    "entire": 0,
    "Six": 0,
    "##tal": 0,
    "average": 0,
    "##su": 0,
    "values": 0,
    "Response": 2,
    "reflect": 0,
    "shorter": 0,
    "period": 0,
    "##ist": 0,
    "##ri": 2,
    "probably": 0,
    "whole": 1,
    "##ync": 0,
    "##ono": 0,
    "recognition": 11,
    "158": 2,
    "176": 2,
    "248": 1,
    "sign": 0,
    "##mission": 0,
    "predict": 0,
    "##ism": 0,
    "##cum": 0,
    "##vention": 0,
    "tolerance": 0,
    "##CF": 11,
    "##ni": 0,
    "##zation": 5,
    "knock": 1,
    "mice": 0,
    "Molecular": 0,
    "##lie": 0,
    "##otypic": 0,
    "understood": 0,
    "candidate": 0,
    "##codes": 0,
    "pattern": 1,
    "##nat": 0,
    "hampered": 0,
    "difficulty": 0,
    "extreme": 0,
    "evolutionary": 0,
    "conservation": 0,
    "numbers": 1,
    "generate": 0,
    "readily": 0,
    "yield": 0,
    "##ser": 0,
    "##iter": 1,
    "Wild": 0,
    "litter": 0,
    "##mates": 0,
    "##res": 0,
    "mount": 0,
    "Mal": 0,
    "##tos": 0,
    "Bin": 1,
    "##ding": 3,
    "MB": 3,
    "Subsequently": 0,
    "##ple": 0,
    "##ens": 0,
    "##zed": 0,
    "illustrate": 0,
    "almost": 0,
    "demonstrates": 0,
    "broken": 0,
    "interest": 0,
    "##sco": 0,
    "##red": 0,
    "##ated": 0,
    "##cup": 0,
    "##ied": 0,
    "UV": 0,
    "SD": 0,
    "Western": 0,
    "Access": 0,
    "der": 0,
    "SS": 12,
    "##si": 5,
    "##vity": 0,
    "##len": 0,
    "##cing": 0,
    "##til": 0,
    "##izing": 4,
    "base": 19,
    "pair": 15,
    "led": 0,
    "##ep": 3,
    "##ression": 0,
    "Fine": 0,
    "##cted": 0,
    "localized": 0,
    "centered": 0,
    "tandem": 4,
    "##ling": 0,
    "##uka": 5,
    "central": 0,
    "genetic": 1,
    "program": 0,
    "tightly": 0,
    "compartment": 0,
    "##graded": 0,
    "Specifically": 0,
    "36": 9,
    "failed": 0,
    "Growth": 0,
    "conditioned": 0,
    "medium": 0,
    "##dition": 0,
    "greater": 0,
    "counting": 0,
    "##lining": 0,
    "##state": 0,
    "PS": 0,
    "##kel": 0,
    "##eton": 0,
    "##taining": 0,
    "slides": 0,
    "##IS": 3,
    "procedures": 0,
    "From": 0,
    "along": 0,
    "##ivated": 3,
    "##ulator": 2,
    "semi": 0,
    "##pur": 0,
    "##ified": 0,
    "estimated": 0,
    "weight": 1,
    "000": 3,
    "Da": 0,
    "commonly": 0,
    "##pid": 1,
    "PA": 8,
    "Pre": 0,
    "##tre": 0,
    "##ment": 1,
    "##tus": 0,
    "##ra": 20,
    "##rol": 2,
    "##thi": 0,
    "##ar": 0,
    "##ba": 0,
    "##mate": 0,
    "diver": 0,
    "##gent": 0,
    "##lone": 1,
    "expresses": 0,
    "##LA": 16,
    "Indeed": 0,
    "operates": 0,
    "141": 3,
    "pairs": 10,
    "##li": 16,
    "##gon": 7,
    "spanning": 1,
    "rescued": 0,
    "wild": 3,
    "Sub": 3,
    "then": 0,
    "boxes": 9,
    "replaced": 0,
    "analogous": 0,
    "None": 0,
    "parental": 0,
    "Ji": 0,
    "##joy": 0,
    "##lue": 0,
    "##ncing": 0,
    "Restoration": 0,
    "unique": 0,
    "her": 2,
    "##pes": 2,
    "##vir": 2,
    "employed": 0,
    "simple": 7,
    "VP": 3,
    "##16": 3,
    "nor": 1,
    "nature": 0,
    "##ilon": 53,
    "Evidence": 0,
    "Jan": 2,
    "##cripts": 71,
    "##AF": 7,
    "##ru": 0,
    "robust": 0,
    "com": 0,
    "##ig": 0,
    "##rated": 0,
    "engagement": 0,
    "Does": 0,
    "majority": 0,
    "?": 0,
    "##ediatric": 0,
    "##cology": 0,
    "Almost": 0,
    "AL": 9,
    "rear": 4,
    "##rang": 4,
    "##ement": 6,
    "harbor": 0,
    "##ranged": 0,
    "Hence": 0,
    "proposed": 0,
    "promotes": 0,
    "din": 1,
    "subtle": 0,
    "alterations": 0,
    "affecting": 0,
    "##ify": 0,
    "##MD": 0,
    "seven": 0,
    "Then": 0,
    "##rn": 1,
    "##45": 3,
    "##IA": 2,
    "moderate": 0,
    "##my": 6,
    "##OL": 0,
    "##LL": 0,
    "differentiate": 0,
    "toward": 0,
    "showing": 0,
    "elevation": 0,
    "differentiated": 0,
    "Treatment": 0,
    "met": 2,
    "##hyl": 4,
    "##lant": 0,
    "##hren": 0,
    "significantly": 0,
    "x": 25,
    "##biotics": 0,
    "eventual": 0,
    "environmental": 0,
    "##eu": 0,
    "sharing": 0,
    "being": 0,
    "coordinate": 0,
    "course": 0,
    "extensively": 0,
    "##DC": 0,
    "mix": 0,
    "highest": 0,
    "mature": 1,
    "##en": 4,
    "lack": 0,
    "makes": 0,
    "unlikely": 0,
    "drive": 0,
    "When": 0,
    "best": 0,
    "41": 2,
    "207": 3,
    "95": 4,
    "lost": 0,
    "##ins": 28,
    "missing": 0,
    "classical": 0,
    "Point": 0,
    "230": 1,
    "37": 2,
    "240": 1,
    "relatively": 0,
    "accepted": 0,
    "individual": 0,
    "essential": 0,
    "Ph": 1,
    "none": 1,
    "tested": 0,
    "##ero": 0,
    "##ids": 0,
    "very": 0,
    "##ma": 12,
    "diseases": 0,
    "small": 6,
    "proportion": 0,
    "resistance": 3,
    "##har": 0,
    "##kin": 1,
    "Dex": 0,
    "##ame": 34,
    "##tha": 0,
    "##son": 1,
    "sustained": 0,
    "##matic": 0,
    "##ast": 3,
    "##hm": 0,
    "impaired": 0,
    "because": 0,
    "available": 0,
    "##10": 11,
    "viruses": 0,
    "ta": 14,
    "##tations": 0,
    "Several": 0,
    "releases": 0,
    "##ong": 0,
    "explain": 0,
    "absent": 0,
    "##heses": 0,
    "stop": 1,
    "##don": 10,
    "competent": 2,
    "carrying": 0,
    "Large": 0,
    "RNA": 68,
    "particles": 1,
    "synthesized": 3,
    "infections": 0,
    "modified": 2,
    "propagation": 0,
    "releasing": 2,
    "absolutely": 0,
    "length": 18,
    "Direct": 0,
    "##version": 0,
    "prolonged": 0,
    "implications": 0,
    "application": 0,
    "alternative": 0,
    "discussed": 0,
    "HM": 11,
    "sustain": 0,
    "forms": 8,
    "III": 11,
    "encountered": 0,
    "disorders": 1,
    "##tology": 0,
    "objective": 0,
    "investigate": 0,
    "newly": 0,
    "discovered": 0,
    "##nob": 0,
    "obtained": 0,
    "underwent": 0,
    "cop": 0,
    "physical": 0,
    "association": 0,
    "##shi": 0,
    "##fted": 0,
    "Red": 0,
    "##uce": 0,
    "##gno": 0,
    "parameter": 0,
    "breast": 0,
    "prospective": 0,
    "longitudinal": 0,
    "##ema": 0,
    "##ju": 2,
    "##vant": 0,
    "##otherapy": 0,
    "##MF": 0,
    "receiving": 0,
    "continued": 0,
    "##xi": 18,
    "##fen": 0,
    ">": 1,
    "00": 0,
    "##oper": 0,
    "23": 3,
    "experienced": 0,
    "drop": 0,
    "14": 17,
    "61": 3,
    "59": 6,
    "abolished": 0,
    "Sign": 0,
    "##ificant": 0,
    "always": 0,
    "heavy": 41,
    "chain": 167,
    "thus": 0,
    "Core": 0,
    "CB": 16,
    "SL": 1,
    "##mmal": 2,
    "##ian": 2,
    "##mina": 7,
    "##nts": 7,
    "##ously": 0,
    "45": 9,
    "longest": 0,
    "187": 3,
    "lacked": 0,
    "148": 4,
    "They": 0,
    "support": 0,
    "understanding": 0,
    "how": 0,
    "remains": 0,
    "##idated": 0,
    "previous": 0,
    "blocking": 3,
    "terms": 0,
    "examination": 0,
    "reveals": 0,
    "membrane": 47,
    "judged": 0,
    "transform": 0,
    "rode": 0,
    "##blast": 3,
    "protects": 0,
    "##lates": 0,
    "plausible": 0,
    "##ifies": 0,
    "ultimately": 0,
    "controlling": 1,
    "regulating": 5,
    "expressing": 2,
    "turnover": 0,
    "will": 0,
    "aid": 0,
    "determining": 6,
    "published": 0,
    "##rat": 0,
    "1995": 0,
    "Nov": 0,
    "270": 0,
    "44": 8,
    "SV": 8,
    "##40": 37,
    "hormone": 30,
    "55": 5,
    "38": 5,
    "##TT": 1,
    "##TC": 5,
    "translated": 4,
    "##ilo": 12,
    "##dal": 5,
    "##tons": 2,
    "##sso": 0,
    "##ciation": 0,
    "constant": 2,
    "=": 0,
    "swap": 0,
    "transfer": 19,
    "##ime": 14,
    "##ric": 6,
    "AR": 8,
    "flanked": 0,
    "Together": 0,
    "represent": 0,
    "Det": 0,
    "chromosome": 43,
    "16": 23,
    "##H1": 8,
    "##mon": 0,
    "Ka": 0,
    "##pic": 1,
    "detection": 0,
    "difficult": 0,
    "Character": 0,
    "##q": 13,
    "##22": 13,
    "allowed": 0,
    "polymer": 17,
    "11": 31,
    "typical": 0,
    "case": 13,
    "distinctive": 0,
    "fluorescent": 0,
    "sit": 0,
    "29": 12,
    "vast": 0,
    "incidence": 0,
    "##poradic": 0,
    "reports": 0,
    "techniques": 0,
    "screening": 0,
    "performed": 0,
    "regardless": 0,
    "##olo": 1,
    "##gic": 0,
    "features": 0,
    "allow": 0,
    "accurate": 0,
    "evaluation": 0,
    "##fies": 0,
    "##iation": 0,
    "##city": 0,
    "##sm": 3,
    "mitochondrial": 0,
    "##da": 4,
    "Dec": 0,
    "##ath": 0,
    "##ione": 0,
    "##dized": 1,
    "72": 5,
    "longer": 0,
    "reflected": 0,
    "##SS": 0,
    "considerations": 0,
    "optimal": 0,
    "doses": 0,
    "schedules": 0,
    "extensive": 0,
    "28": 0,
    "unnecessary": 0,
    "superior": 0,
    "##dn": 0,
    "##ison": 0,
    "conventional": 0,
    "##qui": 2,
    "##rea": 0,
    "##sing": 0,
    "success": 0,
    "childhood": 0,
    "awareness": 0,
    "##vas": 0,
    "potentially": 0,
    "##bling": 0,
    "sequel": 0,
    "adolescent": 0,
    "young": 0,
    "characterized": 0,
    "##BF": 14,
    "mapped": 0,
    "105": 8,
    "unrelated": 0,
    "##hel": 1,
    "##ial": 1,
    "eliminated": 0,
    "depleted": 0,
    "direct": 0,
    "##ral": 0,
    "##pressive": 0,
    "disorder": 0,
    "MD": 4,
    "Major": 0,
    "##yclic": 2,
    "##tis": 0,
    "open": 2,
    "label": 0,
    "meeting": 0,
    "DS": 1,
    "##line": 13,
    "106": 0,
    "versus": 1,
    "56": 0,
    "49": 2,
    "18": 9,
    "bi": 0,
    "distributed": 0,
    "differing": 0,
    "##nders": 0,
    "accurately": 0,
    "percent": 0,
    "80": 1,
    "05": 8,
    "requirement": 0,
    "##ancy": 0,
    "starting": 0,
    "earliest": 0,
    "Regulation": 0,
    "##ND": 0,
    "##amine": 3,
    "Philadelphia": 0,
    "Cell": 1,
    "exhibiting": 0,
    "originating": 0,
    "##here": 0,
    "disco": 0,
    "##rda": 0,
    "certain": 0,
    "Changes": 0,
    "opposing": 0,
    "Ba": 2,
    "already": 0,
    "##dation": 0,
    "sizes": 0,
    "encompassing": 0,
    "135": 5,
    "No": 0,
    "clearly": 0,
    "##rose": 0,
    "gradient": 0,
    "too": 0,
    "standard": 0,
    "Si": 1,
    "##lta": 0,
    "Terminal": 0,
    "extinction": 0,
    "resemble": 0,
    "##structure": 0,
    "##ord": 0,
    "exclusively": 0,
    "define": 0,
    "173": 1,
    "strongest": 0,
    "Run": 1,
    "implicated": 0,
    "share": 0,
    "evolution": 0,
    "##arily": 0,
    "counterpart": 1,
    "break": 1,
    "##points": 0,
    "21": 9,
    "prominent": 0,
    "newborn": 0,
    "week": 0,
    "old": 0,
    "persisted": 0,
    "nodes": 0,
    "populations": 0,
    "throughout": 0,
    "supporting": 0,
    "notion": 0,
    "liver": 0,
    "Effects": 0,
    "##oids": 0,
    "##ita": 0,
    "latter": 0,
    "local": 4,
    "coupling": 0,
    "Different": 0,
    "rest": 0,
    "##gy": 0,
    "lived": 0,
    "amount": 0,
    "##25": 7,
    "appropriate": 0,
    "resting": 0,
    "##gi": 0,
    "##RC": 1,
    "##ergic": 0,
    "eight": 0,
    "trace": 0,
    "preparation": 0,
    "Be": 0,
    "Drop": 0,
    "Plus": 0,
    "##DP": 0,
    "##eva": 0,
    "##he": 0,
    "##uma": 0,
    "art": 1,
    "##itis": 1,
    "aim": 0,
    "den": 0,
    "##uring": 0,
    "conclusion": 0,
    "culture": 0,
    "intro": 13,
    "##ft": 2,
    "families": 10,
    "light": 13,
    "context": 0,
    "frequently": 0,
    "me": 5,
    "##ga": 2,
    "##kar": 3,
    "##yo": 2,
    "mast": 0,
    "gain": 0,
    "insight": 0,
    "##oa": 1,
    "##lle": 0,
    "Five": 0,
    "##og": 1,
    "year": 0,
    "EP": 1,
    "concentration": 0,
    "delta": 45,
    "##lev": 5,
    "supplemented": 0,
    "switched": 0,
    "promoted": 0,
    "actively": 0,
    "influences": 0,
    "programming": 0,
    "##ure": 1,
    "became": 0,
    "und": 0,
    "##ete": 0,
    "Per": 0,
    "##ip": 2,
    "##her": 0,
    "##enter": 0,
    "##lants": 0,
    "124": 1,
    "117": 1,
    "coincide": 0,
    "preceded": 0,
    "cycling": 0,
    "spectrum": 0,
    "differ": 0,
    "extremely": 0,
    "##MS": 1,
    "##CE": 2,
    "##sistence": 0,
    "Whether": 0,
    "favors": 0,
    "focused": 0,
    "First": 0,
    "secondary": 0,
    "Another": 0,
    "processing": 0,
    "prevailing": 0,
    "##ulates": 0,
    "so": 0,
    "interference": 0,
    "enhancing": 0,
    "introducing": 0,
    "vector": 20,
    "##ira": 0,
    "slightly": 0,
    "limited": 2,
    "##duced": 1,
    "##eas": 0,
    "approach": 0,
    "approved": 0,
    "##menclature": 0,
    "article": 0,
    "Rep": 0,
    "##lace": 0,
    "IS": 2,
    "##15": 6,
    "restored": 0,
    "inserted": 0,
    "En": 0,
    "##han": 1,
    "30": 2,
    "days": 0,
    "efficiently": 0,
    "attain": 0,
    "goal": 0,
    "lasting": 0,
    "permanent": 0,
    "##OX": 10,
    "##pel": 8,
    "libraries": 3,
    "regional": 0,
    "##izations": 0,
    "##ulse": 0,
    "field": 0,
    "##GE": 1,
    "physically": 0,
    "##24": 7,
    "450": 3,
    "eighteen": 0,
    "nine": 0,
    "580": 0,
    "##fluenza": 0,
    "exposed": 0,
    "elderly": 0,
    "persons": 0,
    "##ham": 0,
    "##mm": 0,
    "##uno": 0,
    "##cent": 0,
    "stain": 0,
    "flow": 0,
    "##ometric": 0,
    "Few": 0,
    "stained": 0,
    "failure": 0,
    "DE": 1,
    "##SI": 1,
    "CE": 2,
    "##RA": 7,
    "##rist": 0,
    "weakly": 0,
    "unchanged": 0,
    "administered": 0,
    "##ctions": 0,
    "##sul": 0,
    "##nology": 0,
    "##path": 0,
    "##ology": 0,
    "##nological": 0,
    "ant": 0,
    "##agon": 0,
    "##ior": 0,
    "##ck": 26,
    "##fy": 0,
    "hydrogen": 0,
    "##des": 0,
    "partial": 0,
    "pool": 0,
    "##aque": 0,
    "AIDS": 0,
    "##nal": 0,
    "preliminary": 0,
    "Recent": 0,
    "poor": 0,
    "RC": 1,
    "mostly": 0,
    "switching": 0,
    "humans": 0,
    "Understanding": 0,
    "scientific": 0,
    "relevance": 0,
    "adulthood": 0,
    "sick": 0,
    "patterns": 1,
    "##cap": 0,
    "experimental": 0,
    "##itors": 0,
    "##RI": 12,
    "cord": 0,
    "zero": 0,
    "`": 13,
    "##herence": 0,
    "Within": 0,
    "##cco": 0,
    "##any": 0,
    "##hered": 0,
    "instead": 0,
    "Interest": 0,
    "##ingly": 0,
    "##aper": 0,
    "##HL": 6,
    "##guous": 0,
    "##stituted": 0,
    "partner": 4,
    "##eri": 8,
    "##biotic": 0,
    "surprisingly": 0,
    "correct": 0,
    "folding": 0,
    "conform": 0,
    "interesting": 0,
    "##hesis": 0,
    "steps": 0,
    "comparison": 0,
    "herb": 1,
    "cause": 0,
    "##mb": 12,
    "##rane": 8,
    "transmitted": 0,
    "Reporter": 0,
    "yeast": 1,
    "##ere": 0,
    "##vis": 0,
    "##iae": 0,
    "Transfer": 0,
    "onto": 0,
    "created": 0,
    "thoroughly": 0,
    "exact": 0,
    "##ses": 1,
    "received": 0,
    "attention": 0,
    "presently": 0,
    "91": 2,
    "84": 2,
    "##ef": 6,
    "##ined": 0,
    "indirectly": 0,
    "modify": 0,
    "##quest": 0,
    "##ered": 0,
    "##ky": 5,
    "intrinsic": 0,
    "own": 0,
    "##chan": 0,
    "##istic": 0,
    "##100": 5,
    "##ede": 0,
    "Sur": 0,
    "##rising": 0,
    "assumed": 0,
    "triggered": 0,
    "coincided": 0,
    "incorporation": 0,
    "towards": 0,
    "documented": 0,
    "grown": 0,
    "investigations": 0,
    "operative": 0,
    "promote": 0,
    "Culture": 0,
    "promotion": 0,
    "opera": 0,
    "##ration": 0,
    "undertaken": 0,
    "boundaries": 0,
    "rise": 0,
    "##ati": 3,
    "networks": 4,
    "tags": 1,
    "##ST": 10,
    "##IG": 0,
    "##18": 12,
    "DD": 1,
    "##PC": 0,
    "ventral": 0,
    "correspond": 0,
    "sperm": 1,
    "Mo": 4,
    "##fication": 0,
    "original": 0,
    "protocol": 0,
    "frequency": 0,
    "false": 0,
    "merits": 0,
    "discovery": 0,
    "##gna": 0,
    "##ncies": 0,
    "Tri": 0,
    "##gger": 0,
    "##ture": 0,
    "internal": 0,
    "included": 0,
    "character": 0,
    "##izes": 0,
    "consequences": 0,
    "repertoire": 5,
    "##nity": 0,
    "##hin": 0,
    "Their": 0,
    "systemic": 0,
    "locally": 0,
    "##udes": 0,
    "##tica": 0,
    "Before": 0,
    "regular": 0,
    "intervals": 0,
    "finally": 0,
    "termination": 0,
    "##hall": 0,
    "solution": 0,
    "Ser": 1,
    "##rina": 0,
    "insulin": 0,
    "IT": 0,
    "wash": 0,
    "##out": 0,
    "until": 0,
    "recommended": 0,
    "according": 0,
    "leave": 0,
    "noticeable": 0,
    "side": 2,
    "usually": 0,
    "takes": 0,
    "points": 0,
    "neutral": 3,
    "prevented": 0,
    "##quent": 0,
    "times": 0,
    "Cy": 1,
    "emerges": 0,
    "defines": 0,
    "template": 1,
    "why": 0,
    "nearby": 0,
    "procedure": 0,
    "160": 4,
    "##finger": 0,
    "Dr": 4,
    "defining": 0,
    "subfamily": 1,
    "##AB": 0,
    "tram": 0,
    "##track": 0,
    "acidic": 5,
    "fingers": 6,
    "Anti": 0,
    "##ara": 0,
    "##dant": 0,
    "initiated": 0,
    "Studies": 0,
    "overall": 0,
    "begins": 0,
    "##omy": 1,
    "individually": 0,
    "distinguish": 0,
    "Wu": 0,
    "##rz": 0,
    "##burg": 0,
    "simplest": 0,
    "way": 0,
    "accounting": 0,
    "47": 3,
    "step": 0,
    "##eted": 0,
    "Al": 3,
    "##agi": 0,
    "transport": 2,
    "selection": 0,
    "AG": 0,
    "entity": 0,
    "assigned": 0,
    "arm": 6,
    "##del": 1,
    "##using": 0,
    "##11": 16,
    "##rm": 1,
    "##ose": 1,
    "##itive": 0,
    "##gating": 0,
    "##20": 2,
    "##41": 4,
    "##42": 2,
    "##ami": 4,
    "AD": 4,
    "##rion": 0,
    "PR": 5,
    "##IP": 20,
    "Rest": 0,
    "Length": 0,
    "Pol": 0,
    "##phism": 8,
    "RF": 0,
    "##LP": 1,
    "anonymous": 1,
    "##17": 2,
    "total": 0,
    "cent": 1,
    "##rome": 5,
    "us": 0,
    "exclude": 0,
    "paired": 0,
    "tool": 0,
    "mapping": 0,
    "obtaining": 0,
    "inform": 0,
    "##tract": 10,
    "Such": 0,
    "##age": 0,
    "composite": 8,
    "96": 6,
    "66": 4,
    "##OH": 2,
    "vectors": 15,
    "genuine": 0,
    "Miss": 0,
    "##ense": 0,
    "Clinical": 0,
    "severe": 0,
    "##SC": 0,
    "arise": 0,
    "defects": 0,
    "constituent": 0,
    "opportunity": 0,
    "##gni": 0,
    "carriers": 0,
    "variable": 5,
    "Finding": 0,
    "prompted": 0,
    "##ree": 0,
    "miss": 0,
    "portion": 12,
    "males": 0,
    "brother": 0,
    "humor": 0,
    "immunity": 0,
    "Post": 0,
    "##ida": 0,
    "##iss": 0,
    "##ue": 0,
    "represents": 0,
    "##bri": 2,
    "deposition": 0,
    "virtue": 0,
    "##nea": 0,
    "##cence": 0,
    "##lemma": 0,
    "##48": 4,
    "drives": 0,
    "identification": 0,
    "##rod": 0,
    "##ibly": 0,
    "##fers": 0,
    "fails": 0,
    "fully": 0,
    "must": 0,
    "##mor": 8,
    "##phon": 0,
    "##stro": 0,
    "men": 0,
    "pregnancy": 0,
    "##32": 13,
    "350": 0,
    "reading": 14,
    "frame": 12,
    "directs": 0,
    "##ntal": 1,
    "##ho": 4,
    "Zhang": 0,
    "##ington": 0,
    "Chen": 0,
    "Ten": 0,
    "1994": 0,
    "88": 2,
    "protected": 0,
    "Competition": 0,
    "includes": 0,
    "##mote": 0,
    "concert": 0,
    "PD": 6,
    "blocks": 0,
    "##gram": 0,
    "##ide": 6,
    "##rab": 0,
    "##fu": 0,
    "##rano": 0,
    "500": 0,
    "##gated": 0,
    "##phological": 0,
    "##nu": 0,
    "##cle": 1,
    "100": 2,
    "occurrence": 0,
    "##pical": 0,
    "displayed": 0,
    "doubling": 0,
    "sat": 0,
    "density": 8,
    "plastic": 0,
    "occurring": 0,
    "##fa": 6,
    "##lies": 2,
    "##ases": 18,
    "limiting": 0,
    "##lution": 0,
    "differed": 0,
    "striking": 0,
    "##ted": 6,
    "minus": 1,
    "phenomenon": 0,
    "liberated": 0,
    "pools": 0,
    "##run": 4,
    "##cation": 4,
    "extraction": 0,
    "released": 0,
    "cat": 18,
    "##ating": 0,
    "##vage": 0,
    "special": 0,
    "##ca": 4,
    "##ution": 0,
    "taken": 0,
    "making": 0,
    "restriction": 7,
    "##ges": 7,
    "##var": 0,
    "outcome": 0,
    "predicted": 0,
    "83": 1,
    "Ireland": 0,
    "Germany": 0,
    "Southern": 0,
    "##PR": 4,
    "represented": 0,
    "characterised": 0,
    "respect": 0,
    "representation": 0,
    "Irish": 0,
    "German": 0,
    "02": 11,
    "distribution": 0,
    "distributions": 0,
    "Hardy": 0,
    "Wei": 0,
    "##nberg": 0,
    "subgroup": 0,
    "screen": 0,
    "associates": 0,
    "recognizes": 0,
    "expected": 0,
    "supply": 0,
    "##tine": 0,
    "Because": 0,
    "systems": 1,
    "excess": 0,
    "fashion": 0,
    "variance": 0,
    "peak": 0,
    "lasted": 0,
    "accounted": 0,
    "waves": 0,
    "##iated": 0,
    "wave": 0,
    "burst": 0,
    "totally": 0,
    "Alto": 0,
    "##get": 0,
    "means": 0,
    "separate": 0,
    "produces": 0,
    "August": 0,
    "1992": 0,
    "Meg": 0,
    "nap": 3,
    "##ht": 3,
    "periodic": 0,
    "##hi": 2,
    "##ff": 1,
    "##ori": 1,
    "Ultra": 0,
    "##ructural": 0,
    "##ules": 0,
    "dem": 0,
    "spontaneous": 0,
    "##ond": 0,
    "##ria": 0,
    "dense": 0,
    "bodies": 1,
    "Un": 1,
    "undergo": 0,
    "investigation": 0,
    "seems": 0,
    "paper": 0,
    "stability": 0,
    "inappropriate": 0,
    "variant": 1,
    "##Vs": 0,
    "##j": 0,
    "##14": 12,
    "contribution": 0,
    "five": 0,
    "22": 1,
    "du": 1,
    "##plication": 1,
    "##ds": 25,
    "infectious": 0,
    "stocks": 0,
    "except": 0,
    "##lusion": 0,
    "##ui": 0,
    "assist": 0,
    "##voked": 0,
    "Mac": 0,
    "calf": 0,
    "ordered": 0,
    "vitamin": 5,
    "##ural": 0,
    "al": 7,
    "##olar": 0,
    "blockade": 0,
    "##rien": 0,
    "400": 0,
    "Steel": 0,
    "forming": 2,
    "##rating": 0,
    "colonies": 0,
    "progressively": 0,
    "size": 1,
    "greatest": 0,
    "expansion": 0,
    "dominant": 4,
    "version": 1,
    "##gement": 0,
    "AI": 7,
    "Under": 0,
    "##ind": 0,
    "talk": 0,
    "indirect": 0,
    "next": 0,
    "##zac": 0,
    "Collective": 0,
    "again": 0,
    "##iler": 0,
    "##ia": 2,
    "##lat": 0,
    "##ised": 0,
    "describes": 0,
    "81": 0,
    "metal": 2,
    "##lop": 3,
    "##inas": 2,
    "demonstrating": 0,
    "##logue": 7,
    "protection": 0,
    "considerable": 0,
    "conditional": 0,
    "half": 7,
    "##rative": 0,
    "die": 0,
    "maintenance": 0,
    "##quential": 0,
    "modification": 0,
    "competence": 0,
    "terminating": 0,
    "##long": 0,
    "consequently": 0,
    "chicken": 1,
    "Note": 0,
    "##born": 0,
    "##iro": 0,
    "1991": 0,
    "313": 0,
    "near": 0,
    "perfect": 0,
    "insert": 5,
    "proven": 0,
    "characteristics": 0,
    "across": 0,
    "world": 0,
    "units": 3,
    "##fied": 0,
    "Max": 0,
    "compensate": 0,
    "restore": 0,
    "imply": 0,
    "SM": 1,
    "##ML": 2,
    "productive": 0,
    "##kata": 0,
    "##lice": 7,
    "joining": 1,
    "abundant": 0,
    "Site": 0,
    "controversial": 0,
    "pivotal": 0,
    "Band": 0,
    "##det": 0,
    "##table": 0,
    "Raj": 0,
    "bare": 2,
    "drastically": 0,
    "Previously": 0,
    "228": 1,
    "137": 3,
    "64": 6,
    "93": 1,
    "complexity": 0,
    "##generate": 0,
    "63": 0,
    "originate": 0,
    "##ailed": 0,
    "array": 0,
    "variation": 1,
    "Kennedy": 0,
    "typing": 0,
    "rare": 0,
    "##men": 0,
    "sample": 0,
    "spinal": 0,
    "bulb": 0,
    "muscular": 0,
    "More": 0,
    "largest": 0,
    "68": 1,
    "contraction": 0,
    "One": 0,
    "39": 1,
    "900": 0,
    "##aris": 0,
    "supports": 0,
    "origin": 1,
    "Benz": 0,
    "##ene": 0,
    "toxicity": 0,
    "thought": 0,
    "##ites": 0,
    "ben": 0,
    "##zen": 0,
    "##quin": 0,
    "##AD": 3,
    "##uin": 1,
    "Q": 3,
    "protect": 0,
    "##bate": 0,
    "##rb": 4,
    "sodium": 0,
    "##pan": 0,
    "blue": 0,
    "exclusion": 0,
    "protective": 0,
    "##ite": 1,
    "fifty": 0,
    "synthetic": 0,
    "##ben": 0,
    "##zoic": 0,
    "frames": 3,
    "extension": 0,
    "disc": 0,
    "stomach": 0,
    "JR": 0,
    "57": 3,
    "##jo": 0,
    "##gren": 0,
    "##pecific": 0,
    "##anti": 13,
    "La": 3,
    "##by": 0,
    "Se": 1,
    "exists": 0,
    "evident": 0,
    "##licing": 2,
    "suggestion": 0,
    "dependence": 0,
    "##mot": 0,
    "Ty": 1,
    "##ros": 0,
    "shortly": 0,
    "Little": 0,
    "tons": 0,
    "##illa": 0,
    "##ny": 4,
    "##lal": 0,
    "##LC": 0,
    "if": 0,
    "##athy": 0,
    "OH": 32,
    "2D": 32,
    "glands": 0,
    "##rem": 0,
    "animals": 0,
    "carried": 0,
    "surgical": 0,
    "removed": 0,
    "##take": 0,
    "labelled": 1,
    "transplant": 1,
    "subjected": 0,
    "came": 0,
    "females": 0,
    "tiny": 0,
    "ring": 3,
    "Mental": 0,
    "constellation": 0,
    "##ital": 0,
    "##orm": 12,
    "##ations": 1,
    "Turner": 0,
    "mosaic": 0,
    "##of": 45,
    "##orms": 33,
    "marking": 0,
    "tow": 0,
    "XI": 8,
    "Ana": 0,
    "##IM": 4,
    "##DA": 1,
    "##KA": 2,
    "##cribe": 0,
    "ago": 1,
    "##nist": 1,
    "conjunction": 0,
    "perform": 0,
    "lent": 0,
    "##iv": 0,
    "##uses": 0,
    "##ire": 0,
    "monkeys": 0,
    "reconcile": 0,
    "died": 0,
    "survived": 0,
    "rendered": 0,
    "strains": 0,
    "passage": 0,
    "Not": 2,
    "intricate": 0,
    "arrangement": 0,
    "skeletal": 0,
    "muscle": 2,
    "Complex": 0,
    "substituted": 1,
    "conclude": 0,
    "Me": 0,
    "##and": 1,
    "##ational": 0,
    "And": 0,
    "dig": 0,
    "Part": 0,
    "resisting": 1,
    "##ilis": 0,
    "extended": 0,
    "hi": 0,
    "##nge": 0,
    "antagonist": 5,
    "##fference": 0,
    "##uro": 0,
    "neural": 0,
    "SK": 0,
    "##over": 0,
    "##zy": 3,
    "proved": 0,
    "##ber": 0,
    "##rant": 0,
    "ET": 19,
    "smaller": 0,
    "SA": 3,
    "##val": 0,
    "enables": 0,
    "decline": 0,
    "Gene": 0,
    "##actor": 0,
    "neurons": 0,
    "participates": 0,
    "##uron": 1,
    "virtual": 0,
    "identity": 0,
    "identifying": 0,
    "corresponding": 0,
[...]
