{
  "B": {
    "I": 308,
    "##mm": 1,
    "##uno": 2,
    "##his": 4,
    "##to": 63,
    "##chemical": 0,
    "stain": 0,
    "##ing": 4,
    "was": 0,
    "positive": 0,
    "for": 0,
    "S": 292,
    "-": 2,
    "100": 0,
    "in": 33,
    "all": 3,
    "9": 2,
    "cases": 0,
    "stained": 0,
    ",": 0,
    "HM": 32,
    "##B": 406,
    "45": 0,
    "(": 11,
    "90": 1,
    "%": 0,
    ")": 0,
    "of": 0,
    "10": 4,
    "and": 2,
    "negative": 1,
    "c": 453,
    "##yt": 39,
    "##oker": 1,
    "##ati": 11,
    "##n": 216,
    "which": 0,
    "my": 45,
    "##x": 101,
    "##oid": 12,
    "me": 7,
    "##lan": 2,
    "##oma": 26,
    "remained": 0,
    "the": 0,
    "block": 0,
    "after": 0,
    "previous": 0,
    "sections": 0,
    ".": 0,
    "Ch": 10,
    "##lora": 26,
    "##mp": 31,
    "##hen": 27,
    "##ico": 31,
    "##l": 247,
    "ace": 8,
    "##ty": 8,
    "##lt": 7,
    "##ran": 9,
    "##s": 240,
    "##fer": 43,
    "##ase": 158,
    "ass": 0,
    "##ays": 0,
    "examining": 0,
    "ability": 0,
    "##E": 234,
    "##86": 7,
    "to": 1,
    "re": 94,
    "##press": 3,
    "activity": 0,
    "from": 0,
    "HC": 10,
    "##M": 66,
    "##V": 67,
    "major": 5,
    "promoter": 1,
    "or": 6,
    "activate": 0,
    "early": 6,
    "2": 3,
    "k": 3,
    "##b": 205,
    "class": 12,
    "RNA": 68,
    "demonstrated": 0,
    "functional": 2,
    "integrity": 0,
    "protein": 80,
    "A": 94,
    "new": 0,
    "DNA": 38,
    "repair": 0,
    "gene": 23,
    "Sc": 10,
    "##hi": 11,
    "##zo": 12,
    "##sa": 6,
    "##cc": 28,
    "##har": 19,
    "##omy": 19,
    "##ces": 19,
    "p": 620,
    "##omb": 1,
    "##e": 97,
    "with": 0,
    "ho": 9,
    "##mology": 0,
    "Re": 33,
    "##c": 503,
    "##A": 401,
    "identified": 0,
    "characterized": 0,
    "Our": 0,
    "study": 0,
    "also": 0,
    "significant": 0,
    "increases": 0,
    "number": 0,
    "larger": 0,
    "##elin": 5,
    "##ated": 1,
    "fibers": 0,
    "crossing": 0,
    "site": 0,
    "comparison": 0,
    "neon": 0,
    "##ata": 0,
    "adult": 0,
    "groups": 0,
    "<": 0,
    "0": 0,
    "04": 0,
    "C": 409,
    "##lon": 7,
    "se": 31,
    "##quencing": 0,
    "upstream": 5,
    "region": 0,
    "##ep": 7,
    "##X": 74,
    "revealed": 0,
    "presence": 0,
    "two": 2,
    "OR": 13,
    "##F": 755,
    "360": 0,
    "1": 5,
    "33": 1,
    "##8": 91,
    "b": 69,
    "##p": 464,
    "that": 0,
    "were": 0,
    "shown": 0,
    "be": 0,
    "able": 0,
    "en": 9,
    "##code": 0,
    "proteins": 0,
    "high": 11,
    "G": 320,
    "##ln": 6,
    "##R": 446,
    "respectively": 0,
    "Both": 0,
    "mutant": 23,
    "receptors": 0,
    "expressed": 0,
    "on": 6,
    "cell": 1,
    "surface": 2,
    "bound": 0,
    "insulin": 83,
    "normally": 0,
    "but": 2,
    "showed": 0,
    "marked": 0,
    "##ly": 24,
    "impaired": 0,
    "auto": 0,
    "##ph": 37,
    "##os": 75,
    "##ory": 3,
    "##lation": 5,
    "response": 0,
    "Furthermore": 0,
    "analysis": 0,
    "E": 419,
    "##2": 734,
    "present": 0,
    "various": 0,
    "lines": 0,
    "harbor": 0,
    "specific": 0,
    "BP": 3,
    "including": 0,
    "255": 0,
    "accept": 0,
    "##or": 22,
    "proves": 0,
    "alternate": 0,
    "modes": 0,
    "expression": 0,
    "exist": 0,
    "Molecular": 0,
    "modelling": 0,
    "suggested": 0,
    "te": 7,
    "##tra": 4,
    "##mer": 14,
    "##ization": 0,
    "domain": 0,
    "a": 77,
    "four": 0,
    "he": 44,
    "##lix": 4,
    "bundle": 0,
    "stab": 0,
    "##ilized": 0,
    "by": 1,
    "interactions": 0,
    "seven": 1,
    "conserved": 0,
    "##romatic": 0,
    "amino": 5,
    "acids": 0,
    "He": 14,
    "##mat": 11,
    "##ology": 0,
    "problem": 0,
    "month": 0,
    ":": 0,
    "band": 0,
    "##g": 260,
    "?": 0,
    "P": 403,
    "##KA": 16,
    "##hos": 43,
    "##lated": 1,
    "W": 29,
    "##T": 189,
    "##1": 1196,
    "at": 18,
    "Ser": 13,
    "365": 0,
    "39": 1,
    "##3": 370,
    "v": 76,
    "##it": 10,
    "##ro": 12,
    "as": 12,
    "well": 0,
    "additional": 0,
    "sites": 0,
    "this": 0,
    "abolished": 0,
    "binding": 0,
    "R": 244,
    "##OC": 4,
    "##K": 624,
    "Ki": 5,
    "##nect": 11,
    "##in": 308,
    "m": 138,
    "##D": 171,
    "##ia": 9,
    "can": 0,
    "bind": 0,
    "wild": 37,
    "type": 23,
    "forms": 0,
    "both": 0,
    "##ho": 43,
    "##d": 187,
    "##42": 31,
    "GT": 23,
    "##P": 554,
    "dependent": 0,
    "manner": 0,
    "These": 0,
    "results": 0,
    "support": 0,
    "hypothesis": 0,
    "try": 10,
    "##pt": 37,
    "##op": 37,
    "##han": 3,
    "rib": 12,
    "##oso": 50,
    "##me": 6,
    "translating": 0,
    "t": 99,
    "##na": 14,
    "##C": 228,
    "blocks": 0,
    "'": 2,
    "s": 96,
    "access": 0,
    "box": 1,
    "r": 126,
    "##ut": 6,
    "thereby": 0,
    "preventing": 0,
    "transcription": 17,
    "termination": 0,
    "Su": 1,
    "##pp": 5,
    "##ress": 8,
    "##ors": 0,
    "defect": 0,
    "##ive": 1,
    "si": 26,
    "##len": 2,
    "##cing": 0,
    "yeast": 33,
    "effects": 0,
    "##al": 103,
    "repression": 0,
    "lo": 1,
    "##cus": 3,
    "growth": 10,
    "##lo": 82,
    "##mere": 1,
    "structure": 0,
    "The": 2,
    "##J": 13,
    "vectors": 0,
    "differ": 0,
    "among": 0,
    "them": 0,
    "select": 0,
    "##able": 0,
    "marker": 0,
    "Sa": 20,
    "##ere": 1,
    "##vis": 0,
    "##iae": 0,
    "L": 170,
    "##U": 47,
    "complement": 6,
    "le": 20,
    "##u": 53,
    "u": 39,
    "##ra": 26,
    "##4": 286,
    "+": 0,
    "his": 21,
    "genes": 2,
    ";": 0,
    "th": 32,
    "##iam": 1,
    "##ine": 95,
    "##ible": 0,
    "nm": 10,
    "##t": 122,
    "3": 16,
    "41": 2,
    "81": 0,
    "extremely": 0,
    "moderate": 0,
    "low": 7,
    "efficiency": 0,
    "multiple": 0,
    "12": 6,
    "restriction": 0,
    "each": 0,
    "most": 0,
    "is": 3,
    "activated": 2,
    "Rap": 2,
    "250": 0,
    "400": 0,
    "initiation": 1,
    "Card": 2,
    "##iac": 3,
    "markers": 0,
    "##rop": 16,
    "##oni": 7,
    "T": 494,
    "MB": 15,
    "mass": 0,
    "##og": 45,
    "##bin": 81,
    "helpful": 0,
    "differential": 0,
    "diagnosis": 0,
    "chest": 0,
    "pain": 0,
    "even": 0,
    "when": 0,
    "EC": 10,
    "##G": 387,
    "un": 5,
    "##rem": 0,
    "##ark": 0,
    "non": 8,
    "##sp": 25,
    "##ec": 5,
    "##ific": 0,
    "Finally": 0,
    "sit": 0,
    "hybrid": 0,
    "studies": 0,
    "very": 0,
    "pattern": 0,
    "restricted": 0,
    "##ost": 8,
    "##ral": 1,
    "mid": 0,
    "##bra": 4,
    "##ct": 36,
    "##um": 23,
    "during": 0,
    "em": 1,
    "##ryo": 11,
    "##nic": 4,
    "development": 0,
    "None": 0,
    "clinical": 0,
    "duties": 0,
    "given": 0,
    "var": 2,
    "##ice": 1,
    "##lla": 20,
    "z": 16,
    "##er": 37,
    "immune": 3,
    "g": 137,
    "##bul": 26,
    "developed": 0,
    "disease": 0,
    "Po": 0,
    "##si": 28,
    "##tional": 0,
    "has": 0,
    "already": 0,
    "produced": 0,
    "sequences": 1,
    "more": 0,
    "than": 0,
    "70": 2,
    "human": 246,
    "associated": 0,
    "diseases": 0,
    "In": 15,
    "paper": 0,
    "we": 1,
    "demonstrate": 0,
    "GA": 72,
    "et": 16,
    "sequence": 0,
    "motifs": 0,
    "within": 0,
    "repeated": 0,
    "unit": 0,
    "required": 0,
    "activation": 0,
    "CO": 33,
    "##I": 175,
    "activities": 0,
    "are": 3,
    "stimulation": 0,
    "middle": 1,
    "members": 0,
    "MA": 90,
    "kinase": 1,
    "family": 2,
    "HP": 15,
    "##LC": 16,
    "##ope": 1,
    "##ide": 5,
    "mapping": 0,
    "acid": 3,
    "directed": 0,
    "##uta": 2,
    "##genesis": 0,
    "determined": 0,
    "NC": 8,
    "##L": 228,
    "##lates": 0,
    "67": 0,
    "ch": 53,
    "##ao": 0,
    "##tro": 22,
    "##pic": 0,
    "de": 1,
    "##ter": 3,
    "##gent": 0,
    "Non": 0,
    "40": 4,
    "interaction": 0,
    "further": 0,
    "supporting": 0,
    "h": 134,
    "##ydro": 2,
    "##phobic": 0,
    "nature": 0,
    "Gen": 0,
    "##omi": 0,
    "##NA": 35,
    "clone": 1,
    "##mo": 17,
    "##log": 4,
    "##ous": 21,
    "##N": 231,
    "e": 90,
    "##IF": 54,
    "##pha": 96,
    "y": 6,
    "##GC": 6,
    "isolated": 0,
    "Dr": 27,
    "##phi": 35,
    "##la": 48,
    "##oga": 0,
    "##ster": 4,
    "Over": 0,
    "##ex": 5,
    "##ion": 3,
    "##OR": 14,
    "##gam": 12,
    "##ma": 23,
    "been": 0,
    "##hibit": 1,
    "receptor": 12,
    "mediated": 0,
    "##pop": 7,
    "##tosis": 0,
    "induction": 0,
    "F": 193,
    "##as": 45,
    "l": 53,
    "##igan": 0,
    "inter": 67,
    "##le": 55,
    "##uki": 38,
    "final": 0,
    "##gma": 17,
    "##5": 189,
    "D": 134,
    "act": 47,
    "##iva": 8,
    "##tor": 11,
    "regulate": 0,
    "d": 39,
    "op": 8,
    "##eron": 0,
    "##codes": 0,
    "enzymes": 0,
    "cat": 17,
    "##ab": 11,
    "##olis": 0,
    "##m": 69,
    "met": 6,
    "##hyl": 3,
    "##ols": 0,
    "When": 0,
    "##ther": 0,
    "##ed": 9,
    "##tero": 32,
    "PS": 32,
    "its": 0,
    "own": 0,
    "so": 12,
    "##rp": 29,
    "##tion": 0,
    "mechanisms": 0,
    "changed": 0,
    "ads": 0,
    "##ption": 0,
    "partition": 0,
    "process": 0,
    "##pet": 0,
    "##iti": 3,
    "Ty": 13,
    "##ros": 3,
    "112": 0,
    "late": 5,
    "##nt": 58,
    "membrane": 1,
    "essential": 0,
    "##yr": 42,
    "loading": 0,
    "regulation": 1,
    "##ps": 30,
    "##tein": 20,
    "Barr": 0,
    "virus": 1,
    "##ncy": 1,
    "Pro": 11,
    "##gno": 0,
    "##sis": 7,
    "##ym": 1,
    "##tic": 28,
    "##elo": 3,
    "contrast": 0,
    "behavioral": 0,
    "##viation": 0,
    "avoid": 0,
    "##ance": 0,
    "conditioning": 0,
    "lost": 0,
    "ha": 7,
    "##lop": 6,
    "##eri": 5,
    "##do": 6,
    "##tras": 0,
    "##tri": 24,
    "micro": 5,
    "##jection": 0,
    "did": 0,
    "not": 2,
    "affect": 0,
    "##yna": 4,
    "##ptic": 1,
    "level": 0,
    "neo": 4,
    "##st": 9,
    "##ria": 0,
    "##tum": 0,
    "From": 0,
    "cells": 0,
    "mg": 0,
    "PD": 41,
    "##H": 293,
    "complex": 0,
    "6": 4,
    "U": 102,
    "/": 0,
    "Del": 0,
    "##eti": 6,
    "##on": 47,
    "pro": 52,
    "##ximal": 0,
    "o": 22,
    "##anu": 0,
    "##cle": 2,
    "##ot": 9,
    "motif": 0,
    "##las": 32,
    "##mi": 9,
    "containing": 0,
    "46": 0,
    "fragment": 0,
    "LP": 8,
    "resulted": 0,
    "79": 0,
    "76": 0,
    "decrease": 0,
    "trans": 10,
    "##fected": 0,
    "ad": 24,
    "##ip": 15,
    "##ocytes": 0,
    "##pa": 36,
    "##cy": 23,
    "##tes": 0,
    "fragments": 0,
    "am": 13,
    "##plified": 0,
    "polymer": 3,
    "chain": 0,
    "reaction": 0,
    "analyzed": 0,
    "gel": 1,
    "electro": 0,
    "##ores": 0,
    "##is": 13,
    "detect": 0,
    "single": 3,
    "strand": 0,
    "conform": 0,
    "##ation": 2,
    "##oly": 17,
    "##mor": 4,
    "##phism": 0,
    "third": 0,
    "prominent": 0,
    "component": 0,
    "apparent": 0,
    "molecular": 0,
    "16": 2,
    "##a": 148,
    "displayed": 0,
    "several": 0,
    "properties": 0,
    "characteristic": 0,
    "regulatory": 0,
    "B": 88,
    "subunit": 2,
    "ma": 38,
    "##mmal": 32,
    "##ian": 32,
    "ca": 20,
    "##cine": 3,
    "##uri": 26,
    "recognized": 0,
    "an": 15,
    "anti": 81,
    "##ser": 0,
    "raised": 0,
    "against": 0,
    "##ov": 22,
    "Eli": 0,
    "##mination": 0,
    "ET": 21,
    "##H1": 12,
    "strains": 0,
    "increased": 0,
    "spontaneous": 0,
    "mutation": 0,
    "rates": 0,
    "31": 0,
    "fold": 0,
    "compared": 0,
    "##version": 0,
    "##eni": 4,
    "##ne": 40,
    "##ys": 25,
    "##phy": 1,
    "With": 0,
    "help": 0,
    "no": 3,
    "##gram": 0,
    "one": 0,
    "read": 0,
    "off": 0,
    "##fra": 0,
    "##ction": 0,
    "axis": 0,
    "length": 0,
    "corn": 1,
    "##eal": 0,
    "cu": 2,
    "##rva": 1,
    "##ture": 0,
    "known": 0,
    "direct": 0,
    "role": 0,
    "element": 1,
    "##xy": 12,
    "##lut": 39,
    "##ary": 7,
    "co": 42,
    "##en": 6,
    "##zy": 1,
    "red": 2,
    "##uc": 46,
    "##tase": 10,
    "We": 1,
    "have": 0,
    "three": 0,
    "complexes": 0,
    "##ali": 0,
    "##nd": 8,
    "##rome": 21,
    "repeat": 0,
    "corresponds": 0,
    "##GA": 5,
    "##cribed": 0,
    "Mo": 6,
    "##di": 3,
    "##fication": 0,
    "do": 9,
    "##mine": 12,
    "per": 13,
    "##gol": 0,
    "Parkinson": 0,
    "##ivo": 0,
    "##ET": 9,
    "##51": 7,
    "Cy": 20,
    "##18": 15,
    "side": 0,
    "oriented": 0,
    "similar": 0,
    "direction": 0,
    "##r": 110,
    "Ex": 1,
    "##pen": 0,
    "##se": 67,
    "limits": 0,
    "use": 0,
    "##titis": 9,
    "vaccine": 0,
    "dose": 0,
    "##der": 0,
    "##mal": 39,
    "im": 23,
    "##mu": 28,
    "##ni": 7,
    "##zation": 0,
    "evaluated": 0,
    "cost": 0,
    "saving": 0,
    "strategy": 0,
    "numerous": 0,
    "Blood": 1,
    "flow": 0,
    "velocity": 0,
    "wave": 0,
    "##form": 3,
    "recorded": 0,
    "pulsed": 0,
    "Do": 6,
    "##ler": 0,
    "examination": 0,
    "f": 52,
    "##etal": 1,
    "internal": 0,
    "car": 17,
    "##id": 32,
    "cerebral": 0,
    "art": 0,
    "##eries": 0,
    "using": 0,
    "established": 0,
    "##dom": 0,
    "##inal": 2,
    "route": 0,
    "##va": 3,
    "##gin": 2,
    "approach": 0,
    "##pan": 2,
    "##sin": 16,
    "##aly": 0,
    "long": 3,
    "term": 5,
    "extension": 0,
    "plant": 1,
    "walls": 0,
    "due": 0,
    "yet": 0,
    "unknown": 0,
    "bio": 1,
    "mechanism": 0,
    "##IM": 27,
    "organized": 0,
    "unusual": 0,
    "contains": 0,
    "addition": 0,
    "encoding": 0,
    "stress": 9,
    "sensitive": 0,
    "soap": 0,
    "water": 0,
    "solution": 0,
    "effectively": 0,
    "##con": 2,
    "##tam": 0,
    "##inated": 0,
    "powder": 0,
    "##eum": 0,
    "Sr": 38,
    "##10": 38,
    "physiological": 0,
    "regulator": 1,
    "stability": 0,
    "because": 0,
    "turnover": 0,
    "diminished": 0,
    "##rb": 46,
    "On": 2,
    "##going": 0,
    "future": 0,
    "investigations": 0,
    "may": 0,
    "better": 0,
    "define": 0,
    "optimal": 0,
    "local": 0,
    "control": 0,
    "duration": 0,
    "maintenance": 0,
    "##em": 4,
    "##otherapy": 0,
    "possible": 0,
    "##ic": 29,
    "##od": 24,
    "##ifier": 0,
    "factors": 0,
    "improving": 0,
    "outcome": 0,
    "patients": 0,
    "Sul": 2,
    "##ur": 5,
    "N": 295,
    "higher": 1,
    "##olate": 0,
    "flour": 0,
    "structural": 0,
    "features": 0,
    "used": 0,
    "create": 0,
    "abbreviation": 0,
    "##Z": 77,
    "As": 4,
    "##par": 13,
    "##agi": 1,
    "rich": 0,
    "Z": 48,
    "Fin": 4,
    "##ger": 0,
    "##sta": 2,
    "##land": 1,
    "analogue": 0,
    "pregnancy": 1,
    "##orio": 0,
    "go": 10,
    "##nado": 11,
    "##pin": 13,
    "near": 0,
    "end": 24,
    "ensuing": 0,
    "##oll": 2,
    "##icular": 0,
    "phase": 0,
    "controlling": 0,
    "reproductive": 0,
    "cycle": 0,
    "timing": 0,
    "##oc": 30,
    "##yte": 6,
    "collection": 0,
    "##ync": 0,
    "##hr": 20,
    "##zing": 3,
    "cycles": 0,
    "donors": 0,
    "recipients": 0,
    "High": 1,
    "levels": 0,
    "serum": 69,
    "##ci": 16,
    "##ton": 8,
    "found": 0,
    "chronic": 0,
    "##nal": 2,
    "failure": 0,
    "By": 1,
    "space": 0,
    "discrete": 0,
    "continuous": 0,
    "meta": 4,
    "##ulation": 1,
    "dynamic": 0,
    "models": 0,
    "computer": 0,
    "simulation": 0,
    "show": 0,
    "there": 0,
    "principally": 0,
    "different": 0,
    "regime": 0,
    "dynamics": 0,
    "##life": 2,
    "##rative": 0,
    "##cu": 7,
    "##athy": 0,
    "cut": 4,
    "##aneous": 0,
    "hem": 31,
    "##hage": 8,
    "##ates": 0,
    "infected": 2,
    "respiratory": 0,
    "syndrome": 0,
    "No": 3,
    "patient": 0,
    "bra": 0,
    "##dy": 21,
    "##ar": 1,
    "##hy": 18,
    "##th": 29,
    "##mia": 3,
    "related": 1,
    "SC": 18,
    "had": 0,
    "manifest": 0,
    "##rio": 0,
    "##vent": 0,
    "##ric": 7,
    "##ular": 1,
    "branch": 0,
    "While": 0,
    "differences": 0,
    "tens": 0,
    "##ile": 0,
    "responses": 0,
    "characteristics": 0,
    "noted": 0,
    "i": 7,
    "##rra": 0,
    "##dia": 2,
    "##ted": 2,
    "##ir": 13,
    "##rad": 2,
    "##iated": 0,
    "##raft": 0,
    "##rip": 0,
    "bath": 0,
    "environment": 0,
    "tissues": 0,
    "greater": 0,
    "strength": 0,
    "##ulus": 1,
    "proposed": 0,
    "effect": 0,
    "states": 0,
    "mon": 12,
    "##o": 59,
    "##he": 17,
    "##ht": 4,
    "##hala": 0,
    "##te": 45,
    "ME": 43,
    "##HP": 1,
    "primary": 0,
    "##lysis": 1,
    "product": 0,
    "DE": 15,
    "mimic": 0,
    "##ducing": 0,
    "##ins": 9,
    "11": 2,
    "##bet": 37,
    "##rom": 56,
    "##box": 15,
    "##ane": 4,
    "lungs": 0,
    "increasing": 0,
    "risk": 0,
    "inflammation": 0,
    "air": 0,
    "##ways": 0,
    "Process": 0,
    "##S": 210,
    "5": 27,
    "##rote": 23,
    "occurred": 0,
    "rapidly": 0,
    "Application": 0,
    "method": 0,
    "representative": 0,
    "set": 0,
    "50": 0,
    "Arab": 2,
    "##ido": 5,
    "##psis": 2,
    "##alia": 0,
    "improvement": 0,
    "prediction": 0,
    "accuracy": 0,
    "##lice": 0,
    "alignment": 0,
    "methods": 0,
    "Vocal": 0,
    "cord": 0,
    "##duction": 0,
    "rehabilitation": 0,
    "nervous": 0,
    "selective": 0,
    "##ast": 8,
    "##omo": 0,
    "##let": 11,
    "##smo": 1,
    "##graphic": 0,
    "technique": 0,
    "indirect": 0,
    "blood": 2,
    "pressure": 0,
    "recordings": 0,
    "Bone": 0,
    "##rrow": 0,
    "abnormal": 0,
    "##ities": 0,
    "Ho": 18,
    "##kin": 2,
    "reviewed": 0,
    "current": 0,
    "understanding": 0,
    "path": 1,
    "##ological": 0,
    "leading": 0,
    "##lastic": 2,
    "##emia": 0,
    "discussed": 0,
    "Det": 0,
    "##ymph": 5,
    "antibodies": 0,
    "##no": 52,
    "##per": 6,
    "##ox": 28,
    "##idas": 20,
    "tech": 0,
    "mean": 0,
    "values": 0,
    "concentrations": 0,
    "components": 0,
    "tobacco": 4,
    "smoke": 0,
    "=": 0,
    "pp": 16,
    "NO": 7,
    "32": 1,
    "24": 2,
    "ni": 20,
    "##cot": 3,
    "part": 0,
    "##iculate": 0,
    "matter": 0,
    "133": 0,
    "##fect": 0,
    "##ei": 0,
    "##sser": 0,
    "men": 0,
    "##dis": 0,
    "group": 1,
    "difficult": 0,
    "partly": 0,
    "bacterial": 10,
    "##hari": 0,
    "##de": 7,
    "weak": 0,
    "##gen": 51,
    "Las": 0,
    "##bla": 0,
    "employed": 0,
    "therapeutic": 0,
    "measure": 0,
    "pulmonary": 0,
    "drug": 0,
    "sensitivity": 0,
    "van": 0,
    "##com": 0,
    "##y": 104,
    "##cin": 19,
    "VC": 5,
    "30": 3,
    "##ena": 0,
    "##MP": 24,
    "min": 0,
    "MI": 5,
    "##O": 96,
    "##ika": 0,
    "AM": 14,
    "7": 0,
    "##fo": 3,
    "##my": 5,
    "##OM": 2,
    "##ody": 0,
    "##nam": 1,
    "##ics": 0,
    "abortion": 0,
    "induced": 0,
    "48": 3,
    "##6": 176,
    "rats": 0,
    "##ven": 0,
    "glucose": 0,
    "tolerance": 0,
    "tests": 0,
    "performed": 0,
    "before": 0,
    "operation": 0,
    "starting": 0,
    "weeks": 0,
    "Ph": 14,
    "##arma": 0,
    "##co": 36,
    "aspects": 0,
    "##yper": 3,
    "##bil": 0,
    "##ubi": 2,
    "consists": 0,
    "Ku": 6,
    "large": 3,
    "##alytic": 1,
    "##cs": 3,
    "##lia": 0,
    "laboratory": 0,
    "mice": 0,
    "NRL": 1,
    "any": 0,
    "families": 0,
    "Ten": 0,
    "out": 0,
    "pu": 5,
    "##ulos": 2,
    "palm": 0,
    "##aris": 0,
    "examined": 0,
    "##f": 138,
    "##lu": 25,
    "##cence": 0,
    "IF": 39,
    "deposition": 0,
    "fi": 47,
    "##bri": 37,
    "degradation": 0,
    "products": 0,
    "affected": 0,
    "##af": 6,
    "skin": 1,
    "together": 0,
    "pre": 5,
    "##pit": 4,
    "fraction": 0,
    "cry": 2,
    "total": 1,
    "plasma": 23,
    "individual": 0,
    "subfamily": 0,
    "K": 53,
    "##RA": 28,
    "zinc": 12,
    "finger": 0,
    "##ato": 5,
    "##po": 49,
    "##iet": 4,
    "lineage": 0,
    "recently": 0,
    "reported": 0,
    "place": 0,
    "##nta": 0,
    "enhance": 2,
    "##uke": 1,
    "inhibitor": 3,
    "factor": 23,
    "now": 0,
    "detailed": 0,
    "characterization": 0,
    "226": 0,
    "base": 0,
    "pair": 0,
    "##25": 13,
    "440": 0,
    "##0": 109,
    "n": 30,
    "##leo": 8,
    "##tide": 1,
    "Despite": 0,
    "compliance": 0,
    "une": 0,
    "##plain": 0,
    "##su": 2,
    "##rgen": 0,
    "##ce": 2,
    "##rit": 7,
    "4": 8,
    "veteran": 0,
    "years": 0,
    "Initial": 0,
    "screening": 0,
    "rat": 57,
    "liver": 1,
    "library": 0,
    "##li": 5,
    "##gon": 7,
    "probe": 0,
    "derived": 0,
    "82": 0,
    "coding": 0,
    "complete": 3,
    "##AS": 5,
    "AA": 4,
    "least": 0,
    "distinct": 0,
    "##tors": 0,
    "identical": 0,
    "core": 9,
    "H": 314,
    "##AP": 42,
    "second": 0,
    "AB": 15,
    "consensus": 3,
    "Cause": 0,
    "death": 1,
    "##pid": 20,
    "##iol": 2,
    "##ogical": 0,
    "native": 3,
    "chickens": 0,
    "Thai": 0,
    "villages": 0,
    "Si": 4,
    "##lta": 0,
    "##ously": 0,
    "change": 0,
    "##pine": 2,
    "##rine": 17,
    "##eno": 22,
    "##mic": 9,
    "##zac": 1,
    "##tat": 6,
    "O": 48,
    "rice": 1,
    "la": 46,
    "##mb": 6,
    "##da": 8,
    "##MB": 12,
    "constructed": 0,
    "partial": 0,
    "dig": 4,
    "##ests": 0,
    "##iate": 2,
    "antagonist": 0,
    "na": 10,
    "##xon": 1,
    "##sel": 0,
    "##che": 0,
    "Neither": 0,
    "nor": 0,
    "findings": 0,
    "observed": 0,
    "hour": 0,
    "##tre": 3,
    "##at": 28,
    "##ment": 1,
    "lip": 12,
    "MLA": 0,
    "35": 3,
    "kg": 0,
    "##ard": 2,
    "##ial": 3,
    "stunning": 0,
    "repetitive": 0,
    "##rona": 0,
    "##ry": 7,
    "##lusion": 0,
    "studied": 0,
    "bar": 2,
    "##bit": 0,
    "##est": 1,
    "##tized": 0,
    "dogs": 0,
    "Trans": 3,
    "##ient": 0,
    "##ns": 12,
    "ta": 18,
    "sense": 0,
    "orientation": 0,
    "FC": 2,
    "71": 0,
    "42": 1,
    "front": 0,
    "CA": 92,
    "significantly": 0,
    "enhanced": 0,
    "Ju": 0,
    "##rka": 0,
    "15": 3,
    "calf": 1,
    "##hem": 11,
    "##ag": 19,
    "##ini": 19,
    "plus": 0,
    "##ol": 18,
    "##hor": 1,
    "##bol": 0,
    "##rist": 0,
    "##ate": 7,
    "##tate": 10,
    "PM": 8,
    "##9": 57,
    "##37": 5,
    "Therefore": 0,
    "it": 0,
    "hoped": 0,
    "defining": 0,
    "##7": 118,
    "insights": 0,
    "into": 0,
    "fate": 0,
    "organization": 0,
    "system": 0,
    "gained": 0,
    "suggest": 0,
    "diet": 0,
    "sa": 3,
    "##ff": 1,
    "##low": 0,
    "##oli": 12,
    "valuable": 0,
    "ingredient": 0,
    "layers": 0,
    "reducing": 0,
    "##rig": 0,
    "##cer": 5,
    "##ides": 1,
    "##ole": 3,
    "without": 0,
    "adverse": 0,
    "However": 0,
    "residue": 0,
    "##rg": 14,
    "position": 0,
    "alter": 0,
    "##lea": 5,
    "##vage": 0,
    "dip": 3,
    "##eptide": 4,
    "##Y": 42,
    "Q": 7,
    "##eric": 0,
    "##us": 17,
    "61": 1,
    "technical": 0,
    "BS": 6,
    "concentrate": 0,
    "reduction": 0,
    "It": 0,
    "concluded": 0,
    "Scotch": 0,
    "##bon": 1,
    "##rism": 0,
    "Universal": 0,
    "Bond": 0,
    "effective": 0,
    "den": 1,
    "##tine": 10,
    "bonding": 0,
    "agents": 0,
    "choice": 0,
    "our": 0,
    "follows": 0,
    "There": 0,
    "signals": 0,
    "around": 0,
    "##DF": 1,
    "def": 0,
    "##icient": 0,
    "##icles": 0,
    "##ca": 11,
    "layer": 0,
    "[": 2,
    "Here": 0,
    "report": 0,
    "Rat": 6,
    "interact": 0,
    "through": 0,
    "their": 0,
    "##mina": 3,
    "domains": 0,
    "Regulation": 0,
    "alpha": 91,
    "##yclic": 6,
    "##phate": 4,
    "Thus": 0,
    "##odies": 4,
    "##tera": 9,
    "produce": 0,
    "quasi": 0,
    "withdrawal": 0,
    "potent": 0,
    "##ept": 2,
    "stimuli": 0,
    "weight": 0,
    "loss": 0,
    "##re": 14,
    "##phine": 1,
    "limited": 0,
    "glass": 0,
    "##ware": 0,
    "factory": 0,
    "exposure": 0,
    "involving": 0,
    "measurement": 0,
    "airborne": 0,
    "##rsen": 0,
    "determination": 0,
    "##rina": 3,
    "evaluation": 0,
    "hand": 0,
    "mouth": 0,
    "contamination": 0,
    "works": 0,
    "##ft": 0,
    "suggests": 0,
    "300": 0,
    "##rea": 8,
    "##tin": 19,
    "likely": 0,
    "oral": 0,
    "intake": 0,
    "contaminated": 0,
    "hands": 0,
    "absorption": 0,
    "these": 0,
    "striking": 0,
    "60": 3,
    "##cripts": 1,
    "first": 1,
    "detected": 0,
    "onset": 0,
    "gas": 8,
    "##tr": 8,
    "primarily": 0,
    "##so": 0,
    "extending": 0,
    "##EC": 10,
    "##TI": 0,
    "##VE": 0,
    "To": 6,
    "##agu": 5,
    "VIII": 0,
    "##lant": 1,
    "est": 12,
    "##era": 3,
    "IN": 12,
    "##asis": 0,
    "acute": 0,
    "react": 0,
    "##ant": 4,
    "VII": 0,
    "IX": 0,
    "X": 34,
    "population": 0,
    "horses": 0,
    "##lic": 6,
    "presumed": 0,
    "changes": 0,
    "Per": 1,
    "##yd": 4,
    "##lor": 5,
    "##oa": 3,
    "strongly": 0,
    "This": 0,
    "difference": 0,
    "result": 0,
    "lower": 0,
    "match": 0,
    "AR": 33,
    "##gra": 8,
    "##rena": 0,
    "##ev": 0,
    "##iating": 0,
    "many": 0,
    "simple": 0,
    "motor": 0,
    "sensor": 0,
    "##imo": 0,
    "deficit": 0,
    "lesions": 0,
    "##gro": 0,
    "##tal": 2,
    "Copyright": 0,
    "2000": 0,
    "Academic": 0,
    "Press": 0,
    "case": 7,
    "##och": 13,
    "trim": 0,
    "##ester": 3,
    "Although": 0,
    "minimal": 0,
    "defined": 0,
    "##NT": 8,
    "adjacent": 0,
    "boxes": 0,
    "variable": 0,
    "regulated": 0,
    "##HL": 11,
    "presented": 0,
    "monitoring": 0,
    "accidental": 0,
    "spill": 0,
    "vertical": 0,
    "distribution": 0,
    "heavy": 0,
    "metals": 0,
    "##ua": 2,
    "sediments": 0,
    "Among": 0,
    "mixed": 0,
    "race": 0,
    "persons": 0,
    "Chu": 0,
    "##k": 101,
    "##cha": 0,
    "##ski": 0,
    "AS": 12,
    "Russian": 0,
    "ps": 18,
    "##oria": 0,
    "##itis": 0,
    "V": 94,
    "animals": 0,
    "05": 0,
    "##ida": 0,
    "following": 0,
    "Only": 0,
    "five": 0,
    "whom": 0,
    "##static": 2,
    "survive": 0,
    "presentation": 0,
    "nine": 0,
    "##aries": 0,
    "less": 0,
    "adjusted": 0,
    "age": 0,
    "sex": 3,
    "varied": 0,
    "17": 3,
    "those": 0,
    "##line": 2,
    "di": 6,
    "##nose": 0,
    "superficial": 0,
    "##test": 0,
    "##lasia": 0,
    "29": 0,
    "deep": 0,
    "mild": 0,
    "neck": 0,
    "104": 0,
    "severe": 0,
    "subjects": 0,
    "##tis": 1,
    "##hic": 0,
    "consider": 0,
    "##IL": 9,
    "CP": 22,
    "safe": 0,
    "excellent": 0,
    "surgery": 0,
    "utilizing": 0,
    "requiring": 0,
    "During": 0,
    "1985": 0,
    "1990": 0,
    "1995": 0,
    "infants": 0,
    "000": 0,
    "live": 0,
    "births": 0,
    "##SV": 10,
    "98": 1,
    "Ce": 12,
    "##12": 61,
    "album": 13,
    "proportions": 0,
    "submitted": 0,
    "##lal": 0,
    "##ity": 1,
    "data": 0,
    "function": 0,
    "DS": 6,
    "protection": 0,
    "nuclear": 25,
    "des": 6,
    "##cation": 0,
    "##sen": 2,
    "supported": 0,
    "six": 1,
    "localized": 0,
    "stages": 0,
    "other": 0,
    "types": 1,
    "##ub": 4,
    "voltage": 0,
    "right": 0,
    "##cor": 7,
    "##dial": 0,
    "leads": 0,
    "ant": 0,
    "##hra": 0,
    "##cline": 0,
    "card": 0,
    "##io": 4,
    "Lim": 1,
    "##nos": 5,
    "##up": 12,
    "##pressed": 0,
    "##los": 0,
    "##por": 5,
    "Mu": 8,
    "##tations": 0,
    "muscle": 2,
    "##mus": 1,
    "pronounced": 0,
    "mutations": 0,
    "Right": 0,
    "relatively": 0,
    "skeletal": 3,
    "cardiac": 6,
    "monkey": 2,
    "83": 1,
    "94": 0,
    "overall": 0,
    "Alan": 2,
    "substitution": 0,
    "##ta": 23,
    "eliminate": 0,
    "stimulate": 0,
    "pool": 0,
    "provisions": 0,
    "made": 0,
    "ex": 6,
    "##cre": 0,
    "measured": 0,
    "here": 1,
    "##eca": 0,
    "##olic": 0,
    "processes": 0,
    "female": 0,
    "pan": 0,
    "##var": 1,
    "##icle": 2,
    "arrested": 0,
    "layered": 0,
    "##bo": 10,
    "##idal": 0,
    "stage": 1,
    "reduced": 2,
    "indicating": 0,
    "kit": 0,
    "added": 0,
    "##es": 4,
    "##ogen": 67,
    "##wn": 2,
    "8": 1,
    "signaling": 0,
    "induce": 0,
    "repertoire": 0,
    "cellular": 5,
    "##otype": 0,
    "##ren": 1,
    "BA": 9,
    "##GR": 13,
    "##UN": 2,
    "##oro": 1,
    "##quin": 0,
    "##olo": 0,
    "##nes": 1,
    "##Q": 12,
    "con": 6,
    "##ind": 0,
    "##ica": 2,
    "children": 0,
    "cart": 0,
    "##ila": 0,
    "##ge": 1,
    "damage": 0,
    "\"": 6,
    "normal": 0,
    "heart": 0,
    "rate": 0,
    "##cum": 2,
    "##ential": 0,
    "fiber": 0,
    "short": 0,
    "##ening": 0,
    "##VC": 1,
    "##PR": 6,
    "Clinical": 0,
    "absorb": 0,
    "##gly": 2,
    "su": 9,
    "##ock": 0,
    "Tau": 0,
    "##ssi": 0,
    "novel": 0,
    "identifying": 0,
    "random": 0,
    "recognition": 0,
    "PC": 17,
    "extract": 0,
    "Disc": 0,
    "##linary": 0,
    "action": 0,
    "violation": 0,
    "Since": 0,
    "1970": 0,
    "frequency": 0,
    "potassium": 0,
    "ul": 1,
    "slow": 0,
    "release": 0,
    "tablet": 0,
    "201": 0,
    "up": 0,
    "##take": 0,
    "ratio": 0,
    "vent": 0,
    "represents": 0,
    "counts": 0,
    "administered": 0,
    "##PD": 6,
    "especially": 0,
    "Burr": 0,
    "##ows": 0,
    "classification": 0,
    "controls": 0,
    "##qui": 15,
    "##tina": 1,
    "##ting": 2,
    "enzyme": 1,
    "IL": 112,
    "##ap": 5,
    "##illo": 0,
    "##virus": 16,
    "proliferation": 1,
    "##53": 74,
    "##vic": 0,
    "line": 0,
    "integrated": 0,
    "much": 0,
    "expensive": 0,
    "##W": 15,
    "only": 0,
    "##ob": 5,
    "##PO": 7,
    "M": 121,
    "##SO": 0,
    "##fin": 0,
    "##ose": 7,
    "successfully": 0,
    "preservation": 0,
    "transport": 0,
    "##yl": 30,
    "##ha": 1,
    "##ryl": 6,
    "mi": 6,
    "##cible": 0,
    "##bed": 0,
    "##ding": 0,
    "medium": 0,
    "electron": 0,
    "##sco": 0,
    "##py": 8,
    "active": 4,
    "framework": 0,
    "structures": 0,
    "##ver": 0,
    "evolution": 0,
    "common": 0,
    "Large": 1,
    "strain": 0,
    "variables": 0,
    "proportion": 0,
    "attacking": 0,
    "males": 0,
    "time": 0,
    "spent": 0,
    "brightly": 0,
    "lit": 0,
    "transitions": 0,
    "between": 0,
    "dark": 0,
    "mobility": 0,
    "shift": 0,
    "differentiated": 0,
    "##ste": 5,
    "##last": 8,
    "elements": 0,
    "describe": 0,
    "map": 0,
    "##ele": 0,
    "suppress": 2,
    "compensate": 0,
    "terminal": 2,
    "##run": 0,
    "One": 0,
    "shows": 0,
    "highest": 0,
    "insect": 0,
    "##son": 1,
    "##du": 6,
    "##75": 2,
    "Secret": 0,
    "##state": 2,
    "Changes": 0,
    "##rt": 5,
    "##matic": 0,
    "find": 0,
    "##uss": 0,
    "##el": 13,
    "decreased": 0,
    "about": 0,
    "20": 5,
    "over": 0,
    "range": 0,
    "spanned": 0,
    "experiment": 0,
    "An": 1,
    "##ite": 2,
    "##llo": 2,
    "media": 0,
    "##rogen": 13,
    "##pus": 10,
    "Perhaps": 0,
    "mit": 34,
    "##osis": 0,
    "##set": 0,
    "necessary": 0,
    "spin": 0,
    "##dle": 0,
    "pole": 0,
    "body": 0,
    "du": 0,
    "##plication": 0,
    "DR": 20,
    "molecules": 0,
    "##rified": 2,
    "could": 0,
    "specifically": 0,
    "Six": 0,
    "aged": 0,
    "months": 0,
    "suffering": 0,
    "medical": 0,
    "resistant": 0,
    "temporal": 0,
    "lobe": 0,
    "##pile": 0,
    "##psy": 1,
    "##LE": 7,
    "operated": 0,
    "period": 0,
    "Bethel": 0,
    "Center": 0,
    "Di": 4,
    "##nosis": 0,
    "treatment": 0,
    "planning": 0,
    "Class": 2,
    "II": 1,
    "division": 0,
    "##TR": 17,
    "stable": 0,
    "hair": 0,
    "flanked": 0,
    "stranded": 0,
    "AI": 0,
    "##MS": 2,
    "evaluate": 0,
    "environmental": 0,
    "determining": 0,
    "birth": 0,
    "##weight": 0,
    "twins": 0,
    "##ibility": 0,
    "diabetes": 0,
    "disco": 0,
    "##rda": 0,
    "test": 3,
    "##TT": 1,
    "verify": 0,
    "association": 0,
    "metabolic": 0,
    "life": 0,
    "Rest": 1,
    "Southern": 0,
    "indicated": 0,
    "copy": 0,
    "Response": 0,
    "##ore": 0,
    "##ceptor": 1,
    "Te": 5,
    "##ti": 22,
    "##lino": 21,
    "##cks": 7,
    "anal": 0,
    "##ytic": 0,
    "comparative": 0,
    "parameter": 0,
    "magnetic": 0,
    "resonance": 0,
    "MR": 11,
    "imaging": 0,
    "concept": 0,
    "easily": 0,
    "calculated": 0,
    "index": 0,
    "hydrogen": 1,
    "Spa": 1,
    "##tial": 0,
    "secondary": 0,
    "memory": 0,
    "guided": 0,
    "##cca": 2,
    "##des": 0,
    "##chi": 0,
    "context": 0,
    "shortage": 0,
    "##LT": 6,
    "should": 0,
    "OS": 3,
    "AP": 126,
    "##AC": 10,
    "score": 0,
    "##tory": 0,
    "behavior": 0,
    "assessed": 0,
    "hole": 0,
    "##oke": 0,
    "##otion": 0,
    "session": 0,
    "Analysis": 0,
    "##ferred": 0,
    "85": 0,
    "considerable": 0,
    "identity": 0,
    "largest": 0,
    "organisms": 0,
    "terminus": 0,
    "tandem": 1,
    "##iter": 0,
    "##pta": 3,
    "##mers": 0,
    "greatly": 0,
    "suppressed": 0,
    "thy": 21,
    "##rot": 5,
    "##ropic": 1,
    "##olar": 0,
    "Jung": 0,
    "theory": 0,
    "Myers": 0,
    "Briggs": 0,
    "Type": 3,
    "##dic": 0,
    "##ator": 0,
    "small": 16,
    "remnants": 0,
    "##lf": 1,
    "##actor": 0,
    "bulb": 0,
    "perform": 0,
    "variety": 0,
    "odor": 0,
    "detection": 0,
    "discrimination": 0,
    "tasks": 0,
    "nearly": 0,
    "SR": 65,
    "involved": 0,
    "##utive": 1,
    "##RNA": 17,
    "##licing": 1,
    "##arily": 0,
    "##an": 8,
    "Another": 0,
    "tentative": 0,
    "hot": 0,
    "frame": 0,
    "caused": 0,
    "insertion": 0,
    "##oto": 2,
    "##nous": 0,
    "##RT": 12,
    "previously": 0,
    "Each": 0,
    "half": 0,
    "molecule": 0,
    "##sul": 10,
    "##fi": 6,
    "link": 2,
    "##ages": 0,
    "##TH": 7,
    "##OD": 8,
    "hundred": 0,
    "fourteen": 0,
    "consecutive": 0,
    "focal": 4,
    "##atic": 0,
    "masses": 0,
    "CT": 18,
    "underwent": 0,
    "EU": 0,
    "linear": 0,
    "array": 0,
    "echo": 0,
    "##end": 0,
    "##cope": 0,
    "22": 1,
    "gauge": 0,
    "needles": 0,
    "Con": 6,
    "##sist": 0,
    "##ent": 3,
    "ST": 61,
    "##AT": 63,
    "altered": 0,
    "SH": 118,
    "pathway": 0,
    ">": 0,
    "approximately": 0,
    "25": 1,
    "whereas": 0,
    "increase": 0,
    "##body": 0,
    "signal": 4,
    "ka": 23,
    "##ppa": 34,
    "##65": 17,
    "Normal": 0,
    "peripheral": 0,
    "bone": 6,
    "grey": 0,
    "Armenian": 0,
    "##ms": 6,
    "extracted": 0,
    "concentration": 0,
    "flu": 0,
    "##xa": 9,
    "##llin": 6,
    "obtained": 0,
    "SD": 2,
    "##yn": 20,
    "fluid": 0,
    "59": 0,
    "##ium": 0,
    "cancel": 0,
    "##lous": 0,
    "##ical": 0,
    "start": 0,
    "points": 0,
    "mapped": 0,
    "prime": 0,
    "minor": 0,
    "##cript": 1,
    "##stal": 0,
    "##ae": 2,
    "downstream": 0,
    "54": 0,
    "evidence": 0,
    "spatial": 0,
    "controlled": 0,
    "acting": 0,
    "modules": 0,
    "##ons": 1,
    "genetic": 0,
    "Sunset": 0,
    "Yellow": 0,
    "liquid": 0,
    "##roma": 6,
    "##tography": 0,
    "##pect": 1,
    "##try": 0,
    "MS": 12,
    "##ray": 0,
    "ion": 0,
    "##BF": 10,
    "laser": 0,
    "flux": 0,
    "##metry": 0,
    "Internal": 0,
    "shares": 0,
    "encoded": 0,
    "q": 2,
    "She": 0,
    "improved": 0,
    "combination": 0,
    "ben": 2,
    "##ze": 5,
    "##cho": 6,
    "##lines": 5,
    "##ig": 2,
    "identification": 0,
    "surveillance": 0,
    "el": 7,
    "##egan": 0,
    "PA": 38,
    "##ome": 5,
    "member": 0,
    "put": 0,
    "##ative": 0,
    "ATP": 11,
    "##ases": 11,
    "year": 0,
    "survival": 0,
    "84": 0,
    "63": 1,
    "Up": 1,
    "95": 1,
    "UV": 0,
    "received": 0,
    "##band": 0,
    "320": 0,
    "Thirty": 0,
    "minutes": 0,
    "restraint": 0,
    "##OP": 9,
    "median": 0,
    "##inen": 0,
    "exposed": 0,
    "##her": 3,
    "brief": 0,
    "synthesized": 0,
    "lacking": 0,
    "tail": 0,
    "initiate": 0,
    "infection": 0,
    "##ade": 1,
    "##ny": 1,
    "viral": 14,
    "genome": 0,
    "##ess": 0,
    "therapy": 0,
    "radio": 0,
    "##ations": 0,
    "##phic": 0,
    "##oar": 0,
    "##throp": 0,
    "##OA": 0,
    "##uma": 9,
    "RA": 47,
    "Para": 2,
    "##dox": 0,
    "##ically": 0,
    "##ally": 0,
    "inactive": 0,
    "deleted": 0,
    "ID": 1,
    "either": 0,
    "themselves": 0,
    "##act": 7,
    "##ivation": 0,
    "##AA": 13,
    "reporter": 0,
    "##oi": 9,
    "##etic": 2,
    "enormous": 0,
    "impact": 0,
    "##fusion": 0,
    "practice": 0,
    "eliminating": 0,
    "need": 0,
    "absolute": 0,
    "relative": 0,
    "er": 12,
    "night": 0,
    "day": 0,
    "##cilla": 0,
    "driven": 0,
    "clock": 0,
    "located": 0,
    "##pra": 0,
    "##chia": 0,
    "##smatic": 0,
    "nucleus": 0,
    "important": 0,
    "##NC": 2,
    "##US": 12,
    "##ION": 0,
    "authors": 0,
    "emphasize": 0,
    "initial": 0,
    "management": 0,
    "STS": 0,
    "adequate": 0,
    "##fty": 0,
    "margin": 0,
    "cm": 1,
    "##hered": 0,
    "152": 0,
    "##gene": 4,
    "beginning": 0,
    "65": 0,
    "CR": 76,
    "linked": 0,
    "##ay": 0,
    "##rrel": 0,
    "##60": 19,
    "##CR": 44,
    "##40": 28,
    "##ple": 0,
    "begins": 0,
    "rise": 0,
    "reaches": 0,
    "suggesting": 0,
    "events": 0,
    "occurring": 0,
    "perhaps": 0,
    "transition": 0,
    "correlation": 0,
    "parameters": 0,
    "##ids": 0,
    "My": 51,
    "requires": 0,
    "##voke": 0,
    "##del": 3,
    "accordance": 0,
    "indicators": 0,
    "reactive": 0,
    "divided": 0,
    "subgroup": 0,
    "basis": 0,
    "whether": 0,
    "intense": 0,
    "fatty": 5,
    "replacement": 0,
    "PT": 52,
    "binds": 0,
    "arrest": 1,
    "under": 0,
    "conditions": 0,
    "mitochondrial": 6,
    "metabolism": 0,
    "Human": 22,
    "##das": 0,
    "AC": 14,
    "##ls": 3,
    "##ngo": 0,
    "amid": 0,
    "##oh": 0,
    "##lase": 5,
    "##ira": 0,
    "depression": 0,
    "healing": 0,
    "HIV": 22,
    "66": 0,
    "percent": 0,
    "14": 3,
    "corresponding": 0,
    "figures": 0,
    "acquired": 0,
    "##ficiency": 0,
    "proposes": 0,
    "##imator": 0,
    "such": 0,
    "global": 0,
    "upon": 0,
    "based": 0,
    "field": 0,
    "potential": 0,
    "##FP": 11,
    "aim": 0,
    "##ness": 0,
    "br": 3,
    "##rov": 0,
    "##ergic": 0,
    "##hin": 1,
    "pollen": 1,
    "season": 0,
    "##ino": 1,
    "physical": 0,
    "estimates": 0,
    "radiation": 0,
    "treated": 0,
    "131": 0,
    "##roid": 12,
    "attack": 0,
    "her": 11,
    "##pes": 8,
    "subsequent": 0,
    "##rrence": 0,
    "##lov": 0,
    "little": 0,
    "Overall": 0,
    "##rating": 2,
    "prop": 0,
    "exhibit": 0,
    "occurrence": 0,
    "however": 0,
    "affecting": 0,
    "deeply": 0,
    "##ermined": 0,
    "migration": 0,
    "##ota": 4,
    "##ctic": 0,
    "##oki": 5,
    "##net": 0,
    "tended": 0,
    "ne": 23,
    "selected": 0,
    "dependence": 0,
    "exists": 0,
    "beta": 121,
    "value": 0,
    "mug": 0,
    "gain": 0,
    "amounted": 0,
    "mm": 1,
    "defects": 0,
    "showing": 0,
    "##cel": 0,
    "grown": 0,
    "pen": 1,
    "##ici": 4,
    "producing": 0,
    "shifts": 0,
    "IP": 2,
    "##NS": 5,
    "bladder": 0,
    "platinum": 0,
    "##ves": 0,
    "DD": 4,
    "##top": 2,
    "##ath": 19,
    "count": 0,
    "chemistry": 0,
    "order": 0,
    "know": 0,
    "toxicity": 0,
    "##UP": 26,
    "##46": 7,
    "implicated": 0,
    "translation": 3,
    "##delity": 0,
    "##13": 26,
    "##MI": 5,
    "OH": 0,
    "Because": 0,
    "##SF": 21,
    "##HS": 10,
    "does": 0,
    "recognize": 0,
    "regions": 0,
    "##omer": 5,
    "state": 0,
    "##oth": 4,
    "##orax": 1,
    "lung": 1,
    "##bs": 7,
    "##cess": 0,
    "transplant": 0,
    "appears": 0,
    "play": 0,
    "critical": 0,
    "##PA": 19,
    "##ivating": 6,
    "##ers": 0,
    "cooperate": 0,
    "##v": 43,
    "##rc": 15,
    "##yne": 2,
    "##istic": 0,
    "##AM": 28,
    "generates": 0,
    "38": 0,
    "residues": 0,
    "perfect": 0,
    "strong": 0,
    "Mi": 9,
    "##gill": 0,
    "Em": 1,
    "##ella": 1,
    "A2": 4,
    "TX": 0,
    "##oper": 0,
    "##oxide": 9,
    "pacing": 0,
    "open": 0,
    "partially": 0,
    "##luded": 0,
    "##chy": 0,
    "##card": 3,
    "SV": 16,
    "##DP": 2,
    "00": 0,
    "wide": 0,
    "##OL": 3,
    "compartment": 0,
    "##otic": 3,
    "apparatus": 0,
    "provides": 0,
    "tool": 0,
    "##aceae": 0,
    "waste": 0,
    "Gene": 1,
    "##uka": 9,
    "plants": 0,
    "##icorn": 1,
    "##avi": 2,
    "like": 0,
    "##apa": 1,
    "##ac": 14,
    "##uo": 6,
    "##lar": 6,
    "ve": 4,
    "##cles": 0,
    "hum": 1,
    "lack": 0,
    "##port": 0,
    "demonstrating": 0,
    "Hu": 6,
    "##zes": 0,
    "exchange": 0,
    "across": 0,
    "Pre": 2,
    "##valence": 0,
    "sleep": 0,
    "disorder": 0,
    "breathing": 0,
    "##aus": 0,
    "women": 0,
    "Drop": 0,
    "extra": 13,
    "##ram": 0,
    "symptoms": 0,
    "adolescent": 0,
    "##bis": 0,
    "Improvement": 0,
    "##rim": 2,
    "tract": 0,
    "degree": 0,
    "slightly": 0,
    "##point": 1,
    "provide": 0,
    "##ten": 3,
    "contrary": 0,
    "##ona": 0,
    "##cate": 0,
    "##rol": 1,
    "same": 0,
    "deteriorated": 0,
    "regional": 0,
    "##function": 1,
    "changing": 0,
    "soluble": 3,
    "solid": 0,
    "organ": 0,
    "influence": 0,
    "treatments": 0,
    "iron": 0,
    "##vi": 3,
    "immunity": 0,
    "excess": 0,
    "##truction": 0,
    "ER": 80,
    "gag": 4,
    "##lie": 0,
    "tumor": 12,
    "##ige": 1,
    "Ha": 9,
    "Ra": 127,
    "##35": 8,
    "##DS": 9,
    "##una": 0,
    "##ble": 0,
    "closed": 0,
    "circuit": 0,
    "##oe": 8,
    "##nz": 1,
    "##yme": 5,
    "percentage": 0,
    "shock": 0,
    "independent": 0,
    "attempts": 0,
    "##alo": 2,
    "Al": 9,
    "##erus": 0,
    "sub": 0,
    "PR": 32,
    "basic": 11,
    "##esis": 0,
    "##load": 0,
    "##ort": 1,
    "fell": 0,
    "68": 2,
    "19": 0,
    "01": 0,
    "systemic": 0,
    "##erial": 2,
    "resistance": 0,
    "88": 0,
    "74": 1,
    "610": 0,
    "##cological": 0,
    "ray": 0,
    "agent": 0,
    "Ultra": 0,
    "##vist": 0,
    "73": 0,
    "##33": 8,
    "07": 0,
    "##lini": 0,
    "##cal": 6,
    "canonical": 0,
    "##don": 0,
    "loop": 0,
    "acts": 0,
    "anchor": 0,
    "##RS": 17,
    "##osy": 2,
    "Children": 0,
    "who": 0,
    "infections": 0,
    "decline": 0,
    "CD": 120,
    "##cute": 0,
    "experiments": 0,
    "cats": 0,
    "investigate": 0,
    "##ating": 0,
    "##uro": 8,
    "##cular": 3,
    "leg": 0,
    "moderately": 0,
    "##ima": 0,
    "##21": 60,
    "depend": 0,
    "although": 0,
    "formation": 0,
    "proper": 1,
    "geometry": 0,
    "crucial": 0,
    "##23": 19,
    "NDP": 1,
    "intro": 0,
    "boundaries": 0,
    "species": 0,
    "Previous": 0,
    "28": 3,
    "item": 0,
    "versions": 0,
    "General": 0,
    "Health": 0,
    "Question": 0,
    "##naire": 0,
    "liable": 0,
    "times": 0,
    "intervals": 0,
    "Me": 10,
    "employing": 0,
    "##11": 41,
    "Ba": 15,
    "##cter": 0,
    "##ya": 0,
    "mortality": 0,
    "27": 2,
    "independence": 0,
    "home": 16,
    "##isco": 0,
    "##sity": 0,
    "means": 0,
    "##il": 5,
    "##ution": 0,
    "norm": 0,
    "##ovo": 0,
    "##lin": 90,
    "119": 0,
    "CC": 22,
    "##dine": 7,
    "##ass": 0,
    "therefore": 0,
    "battery": 0,
    "toxic": 0,
    "hazard": 0,
    "Accordingly": 0,
    "designated": 0,
    "cap": 3,
    "##ping": 2,
    "indicate": 0,
    "section": 0,
    "decreases": 0,
    "##rs": 4,
    "##ional": 0,
    "stiff": 0,
    "longitudinal": 0,
    "Recent": 0,
    "advances": 0,
    "volatile": 0,
    "sulfur": 0,
    "ecological": 0,
    "transformation": 0,
    "plan": 0,
    "##kt": 9,
    "##onic": 0,
    "food": 0,
    "web": 0,
    "Fi": 9,
    "De": 2,
    "##grad": 0,
    "Products": 0,
    "cancer": 0,
    "individuals": 0,
    "prior": 0,
    "kind": 0,
    "Pa": 16,
    "paired": 5,
    "HD": 41,
    "eye": 0,
    "contributes": 0,
    "delta": 11,
    "##eta": 8,
    "crystal": 0,
    "lens": 0,
    "floor": 1,
    "plate": 10,
    "absence": 0,
    "##hh": 2,
    "San": 0,
    "Martin": 0,
    "psychological": 0,
    "traits": 0,
    "coupled": 0,
    "work": 0,
    "##sonic": 0,
    "lodge": 0,
    "allowed": 0,
    "him": 1,
    "display": 0,
    "abilities": 0,
    "##trate": 3,
    "##gis": 0,
    "political": 0,
    "ruler": 0,
    "orphan": 5,
    "##aga": 3,
    "##mma": 3,
    "Fat": 0,
    "##lit": 0,
    "versus": 0,
    "host": 0,
    "Of": 0,
    "neutral": 0,
    "##izing": 0,
    "##lves": 0,
    "89": 0,
    "26": 3,
    "92": 0,
    "97": 0,
    "##nas": 3,
    "##lace": 1,
    "AD": 14,
    "distributed": 0,
    "chromosome": 1,
    "scanned": 0,
    "repeating": 0,
    "patterns": 0,
    "solvent": 0,
    "burial": 0,
    "character": 0,
    "##ize": 0,
    "looked": 0,
    "targets": 0,
    "##fluenza": 0,
    "##arity": 1,
    "left": 0,
    "involvement": 0,
    "##VD": 2,
    "##lug": 0,
    "tub": 2,
    "heat": 4,
    "thermal": 0,
    "List": 0,
    "##eria": 1,
    "natural": 2,
    "milk": 0,
    "cows": 0,
    "equilibrium": 0,
    "##phorus": 0,
    "content": 0,
    "EP": 13,
    "soil": 0,
    "generally": 0,
    "drainage": 0,
    "farm": 0,
    "magnitude": 0,
    "central": 0,
    "visual": 0,
    "fields": 0,
    "216": 0,
    "106": 0,
    "##lau": 0,
    "eyes": 0,
    "threshold": 0,
    "##resh": 0,
    "##old": 1,
    "After": 0,
    "doses": 0,
    "##phe": 1,
    "##tamine": 3,
    "responding": 0,
    "largely": 0,
    "key": 0,
    "schedules": 0,
    "Evolution": 0,
    "conservation": 0,
    "segment": 0,
    "##iled": 3,
    "##pe": 9,
    "34": 0,
    "##duced": 0,
    "closely": 0,
    "resembles": 0,
    "##vate": 6,
    "rabbits": 0,
    "##tured": 0,
    "wound": 0,
    "Dex": 0,
    "##ylon": 0,
    "##junct": 0,
    "##ival": 0,
    "flap": 0,
    "days": 0,
    "##rab": 0,
    "##ule": 3,
    "benefit": 0,
    "prevention": 0,
    "stroke": 0,
    "##iovascular": 0,
    "causes": 0,
    "MC": 9,
    "##h": 49,
    "##way": 0,
    "constant": 0,
    "##BA": 8,
    "##hesion": 0,
    "##hesive": 0,
    "##ret": 0,
    "##hane": 0,
    "free": 0,
    "##yana": 0,
    "surrounding": 0,
    "possibility": 0,
    "##FI": 57,
    "replication": 2,
    "proven": 0,
    "accurate": 0,
    "rapid": 0,
    "incorporated": 0,
    "quality": 0,
    "assurance": 0,
    "program": 0,
    "contract": 0,
    "##rac": 4,
    "via": 0,
    "contraction": 0,
    "blocked": 0,
    "efficacy": 0,
    "safety": 0,
    "##cut": 0,
    "##hetic": 0,
    "preparation": 0,
    "##eth": 0,
    "##aine": 0,
    "investigated": 0,
    "##tric": 3,
    "##ctive": 1,
    "calcium": 0,
    "channel": 0,
    "111": 0,
    "##tensive": 0,
    "subjected": 0,
    "permanent": 0,
    "##iga": 2,
    "artery": 0,
    "temporary": 0,
    "Following": 0,
    "steady": 0,
    "##hesia": 0,
    "measurements": 0,
    "##IO": 1,
    "##VP": 7,
    "##ron": 0,
    "CF": 9,
    "##PC": 2,
    "##bial": 0,
    "##ori": 2,
    "Cell": 1,
    "regulating": 0,
    "immediate": 10,
    "J": 78,
    "##ivity": 0,
    "##umour": 1,
    "tissue": 14,
    "simultaneously": 0,
    "##ject": 0,
    "##here": 0,
    "portal": 1,
    "circulation": 0,
    "animal": 1,
    "##guous": 0,
    "##14": 23,
    "arm": 0,
    "##ssion": 4,
    "European": 0,
    "Union": 0,
    "project": 0,
    "del": 0,
    "IV": 2,
    "tested": 0,
    "artificial": 0,
    "LA": 16,
    "##lip": 0,
    "derives": 0,
    "principal": 0,
    "observations": 0,
    "construct": 0,
    "122": 0,
    "retained": 0,
    "full": 19,
    "##GE": 4,
    "196": 0,
    "##ifer": 26,
    "##of": 2,
    "##orm": 1,
    "comparable": 0,
    "seen": 0,
    "cannot": 0,
    "viewed": 0,
    "above": 0,
    "FA": 21,
    "##logue": 1,
    "##ak": 13,
    "maps": 0,
    "56": 3,
    "TD": 4,
    "sun": 1,
    "aux": 2,
    "##RE": 27,
    "gamma": 16,
    "alone": 0,
    "prolonged": 0,
    "Ang": 6,
    "retrospective": 0,
    "certain": 0,
    "##pu": 2,
    "##lsive": 0,
    "success": 0,
    "useful": 0,
    "vision": 0,
    "52": 0,
    "##graphy": 0,
    "##dal": 1,
    "where": 0,
    "definite": 0,
    "sign": 0,
    "numerical": 0,
    "##fold": 0,
    "140": 0,
    "fed": 0,
    "MG": 1,
    "##fa": 1,
    "##lies": 0,
    "super": 8,
    "##family": 0,
    "##TE": 6,
    "##RP": 16,
    "##TA": 40,
    "##ON": 2,
    "probable": 0,
    "cognitive": 0,
    "##sson": 0,
    "created": 0,
    "health": 0,
    "information": 0,
    "smoking": 0,
    "1964": 0,
    "motivation": 0,
    "quit": 0,
    "strategic": 0,
    "amount": 0,
    "advertising": 0,
    "Once": 0,
    "##CP": 15,
    "##nia": 0,
    "occurs": 0,
    "usually": 0,
    "Character": 0,
    "ends": 0,
    "reveals": 0,
    "elongated": 0,
    "beyond": 0,
    "PP": 42,
    "creating": 0,
    "overlap": 0,
    "majority": 0,
    "stop": 0,
    "bear": 0,
    "minus": 0,
    "agreement": 0,
    "accepted": 0,
    "model": 0,
    "##vir": 5,
    "reverse": 5,
    "Abu": 0,
    "##nda": 0,
    "##ltration": 0,
    "spread": 0,
    "beneath": 0,
    "positions": 0,
    "179": 0,
    "193": 0,
    "classical": 0,
    "bi": 3,
    "##tite": 0,
    "NL": 1,
    "social": 0,
    "economical": 0,
    "limiting": 0,
    "possibilities": 0,
    "rendering": 0,
    "##ios": 0,
    "##urg": 0,
    "care": 0,
    "units": 0,
    "##comb": 43,
    "##ina": 39,
    "##EP": 12,
    "week": 0,
    "Using": 0,
    "rap": 5,
    "generate": 0,
    "differing": 0,
    "lengths": 0,
    "highly": 0,
    "size": 0,
    "Ke": 1,
    "##sso": 0,
    "##cia": 0,
    "##tive": 0,
    "produces": 0,
    "persistent": 0,
    "elevated": 0,
    "##IS": 10,
    "##yla": 13,
    "conventional": 0,
    "##etics": 0,
    "Car": 3,
    "##ba": 3,
    "man": 2,
    "review": 0,
    "Super": 1,
    "##shi": 0,
    "##As": 1,
    "##lator": 0,
    "US": 15,
    "##UC": 3,
    "combined": 0,
    "positively": 0,
    "##ulated": 0,
    "##xin": 7,
    "Wing": 3,
    "##less": 5,
    "##tom": 1,
    "##ime": 6,
    "##ras": 2,
    "indicates": 0,
    "secret": 5,
    "trafficking": 0,
    "areas": 0,
    "ing": 0,
    "foods": 0,
    "Study": 0,
    "orange": 0,
    "juice": 0,
    "##rose": 0,
    "##ru": 10,
    "apples": 0,
    "apple": 0,
    "ice": 0,
    "cream": 0,
    "St": 48,
    "matrix": 2,
    "metal": 6,
    "##inas": 16,
    "##az": 1,
    "##am": 4,
    "administration": 0,
    "fall": 0,
    "procedure": 0,
    "avoided": 0,
    "done": 0,
    "course": 0,
    "synthesis": 0,
    "parallel": 0,
    "##iri": 0,
    "mater": 0,
    "entry": 0,
    "vessels": 0,
    "Co": 3,
    "##plicate": 0,
    "Architecture": 0,
    "anatomy": 0,
    "gal": 2,
    "physicians": 0,
    "charge": 0,
    "fever": 0,
    "Cox": 1,
    "##iel": 1,
    "burn": 0,
    "##i": 32,
    "800": 0,
    "asked": 0,
    "question": 0,
    "##ized": 2,
    "particular": 0,
    "##cellular": 12,
    "au": 0,
    "##gment": 0,
    "depending": 0,
    "calm": 8,
    "##ulin": 21,
    "x": 11,
    "superior": 0,
    "##tures": 0,
    "testing": 0,
    "mac": 5,
    "##biotic": 1,
    "exclusive": 0,
    "veterinary": 0,
    "medicine": 0,
    "##rok": 5,
    "##min": 21,
    "##26": 16,
    "colony": 5,
    "##mulating": 0,
    "CS": 27,
    "Ta": 15,
    "##bi": 16,
    "unique": 0,
    "##hel": 2,
    "nerve": 6,
    "included": 0,
    "distorted": 0,
    "architecture": 0,
    "basal": 1,
    "##lex": 0,
    "terminals": 0,
    "Female": 0,
    "id": 0,
    "##pathic": 0,
    "stone": 0,
    "former": 0,
    "male": 0,
    "counterparts": 0,
    "mum": 0,
    "almost": 0,
    "exclusively": 0,
    "brain": 3,
    "target": 0,
    "contained": 0,
    "125": 0,
    "independently": 0,
    "propose": 0,
    "##fe": 1,
    "##eding": 0,
    "famine": 0,
    "Heat": 0,
    "##SE": 3,
    "constructions": 0,
    "permit": 0,
    "sodium": 2,
    "requirements": 0,
    "consequences": 0,
    "Jun": 22,
    "WA": 7,
    "##mad": 14,
    "notion": 0,
    "origin": 0,
    "correlated": 0,
    "ratios": 0,
    "93": 0,
    "latter": 0,
    "having": 0,
    "sat": 1,
    "##ctor": 0,
    "##ily": 0,
    "applied": 0,
    "para": 4,
    "pharmaceutical": 0,
    "formulation": 0,
    "biological": 0,
    "fluids": 0,
    "##tron": 0,
    "isolation": 0,
    "hit": 1,
    "und": 1,
    "##iscovered": 0,
    "151": 0,
    "77": 0,
    "standard": 0,
    "criteria": 0,
    "committee": 0,
    "86": 0,
    "assembly": 0,
    "ready": 0,
    "resolution": 0,
    "construction": 0,
    "overlapping": 0,
    "##gs": 4,
    "extent": 0,
    "Ye": 3,
    "general": 3,
    "African": 0,
    "newborn": 0,
    "reading": 0,
    "174": 0,
    "136": 0,
    "oxygen": 0,
    "consumption": 0,
    "breathed": 0,
    "ins": 0,
    "##pi": 12,
    "##rator": 0,
    "pressures": 0,
    "##IP": 30,
    "##ING": 2,
    "SL": 17,
    "replaced": 0,
    "equivalent": 0,
    "subset": 0,
    "##rm": 8,
    "##ination": 1,
    "attempt": 0,
    "87": 1,
    "##IC": 5,
    "gives": 0,
    "good": 0,
    "knowledge": 0,
    "dos": 0,
    "highlights": 0,
    "contribution": 0,
    "##ont": 0,
    "seem": 0,
    "understand": 0,
    "perspective": 0,
    "##vity": 0,
    "*": 0,
    "allow": 0,
    "distinguished": 0,
    "fusion": 0,
    "efficiently": 0,
    "promote": 0,
    "##ulate": 0,
    "trigger": 0,
    "begin": 0,
    "Tech": 0,
    "99": 0,
    "##ene": 1,
    "##phon": 1,
    "##ography": 0,
    "##pable": 0,
    "breast": 1,
    "coefficients": 0,
    "ISO": 0,
    "##osa": 1,
    "experienced": 0,
    "observer": 0,
    "learn": 0,
    "flank": 0,
    "inverted": 0,
    "SP": 27,
    "At": 7,
    "far": 0,
    "##location": 0,
    "bacteria": 0,
    "##int": 2,
    "##stream": 0,
    "##gic": 0,
    "receiving": 0,
    "SE": 12,
    "##Ps": 8,
    "fork": 9,
    "head": 0,
    "##uring": 0,
    "shrink": 0,
    "##age": 0,
    "volume": 0,
    "modified": 0,
    "rest": 0,
    "##ora": 0,
    "materials": 0,
    "humans": 0,
    "alcohol": 0,
    "unable": 0,
    "down": 0,
    "##cts": 0,
    "separated": 0,
    "distances": 0,
    "ranging": 0,
    "43": 3,
    "analyze": 0,
    "j": 14,
    "##un": 13,
    "##CD": 12,
    "##cano": 1,
    "13": 2,
    "##car": 2,
    "Ah": 2,
    "fused": 0,
    "fire": 2,
    "##fly": 2,
    "##kar": 2,
    "##yo": 3,
    "similarity": 0,
    "phylogenetic": 0,
    "relationships": 0,
    "VP": 24,
    "##16": 33,
    "daily": 0,
    "##rack": 0,
    "compact": 0,
    "Additionally": 0,
    "mouse": 55,
    "copies": 0,
    "din": 0,
    "155": 0,
    "##uth": 0,
    "post": 0,
    "pregnant": 1,
    "yielded": 0,
    "FK": 5,
    "##50": 22,
    "rejection": 0,
    "medications": 0,
    "relief": 0,
    "adults": 0,
    "pit": 6,
    "##uit": 6,
    "##thi": 1,
    "##mate": 0,
    "##bro": 14,
    "##gated": 1,
    "##NF": 83,
    "despite": 0,
    "French": 0,
    "bean": 0,
    "developing": 0,
    "possibly": 0,
    "gave": 0,
    "fatal": 0,
    "zipper": 0,
    "interacting": 0,
    "screen": 0,
    "##ux": 1,
    "bait": 0,
    "##CO": 2,
    "insufficient": 0,
    "make": 0,
    "judgement": 0,
    "##sy": 2,
    "physically": 0,
    "##ck": 15,
    "##yle": 1,
    "##heses": 0,
    "scar": 0,
    "##ring": 0,
    "abdominal": 0,
    "wall": 0,
    "Simple": 0,
    "shortened": 0,
    "inform": 0,
    "cue": 0,
    "flashed": 0,
    "location": 0,
    "150": 1,
    "##ili": 5,
    "##tation": 0,
    "wash": 0,
    "##out": 0,
    "assess": 0,
    "DC": 1,
    "Risk": 0,
    "##TL": 3,
    "potentially": 0,
    "tails": 0,
    "alternative": 2,
    "1992": 0,
    "##chemistry": 0,
    "335": 0,
    "]": 0,
    "maintained": 0,
    "##rane": 2,
    "##sca": 0,
    "##tone": 16,
    "##ke": 2,
    "Interest": 0,
    "##ingly": 0,
    "transformed": 0,
    "Sam": 2,
    "##mized": 0,
    "achieve": 0,
    "extraction": 0,
    "lab": 0,
    "##aster": 0,
    "##eo": 1,
    "600": 0,
    "occur": 0,
    "worldwide": 0,
    "every": 0,
    "##plex": 0,
    "analyses": 0,
    "confirmed": 0,
    "Fe": 2,
    "center": 0,
    "##ilo": 0,
    "##base": 0,
    "pairs": 0,
    "##dium": 0,
    "##uk": 3,
    "dim": 2,
    "consequently": 0,
    "##lav": 0,
    "##ula": 0,
    "##scher": 13,
    "##ichi": 13,
    "##ama": 1,
    "##ses": 0,
    "##EM": 7,
    "##gar": 0,
    "##lution": 0,
    "Li": 1,
    "carbon": 4,
    "##uing": 0,
    "##quent": 0,
    "profile": 0,
    "intriguing": 0,
    "neurons": 0,
    "carried": 0,
    "##onia": 0,
    "excluding": 0,
    "matched": 0,
    "premature": 0,
    "##HF": 8,
    "##PS": 10,
    "##SL": 6,
    "code": 0,
    "##hal": 2,
    "##ynth": 0,
    "described": 0,
    "al": 24,
    "##ani": 3,
    "cluster": 0,
    "##19": 29,
    "inactivated": 0,
    "trip": 1,
    "whose": 0,
    "##gni": 0,
    "##zed": 0,
    "##sed": 0,
    "later": 0,
    "Chess": 0,
    "##master": 0,
    "gradually": 0,
    "boards": 0,
    "reproduce": 0,
    "average": 0,
    "replacing": 0,
    "160": 1,
    "pieces": 0,
    "correctly": 0,
    "seventh": 0,
    "12th": 0,
    "Sign": 0,
    "##ificant": 0,
    "##some": 0,
    "##til": 1,
    "Rep": 16,
    "##ression": 0,
    "##liga": 0,
    "##nded": 0,
    "hormone": 0,
    "##aper": 1,
    "##one": 1,
    "##vian": 4,
    "variations": 0,
    "hormones": 0,
    "river": 0,
    "##clamation": 0,
    "Yang": 0,
    "District": 0,
    "Shanghai": 0,
    "City": 0,
    "China": 0,
    "Contact": 0,
    "##llus": 4,
    "##CA": 22,
    "##pf": 2,
    "##hesis": 0,
    "cent": 1,
    "Similar": 0,
    "Conversely": 0,
    "##39": 1,
    "undertaken": 0,
    "emphasis": 0,
    "recent": 0,
    "##pot": 0,
    "similarities": 0,
    "storage": 0,
    "Andersen": 0,
    "Dead": 0,
    "decay": 1,
    "##ord": 0,
    "##rily": 0,
    "mainly": 0,
    "dead": 0,
    "step": 0,
    "intact": 1,
    "ii": 0,
    "##lect": 0,
    "labeled": 0,
    "##HD": 3,
    "pass": 0,
    "##illa": 1,
    "##ries": 0,
    "passive": 0,
    "diffusion": 0,
    "172": 0,
    "148": 0,
    "conferred": 0,
    "considered": 0,
    "composite": 0,
    "Moreover": 0,
    "composed": 0,
    "directly": 0,
    "spaced": 0,
    "parts": 0,
    "Swedish": 0,
    "protocol": 0,
    "speech": 0,
    "old": 0,
    "##31": 12,
    "behaviour": 0,
    "always": 0,
    "##ised": 0,
    "relocated": 0,
    "daughter": 0,
    "coordinate": 0,
    "kin": 2,
    "##eto": 0,
    "##tub": 2,
    "##ules": 0,
    "tag": 0,
    "##ged": 0,
    "##CH": 4,
    "replace": 0,
    "##eli": 1,
    "##color": 0,
    "##iv": 6,
    "pine": 0,
    "##ale": 0,
    "##path": 0,
    "blinded": 0,
    "substantial": 0,
    "##eration": 0,
    "rhythms": 0,
    "23": 2,
    "##gnant": 0,
    "true": 0,
    "##rato": 0,
    "childhood": 0,
    "##sio": 0,
    "##logy": 0,
    "dental": 0,
    "##ies": 0,
    "addressed": 0,
    "##nce": 1,
    "Alternatively": 0,
    "processed": 0,
    "##orms": 0,
    "nuclei": 0,
    "##hibition": 0,
    "reversed": 0,
    "Ka": 0,
    "thus": 0,
    "Cal": 3,
    "babies": 0,
    "delivery": 0,
    "ages": 0,
    "21": 0,
    "##DA": 3,
    "protected": 0,
    "GB": 3,
    "129": 0,
    "foot": 0,
    "##print": 0,
    "##tar": 0,
    "##dation": 0,
    "reveal": 0,
    "giving": 0,
    "survey": 0,
    "situation": 0,
    "Northern": 0,
    "Bavaria": 0,
    "1973": 0,
    "comparing": 0,
    "##ame": 0,
    "SM": 11,
    "commonly": 0,
    "##biotics": 0,
    "##uti": 0,
    "##lam": 4,
    "##amo": 0,
    "##ami": 5,
    "##im": 4,
    "312": 0,
    "##risto": 0,
    "Nuclear": 5,
    "##IN": 17,
    "Three": 0,
    "amongst": 0,
    "oxide": 0,
    "Abe": 2,
    "responsible": 0,
    "inflammatory": 0,
    "##art": 0,
    "shuttle": 0,
    "vector": 0,
    "derivative": 0,
    "##hil": 5,
    "cured": 0,
    "NZ": 0,
    "WR": 0,
    "272": 0,
    "intermediate": 0,
    "resulting": 0,
    "some": 0,
    "Long": 0,
    "##udi": 0,
    "force": 0,
    "##uin": 1,
    "##ea": 4,
    "pig": 0,
    "termed": 0,
    "##tract": 0,
    "##HA": 9,
    "##screen": 0,
    "##cid": 0,
    "evaluating": 0,
    "drugs": 0,
    "separately": 0,
    "Ana": 0,
    "##pas": 6,
    "##rk": 25,
    "##38": 37,
    "##TF": 12,
    "abundant": 0,
    "##ert": 1,
    "differentiation": 0,
    "functions": 0,
    "##ode": 1,
    "##rmal": 0,
    "SF": 25,
    "##genic": 8,
    "substrate": 0,
    "flag": 0,
    "##ones": 0,
    "prevent": 0,
    "##go": 0,
    "##lica": 8,
    "export": 1,
    "Se": 17,
    "leader": 0,
    "##patient": 0,
    "variation": 0,
    "peak": 0,
    "91": 0,
    "321": 0,
    "ng": 2,
    "being": 0,
    "57": 0,
    "135": 0,
    "180": 0,
    "Forty": 0,
    "eight": 0,
    "##gue": 0,
    "Da": 1,
    "##wley": 0,
    "receive": 0,
    "vehicle": 0,
    "false": 0,
    "accounted": 0,
    "Sub": 0,
    "insert": 0,
    "##AV": 1,
    "formula": 0,
    "##imating": 0,
    "##ita": 0,
    "##bility": 0,
    "parents": 0,
    "affects": 0,
    "##ancy": 0,
    "##ef": 4,
    "##ficient": 0,
    "78": 0,
    "##vas": 1,
    "142": 0,
    "BT": 7,
    "##scent": 0,
    "ensuring": 0,
    "sorting": 1,
    "##ied": 0,
    "##mann": 0,
    "Nature": 0,
    "370": 0,
    "1994": 0,
    "Rev": 8,
    "anterior": 0,
    "##xi": 4,
    "##llar": 1,
    "##bula": 0,
    "Nico": 0,
    "##tian": 0,
    "mature": 2,
    "precursor": 1,
    "##28": 16,
    "form": 0,
    "observe": 0,
    "Bad": 1,
    "KC": 8,
    "released": 0,
    "urine": 0,
    "69": 0,
    "02": 0,
    "Japanese": 0,
    "rode": 0,
    "##nts": 0,
    "com": 0,
    "##ably": 0,
    "##vation": 0,
    "interface": 0,
    "##ES": 6,
    "Horses": 0,
    "longer": 0,
    "healthy": 0,
    "norms": 0,
    "few": 0,
    "##kel": 1,
    "##bor": 0,
    "exercise": 0,
    "##uated": 0,
    "Recently": 0,
    "RB": 20,
    "locations": 0,
    "##pur": 0,
    "mounting": 0,
    "thick": 0,
    "specimens": 0,
    "oil": 0,
    "objective": 0,
    "covers": 0,
    "then": 0,
    "bubbles": 0,
    "specimen": 0,
    "conducted": 0,
    "MD": 18,
    "147": 0,
    "##EF": 23,
    "AU": 1,
    "A1": 1,
    "rear": 2,
    "##rang": 0,
    "##ement": 0,
    "##OX": 8,
    "separate": 0,
    "interest": 0,
    "capable": 0,
    "222": 0,
    "fur": 0,
    "stereo": 0,
    "##iation": 0,
    "blockade": 0,
    "plays": 0,
    "fully": 0,
    "account": 0,
    "kinetic": 0,
    "profiles": 0,
    "parental": 0,
    "complexity": 0,
    "existence": 0,
    "##ational": 0,
    "Electronic": 0,
    "processing": 0,
    "seminal": 1,
    "##SA": 4,
    "##lot": 3,
    "contain": 0,
    "transfer": 14,
    "prospective": 0,
    "compare": 0,
    "##MG": 3,
    "##FS": 1,
    "##ilization": 0,
    "fresh": 0,
    "frozen": 0,
    "pork": 0,
    "##iss": 0,
    "##imus": 0,
    "Pan": 2,
    "poorly": 0,
    "##ito": 2,
    "predicted": 0,
    "spanning": 0,
    "according": 0,
    "cassette": 0,
    "##dar": 0,
    "treat": 0,
    "complicated": 0,
    "##rr": 2,
    "fading": 0,
    "Sep": 0,
    "##ara": 3,
    "##nh": 0,
    "##rin": 40,
    "compounds": 0,
    "tension": 0,
    "discovered": 0,
    "imp": 0,
    "##air": 0,
    "##inating": 0,
    "Review": 0,
    "##ior": 3,
    "carrying": 0,
    "Y": 36,
    "proving": 0,
    "170": 0,
    "Further": 0,
    "##TV": 1,
    "coat": 2,
    "quantitative": 0,
    "##ual": 1,
    "##itative": 0,
    "they": 0,
    "injury": 0,
    "facial": 0,
    "burns": 0,
    "##ace": 0,
    "##put": 2,
    "differentiate": 0,
    "par": 6,
    "turn": 0,
    "facilitate": 0,
    "avid": 3,
    "cross": 0,
    "##link": 0,
    "competition": 0,
    "Evaluation": 0,
    "##poradic": 0,
    "##lial": 0,
    "break": 1,
    "reside": 0,
    "usage": 0,
    "AT": 35,
    "fat": 0,
    "still": 0,
    "lean": 0,
    "##bes": 0,
    "##IB": 3,
    "##ham": 0,
    "recovery": 0,
    "labelled": 0,
    "##uation": 0,
    "coverage": 0,
    "##ism": 0,
    "##dr": 13,
    "##ura": 0,
    "targeted": 0,
    "relies": 0,
    "conversion": 0,
    "point": 0,
    "libraries": 0,
    "##gos": 1,
    "##ride": 0,
    "##lification": 0,
    "##ntal": 0,
    "##rease": 5,
    "became": 0,
    "evident": 0,
    "observers": 0,
    "task": 0,
    "tea": 0,
    "plantation": 0,
    "##ndy": 0,
    "Twenty": 0,
    "spa": 0,
    "##stic": 0,
    "##als": 0,
    "##vel": 0,
    "##mental": 0,
    "infancy": 0,
    "evening": 0,
    "amplitude": 0,
    "proportional": 0,
    "utilizes": 0,
    "examine": 0,
    "##ges": 5,
    "mode": 0,
    "##ju": 0,
    "availability": 0,
    "barrier": 0,
    "needed": 0,
    "compound": 0,
    "##ype": 3,
    "##q": 10,
    "frequent": 0,
    "##tens": 8,
    "roles": 0,
    "thought": 0,
    "specified": 0,
    "partners": 0,
    "Several": 0,
    "progression": 0,
    "segments": 0,
    "##ilon": 4,
    "##igate": 0,
    "switch": 0,
    "##ulo": 11,
    "##20": 19,
    "Effect": 0,
    "##abe": 0,
    "Nine": 0,
    "nap": 0,
    "##hale": 0,
    "XII": 0,
    "III": 0,
    "VI": 0,
    "XIII": 1,
    "root": 0,
    "bark": 0,
    "Oro": 0,
    "##lum": 0,
    "conclude": 0,
    "##rene": 1,
    "ago": 0,
    "##nist": 0,
    "vascular": 7,
    "unless": 0,
    "##flow": 0,
    "Nevertheless": 0,
    "starvation": 0,
    "##27": 16,
    "boost": 0,
    "##gens": 0,
    "##tus": 7,
    "constituents": 0,
    "Dry": 0,
    "##pis": 0,
    "##vo": 5,
    "##use": 0,
    "aggressive": 0,
    "##AL": 3,
    "##nob": 0,
    "##FL": 0,
    "##lent": 0,
    "FL": 16,
    "mantle": 0,
    "##ave": 0,
    "##dio": 0,
    "bilateral": 0,
    "##current": 0,
    "##BR": 4,
    "rare": 0,
    "headache": 0,
    "tin": 2,
    "##igo": 0,
    "hearing": 0,
    "##iology": 0,
    "Such": 0,
    "enable": 0,
    "generation": 0,
    "mysteries": 0,
    "geographic": 0,
    "##iability": 0,
    "##mel": 0,
    "##ano": 0,
    "incidence": 0,
    "##vary": 0,
    "while": 0,
    "neither": 0,
    "developmental": 0,
    "Express": 0,
    "stomach": 0,
    "Le": 3,
    "##inae": 0,
    "actual": 0,
    "WHO": 0,
    "Next": 0,
    "genetically": 0,
    "disrupt": 0,
    "cortex": 0,
    "laughing": 0,
    "seizure": 0,
    "trial": 0,
    "##diation": 0,
    "AL": 13,
    "Lu": 4,
    "##ng": 3,
    "density": 0,
    "quartz": 0,
    "volcanic": 0,
    "ash": 0,
    "##phological": 0,
    "snake": 0,
    "venom": 0,
    "##ja": 0,
    "##vor": 0,
    "Direct": 1,
    "Factor": 6,
    "crude": 0,
    "interference": 0,
    "##ube": 0,
    "BC": 30,
    "##ulum": 0,
    "determine": 0,
    "##oter": 0,
    "suspension": 0,
    "##OS": 7,
    "##cona": 0,
    "simpler": 0,
    "reactions": 0,
    "generated": 0,
    "Investigation": 0,
    "hip": 0,
    "##cam": 0,
    "##pal": 0,
    "slice": 0,
    "bursts": 0,
    "80": 3,
    "Hz": 0,
    "followed": 0,
    "slower": 0,
    "opposite": 0,
    "##mentation": 0,
    "##ceptive": 0,
    "drive": 0,
    "spinal": 1,
    "transmission": 0,
    "completely": 0,
    "ones": 0,
    "##MD": 5,
    "caps": 4,
    "##aic": 0,
    "##ens": 2,
    "##itive": 0,
    "absorbed": 0,
    "integrating": 0,
    "detector": 0,
    "##umi": 1,
    "##cent": 1,
    "##meter": 0,
    "plastic": 0,
    "track": 0,
    "chemical": 0,
    "##cision": 0,
    "##FA": 11,
    "##ad": 12,
    "##quisite": 0,
    "##rate": 3,
    "constitutional": 0,
    "gross": 0,
    "fine": 0,
    "performance": 0,
    "traumatic": 0,
    "injured": 0,
    "consciousness": 0,
    "hours": 0,
    "##gnesium": 0,
    "##lat": 9,
    "##UR": 4,
    "purposes": 0,
    "w": 11,
    "##ero": 1,
    "##bic": 0,
    "##lm": 3,
    "physician": 0,
    "status": 0,
    "AIDS": 0,
    "ill": 0,
    "##lap": 0,
    "Five": 0,
    "Des": 0,
    "projection": 0,
    "##dent": 1,
    "##ification": 0,
    "##ema": 1,
    "##22": 12,
    "admitted": 0,
    "appropriately": 0,
    "Based": 0,
    "evolved": 0,
    "##vert": 3,
    "##cos": 10,
    "##ong": 2,
    "cultures": 0,
    "Additional": 0,
    "sides": 0,
    "##our": 0,
    "Lac": 5,
    "##rout": 0,
    "##rst": 0,
    "##tan": 0,
    "##agon": 0,
    "topic": 0,
    "applications": 0,
    "##nse": 0,
    "##rino": 0,
    "deficiency": 0,
    "excessive": 0,
    "light": 1,
    "##sitive": 0,
    "itself": 0,
    "##45": 19,
    "##yas": 1,
    "expressing": 0,
    "releases": 0,
    "aggregate": 0,
    "##15": 26,
    "##uddin": 0,
    "steps": 0,
    "gang": 0,
    "##lion": 0,
    "##00": 2,
    "##imation": 0,
    "cheaper": 0,
    "recommend": 0,
    "##ushing": 0,
    "sensory": 0,
    "restored": 0,
    "##EA": 13,
    "##rup": 2,
    "##ley": 2,
    "##ul": 0,
    "##can": 8,
    "equal": 0,
    "ancestral": 0,
    "##itor": 0,
    "##yan": 3,
    "RS": 6,
    "##44": 15,
    "##gas": 0,
    "##lli": 1,
    "Value": 0,
    "Nor": 1,
    "##mote": 0,
    "assessment": 0,
    "concurrent": 0,
    "ten": 1,
    "confidence": 0,
    "interval": 0,
    "believed": 0,
    "Prevention": 0,
    "18": 5,
    "variants": 0,
    "##enter": 0,
    "##yu": 3,
    "Lia": 1,
    "Hybrid": 0,
    "predominant": 0,
    "message": 1,
    "accompanied": 0,
    "weaker": 0,
    "bands": 0,
    "sustained": 0,
    "##lio": 0,
    "##blast": 12,
    "Together": 0,
    "amounts": 0,
    "vs": 2,
    "SS": 15,
    "twice": 0,
    "##sm": 5,
    "describes": 0,
    "##GP": 7,
    "best": 0,
    "identify": 0,
    "contributions": 0,
    "focus": 0,
    "##res": 0,
    "##ved": 0,
    "questions": 0,
    "Pat": 1,
    "##ients": 0,
    "Control": 0,
    "circulating": 0,
    "heating": 0,
    "humid": 0,
    "AN": 14,
    "##ED": 3,
    "##UM": 1,
    "##IT": 8,
    "##BE": 3,
    "Apart": 0,
    "Inc": 0,
    "##uba": 0,
    "##far": 0,
    "Metal": 0,
    "coordination": 0,
    "##ben": 1,
    "Total": 0,
    "##dan": 0,
    "##sable": 0,
    "##be": 7,
    "paternal": 0,
    "##are": 0,
    "failed": 0,
    "substantially": 0,
    "absent": 0,
    "failing": 0,
    "maternal": 2,
    "##CE": 13,
    "techniques": 0,
    "##oids": 0,
    "diagnosed": 0,
    "maze": 0,
    "Effects": 0,
    "##mit": 0,
    "##not": 0,
    "accelerated": 0,
    "##AN": 3,
    "37": 0,
    "history": 0,
    "##au": 0,
    "##ndi": 3,
    "frequently": 0,
    "##70": 22,
    "how": 0,
    "couple": 0,
    "placement": 0,
    "click": 0,
    "spectral": 0,
    "##toon": 0,
    "intrinsic": 0,
    "unstable": 0,
    "transforming": 5,
    "include": 0,
    "##but": 0,
    "##amine": 1,
    "187": 0,
    "alterations": 0,
    "##oda": 0,
    "##lity": 0,
    "balance": 0,
    "Swift": 0,
    "contrasting": 0,
    "posts": 1,
    "intervention": 0,
    "segregated": 0,
    "##front": 0,
    "loops": 0,
    "app": 0,
    "##bly": 0,
    "tumors": 0,
    "##ants": 0,
    "cover": 0,
    "entire": 2,
    "competitive": 0,
    "transform": 0,
    "chicken": 15,
    "white": 1,
    "47": 2,
    "scales": 0,
    "##ence": 0,
    "estimated": 0,
    "Reynolds": 0,
    "##cale": 0,
    "Taylor": 0,
    "Ko": 0,
    "##ogo": 0,
    "scale": 0,
    "##logical": 0,
    "semi": 0,
    "##qua": 1,
    "##nti": 0,
    "##tative": 0,
    "##gna": 0,
    "Go": 3,
    "successful": 0,
    "pH": 1,
    "Act": 2,
    "##ivated": 0,
    "revised": 0,
    "interpretation": 0,
    "underlying": 0,
    "involve": 0,
    "##connected": 0,
    "systems": 0,
    "defense": 0,
    "##ception": 0,
    "onto": 0,
    "##geny": 0,
    "Location": 0,
    "##NR": 4,
    "75": 0,
    "contact": 1,
    "##ties": 0,
    "##WS": 9,
    "##rna": 0,
    "dominant": 10,
    "render": 0,
    "##gu": 2,
    "##duct": 1,
    "##bate": 0,
    "ton": 0,
    "recruit": 0,
    "substrates": 0,
    "dry": 0,
    "material": 0,
    "Fusion": 0,
    "##AD": 12,
    "yield": 0,
    "##fused": 0,
    "shot": 0,
    "bullets": 0,
    "intensity": 0,
    "163": 0,
    "sighs": 0,
    "##uations": 0,
    "##AR": 29,
    "derive": 0,
    "joint": 0,
    "probability": 0,
    "distributions": 0,
    "uncertain": 0,
    "climate": 0,
    "diagnostic": 0,
    "insight": 0,
    "northern": 0,
    "cigarette": 0,
    "patches": 0,
    "##hot": 0,
    "##ek": 1,
    "throughout": 0,
    "investigation": 0,
    "##lapping": 0,
    "representing": 0,
    "Side": 0,
    "subjective": 0,
    "strictly": 0,
    "##pores": 0,
    "suspended": 0,
    "##ille": 0,
    "starter": 0,
    "correct": 0,
    "##roduced": 0,
    "application": 0,
    "ultra": 0,
    "sample": 0,
    "##uant": 0,
    "randomly": 0,
    "often": 0,
    "##ber": 1,
    "##rant": 0,
    "programs": 0,
    "naturally": 0,
    "##HC": 23,
    "date": 0,
    "precisely": 0,
    "selection": 0,
    "undergone": 0,
    "##ech": 1,
    "##ola": 2,
    "Cut": 2,
    "##rosis": 0,
    "Pen": 2,
    "##ch": 18,
    "accelerate": 0,
    "words": 0,
    "earlier": 0,
    "disturbance": 0,
    "plot": 0,
    "NH": 10,
    "Until": 0,
    "##vant": 0,
    "questionable": 0,
    "##ME": 2,
    "preferred": 0,
    "option": 0,
    "Stage": 0,
    "lead": 0,
    "der": 0,
    "##cell": 1,
    "approximate": 0,
    "36": 0,
    "finding": 0,
    "warrant": 0,
    "Army": 0,
    "veterans": 0,
    "yellow": 0,
    "1942": 0,
    "Veterans": 0,
    "Affairs": 0,
    "hospitals": 0,
    "respect": 0,
    "##ceipt": 0,
    "En": 13,
    "##ga": 2,
    "##gement": 0,
    "##ogenic": 2,
    "120": 0,
    "##ling": 0,
    "dying": 0,
    "undergoing": 0,
    "06": 0,
    "##olin": 5,
    "ed": 0,
    "##elf": 0,
    "##val": 1,
    "permanently": 0,
    "recommended": 0,
    "sq": 1,
    "##mous": 0,
    "chick": 1,
    "theoretical": 0,
    "forming": 0,
    "200": 0,
    "bases": 0,
    "##ede": 0,
    "##eg": 3,
    "##kus": 0,
    "Singapore": 0,
    "##tour": 0,
    "digit": 0,
    "limitations": 0,
    "standardized": 0,
    "objects": 0,
    "Site": 2,
    "##rod": 0,
    "Examination": 0,
    "incomplete": 0,
    "##UT": 13,
    "Basel": 0,
    "forced": 0,
    "conduct": 0,
    "##aw": 0,
    "##vocative": 0,
    "##bach": 0,
    "causing": 0,
    "subject": 0,
    "Bat": 1,
    "##II": 43,
    "specification": 0,
    "64": 1,
    "era": 0,
    "##dication": 0,
    "assembled": 0,
    "empty": 0,
    "particles": 0,
    "##bling": 0,
    "radical": 0,
    "##ond": 1,
    "End": 4,
    "##urance": 0,
    "training": 0,
    "CE": 13,
    "receives": 0,
    "registration": 0,
    "updates": 0,
    "##encies": 0,
    "rules": 0,
    "relation": 0,
    "database": 0,
    "double": 2,
    "recover": 0,
    "His": 3,
    "##ana": 0,
    "##bat": 0,
    "Ok": 0,
    "&": 0,
    "##moto": 0,
    "extensively": 0,
    "Point": 0,
    "vine": 1,
    "So": 14,
    "readily": 0,
    "recognizable": 0,
    "##rich": 0,
    "reference": 0,
    "##lamp": 0,
    "fibre": 0,
    "53": 0,
    "sick": 1,
    "develop": 0,
    "##ax": 16,
    "##NP": 14,
    "routes": 0,
    "##oam": 9,
    "##SP": 18,
    "##teral": 0,
    "##ril": 0,
    "Biological": 0,
    "Be": 2,
    "Two": 0,
    "bridges": 0,
    "sperm": 1,
    "##hes": 0,
    "edges": 0,
    "face": 0,
    "coincided": 0,
    "existing": 0,
    "routine": 0,
    "##metric": 0,
    "dual": 0,
    "counterpart": 0,
    "Sex": 0,
    "capacity": 0,
    "154": 0,
    "recovered": 0,
    "experimental": 0,
    "seeks": 0,
    "sum": 1,
    "##mar": 2,
    "pathways": 0,
    "ways": 0,
    "traditional": 0,
    "interpreted": 0,
    "evolving": 0,
    "Diet": 0,
    "juvenile": 0,
    "ninth": 0,
    "participate": 0,
    "supplied": 0,
    "##MA": 5,
    "Mel": 0,
    "last": 0,
    "controversy": 0,
    "elect": 0,
    "node": 0,
    "##sse": 0,
    "##ctions": 0,
    "continues": 0,
    "portion": 0,
    "UK": 1,
    "##LF": 8,
    "fingers": 0,
    "##CC": 4,
    "##cini": 0,
    "##ure": 1,
    "03": 0,
    "##smus": 0,
    "nut": 0,
    "##ans": 0,
    "arousal": 0,
    "digital": 0,
    "Model": 0,
    "spat": 0,
    "##iot": 2,
    "stick": 0,
    "slip": 0,
    "motion": 0,
    "How": 0,
    "vein": 0,
    "dramatic": 0,
    "##etus": 0,
    "Na": 5,
    "sufficient": 0,
    "literature": 0,
    "multi": 5,
    "centre": 0,
    "##gg": 6,
    "Try": 0,
    "CIA": 0,
    "Op": 2,
    "##site": 0,
    "##YP": 20,
    "164": 0,
    "placed": 0,
    "waiting": 0,
    "list": 0,
    "275": 0,
    "1991": 0,
    "1997": 0,
    "##ald": 1,
    "##eh": 1,
    "##ib": 2,
    "Upon": 0,
    "##sor": 0,
    "concentrating": 0,
    "mat": 1,
    "##uration": 1,
    "eggs": 0,
    "proceeding": 0,
    "##sound": 0,
    "##OE": 2,
    "predict": 0,
    "prevalence": 0,
    "##ache": 0,
    "County": 0,
    "##culus": 0,
    "500": 0,
    "IBM": 0,
    "compatible": 0,
    "computers": 0,
    "migrants": 0,
    "##rient": 0,
    "##nut": 0,
    "Dutch": 0,
    "affinity": 0,
    "initiated": 0,
    "Max": 8,
    "##sal": 0,
    "authorization": 0,
    "nurses": 0,
    "psychiatric": 0,
    "remove": 0,
    "clear": 0,
    "surgical": 0,
    "##64": 3,
    "skull": 0,
    "##formed": 0,
    "Lau": 0,
    "##cie": 0,
    "stops": 0,
    "restoration": 0,
    "teeth": 0,
    "meter": 0,
    "##cating": 0,
    "143": 0,
    "nitrogen": 0,
    "reduce": 0,
    "288": 0,
    "96": 0,
    "##yric": 0,
    "distance": 0,
    "##rgan": 0,
    "##rdi": 0,
    "##ND": 0,
    "44": 1,
    "09": 0,
    "IT": 0,
    "##GM": 11,
    "instance": 0,
    "##orous": 0,
    "supply": 0,
    "vitamin": 2,
    "##kal": 16,
    "##eter": 0,
    "##mined": 0,
    "##dn": 0,
    "##ison": 0,
    "##mission": 0,
    "##tino": 21,
    "225": 0,
    "340": 0,
    "110": 0,
    "diversity": 0,
    "joining": 1,
    "divers": 0,
    "##ranged": 2,
    "movement": 0,
    "pauses": 0,
    "silent": 2,
    "competent": 0,
    "kept": 0,
    "Or": 1,
    "##eb": 4,
    "depressed": 0,
    "spreads": 0,
    "close": 0,
    "##24": 10,
    "supplemented": 0,
    "below": 0,
    "teaching": 0,
    "booklet": 0,
    "##ediatric": 0,
    "legal": 0,
    "issues": 0,
    "##ising": 0,
    "thereafter": 0,
    "dramatically": 0,
    "switching": 0,
    "establishment": 0,
    "##pation": 0,
    "walking": 0,
    "implications": 0,
    "endurance": 0,
    "##ability": 0,
    "##tham": 0,
    "stored": 0,
    "CH": 20,
    "Introduction": 0,
    "##aut": 0,
    "centered": 0,
    "machinery": 0,
    "involves": 0,
    "SEC": 3,
    "directing": 0,
    "spectrum": 0,
    "Sabah": 0,
    "1983": 0,
    "1988": 0,
    "##gration": 0,
    "series": 0,
    "##hl": 5,
    "##idated": 0,
    "operative": 0,
    "associates": 0,
    "protecting": 0,
    "turns": 0,
    "directions": 0,
    "constitutes": 0,
    "Use": 0,
    "##CU": 0,
    "another": 0,
    "savings": 0,
    "nursing": 0,
    "outcomes": 0,
    "##WI": 4,
    "##SN": 1,
    "##BS": 6,
    "##AG": 2,
    "aid": 0,
    "infectious": 0,
    "carriers": 0,
    "possessing": 0,
    "undergo": 0,
    "profound": 0,
    "##uil": 0,
    "##lain": 0,
    "dem": 0,
    "##ye": 0,
    "generalized": 0,
    "##type": 0,
    "##coa": 1,
    "sediment": 0,
    "columns": 0,
    "Extra": 0,
    "##med": 0,
    "##ull": 1,
    "CB": 52,
    "##bot": 1,
    "complications": 0,
    "arising": 0,
    "assist": 0,
    "device": 0,
    "##rns": 0,
    "VA": 1,
    "tuberculosis": 0,
    "systematically": 0,
    "inserted": 0,
    "tenth": 0,
    "Auto": 0,
    "All": 0,
    "62": 1,
    "##list": 0,
    "##ka": 12,
    "##hashi": 0,
    "##dra": 0,
    "##men": 0,
    "Egyptian": 0,
    "Best": 0,
    "production": 0,
    "feeding": 0,
    "##sper": 0,
    "##san": 0,
    "Tri": 2,
    "##we": 0,
    "appeared": 0,
    "Inter": 11,
    "##plane": 0,
    "coupling": 0,
    "##conductor": 0,
    "ON": 0,
    "##rn": 9,
    "##ds": 6,
    "##red": 0,
    "##nis": 0,
    "##nin": 14,
    "tilt": 0,
    "displaying": 0,
    "includes": 0,
    "whole": 0,
    "exceeding": 0,
    "sometimes": 0,
    "limit": 0,
    "Mouse": 2,
    "Impact": 0,
    "##onium": 0,
    "239": 0,
    "##die": 0,
    "##ri": 0,
    "phosphate": 0,
    "split": 0,
    "##aen": 5,
    "##hab": 5,
    "##dit": 5,
    "##47": 11,
    "remain": 0,
    "until": 0,
    "drop": 0,
    "139": 0,
    "filter": 0,
    "emerging": 0,
    "fixture": 0,
    "programmed": 0,
    "234": 0,
    "frames": 0,
    "photos": 0,
    "##ks": 5,
    "phases": 0,
    "blocking": 0,
    "withdrew": 0,
    "personal": 0,
    "reasons": 0,
    "##isation": 0,
    "##poli": 5,
    "##tology": 0,
    "Evans": 0,
    "blue": 0,
    "injection": 0,
    "##ructural": 0,
    "surf": 1,
    "##ve": 1,
    "shortly": 0,
    "Bow": 0,
    "Matthews": 0,
    "coil": 1,
    "synthetic": 4,
    "description": 0,
    "##48": 3,
    "##rma": 0,
    "main": 0,
    "abuse": 0,
    "consisting": 0,
    "##29": 4,
    "##rith": 0,
    "hook": 0,
    "Trial": 0,
    "##zophrenia": 0,
    "Instead": 0,
    "particularly": 0,
    "husbands": 0,
    "retirement": 0,
    "marital": 0,
    "satisfaction": 0,
    "wives": 0,
    "medication": 0,
    "completed": 0,
    "relationship": 0,
    "scores": 0,
    "##uid": 0,
    "decision": 0,
    "##disciplinary": 0,
    "team": 0,
    "##cologist": 0,
    "##ist": 0,
    "##ologist": 0,
    "##ych": 0,
    "surgeon": 0,
    "##urable": 0,
    "##cturnal": 0,
    "pub": 0,
    "113": 0,
    "115": 0,
    "##zi": 0,
    "initially": 0,
    "##uli": 0,
    "Sen": 0,
    "##voked": 0,
    "gray": 0,
    "##nso": 0,
    "freely": 0,
    "moving": 0,
    "kidney": 0,
    "##pressing": 0,
    "leaves": 0,
    "##tones": 1,
    "##ST": 25,
    "##ione": 18,
    "beads": 0,
    "##gne": 0,
    "wasting": 0,
    "Regional": 0,
    "clearance": 0,
    "bypass": 0,
    "procedures": 0,
    "round": 0,
    "window": 0,
    "robust": 0,
    "reliable": 0,
    "along": 0,
    "minimum": 0,
    "trauma": 0,
    "##pol": 0,
    "GM": 10,
    "##ments": 0,
    "medial": 0,
    "diagonal": 0,
    "les": 0,
    "##ioned": 0,
    "##tical": 0,
    "##BB": 1,
    "navigation": 0,
    "linking": 0,
    "classes": 0,
    "purpose": 0,
    "if": 0,
    "##iana": 0,
    "pin": 0,
    "sensation": 0,
    "##aver": 0,
    "reflex": 0,
    "immortal": 0,
    "##mian": 4,
    "rarely": 0,
    "tap": 1,
    "essentially": 0,
    "protective": 0,
    "probably": 0,
    "serves": 0,
    "jaw": 0,
    "closing": 0,
    "muscles": 0,
    "bites": 0,
    "unexpectedly": 0,
    "hard": 0,
    "uniform": 0,
    "ACT": 18,
    "releasing": 0,
    "##yra": 1,
    "research": 0,
    "cop": 1,
    "styles": 0,
    "##PI": 5,
    "##wing": 0,
    "attitude": 0,
    "introduced": 0,
    "132": 0,
    "utility": 0,
    "##hea": 0,
    "Fourteen": 0,
    "New": 0,
    "York": 0,
    "Heart": 0,
    "Association": 0,
    "enrolled": 0,
    "blind": 0,
    "##nea": 0,
    "retention": 0,
    "BR": 11,
    "##itated": 0,
    "update": 0,
    "recommendations": 0,
    "guidelines": 0,
    "Gamma": 2,
    "upper": 0,
    "none": 0,
    "##table": 0,
    "##hom": 2,
    "fitness": 0,
    "Most": 0,
    "translated": 0,
    "scanning": 0,
    "estimate": 0,
    "caution": 0,
    "prefer": 0,
    "##uan": 7,
    "V8": 1,
    "weakly": 0,
    "More": 0,
    "##ts": 28,
    "led": 0,
    "##putation": 0,
    "legs": 0,
    "must": 1,
    "##cise": 0,
    "needs": 0,
    "self": 0,
    "portions": 0,
    "observation": 0,
    "##sia": 1,
    "currently": 0,
    "##wise": 0,
    "log": 0,
    "##gression": 0,
    "##lana": 0,
    "##cz": 0,
    "##tant": 0,
    "Ren": 3,
    "Animal": 0,
    "beam": 0,
    "##scopic": 0,
    "##gio": 8,
    "image": 0,
    "Southwestern": 0,
    "monitored": 0,
    "##ital": 0,
    "overly": 0,
    "ridge": 0,
    "appear": 0,
    "##quence": 0,
    "greatest": 0,
    "centers": 0,
    "##av": 12,
    "broadly": 0,
    "possess": 0,
    "southern": 0,
    "Lower": 0,
    "Saxony": 0,
    "##fast": 0,
    "relaxation": 0,
    "##tons": 0,
    "##lene": 0,
    "##BC": 4,
    "##MU": 0,
    "##rap": 0,
    "##rano": 0,
    "##ari": 1,
    "panel": 0,
    "Mental": 0,
    "306": 0,
    "##MF": 1,
    "supports": 0,
    "argument": 0,
    "progress": 0,
    "RC": 5,
    "286": 0,
    "lap": 0,
    "##aro": 1,
    "##aph": 3,
    "##rag": 0,
    "hiatus": 0,
    "indicator": 0,
    "rigid": 0,
    "Select": 0,
    "##tag": 0,
    "curves": 0,
    "Take": 0,
    "##nter": 0,
    "stimulus": 0,
    "lent": 1,
    "XVI": 0,
    "Lab": 0,
    "programmes": 0,
    "##ometric": 0,
    "Ma": 6,
    "##gnetic": 0,
    "##copy": 0,
    "##ward": 0,
    "##mona": 2,
    "pat": 0,
    "recruitment": 0,
    "attachment": 0,
    "##ishes": 0,
    "talk": 0,
    "electrical": 0,
    "lasts": 0,
    "Drug": 0,
    "narrow": 0,
    "sixteen": 0,
    "overview": 0,
    "experiences": 0,
    "ongoing": 0,
    "SMS": 0,
    "Mini": 1,
    "Speech": 0,
    "specify": 0,
    "1000": 0,
    "109": 1,
    "cooperation": 0,
    "Tax": 16,
    "elevation": 0,
    "calls": 0,
    "careful": 0,
    "adjustments": 0,
    "fort": 0,
    "extended": 0,
    "periods": 0,
    "##hol": 0,
    "grade": 0,
    "penetration": 0,
    "invasion": 0,
    "##gat": 0,
    "##ulu": 0,
    "##ndo": 0,
    "##din": 6,
    "##chin": 0,
    "##and": 0,
    "##fu": 1,
    "##nga": 0,
    "National": 0,
    "Committee": 0,
    "Laboratory": 0,
    "Standards": 0,
    "##CL": 2,
    "##lium": 0,
    "color": 0,
    "Multiple": 0,
    "##bal": 0,
    "##rehension": 0,
    "Freedom": 0,
    "##stra": 0,
    "variance": 0,
    "##dices": 0,
    "die": 0,
    "modular": 0,
    "allows": 0,
    "Ari": 3,
    "understood": 0,
    "Different": 0,
    "##ined": 0,
    "reconstruction": 0,
    "nerves": 0,
    "resembled": 0,
    "contributed": 0,
    "remaining": 0,
    "Results": 0,
    "indeed": 0,
    "operator": 0,
    "##ela": 0,
    "let": 0,
    "##tu": 0,
    "##MC": 0,
    "##cens": 0,
    "duct": 0,
    "illness": 0,
    "##usive": 0,
    "maximum": 0,
    "prevents": 0,
    "##cci": 1,
    "##nate": 3,
    "MP": 9,
    "##SS": 3,
    "remarkable": 0,
    "slight": 0,
    "##trom": 0,
    "##ign": 0,
    "impressive": 0,
    "invasive": 0,
    "For": 0,
    "diary": 0,
    "bed": 0,
    "##time": 0,
    "wake": 0,
    "alert": 0,
    "awake": 0,
    "##ning": 0,
    "morning": 0,
    "needing": 0,
    "alarm": 0,
    "person": 0,
    "functioning": 0,
    "##cis": 0,
    "mentioned": 0,
    "Video": 0,
    "##cription": 0,
    "examinations": 0,
    "great": 0,
    "##pical": 0,
    "##IA": 5,
    "##41": 10,
    "Mean": 0,
    "##EG": 12,
    "University": 0,
    "Paris": 0,
    "hospital": 0,
    "##ncies": 0,
    "According": 0,
    "##gi": 2,
    "consisted": 0,
    "except": 0,
    "sharply": 0,
    "diver": 0,
    "null": 0,
    "nonsense": 0,
    "miss": 0,
    "##ense": 0,
    "fourth": 0,
    "coordinating": 0,
    "##edic": 0,
    "##ded": 0,
    "obtaining": 0,
    "##nium": 0,
    "dioxide": 0,
    "applying": 0,
    "stainless": 0,
    "steel": 0,
    "316": 0,
    "assisted": 0,
    "users": 0,
    "##nical": 1,
    "##scope": 0,
    "recording": 0,
    "fast": 0,
    "sweep": 0,
    "speeds": 0,
    "exploit": 0,
    "Lex": 7,
    "requirement": 0,
    "233": 0,
    "249": 0,
    "mineral": 0,
    "##oz": 4,
    "##iden": 0,
    "##ector": 0,
    "lowered": 0,
    "Pi": 7,
    "belongs": 0,
    "SSR": 0,
    "1999": 0,
    "goat": 1,
    "##side": 1,
    "females": 0,
    "exception": 0,
    "##fied": 2,
    "Experimental": 0,
    "pigs": 0,
    "##gate": 0,
    "sugar": 0,
    "##eur": 10,
    "##eu": 1,
    "##ailed": 0,
    "boundary": 0,
    "born": 0,
    "alcoholic": 0,
    "mothers": 0,
    "Fun": 0,
    "##ctional": 0,
    "jointly": 0,
    "named": 0,
    "##43": 3,
    "orbit": 0,
    "##media": 0,
    "dorsal": 0,
    "##MR": 1,
    "Symposium": 0,
    "devised": 0,
    "coincide": 0,
    "##head": 5,
    "winged": 3,
    "##ronic": 0,
    "##vations": 0,
    "##tt": 0,
    "##off": 0,
    "newly": 0,
    "organism": 0,
    "disc": 0,
    "##cies": 0,
    "API": 0,
    "149": 0,
    "liter": 0,
    "visually": 0,
    "signs": 0,
    "##rus": 0,
    "##30": 33,
    "Number": 0,
    "##lanted": 0,
    "guide": 0,
    "##nu": 1,
    "aimed": 0,
    "lateral": 0,
    "Eight": 0,
    "filtered": 0,
    "##loc": 1,
    "vase": 0,
    "##idy": 2,
    "##mas": 0,
    "promoted": 0,
    "serious": 0,
    "epic": 0,
    "##ition": 0,
    "silence": 0,
    "Monitor": 0,
    "##ify": 0,
    "episodes": 0,
    "Basic": 1,
    "Hand": 0,
    "quantities": 0,
    "##bian": 1,
    "called": 0,
    "shape": 0,
    "morphology": 0,
    "##king": 0,
    "undertook": 0,
    "##rous": 0,
    "acronym": 0,
    "progressively": 0,
    "opposing": 0,
    "##bid": 0,
    "##osterone": 0,
    "##rte": 2,
    "would": 0,
    "expected": 0,
    "rescue": 0,
    "lethal": 0,
    "stream": 0,
    "Min": 0,
    "##owa": 0,
    "worked": 0,
    "counsel": 0,
    "industry": 0,
    "past": 0,
    "Czechoslovak": 0,
    "batch": 0,
    "foreign": 0,
    "laboratories": 0,
    "culture": 0,
    "disruption": 0,
    "integral": 0,
    "##erve": 1,
    "Growth": 1,
    "Treatment": 0,
    "tolerate": 0,
    "Research": 0,
    "##sty": 0,
    "parasite": 0,
    "remarks": 0,
    "58": 1,
    "energy": 0,
    "##01": 0,
    "NE": 4,
    "augmented": 0,
    "supplement": 0,
    "Met": 2,
    "##sus": 0,
    "##citation": 0,
    "##pox": 2,
    "##vour": 0,
    "accumulation": 0,
    "closure": 0,
    "confirm": 0,
    "extend": 0,
    "researchers": 0,
    "editing": 0,
    "##late": 2,
    "malaria": 0,
    "makes": 0,
    "urgent": 0,
    "##aria": 0,
    "Mary": 0,
    "##nen": 0,
    "Zhang": 0,
    "Cass": 0,
    "##iman": 0,
    "Van": 0,
    "##den": 0,
    "Berg": 0,
    "David": 0,
    "##ain": 0,
    "##AB": 11,
    "seemed": 0,
    "silver": 0,
    "brushing": 0,
    "##itt": 0,
    "fix": 2,
    "##GS": 9,
    "##TM": 1,
    "Anti": 10,
    "##ued": 0,
    "chip": 0,
    "depth": 0,
    "video": 0,
    "real": 0,
    "Second": 0,
    "Norwegian": 0,
    "Cancer": 0,
    "Society": 0,
    "available": 0,
    "images": 0,
    "##BI": 3,
    "combinations": 0,
    "##tech": 0,
    "##ffer": 0,
    "inputs": 0,
    "hind": 0,
    "##lim": 2,
    "sur": 1,
    "Sur": 3,
    "##uron": 4,
    "chamber": 0,
    "254": 0,
    "connection": 0,
    "valve": 0,
    "##its": 0,
    "apex": 0,
    "ascending": 0,
    "weather": 0,
    "budget": 0,
    "living": 0,
    "birds": 0,
    "resting": 0,
    "expenditure": 0,
    "##ced": 0,
    "September": 0,
    "1980": 0,
    "June": 0,
    "Family": 0,
    "##person": 0,
    "substance": 0,
    "individually": 0,
    "##wth": 0,
    "##pathy": 1,
    "##cap": 0,
    "##olio": 1,
    "##chel": 0,
    "Eleven": 0,
    "radios": 0,
    "promotes": 0,
    "They": 0,
    "Systems": 0,
    "Westwood": 0,
    "Mat": 1,
    "AG": 1,
    "SK": 2,
    "Counter": 0,
    "passages": 0,
    "Hence": 0,
    "##32": 11,
    "provisional": 0,
    "reports": 0,
    "##copic": 0,
    "provided": 0,
    "##biology": 0,
    "susceptible": 0,
    "##ines": 0,
    "replica": 1,
    "shoot": 0,
    "seed": 1,
    "flowers": 0,
    "##lore": 0,
    "##scence": 0,
    "stems": 0,
    "Institution": 0,
    "##cist": 0,
    "##ern": 0,
    "##met": 2,
    "##has": 0,
    "situations": 0,
    "cultural": 0,
    "confirmation": 0,
    "might": 0,
    "pseudo": 0,
    "##ious": 0,
    "##80": 5,
    "##runcated": 4,
    "missing": 0,
    "##RI": 16,
    "##VA": 2,
    "will": 0,
    "donor": 0,
    "Du": 0,
    "##lang": 0,
    "##ie": 1,
    "##asi": 0,
    "CW": 0,
    "derivatives": 0,
    "obtain": 0,
    "suitable": 0,
    "assume": 0,
    "input": 0,
    "reserved": 0,
    "sister": 0,
    "distinctive": 0,
    "backward": 0,
    "Les": 0,
    "##ions": 0,
    "positioned": 0,
    "##pipe": 0,
    "##tte": 0,
    "covering": 0,
    "remainder": 0,
    "assumptions": 0,
    "bow": 0,
    "follow": 0,
    "##bilities": 0,
    "outlook": 0,
    "wrist": 0,
    "##the": 0,
    "respond": 0,
    "participation": 0,
    "##TC": 1,
    "protect": 0,
    "##dant": 0,
    "power": 0,
    "##enia": 0,
    "national": 0,
    "effort": 0,
    "ask": 0,
    "violence": 0,
    "Western": 0,
    "Fr": 4,
    "##zon": 0,
    "consideration": 0,
    "conception": 0,
    "##CI": 3,
    "serve": 0,
    "reflect": 0,
    "##hs": 0,
    "string": 0,
    "##ency": 0,
    "world": 0,
    "##EI": 1,
    "reduces": 0,
    "displacement": 0,
    "negatively": 0,
    "##17": 15,
    "continuously": 0,
    "load": 0,
    "bicycle": 0,
    "version": 0,
    "swimming": 0,
    "rot": 0,
    "##atory": 0,
    "spend": 0,
    "container": 0,
    "attempting": 0,
    "escape": 0,
    "##vers": 0,
    "resides": 0,
    "##OH": 2,
    "deliver": 0,
    "introduces": 0,
    "converting": 0,
    "characterised": 0,
    "##ish": 2,
    "##mani": 0,
    "Bert": 0,
    "classic": 0,
    "appropriate": 0,
    "benefits": 0,
    "##quest": 0,
    "##rants": 0,
    "##bu": 3,
    "approaches": 0,
    "conjunction": 0,
    "##tically": 0,
    "bridge": 0,
    "240": 0,
    "Many": 0,
    "land": 0,
    "##fill": 0,
    "operations": 0,
    "1950s": 0,
    "1960s": 0,
    "regarding": 0,
    "buried": 0,
    "##sten": 0,
    "Red": 0,
    "degrees": 0,
    "Organization": 0,
    "smaller": 0,
    "reacted": 0,
    "##EN": 1,
    "##TS": 4,
    "AND": 1,
    "Experiment": 0,
    "problems": 0,
    "Sources": 0,
    "noise": 0,
    "preparations": 0,
    "taking": 0,
    "commercial": 0,
    "coaching": 0,
    "Medical": 0,
    "College": 0,
    "Ad": 9,
    "Test": 0,
    "MCA": 1,
    "sitting": 0,
    "vessel": 0,
    "transverse": 0,
    "colour": 0,
    "Rabbit": 1,
    "removed": 0,
    "held": 0,
    "temperature": 3,
    "chambers": 0,
    "##rri": 0,
    "check": 0,
    "entered": 0,
    "attain": 0,
    "sexual": 0,
    "maturity": 0,
    "terms": 0,
    "preliminary": 0,
    "##race": 0,
    "Tobacco": 0,
    "mosaic": 0,
    "##onal": 0,
    "quantity": 0,
    "channels": 0,
    "reappeared": 0,
    "reach": 0,
    "stem": 0,
    "duo": 0,
    "##pts": 0,
    "challenge": 0,
    "Through": 0,
    "2003": 0,
    "221": 0,
    "call": 0,
    "indication": 0,
    "machine": 0,
    "partner": 1,
    "Fan": 1,
    "NPR": 0,
    "appearances": 0,
    "lame": 0,
    "bodies": 0,
    "114": 0,
    "back": 0,
    "##cross": 0,
    "burst": 0,
    "suppression": 0,
    "Low": 0,
    "##ii": 0,
    "Gas": 2,
    "##llum": 0,
    "##mini": 3,
    "244": 0,
    "167": 0,
    "1998": 0,
    "##gh": 0,
    "##irt": 0,
    "particle": 0,
    "Cat": 8,
    "Common": 0,
    "##ologies": 0,
    "heel": 0,
    "##tars": 0,
    "##gia": 0,
    "hammer": 0,
    "claw": 0,
    "##union": 0,
    "hall": 0,
    "##uses": 0,
    "nail": 0,
    "separation": 0,
    "Studies": 0,
    "##tile": 0,
    "Ms": 8,
    "08": 1,
    "##nn": 0,
    "##hein": 0,
    "chains": 0,
    "##ui": 0,
    "##sha": 0,
    "DB": 6,
    "widely": 0,
    "valid": 0,
    "##bent": 0,
    "##udo": 2,
    "run": 0,
    "introducing": 0,
    "polar": 0,
    "elsewhere": 0,
    "speed": 0,
    "##puted": 0,
    "scan": 0,
    "machines": 0,
    "##ynamic": 0,
    "become": 0,
    "##rium": 0,
    "##nological": 0,
    "emergency": 0,
    "condition": 0,
    "arises": 0,
    "periodic": 0,
    "source": 0,
    "namely": 0,
    "weekly": 0,
    "##ivate": 0,
    "Fifty": 0,
    "young": 0,
    "horizontal": 0,
    "##rsa": 0,
    "cause": 0,
    "symmetry": 0,
    "remote": 0,
    "About": 0,
    "behave": 0,
    "constitute": 0,
    "optical": 0,
    "pulsing": 0,
    "##linear": 0,
    "area": 0,
    "reserve": 0,
    "severely": 0,
    "terrestrial": 0,
    "planets": 0,
    "dense": 0,
    "atmosphere": 0,
    "Venus": 0,
    "evolve": 0,
    "rotation": 0,
    "Mon": 0,
    "Radio": 0,
    "##lide": 0,
    "##ration": 0,
    "import": 1,
    "Multi": 1,
    "##centric": 0,
    "odds": 0,
    "##fle": 0,
    "supposedly": 0,
    "routinely": 0,
    "prescription": 0,
    "El": 10,
    "##eva": 0,
    "removal": 0,
    "da": 1,
    "served": 0,
    "##uate": 0,
    "terminated": 0,
    "237": 0,
    "Mr": 1,
    "##nk": 0,
    "adapt": 1,
    "##had": 0,
    "##izes": 0,
    "Junction": 0,
    "##amel": 0,
    "##ute": 4,
    "##que": 0,
    "refined": 0,
    "ceramics": 0,
    "il": 0,
    "##ill": 12,
    "kids": 0,
    "confined": 0,
    "express": 0,
    "##CT": 8,
    "maize": 1,
    "nevertheless": 0,
    "favored": 0,
    "satellite": 0,
    "156": 1,
    "unsuccessful": 0,
    "disrupted": 0,
    "drawing": 0,
    "matters": 0,
    "##uad": 0,
    "##rat": 0,
    "##graph": 0,
    "##ptera": 0,
    "##rug": 0,
    "##iper": 0,
    "##culate": 0,
    "projections": 0,
    "vest": 0,
    "##wan": 0,
    "##nail": 1,
    "Pol": 14,
    "##losure": 0,
    "fist": 0,
    "shorter": 0,
    "##hium": 0,
    "Paul": 0,
    "Mona": 0,
    "##gle": 4,
    "addresses": 0,
    "##bos": 3,
    "outside": 0,
    "Again": 0,
    "notably": 0,
    "choices": 0,
    "107": 0,
    "108": 0,
    "##hino": 0,
    "fewer": 0,
    "acceptable": 0,
    "##section": 0,
    "Approximately": 0,
    "viruses": 0,
    "Elements": 0,
    "##CS": 7,
    "##IR": 13,
    "51": 0,
    "49": 0,
    "##viator": 0,
    "Light": 1,
    "Attack": 0,
    "Pacific": 0,
    "surveyed": 0,
    "categorized": 0,
    "aircraft": 0,
    "scattering": 0,
    "dimensional": 0,
    "transmit": 0,
    "demographic": 0,
    "populations": 0,
    "Uzbekistan": 0,
    "Between": 0,
    "August": 0,
    "198": 0,
    "classified": 0,
    "##det": 0,
    "staging": 0,
    "nasal": 0,
    "##alle": 0,
    "##rgo": 0,
    "Group": 0,
    "enter": 1,
    "Tests": 0,
    "Moss": 0,
    "##uer": 0,
    "altering": 0,
    "Mark": 0,
    "##if": 6,
    "NHS": 0,
    "translates": 0,
    "sets": 0,
    "simulated": 0,
    "scenario": 0,
    "widespread": 0,
    "introduction": 0,
    "category": 0,
    "establish": 0,
    "albeit": 0,
    "pools": 0,
    "660": 0,
    "##lose": 0,
    "horn": 0,
    "inverse": 0,
    "influences": 0,
    "sympathetic": 0,
    "inner": 1,
    "##entry": 0,
    "##sma": 0,
    "##tch": 0,
    "##mins": 1,
    "##rice": 0,
    "##fy": 0,
    "##ER": 9,
    "##lich": 0,
    "returned": 0,
    "contributor": 0,
    "Pit": 8,
    "55": 0,
    "##action": 0,
    "##ug": 3,
    "outer": 1,
    "##bert": 0,
    "##mei": 0,
    "messenger": 0,
    "##bel": 0,
    "##ante": 0,
    "##nna": 0,
    "##cans": 0,
    "##ately": 0,
    "terminating": 0,
    "solutions": 0,
    "arise": 0,
    "vertices": 0,
    "convex": 0,
    "##hed": 2,
    "Schneider": 0,
    "tried": 0,
    "##ML": 3,
    "next": 0,
    "ate": 0,
    "##rated": 0,
    "Neo": 0,
    "fairly": 0,
    "gram": 1,
    "variant": 0,
    "##lter": 0,
    "Plate": 1,
    "uses": 0,
    "##posed": 0,
    "screw": 0,
    "heads": 0,
    "improve": 0,
    "bones": 0,
    "##mie": 0,
    "broad": 0,
    "compression": 0,
    "plates": 0,
    "quite": 0,
    "controversial": 0,
    "sudden": 0,
    "sporting": 0,
    "##mper": 0,
    "##ature": 2,
    "##latt": 0,
    "magnet": 0,
    "##hua": 0,
    "##zen": 0,
    "##thy": 6,
    "##VB": 0,
    "blast": 0,
    "courses": 0,
    "consolidation": 0,
    "recipient": 0,
    "rooms": 0,
    "Roland": 0,
    "spikes": 0,
    "##EL": 3,
    "##lets": 0,
    "lava": 0,
    "killed": 0,
    "saturated": 0,
    "mixture": 0,
    "gases": 0,
    "Cha": 0,
    "repeats": 0,
    "U2": 15,
    "##vu": 0,
    "flies": 0,
    "rub": 2,
    "strands": 0,
    "##lem": 1,
    "superiority": 0,
    "##lub": 0,
    "##sion": 0,
    "carrier": 0,
    "Mar": 0,
    "##row": 0,
    "##xia": 0,
    "##vos": 0,
    "##ntary": 0,
    "RF": 8,
    "ring": 0,
    "districts": 0,
    "##LR": 3,
    "socio": 0,
    "Before": 0,
    "pocket": 0,
    "lined": 0,
    "accommodate": 0,
    "comprised": 0,
    "Col": 6,
    "##MT": 9,
    "simultaneous": 0,
    "incorporating": 0,
    "##rid": 0,
    "192": 0,
    "##ulator": 0,
    "participates": 0,
    "require": 0,
    "cow": 0,
    "FM": 1,
    "##icit": 0,
    "Nursing": 0,
    "education": 0,
    "obligation": 0,
    "feeds": 0,
    "##bound": 0,
    "##RO": 2,
    "codes": 0,
    "arrangement": 0,
    "typical": 0,
    "Sleep": 0,
    "again": 0,
    "demanding": 0,
    "72": 0,
    "##lax": 0,
    "catch": 0,
    "smooth": 3,
    "##tura": 0,
    "##max": 0,
    "though": 0,
    "Sixteen": 0,
    "##VI": 4,
    "flip": 0,
    "tightly": 0,
    "lock": 0,
    "flipped": 0,
    "##DM": 1,
    "##quito": 0,
    "enabled": 0,
    "us": 1,
    "see": 0,
    "Chinese": 1,
    "Spring": 0,
    "lacks": 0,
    "leaf": 0,
    "##mis": 0,
    "##ll": 3,
    "cylinder": 0,
    "considerably": 0,
    "Development": 0,
    "reached": 0,
    "Vol": 0,
    "##generate": 0,
    "PBA": 1,
    "extreme": 0,
    "##BM": 4,
    "##Ds": 0,
    "knife": 0,
    "##urger": 0,
    "##rani": 0,
    "contexts": 0,
    "concerning": 0,
    "apparently": 0,
    "steep": 0,
    "add": 1,
    "##ict": 0,
    "injected": 0,
    "delivered": 0,
    "scheme": 0,
    "apart": 0,
    "adaptation": 0,
    "cement": 0,
    "possesses": 0,
    "Relations": 0,
    "##hips": 0,
    "bounds": 0,
    "oz": 0,
    "significance": 0,
    "article": 0,
    "definition": 0,
    "basically": 0,
    "##dos": 0,
    "adrenaline": 0,
    "decreasing": 0,
    "fertility": 0,
    "##sect": 0,
    "permitting": 0,
    "pulse": 0,
    "##cula": 0,
    "##ilia": 0,
    "pupils": 0,
    "take": 0,
    "background": 0,
    "once": 0,
    "fluorescent": 0,
    "Therapy": 0,
    "modification": 0,
    "lowering": 0,
    "swelling": 0,
    "shed": 0,
    "##uce": 0,
    "samples": 0,
    "twitch": 0,
    "##ility": 0,
    "Department": 0,
    "##aa": 1,
    "FF": 0,
    "##TP": 9,
    "protects": 0,
    "interrupt": 0,
    "##SI": 2,
    "soft": 0,
    "nude": 0,
    "##36": 4,
    "Out": 0,
    "171": 0,
    "July": 0,
    "December": 0,
    "1993": 0,
    "##pheric": 0,
    "##isms": 0,
    "IRA": 3,
    "##isch": 0,
    "Construction": 0,
    "Steel": 1,
    "span": 0,
    "Activities": 0,
    "450": 0,
    "##MO": 0,
    "ran": 0,
    "##stituted": 0,
    "##RC": 3,
    "##join": 0,
    "##tched": 0,
    "grew": 0,
    "melted": 0,
    "void": 0,
    "##drome": 0,
    "##90": 10,
    "1996": 0,
    "##rd": 10,
    "viable": 0,
    "Under": 0,
    "reinforced": 0,
    "##formation": 0,
    "##logies": 0,
    "Various": 0,
    "companies": 0,
    "reflection": 0,
    "sources": 0,
    "##iles": 0,
    "ranged": 0,
    "unused": 0,
    "wealth": 0,
    "##gus": 0,
    "eyelids": 0,
    "##lid": 0,
    "Terminal": 1,
    "label": 0,
    "##rmon": 0,
    "extensive": 0,
    "volunteers": 0,
    "##rue": 0,
    "habit": 0,
    "enrollment": 0,
    "Canadian": 0,
    "2001": 0,
    "##55": 10,
    "405": 0,
    "keep": 0,
    "differs": 0,
    "540": 0,
    "entirely": 0,
    "##ching": 0,
    "If": 0,
    "unavailable": 0,
    "record": 0,
    "compatibility": 0,
    "encompassing": 0,
    "Judge": 0,
    "OK": 5,
    "bid": 0,
    "Chicago": 0,
    "Other": 0,
    "Vin": 0,
    "##altered": 0,
    "poster": 0,
    "##ove": 0,
    "##all": 0,
    "385": 0,
    "Unit": 0,
    "##wine": 0,
    "Natural": 0,
    "western": 0,
    "hemisphere": 0,
    "monkeys": 0,
    "orders": 0,
    "##trar": 0,
    "Bin": 1,
    "preceding": 0,
    "##long": 0,
    "averaged": 0,
    "slowing": 0,
    "##uria": 0,
    "##izations": 0,
    "Soft": 0,
    "las": 1,
    "ions": 0,
    "650": 0,
    "pulses": 0,
    "##cas": 0,
    "washed": 0,
    "Figure": 0,
    "composition": 0,
    "resource": 0,
    "enabling": 0,
    "integration": 1,
    "fracture": 0,
    "##cture": 0,
    "radius": 0,
    "dimension": 0,
    "##graphs": 0,
    "solely": 0,
    "resembling": 0,
    "##tility": 0,
    "distortion": 0,
    "##aco": 0,
    "##ustic": 0,
    "emissions": 0,
    "Evidence": 0,
    "audit": 0,
    "vibration": 0,
    "indirectly": 0,
    "unlike": 0,
    "202": 1,
    "##rone": 0,
    "caretaker": 0,
    "305": 0,
    "woman": 0,
    "##verted": 0,
    "annual": 0,
    "afforded": 0,
    "relaxed": 0,
    "top": 10,
    "##ois": 4,
    "ABS": 0,
    "pump": 0,
    "backbone": 0,
    "name": 0,
    "Some": 0,
    "abundance": 0,
    "formed": 0,
    "rim": 1,
    "##yal": 0,
    "port": 0,
    "explained": 0,
    "lid": 0,
    "##uda": 1,
    "reins": 0,
    "cocaine": 0,
    "seeking": 0,
    "Even": 0,
    "subdued": 0,
    "decade": 0,
    "evolutionary": 0,
    "Men": 1,
    "##et": 0,
    "##rier": 0,
    "child": 0,
    "depends": 0,
    "##iform": 0,
    "137": 0,
    "arose": 0,
    "##gence": 0,
    "##100": 7,
    "MGM": 3,
    "switches": 0,
    "##lite": 0,
    "limbs": 0,
    "lies": 0,
    "immediately": 0,
    "##fts": 0,
    "unrelated": 0,
    "modelled": 0,
    "propagation": 0,
    "routing": 0,
    "##acy": 2,
    "Rossi": 0,
    "##RB": 9,
    "Aero": 0,
    "salmon": 2,
    "##hler": 0,
    "Korean": 0,
    "view": 0,
    "American": 0,
    "Royal": 0,
    "##logists": 0,
    "##bation": 0,
    "relevant": 0,
    "organisation": 0,
    "##ire": 0,
    "filters": 0,
    "Sims": 0,
    "floating": 0,
    "##ume": 0,
    "structured": 0,
    "plaque": 0,
    "##ss": 2,
    "Performance": 0,
    "verbal": 0,
    "measures": 0,
    "Adult": 0,
    "Reading": 0,
    "##chs": 0,
    "Intelligence": 0,
    "Scale": 0,
    "Volunteers": 0,
    "backs": 0,
    "##ery": 0,
    "##them": 0,
    "lot": 0,
    "incorporation": 0,
    "strengths": 0,
    "swell": 0,
    "designs": 0,
    "foam": 0,
    "##sities": 0,
    "examples": 0,
    "tomato": 0,
    "es": 0,
    "##cule": 0,
    "##ulf": 1,
    "humor": 0,
    "##rrosion": 0,
    "wear": 0,
    "metallic": 0,
    "##oped": 0,
    "devices": 0,
    "F1": 3,
    "reflecting": 0,
    "trunk": 0,
    "Ni": 6,
    "Marino": 0,
    "marijuana": 0,
    "##van": 1,
    "##rf": 11,
    "detachment": 0,
    "Rama": 0,
    "##ket": 0,
    "experience": 0,
    "##sto": 1,
    "##Cs": 1,
    "influenced": 0,
    "regardless": 0,
    "return": 0,
    "fear": 0,
    "spider": 0,
    "event": 0,
    "swap": 0,
    "##ped": 0,
    "monitor": 0,
    "Braun": 0,
    "GmbH": 0,
    "##berg": 0,
    "Germany": 0,
    "algorithm": 0,
    "tax": 2,
    "##versible": 0,
    "##lus": 0,
    "explain": 0,
    "external": 0,
    "demand": 0,
    "Fu": 6,
    "##rophe": 0,
    "##rel": 1,
    "screened": 0,
    "marginal": 0,
    "fabricated": 0,
    "vinyl": 0,
    "Ali": 0,
    "##gn": 0,
    "spine": 0,
    "Schedule": 0,
    "##lue": 0,
    "##sions": 0,
    "harvest": 0,
    "##utrition": 0,
    "lime": 0,
    "##itrus": 0,
    "aura": 0,
    "##folia": 0,
    "zero": 0,
    "filtering": 0,
    "exit": 0,
    "removing": 0,
    "elastic": 0,
    "##rations": 0,
    "##uto": 0,
    "##anna": 0,
    "##sch": 0,
    "ah": 2,
    "arch": 2,
    "distinguishing": 0,
    "feature": 0,
    "Via": 0,
    "island": 0,
    "demonstrates": 0,
    "favorable": 0,
    "Mare": 1,
    "Disease": 0,
    "focused": 0,
    "emotion": 0,
    "dimensions": 0,
    "##lication": 0,
    "prepared": 0,
    "##OW": 0,
    "##KE": 0,
    "reactor": 0,
    "neutron": 0,
    "progressed": 0,
    "##fen": 1,
    "##ID": 14,
    "##EX": 1,
    "Zen": 0,
    "Nova": 0,
    "Jan": 4,
    "##ssen": 0,
    "Queensland": 0,
    "Echo": 0,
    "collapse": 0,
    "##mpo": 0,
    "spreading": 0,
    "Japan": 0,
    "acquiring": 0,
    "##ams": 0,
    "offer": 0,
    "##lux": 0,
    "prone": 0,
    "disorders": 0,
    "occasion": 0,
    "##ested": 0,
    "yielding": 0,
    "statistical": 0,
    "cure": 0,
    "Bihar": 0,
    "India": 0,
    "technology": 0,
    "##ulatory": 0,
    "permits": 0,
    "surge": 0,
    "compliment": 0,
    "stretches": 0,
    "altitude": 0,
    "##lacing": 0,
    "house": 0,
    "##keeping": 0,
    "unchanged": 0,
    "developments": 0,
    "inhaled": 0,
    "##udes": 0,
    "breath": 0,
    "##sar": 0,
    "##usal": 0,
    "pitch": 0,
    "##ker": 0,
    "bacterium": 0,
    "Art": 0,
    "collar": 0,
    "elaborate": 0,
    "##ith": 0,
    "##ents": 0,
    "Green": 0,
    "pepper": 0,
    "##zer": 0,
    "##les": 2,
    "international": 0,
    "travelers": 0,
    "Kim": 0,
    "##rz": 1,
    "##lows": 0,
    "##ki": 1,
    "Tad": 0,
    "Mac": 2,
    "##nan": 0,
    "odd": 0,
    "##rive": 0,
    "consistent": 0,
    "consist": 0,
    "##dies": 0,
    "##pressive": 0,
    "Sir": 1,
    "themes": 0,
    "definitely": 0,
    "drift": 0,
    "consistently": 0,
    "tube": 1,
    "##quential": 0,
    "ensures": 0,
    "##ciation": 0,
    "Reg": 4,
    "dream": 0,
    "Hal": 0,
    "Micro": 1,
    "Graves": 0,
    "gate": 0,
    "2D": 1,
    "##xial": 0,
    "##aud": 0,
    "roughly": 0,
    "table": 0,
    "##llie": 0,
    "forty": 0,
    "certainty": 0,
    "##ucci": 1,
    "advancing": 0,
    "257": 0,
    "Role": 0,
    "Alt": 0,
    "Seven": 1,
    "coded": 0,
    "reliability": 0,
    "student": 0,
    "Jenkins": 0,
    "Survey": 0,
    "##NU": 2,
    "JR": 1,
    "Hi": 6,
    "##ckman": 0,
    "##ters": 0,
    "aging": 0,
    "binary": 0,
    "Cross": 0,
    "segregation": 0,
    "##ud": 1,
    "prevented": 0,
    "suck": 0,
    "limb": 0,
    "##lle": 0,
    "##cite": 0,
    "goals": 0,
    "##yrinth": 0,
    "chosen": 0,
    "directional": 0,
    "tags": 0,
    "contributing": 0,
    "transit": 0,
    "started": 0,
    "stopped": 0,
    "##phere": 0,
    "##ctors": 0,
    "evidenced": 0,
    "##coil": 0,
    "##wind": 0,
    "##regation": 0,
    "##ote": 0,
    "##hine": 3,
    "inclusion": 0,
    "neighboring": 0,
    "importance": 0,
    "liked": 0,
    "creates": 0,
    "targeting": 0,
    "feed": 0,
    "130": 0,
    "mill": 0,
    "##rams": 0,
    "##vat": 0,
    "inferior": 0,
    "mental": 0,
    "243": 0,
    "420": 0,
    "181": 0,
    "186": 0,
    "net": 0,
    "##NE": 1,
    "Like": 0,
    "Rs": 7,
    "lying": 0,
    "regards": 0,
    "vigorous": 0,
    "places": 0,
    "eliminated": 0,
    "clearly": 0,
    "contents": 0,
    "Similarly": 0,
    "efforts": 0,
    "SA": 22,
    "##LA": 28,
    "racing": 0,
    "Grey": 0,
    "##hound": 0,
    "1821": 0,
    "##rming": 0,
    "additionally": 0,
    "##PM": 2,
    "subsequently": 0,
    "duck": 0,
    "Song": 0,
    "##icker": 0,
    "Gulf": 0,
    "War": 0,
    "delayed": 0,
    "wartime": 0,
    "chemicals": 0,
    "peaked": 0,
    "heavily": 0,
    "##tel": 0,
    "unfolded": 0,
    "##ilt": 0,
    "cheese": 0,
    "whipping": 0,
    "Ed": 0,
    "dog": 0,
    "belong": 0,
    "Path": 0,
    "horse": 2,
    "generating": 0,
    "##cola": 0,
    "pneumonia": 0,
    "Loss": 0,
    "corrected": 0,
    "radioactive": 0,
    "adding": 0,
    "##uter": 0,
    "standards": 0,
    "##aire": 0,
    "##cton": 0,
    "##ang": 0,
    "##stein": 0,
    "canal": 0,
    "##tral": 0,
    "##esi": 1,
    "surfaces": 0,
    "pm": 2,
    "enough": 0,
    "##ulates": 0,
    "discharge": 0,
    "entity": 0,
    "disability": 0,
    "regular": 0,
    "colonies": 0,
    "virtually": 0,
    "exhibited": 0,
    "##shes": 0,
    "assessing": 0,
    "locally": 0,
    "advanced": 0,
    "Weaver": 0,
    "Not": 8,
    "tone": 0,
    "predominantly": 0,
    "groove": 0,
    "address": 0,
    "##lly": 0,
    "arranged": 0,
    "sheet": 0,
    "faces": 0,
    "##ias": 0,
    "mother": 0,
    "Oct": 29,
    "Within": 0,
    "##prints": 0,
    "way": 0,
    "dropped": 0,
    "modern": 0,
    "biology": 0,
    "##lating": 0,
    "manipulation": 0,
    "aids": 0,
    "##itution": 0,
    "##ala": 5,
    "offers": 0,
    "220": 0,
    "Success": 0,
    "VIP": 2,
    "##sk": 11,
    "mini": 0,
    "implies": 0,
    "imported": 0,
    "##uff": 0,
    "##iciency": 0,
    "God": 0,
    "ethanol": 0,
    "##SR": 5,
    "maintain": 0,
    "##hip": 0,
    "##glia": 0,
    "junction": 0,
    "##CM": 0,
    "brackets": 0,
    "bonded": 0,
    "freshly": 0,
    "room": 0,
    "shear": 0,
    "universal": 0,
    "correspond": 0,
    "artifact": 0,
    "Transit": 0,
    "topology": 0,
    "designed": 0,
    "rhythmic": 0,
    "enables": 0,
    "vowels": 0,
    "stressed": 0,
    "syllables": 0,
    "perceived": 0,
    "##mos": 1,
    "##ilation": 0,
    "preserved": 0,
    "Its": 0,
    "##bb": 0,
    "##oux": 0,
    "disturb": 0,
    "##dder": 0,
    "##film": 0,
    "##stick": 0,
    "determines": 0,
    "##ving": 0,
    "##mon": 1,
    "##SB": 2,
    "##liva": 1,
    "##roi": 1,
    "played": 0,
    "1A": 0,
    "##rger": 0,
    "System": 0,
    "##tics": 0,
    "Sweden": 0,
    "atop": 0,
    "phenomena": 0,
    "##rough": 0,
    "continuing": 0,
    "##spersed": 0,
    "##nat": 0,
    "##ryn": 0,
    "constantly": 0,
    "##ural": 3,
    "##vious": 0,
    "patch": 0,
    "predictions": 0,
    "accord": 0,
    "##uch": 0,
    "Italian": 0,
    "cooperative": 0,
    "Organ": 0,
    "##cats": 0,
    "trapped": 0,
    "counties": 0,
    "Workers": 0,
    "##ifications": 0,
    "demons": 0,
    "##tating": 0,
    "##xe": 2,
    "##ming": 0,
    "consequence": 0,
    "candidate": 0,
    "tip": 1,
    "going": 0,
    "output": 0,
    "kinds": 0,
    "fact": 0,
    "faster": 0,
    "##feit": 1,
    "proximity": 0,
    "radial": 0,
    "forearm": 0,
    "Mal": 2,
    "domestic": 0,
    "##lone": 0,
    "Administration": 0,
    "##lants": 0,
    "seems": 0,
    "becoming": 0,
    "example": 0,
    "arms": 0,
    "##fica": 0,
    "##ebrates": 0,
    "fungi": 0,
    "##ban": 0,
    "regeneration": 0,
    "tunic": 0,
    "##rta": 1,
    "um": 1,
    "##esta": 0,
    "162": 0,
    "collected": 0,
    "institutions": 0,
    "fashion": 0,
    "survived": 0,
    "##tible": 0,
    "destruction": 0,
    "##pel": 2,
    "##ops": 0,
    "ingredients": 0,
    "wheat": 2,
    "##Es": 2,
    "##LP": 9,
    "spot": 0,
    "exclude": 0,
    "##pore": 0,
    "Kenya": 0,
    "##ditional": 0,
    "inheritance": 0,
    "Costa": 0,
    "Rica": 0,
    "##ntly": 0,
    "##34": 16,
    "hence": 0,
    "##AF": 15,
    "RCA": 1,
    "skip": 0,
    "##rops": 0,
    "##reased": 0,
    "thickness": 0,
    "geometric": 0,
    "adaptive": 0,
    "circular": 0,
    "tracks": 0,
    "Are": 0,
    "judged": 0,
    "trials": 0,
    "##SC": 7,
    "Syrian": 2,
    "nodes": 0,
    "##mata": 0,
    "##coe": 0,
    "copper": 1,
    "Kid": 0,
    "##ney": 0,
    "width": 0,
    "couldn": 0,
    "von": 2,
    "Will": 0,
    "##rand": 0,
    "bleeding": 0,
    "Ross": 0,
    "##oil": 0,
    "housed": 0,
    "billion": 0,
    "Reilly": 0,
    "##itting": 0,
    "##TO": 4,
    "utilized": 0,
    "Am": 0,
    "rabbit": 4,
    "##lify": 0,
    "##ago": 0,
    "taken": 0,
    "La": 2,
    "nod": 0,
    "184": 0,
    "clinic": 0,
    "deer": 1,
    "precise": 0,
    "Time": 0,
    "215": 0,
    "displays": 0,
    "efficient": 0,
    "disappearance": 0,
    "unclear": 0,
    "##om": 0,
    "trains": 0,
    "MLS": 2,
    "Legend": 0,
    "reinforce": 0,
    "idea": 0,
    "##isa": 0,
    "##estive": 0,
    "repeatedly": 0,
    "litter": 0,
    "neural": 0,
    "organs": 0,
    "coordinated": 0,
    "conclusion": 0,
    "Cole": 0,
    "tends": 0,
    "practically": 0,
    "Higher": 0,
    "analog": 0,
    "beneficial": 0,
    "Sal": 5,
    "##opy": 0,
    "Should": 0,
    "shoulder": 0,
    "operators": 0,
    "145": 0,
    "links": 0,
    "recruits": 0,
    "dots": 0,
    "##vice": 0,
    "yields": 0,
    "##ifiable": 0,
    "skill": 0,
    "achieved": 0,
    "ocean": 0,
    "ultimately": 0,
    "refer": 0,
    "nutrition": 0,
    "Alto": 0,
    "##get": 0,
    "sir": 0,
    "Algerian": 0,
    "interim": 0,
    "##mpt": 0,
    "associate": 0,
    "Lead": 0,
    "##WR": 0,
    "energetic": 0,
    "steer": 0,
    "varying": 0,
    "grain": 0,
    "##ining": 0,
    "original": 0,
    "difficulty": 0,
    "learning": 0,
    "reversal": 0,
    "Chemical": 0,
    "Fourth": 0,
    "sometime": 0,
    "RBI": 0,
    "##led": 1,
    "##erative": 0,
    "prevalent": 0,
    "salt": 0,
    "##ckling": 0,
    "##hausen": 0,
    "Whereas": 0,
    "Wild": 1,
    "rounded": 0,
    "##aded": 0,
    "extensions": 0,
    "Len": 1,
    "distinction": 0,
    "straightforward": 0,
    "ambiguous": 0,
    "Demons": 0,
    "##tration": 0,
    "relax": 1,
    "imprint": 0,
    "##LS": 2,
    "share": 0,
    "numbers": 0,
    "UP": 4,
    "117": 0,
    "stretch": 0,
    "##rial": 3,
    "Nr": 9,
    "##amp": 4,
    "breasts": 0,
    "##tur": 0,
    "others": 0,
    "pulp": 0,
    "tongue": 0,
    "##mand": 0,
    "Personal": 0,
    "Community": 0,
    "wax": 0,
    "##sing": 0,
    "##NG": 0,
    "1981": 0,
    "cleared": 0,
    "28th": 0,
    "prototype": 0,
    "communication": 0,
    "signalling": 0,
    "Visual": 0,
    "error": 0,
    "metro": 0,
    "##gli": 0,
    "##gible": 0,
    "sixty": 0,
    "proved": 0,
    "schedule": 0,
    "hourly": 0,
    "regard": 0,
    "WC": 0,
    "mob": 0,
    "##ilis": 0,
    "##LD": 4,
    "clients": 0,
    "benefited": 0,
    "##RD": 7,
    "assignment": 0,
    "complementary": 0,
    "frontal": 0,
    "mating": 1,
    "defines": 0,
    "identifies": 0,
    "USA": 0,
    "802": 0,
    "310": 0,
    "mole": 0,
    "halves": 0,
    "towards": 0,
    "Wave": 0,
    "she": 0,
    "##fuse": 0,
    "Scott": 0,
    "Screen": 0,
    "##pecific": 1,
    "Comparative": 0,
    "Brass": 2,
    "##rising": 0,
    "##vin": 1,
    "Den": 0,
    "##IG": 6,
    "##FB": 5,
    "photo": 0,
    "flat": 0,
    "passage": 0,
    "fl": 6,
    "larvae": 0,
    "genus": 0,
    "##lina": 0,
    "Science": 0,
    "210": 0,
    "crossed": 0,
    "##voc": 0,
    "ear": 0,
    "sound": 0,
    "phrase": 0,
    "aloud": 0,
    "Also": 0,
    "Complete": 0,
    "Self": 0,
    "temperatures": 0,
    "paths": 0,
    "##used": 0,
    "Certain": 0,
    "sheep": 0,
    "##by": 0,
    "##pass": 0,
    "Compared": 0,
    "##WA": 2,
    "##HT": 0,
    "GO": 0,
    "##lind": 0,
    "Cory": 0,
    "Typical": 0,
    "configurations": 0,
    "##cial": 0,
    "conspicuous": 0,
    "recruiting": 0,
    "acidic": 0,
    "Generally": 0,
    "gut": 0,
    "disappeared": 0,
    "281": 0,
    "since": 0,
    "##tia": 0,
    "##core": 0,
    "##gion": 0,
    "##lities": 0,
    "##opsis": 0,
    "liquor": 0,
    "##tas": 0,
    "Lange": 0,
    "##points": 0,
    "##ein": 2,
    "shared": 0,
    "##IE": 3,
    "actions": 0,
    "plausible": 0,
    "connect": 1,
    "sheath": 0,
    "organising": 0,
    "impulse": 0,
    "##rkin": 0,
    "##je": 0,
    "balloon": 0,
    "bubble": 0,
    "giant": 0,
    "tear": 0,
    "expansion": 0,
    "erection": 0,
    "merely": 0,
    "South": 0,
    "passion": 0,
    "fruit": 0,
    "wood": 0,
    "##iness": 0,
    "distant": 0,
    "pot": 1,
    "##dh": 3,
    "##ono": 0,
    "##ished": 0,
    "Boston": 0,
    "Nam": 0,
    "Word": 0,
    "##cognition": 0,
    "Task": 0,
    "effectiveness": 0,
    "Sol": 0,
    "intention": 0,
    "##onies": 0,
    "##OT": 3,
    "interactive": 0,
    "respective": 0,
    "##man": 4,
    "successively": 0,
    "restrict": 0,
    "twist": 2,
    "Choice": 0,
    "adds": 0,
    "##ey": 0,
    "counted": 0,
    "excluded": 0,
    "123": 0,
    "attempted": 0,
    "providing": 0,
    "188": 0,
    "oval": 0,
    "mast": 1,
    "dairy": 0,
    "conscious": 0,
    "##ister": 0,
    "##cape": 0,
    "triple": 1,
    "rather": 0,
    "fatigue": 0,
    "earliest": 0,
    "beats": 0,
    "capture": 0,
    "proof": 0,
    "establishing": 0,
    "hierarchy": 0,
    "##ffin": 0,
    "mirrored": 0,
    "##hp": 4,
    "Clinic": 0,
    "Data": 0,
    "##FT": 0,
    "progressive": 0,
    "progresses": 0,
    "##azi": 0,
    "lacked": 0,
    "participating": 0,
    "household": 0,
    "achieving": 0,
    "obviously": 0,
    "inside": 0,
    "pure": 0,
    "occasional": 0,
    "##rates": 0,
    "emphasizes": 0,
    "singular": 0,
    "salvage": 0,
    "zone": 0,
    "summary": 0,
    "represented": 0,
    "102": 0,
    "hidden": 0,
    "##burn": 0,
    "##sent": 0,
    "referred": 0,
    "facilitated": 0,
    "accommodation": 0,
    "nights": 0,
    "presenting": 0,
    "anxiety": 0,
    "##lude": 0,
    "mechanical": 0,
    "gay": 0,
    "couples": 0,
    "congestion": 0,
    "pet": 5,
    "allowing": 0,
    "participants": 0,
    "validity": 0,
    "Skin": 0,
    "Presidential": 0,
    "coming": 0,
    "cold": 0,
    "Structure": 0,
    "Phase": 1,
    "culturally": 0,
    "meaningful": 0,
    "older": 0,
    "Mexican": 0,
    "##ulent": 0,
    "opposed": 0,
    "##rog": 3,
    "##inate": 0,
    "Album": 2,
    "dial": 0,
    "Wilson": 0,
    "##ging": 0,
    "elimination": 0,
    "Huntington": 1,
    "exercised": 0,
    "dye": 0,
    "##ogram": 0,
    "egg": 1,
    "laying": 0,
    "Extreme": 0,
    "##fs": 2,
    "Bar": 1,
    "virgin": 0,
    "M1": 1,
    "CDP": 5,
    "displaced": 0,
    "First": 0,
    "unidentified": 0,
    "clusters": 0,
    "useless": 0,
    "searches": 0,
    "2017": 0,
    "Brain": 1,
    "nest": 0,
    "##rets": 0,
    "snow": 0,
    "black": 0,
    "crowned": 0,
    "hero": 0,
    "##icides": 0,
    "##wave": 0,
    "What": 0,
    "look": 0,
    "mistakes": 0,
    "Is": 2,
    "##BL": 2,
    "serial": 0,
    "Bus": 0,
    "1989": 0,
    "mail": 0,
    "Georgia": 0,
    "##ians": 0,
    "##gy": 0,
    "##sh": 3,
    "aggression": 0,
    "FIA": 0,
    "##ographic": 0,
    "##ures": 0,
    "usual": 0,
    "Critical": 0,
    "restore": 0,
    "histories": 0,
    "##cup": 0,
    "existed": 0,
    "wandering": 0,
    "##aque": 1,
    "##zine": 0,
    "roll": 0,
    "Level": 0,
    "bulk": 0,
    "##activated": 0,
    "Method": 0,
    "##pian": 0,
    "322": 0,
    "##clusive": 0,
    "304": 0,
    "##via": 0,
    "acted": 0,
    "hardly": 0,
    "##DC": 6,
    "exhibits": 0,
    "IS": 12,
    "##isi": 1,
    "coma": 0,
    "205": 0,
    "285": 0,
    "290": 0,
    "barrel": 0,
    "miniature": 0,
    "special": 0,
    "hold": 0,
    "locked": 0,
    "sampling": 0,
    "Finding": 0,
    "##ius": 0,
    "1859": 0,
    "##aba": 0,
    "trees": 0,
    "discount": 0,
    "sizes": 0,
    "vary": 0,
    "halted": 0,
    "template": 0,
    "Color": 0,
    "whenever": 0,
    "rose": 0,
    "costs": 0,
    "$": 0,
    "##dron": 0,
    "resident": 0,
    "Free": 0,
    "Selection": 0,
    "items": 0,
    "Institute": 0,
    "##wal": 0,
    "Assessment": 0,
    "Benz": 0,
    "tables": 0,
    "indoor": 0,
    "##ado": 1,
    "summer": 0,
    "winter": 0,
    "feasible": 0,
    "interior": 0,
    "pipe": 0,
    "moved": 0,
    "margins": 0,
    "##w": 6,
    "penis": 0,
    "kernel": 0,
    "differed": 0,
    "exclusion": 0,
    "Age": 0,
    "Their": 0,
    "messages": 0,
    "Frog": 0,
    "frog": 0,
    "slowly": 0,
    "spike": 0,
    "fungus": 0,
    "##ku": 0,
    "##ensis": 0,
    "diameter": 0,
    "reproduced": 0,
    "295": 0,
    "Delta": 1,
    "##ched": 0,
    "lowest": 0,
    "Concert": 0,
    "MV": 0,
    "bit": 0,
    "painful": 0,
    "Early": 0,
    "resolved": 0,
    "Bob": 1,
    "recession": 0,
    "Collective": 0,
    "slopes": 0,
    "societal": 0,
    "responds": 0,
    "##upon": 0,
    "presumably": 0,
    "Map": 0,
    "prepare": 0,
    "honey": 0,
    "bread": 0,
    "potatoes": 0,
    "260": 0,
    "##rots": 0,
    "spans": 0,
    "Ewing": 0,
    "##vening": 0,
    "comprises": 0,
    "##morphic": 0,
    "##sat": 1,
    "##elli": 1,
    "dams": 0,
    "##pers": 0,
    "pie": 0,
    "##zor": 0,
    "sensors": 0,
    "attached": 0,
    "##tos": 2,
    "biting": 0,
    "dispersed": 0,
    "Complex": 0,
    "blunt": 0,
    "allocated": 0,
    "ventilation": 0,
    "MCC": 1,
    "emission": 0,
    "##rion": 0,
    "##cology": 0,
    "Jean": 0,
    "reviews": 0,
    "unlikely": 0,
    "Can": 2,
    "really": 0,
    "##za": 0,
    "##rift": 0,
    "##zin": 0,
    "tons": 0,
    "##ou": 0,
    "##lts": 0,
    "##lk": 3,
    "##ixel": 0,
    "##teen": 0,
    "lasting": 0,
    "systematic": 0,
    "organizing": 0,
    "tentatively": 0,
    "que": 0,
    "language": 0,
    "suffered": 0,
    "explanation": 0,
    "conductor": 0,
    "Bo": 2,
    "##zzi": 0,
    "merit": 0,
    "emphasized": 0,
    "invention": 0,
    "accessible": 0,
    "ancestors": 0,
    "pull": 0,
    "212": 0,
    "ou": 0,
    "recall": 0,
    "##SD": 2,
    "assigned": 0,
    "##sistence": 0,
    "##igma": 0,
    "##idae": 0,
    "Nan": 0,
    "##ches": 0,
    "##dae": 0,
    "##rson": 0,
    "moisture": 0,
    "adaptations": 0,
    "habitats": 0,
    "depended": 0,
    "community": 0,
    "alternatively": 0,
    "Present": 0,
    "died": 0,
    "ok": 0,
    "##ada": 0,
    "Brandt": 0,
    "tubes": 0,
    "succeed": 0,
    "avoiding": 0,
    "##lled": 0,
    "##DE": 2,
    "##mogeneous": 0,
    "appearance": 0,
    "faint": 0,
    "distinctly": 0,
    "outlines": 0,
    "750": 0,
    "thorough": 0,
    "##bred": 0,
    "United": 0,
    "Kingdom": 0,
    "##nor": 1,
    "increasingly": 0,
    "studying": 0,
    "ale": 0,
    "helping": 0,
    "policy": 0,
    "makers": 0,
    "answer": 0,
    "rhythm": 0,
    "helped": 0,
    "curve": 0,
    "assumed": 0,
    "##serve": 0,
    "violations": 0,
    "##scribed": 0,
    "##stro": 1,
    "pointing": 0,
    "away": 0,
    "##layer": 0,
    "folded": 0,
    "Michel": 0,
    "falling": 0,
    "##inge": 0,
    "delay": 0,
    "eventual": 0,
    "whatever": 0,
    "urgency": 0,
    "Survival": 0,
    "pace": 0,
    "##makers": 0,
    "electric": 0,
    "compete": 0,
    "Arm": 2,
    "compromised": 0,
    "501": 0,
    "trend": 0,
    "Fortunately": 0,
    "German": 0,
    "##pher": 0,
    "maintaining": 0,
    "##ems": 0,
    "roots": 0,
    "##trusion": 0,
    "##rove": 0,
    "pyramid": 0,
    "hairy": 0,
    "But": 0,
    "instrument": 0,
    "fail": 0,
    "affiliation": 0,
    "preferences": 0,
    "##position": 0,
    "##nent": 0,
    "##ially": 0,
    "permitted": 0,
    "deeper": 0,
    "terminate": 0,
    "tertiary": 0,
    "concerned": 0,
    "shifted": 0,
    "toward": 0,
    "slope": 0,
    "##lass": 0,
    "##stituting": 0,
    "Stern": 0,
    "Hare": 0,
    "smallest": 0,
    "##ups": 0,
    "Resources": 0,
    "##dog": 0,
    "##uni": 0,
    "hearts": 0,
    "anchored": 0,
    "Acoustic": 0,
    "lattice": 0,
    "spring": 0,
    "##tails": 0,
    "fixed": 0,
    "GP": 19,
    "justice": 0,
    "moral": 0,
    "investment": 0,
    "Koreans": 0,
    "##oral": 0,
    "##chan": 0,
    "##cat": 0,
    "coefficient": 0,
    "eighth": 0,
    "##got": 0,
    "attention": 0,
    "##vasive": 0,
    "Cho": 3,
    "##liner": 0,
    "capped": 0,
    "transferred": 0,
    "engineered": 1,
    "190": 0,
    "raw": 0,
    "##sets": 0,
    "Where": 0,
    "headed": 0,
    "165": 0,
    "##ulating": 0,
    "limitation": 0,
    "explore": 0,
    "combining": 0,
    "trick": 0,
    "##dge": 0,
    "##water": 0,
    "ambient": 0,
    "hydraulic": 0,
    "##dian": 0,
    "##een": 0,
    "##iens": 0,
    "originated": 0,
    "##bia": 0,
    "Governorate": 0,
    "signature": 0,
    "Wisconsin": 0,
    "##rting": 0,
    "lobes": 0,
    "##lash": 0,
    "##tions": 0,
    "##hon": 0,
    "##sumption": 0,
    "##spiration": 0,
    "##mium": 0,
    "##shed": 0,
    "freeze": 0,
    "vacuum": 0,
    "##onized": 0,
    "Tu": 6,
    "focusing": 0,
    "##dynamic": 0,
    "flight": 1,
    "Good": 0,
    "Company": 0,
    "trade": 0,
    "##name": 0,
    "rubber": 0,
    "##xen": 0,
    "residual": 0,
    "bonds": 0,
    "maintains": 0,
    "##zman": 0,
    "##MM": 1,
    "tendency": 0,
    "##free": 0,
    "modify": 0,
    "divisions": 0,
    "##rno": 0,
    "##ky": 4,
    "outbreak": 0,
    "homosexual": 0,
    "Amsterdam": 0,
    "heightened": 0,
    "successive": 0,
    "##thal": 1,
    "ZIP": 0,
    "sweet": 0,
    "##ener": 0,
    "searched": 0,
    "recruited": 0,
    "resume": 0,
    "##Ms": 1,
    "aluminium": 0,
    "##git": 0,
    "##ater": 0,
    "acquisition": 0,
    "design": 0,
    "impression": 0,
    "clearing": 0,
    "bending": 0,
    "##zers": 0,
    "##icus": 0,
    "##elle": 0,
    "networks": 0,
    "analyzing": 0,
    "affection": 0,
    "Subcommittee": 0,
    "International": 0,
    "bore": 0,
    "##alis": 0,
    "running": 0,
    "students": 0,
    "##vil": 0,
    "otherwise": 0,
    "lining": 0,
    "restoring": 0,
    "combine": 0,
    "strengthen": 0,
    "##vated": 0,
    "Ace": 2,
    "supplying": 0,
    "##rima": 5,
    "correction": 0,
    "Pet": 2,
    "Un": 0,
    "disclosed": 0,
    "symmetric": 0,
    "Essential": 0,
    "##gor": 0,
    "irrigation": 0,
    "distress": 0,
    "##LL": 8,
    "transfers": 0,
    "trap": 0,
    "##eval": 0,
    "##cend": 0,
    "##traction": 0,
    "Looking": 0,
    "eating": 0,
    "varies": 0,
    "handling": 0,
    "circa": 0,
    "stalls": 0,
    "peaking": 0,
    "##itors": 0,
    "criterion": 0,
    "sessions": 0,
    "pills": 0,
    "capsule": 0,
    "##eting": 0,
    "##gan": 0,
    "Newcastle": 1,
    "absolutely": 0,
    "#": 0,
    "internally": 0,
    "##luster": 0,
    "sufficiently": 0,
    "addiction": 0,
    "diverse": 0,
    "damp": 0,
    "interesting": 0,
    "published": 0,
    "candidates": 0,
    "folding": 0,
    "search": 0,
    "specially": 0,
    "Thin": 0,
    "gates": 0,
    "gradient": 0,
    "##tracts": 0,
    "Four": 0,
    "##ello": 0,
    "recognised": 0,
    "sea": 1,
    "Single": 0,
    "Trials": 0,
    "##DR": 15,
    "recognizing": 0,
    "phenomenon": 0,
    "##nne": 0,
    "##llis": 1,
    "fragile": 0,
    "Hospital": 0,
    "Norway": 0,
    "service": 0,
    "conferences": 0,
    "discussion": 0,
    "##ffe": 0,
    "##GI": 3,
    "##kini": 1,
    "highlighted": 0,
    "transported": 0,
    "Tim": 0,
    "fails": 0,
    "retains": 0,
    "##star": 0,
    "Ritchie": 0,
    "Index": 0,
    "##ilize": 0,
    "##yre": 0,
    "agriculture": 0,
    "private": 0,
    "households": 0,
    "Net": 0,
    "lift": 0,
    "drag": 0,
    "bearings": 0,
    "blade": 0,
    "##eller": 0,
    "##read": 0,
    "nickel": 0,
    "drinking": 0,
    "measuring": 0,
    "##raz": 0,
    "Regarding": 0,
    "belonged": 0,
    "automated": 0,
    "office": 0,
    "visit": 0,
    "posterior": 0,
    "remains": 0,
    "##pute": 0,
    "##tha": 0,
    "##rust": 0,
    "inventor": 0,
    "Gustav": 0,
    "rests": 0,
    "leak": 0,
    "##ractical": 0,
    "ram": 0,
    "##ified": 1,
    "network": 0,
    "Babe": 0,
    "herd": 0,
    "accompanying": 0,
    "##sive": 0,
    "##adi": 1,
    "LL": 0,
    "##NL": 0,
    "functioned": 0,
    "##0s": 2,
    "registered": 0,
    "231": 0,
    "##z": 5,
    "##mond": 0,
    "Xiao": 0,
    "Chang": 0,
    "##urer": 0,
    "##roner": 0,
    "##eat": 0,
    "##BO": 0,
    "finishing": 0,
    "encountered": 0,
    "##date": 0,
    "Daily": 0,
    "seasonal": 0,
    "golden": 0,
    "sin": 0,
    "secular": 0,
    "technologies": 0,
    "Note": 0,
    "Rex": 2,
    "##rass": 0,
    "sought": 0,
    "##rdo": 0,
    "envelope": 5,
    "brings": 0,
    "mood": 0,
    "working": 0,
    "##VR": 0,
    "##russ": 0,
    "Shi": 0,
    "##gel": 0,
    "curly": 0,
    "##rissa": 0,
    "wavy": 0,
    "harvesting": 0,
    "gig": 0,
    "Kiss": 0,
    "##inger": 0,
    "Unified": 0,
    "stack": 0,
    "organic": 0,
    "##amia": 0,
    "##zee": 0,
    "crown": 0,
    "##nity": 0,
    "UAE": 0,
    "Weight": 0,
    "height": 0,
    "needle": 0,
    "##piration": 0,
    "Missouri": 0,
    "##lani": 1,
    "Gram": 0,
    "responded": 0,
    "##rien": 0,
    "converts": 0,
    "tidal": 0,
    "minute": 0,
    "epidemic": 0,
    "Iceland": 0,
    "Lo": 0,
    "##rent": 0,
    "Maxwell": 0,
    "1967": 0,
    "##ennial": 0,
    "ABC": 3,
    "interviewed": 0,
    "rays": 0,
    "Ring": 1,
    "presents": 0,
    "vocal": 0,
    "##att": 0,
    "southwestern": 0,
    "Panama": 0,
    "discs": 0,
    "Competition": 0,
    "colonization": 0,
    "##reus": 0,
    "killing": 0,
    "reflects": 0,
    "Newton": 0,
    "Rd": 1,
    "##iff": 0,
    "##eous": 1,
    "productive": 0,
    "470": 0,
    "Immediately": 0,
    "127": 0,
    "Chi": 1,
    "Minh": 0,
    "##nio": 1,
    "Plants": 0,
    "accumulated": 0,
    "enhancing": 0,
    "flattened": 0,
    "##eel": 0,
    "Ya": 3,
    "lie": 0,
    "policemen": 0,
    "coal": 0,
    "miners": 0,
    "Hong": 0,
    "Kong": 0,
    "##ltry": 0,
    "occasions": 0,
    "14th": 0,
    "Doc": 0,
    "##ntation": 0,
    "baby": 0,
    "##eas": 0,
    "incurred": 0,
    "draw": 0,
    "##back": 0,
    "genera": 0,
    "Je": 2,
    "##rana": 0,
    "goats": 0,
    "##ko": 1,
    "borders": 0,
    "ACC": 2,
    "Sven": 0,
    "Recording": 0,
    "Surface": 0,
    "4000": 0,
    "tree": 0,
    "Prime": 0,
    "##ung": 1,
    "Post": 0,
    "Taking": 0,
    "exactly": 0,
    "##vable": 0,
    "glasses": 0,
    "landscape": 0,
    "inherent": 0,
    "##pont": 1,
    "approx": 0,
    "million": 0,
    "##FF": 1,
    "##riz": 0,
    "Special": 0,
    "periphery": 0,
    "tipped": 0,
    "Combined": 0,
    "##mother": 0,
    "March": 1,
    "October": 0,
    "Alabama": 0,
    "Public": 0,
    "##lings": 0,
    "##CF": 12,
    "##sons": 0,
    "extraordinary": 0,
    "relay": 0,
    "utilities": 0,
    "Late": 1,
    "relevance": 0,
    "flexible": 0,
    "Ward": 0,
    "triangle": 0,
    "##rre": 0,
    "##spective": 0,
    "rising": 0,
    "##ked": 0,
    "##dition": 0,
    "reaching": 0,
    "govern": 0,
    "##structure": 0,
    "hi": 0,
    "##rch": 1,
    "##minate": 0,
    "overcome": 0,
    "dividing": 0,
    "fore": 0,
    "##skin": 0,
    "Mad": 6,
    "represent": 0,
    "strategies": 0,
    "collaborative": 0,
    "ranges": 0,
    "bat": 0,
    "DJ": 2,
    "checked": 0,
    "##gawa": 0,
    "predictable": 0,
    "Does": 0,
    "author": 0,
    "opinion": 0,
    "Bill": 0,
    "##roth": 0,
    "##mes": 0,
    "##oon": 1,
    "stars": 0,
    "crystals": 0,
    "Much": 0,
    "enforced": 0,
    "reporters": 0,
    "Signal": 0,
    "159": 0,
    "##hus": 0,
    "fifteen": 0,
    "##LM": 0,
    "##herence": 1,
    "##ites": 0,
    "Erwin": 1,
    "topography": 0,
    "##raj": 0,
    "##ned": 0,
    "Channel": 0,
    "##tti": 0,
    "##arte": 0,
    "##tl": 1,
    "##bag": 0,
    "admission": 0,
    "ancient": 0,
    "bird": 0,
    "mammals": 0,
    "Male": 1,
    "5000": 0,
    "manga": 0,
    "##nese": 0,
    "hatch": 0,
    "Start": 0,
    "meat": 0,
    "Applications": 0,
    "1899": 0,
    "hazardous": 0,
    "##ult": 0,
    "##iard": 0,
    "Transfer": 0,
    "2d": 0,
    "rescued": 0,
    "PBS": 5,
    "preference": 0,
    "Double": 0,
    "Cave": 0,
    "bond": 0,
    "Minor": 0,
    "128": 1,
    "512": 0,
    "##rae": 0,
    "105": 1,
    "Wilcox": 0,
    "signed": 0,
    "rank": 0,
    "##bar": 0,
    "##eper": 0,
    "##iler": 0,
    "##any": 0,
    "cavern": 0,
    "strongest": 0,
    "##besity": 0,
    "##uel": 0,
    "##hn": 1,
    "##KS": 6,
    "##sex": 0,
    "methodology": 0,
    "setting": 0,
    "##sexual": 0,
    "takes": 0,
    "##phone": 0,
    "convection": 0,
    "##iber": 0,
    "Camp": 0,
    "##ej": 0,
    "subsp": 0,
    "##sol": 2,
    "ancestor": 0,
    "failures": 0,
    "philosophy": 0,
    "##pec": 4,
    "branches": 0,
    "##ronological": 0,
    "Consequently": 0,
    "knee": 0,
    "poor": 0,
    "##und": 0,
    "pivotal": 0,
    "acceptance": 0,
    "##itating": 0,
    "##wy": 2,
    "mildly": 0,
    "##ars": 0,
    "worse": 0,
    "##cted": 0,
    "##oo": 0,
    "##city": 0,
    "Major": 0,
    "Bay": 0,
    "practical": 0,
    "advantages": 0,
    "explored": 0,
    "detail": 0,
    "relates": 0,
    "##plate": 0,
    "comparisons": 0,
    "broader": 0,
    "##dicative": 0,
    "##ings": 0,
    "conclusions": 0,
    "bearing": 0,
    "resemble": 0,
    "deepest": 0,
    "##loy": 0,
    "##rois": 0,
    "figure": 0,
    "Hyde": 0,
    "1978": 0,
    "scheduled": 0,
    "##grade": 0,
    "prevailed": 0,
    "##stant": 0,
    "adopted": 0,
    "Romanian": 0,
    "Saunders": 0,
    "Region": 0,
    "tolerant": 0,
    "Michigan": 0,
    "adapted": 0,
    "lifetime": 0,
    "suspected": 0,
    "##adia": 0,
    "polo": 0,
    "pausing": 0,
    "Led": 0,
    "##erman": 0,
    "Jesse": 0,
    "waves": 0,
    "##VS": 0,
    "Twelve": 0,
    "##ently": 0,
    "##lick": 0,
    "Examples": 0,
    "Form": 0,
    "journal": 0,
    "chloride": 0,
    "Sox": 2,
    "Penn": 0,
    "State": 0,
    "intends": 0,
    "engage": 0,
    "worry": 0,
    "##right": 0,
    "##inder": 0,
    "cattle": 0,
    "Uganda": 0,
    "238": 0,
    "people": 0,
    "claim": 0,
    "innovation": 0,
    "hiring": 0,
    "labour": 0,
    "proposals": 0,
    "boiler": 0,
    "written": 0,
    "generic": 0,
    "user": 0,
    "friendly": 0,
    "##hun": 0,
    "remarkably": 0,
    "sway": 0,
    "##sko": 0,
    "tools": 0,
    "256": 0,
    "##fant": 0,
    "McDonald": 0,
    "Salmon": 1,
    "comprising": 0,
    "thin": 0,
    "carry": 0,
    "bee": 0,
    "##valent": 0,
    "substituted": 0,
    "OF": 4,
    "discuss": 0,
    "surprisingly": 0,
    "##gnate": 0,
    "Change": 0,
    "makeup": 0,
    "MW": 0,
    "leaving": 0,
    "1200": 0,
    "##zu": 0,
    "monthly": 0,
    "##sie": 0,
    "Stein": 0,
    "lighting": 0,
    "##spect": 0,
    "##lins": 3,
    "suffer": 0,
    "##uen": 0,
    "actively": 0,
    "##EE": 1,
    "breakdown": 0,
    "Managing": 0,
    "elderly": 0,
    "Der": 1,
    "recurring": 0,
    "cartridge": 0,
    "##came": 0,
    "##IX": 5,
    "surveys": 0,
    "distinguish": 0,
    "Members": 0,
    "warmed": 0,
    "definitive": 0,
    "demonstration": 0,
    "indigenous": 0,
    "Australians": 0,
    "comprise": 0,
    "mathematical": 0,
    "injuries": 0,
    "##ova": 0,
    "foe": 1,
    "opens": 0,
    "arena": 0,
    "##ivist": 0,
    "dell": 0,
    "critically": 0,
    "##rai": 0,
    "novelty": 0,
    "weaknesses": 0,
    "instruments": 0,
    "meal": 0,
    "urban": 0,
    "formulated": 0,
    "optimization": 0,
    "routines": 0,
    "##tudes": 0,
    "##sional": 0,
    "identities": 0,
    "##well": 0,
    "##riad": 0,
    "planes": 0,
    "##atus": 0,
    "Greater": 0,
    "dictated": 0,
    "slides": 0,
    "formal": 0,
    "embedded": 0,
    "##dified": 0,
    "##thin": 2,
    "Starr": 0,
    "##KO": 0,
    "Year": 0,
    "practitioner": 0,
    "Glasgow": 0,
    "accounts": 0,
    "longest": 0,
    "encompasses": 0,
    "emotional": 0,
    "cues": 0,
    "metric": 0,
    "Ever": 0,
    "##lades": 0,
    "##dorf": 0,
    "##bell": 0,
    "mark": 0,
    "##fers": 0,
    "accent": 0,
    "purity": 0,
    "##sitic": 0,
    "instability": 0,
    "##nc": 0,
    "offering": 0,
    "picture": 0,
    "##ossa": 0,
    "brains": 0,
    "Patch": 1,
    "##ilizer": 0,
    "##istan": 0,
    "Part": 0,
    "defensive": 0,
    "counter": 0,
    "1970s": 0,
    "ft": 2,
    "166": 0,
    "330": 0,
    "rainbow": 2,
    "trout": 1,
    "chin": 0,
    "##ook": 0,
    "Ask": 0,
    "experts": 0,
    "productivity": 0,
    "convenient": 0,
    "##ava": 1,
    "misleading": 0,
    "star": 0,
    "exploited": 0,
    "serving": 0,
    "historical": 0,
    "Strategic": 0,
    "##mme": 0,
    "regulations": 0,
    "baths": 0,
    "##OK": 2,
    "1972": 0,
    "Federal": 0,
    "##chen": 0,
    "muscular": 0,
    "postponed": 0,
    "Roe": 0,
    "##rges": 0,
    "aluminum": 0,
    "symbol": 0,
    "confirms": 0,
    "coarse": 0,
    "##lump": 0,
    "goal": 0,
    "##itic": 0,
    "devoted": 0,
    "substances": 0,
    "offered": 0,
    "opportunity": 0,
    "drains": 0,
    "Papers": 0,
    "Surgery": 0,
    "Grade": 0,
    "nausea": 0,
    "convenience": 0,
    "security": 0,
    "positioning": 0,
    "carries": 0,
    "modest": 0,
    "##pse": 0,
    "##ibe": 0,
    "certainly": 0,
    "##boe": 0,
    "##mbo": 0,
    "##lis": 0,
    "backgrounds": 0,
    "operate": 0,
    "##tism": 0,
    "Stan": 0,
    "##ovich": 0,
    "##zano": 0,
    "##rer": 0,
    "meets": 0,
    "disappear": 0,
    "commercially": 0,
    "Sand": 0,
    "cast": 0,
    "devoid": 0,
    "asteroid": 0,
    "##nsis": 0,
    "origins": 0,
    "what": 0,
    "Swiss": 0,
    "Zealand": 0,
    "Black": 0,
    "transparent": 0,
    "##lay": 0,
    "##pie": 0,
    "posed": 0,
    "infant": 0,
    "solitary": 0,
    "bounded": 0,
    "##rro": 0,
    "scalp": 0,
    "258": 0,
    "##eng": 1,
    "tan": 0,
    "objectives": 0,
    "prohibit": 0,
    "Dec": 0,
    "##FC": 2,
    "##raphic": 0,
    "##jun": 0,
    "purse": 0,
    "conditioned": 0,
    "Mississippi": 0,
    "1870": 0,
    "1930": 0,
    "1940": 0,
    "1950": 0,
    "1880": 0,
    "##llan": 0,
    "Liga": 0,
    "Ramos": 0,
    "##hore": 0,
    "triggered": 0,
    "199": 0,
    "##kers": 0,
    "THE": 0,
    "GE": 3,
    "##DI": 5,
    "##gation": 0,
    "AK": 4,
    "##hat": 1,
    "advantage": 0,
    "##otypic": 0,
    "exchanges": 0,
    "inlet": 0,
    "etc": 0,
    "genetics": 0,
    "prove": 0,
    "##tain": 0,
    "##ise": 0,
    "Lance": 0,
    "##field": 0,
    "acoustic": 0,
    "exhibiting": 0,
    "##nton": 0,
    "Concord": 0,
    "280": 0,
    "##lying": 0,
    "ABA": 2,
    "column": 0,
    "pumps": 0,
    "sic": 0,
    "comprehensive": 0,
    "Hispanic": 0,
    "sexually": 0,
    "transmitted": 0,
    "behaviors": 0,
    "194": 0,
    "States": 0,
    "Baltimore": 0,
    "Washington": 0,
    "Pittsburgh": 0,
    "Los": 0,
    "Angeles": 0,
    "Slowly": 0,
    "##coon": 0,
    "squirrel": 0,
    "quick": 0,
    "bias": 0,
    "motions": 0,
    "hp": 3,
    "##tem": 0,
    "MHz": 0,
    "subtle": 0,
    "elevations": 0,
    "trail": 0,
    "##yster": 0,
    "Range": 0,
    "124": 0,
    "Specifically": 0,
    "Native": 0,
    "brought": 0,
    "lived": 0,
    "intensified": 0,
    "##vitation": 0,
    "contribute": 0,
    "twelfth": 0,
    "acquire": 0,
    "appetite": 0,
    "overnight": 0,
    "##ow": 1,
    "Expo": 0,
    "##sure": 0,
    "##aya": 0,
    "reminiscent": 0,
    "cc": 1,
    "notch": 1,
    "##arate": 0,
    "bring": 0,
    "Translation": 0,
    "##gall": 0,
    "223": 0,
    "##pert": 0,
    "stronger": 0,
    "##vere": 0,
    "Theo": 0,
    "Current": 0,
    "Psychological": 0,
    "reproduction": 0,
    "Bali": 0,
    "sustain": 0,
    "##inet": 0,
    "##iza": 0,
    "scientific": 0,
    "council": 0,
    "approximation": 0,
    "conditional": 0,
    "##ceae": 0,
    "becomes": 0,
    "stresses": 0,
    "##dak": 0,
    "213": 0,
    "262": 0,
    "plateau": 0,
    "directs": 0,
    "dock": 0,
    "Rainbow": 0,
    "prescribed": 0,
    "Production": 0,
    "promising": 0,
    "innovative": 0,
    "exhaled": 0,
    "fertile": 0,
    "Rapid": 0,
    "##verse": 0,
    "supportive": 0,
    "instead": 0,
    "Isle": 0,
    "government": 0,
    "agencies": 0,
    "remnant": 0,
    "##ened": 0,
    "Circle": 0,
    "took": 0,
    "Um": 12,
    "solve": 0,
    "rating": 0,
    "##gical": 0,
    "scars": 0,
    "imposing": 0,
    "recognizes": 0,
    "problematic": 0,
    "##ful": 0,
    "expanded": 0,
    "just": 0,
    "noticeable": 0,
    "easy": 0,
    "Sin": 3,
    "##pion": 0,
    "##iba": 0,
    "younger": 0,
    "intimate": 0,
    "pack": 0,
    "completion": 0,
    "##gard": 0,
    "##culture": 0,
    "park": 0,
    "153": 0,
    "symmetrical": 0,
    "depot": 0,
    "firm": 0,
    "institution": 0,
    "253": 0,
    "##usion": 0,
    "Run": 2,
    "stern": 0,
    "originating": 0,
    "Line": 0,
    "Few": 0,
    "##rchy": 0,
    "##yk": 7,
    "##dered": 0,
    "##vention": 0,
    "Management": 0,
    "##dua": 0,
    "3D": 0,
    "realistic": 0,
    "views": 0,
    "##ony": 1,
    "virtue": 0,
    "thereof": 0,
    "##j": 2,
    "dish": 1,
    "##eve": 1,
    "tooth": 0,
    "##erse": 2,
    "suits": 0,
    "##ancipation": 0,
    "##cedural": 0,
    "##roo": 0,
    "confirming": 0,
    "##zam": 0,
    "Ben": 0,
    "board": 0,
    "certification": 0,
    "Previously": 0,
    "Lam": 1,
    "Formation": 0,
    "ventral": 0,
    "##ilitating": 0,
    "##ogist": 0,
    "France": 0,
    "engineer": 0,
    "##using": 0,
    "Very": 0,
    "##reta": 0,
    "Letter": 0,
    "solar": 0,
    "##voking": 0,
    "contacts": 0,
    "Huang": 0,
    "Shu": 0,
    "Testing": 0,
    "healthcare": 0,
    "provider": 0,
    "Besides": 0,
    "chiefly": 0,
    "Russ": 0,
    "GDP": 2,
    "Pac": 1,
    "TO": 1,
    "fly": 0,
    "Bailey": 0,
    "Instruments": 0,
    "Owen": 0,
    "Mum": 0,
    "##ford": 0,
    "##uck": 0,
    "Lake": 0,
    "Huron": 0,
    "Great": 0,
    "Lakes": 0,
    "marine": 0,
    "coastal": 0,
    "west": 0,
    "coast": 0,
    "British": 0,
    "Columbia": 0,
    "Canada": 0,
    "Ned": 2,
    "spray": 0,
    "DL": 2,
    "##balt": 0,
    "deal": 0,
    "threat": 0,
    "Africa": 0,
    "Well": 0,
    "manual": 0,
    "##ogy": 0,
    "encouraging": 0,
    "Subsequent": 0,
    "tapping": 0,
    "adjustment": 0,
    "went": 0,
    "compromise": 0,
    "performing": 0,
    "cycling": 0,
    "manners": 0,
    "film": 0,
    "popular": 0,
    "circuits": 0,
    "storing": 0,
    "memories": 0,
    "##iable": 0,
    "##ncing": 0,
    "303": 0,
    "Band": 0,
    "##nged": 0,
    "##bio": 0,
    "clean": 0,
    "dirty": 0,
    "##mum": 0,
    "property": 0,
    "stationary": 0,
    "depleted": 0,
    "157": 0,
    "Italy": 0,
    "John": 0,
    "bull": 0,
    "charged": 0,
    "possessed": 0,
    "tensions": 0,
    "##bari": 0,
    "##than": 0,
    "sexes": 0,
    "3000": 0,
    "oils": 0,
    "vegetables": 0,
    "lakes": 0,
    "Domain": 0,
    "endemic": 0,
    "pilot": 0,
    "auxiliary": 0,
    "melting": 0,
    "approved": 0,
    "schools": 0,
    "corpus": 1,
    "workplace": 0,
    "nearby": 0,
    "Collins": 0,
    "sharing": 0,
    "arrangements": 0,
    "green": 1,
    "##ach": 0,
    "move": 0,
    "retain": 0,
    "Far": 0,
    "reasonable": 0,
    "precision": 0,
    "withdrawn": 0,
    "archives": 0,
    "Dar": 0,
    "torso": 0,
    "extant": 0,
    "branched": 0,
    "##gal": 1,
    "Ultimate": 0,
    "alloy": 0,
    "Rear": 0,
    "##ih": 3,
    "ranking": 0,
    "##dicated": 0,
    "seldom": 0,
    "questioned": 0,
    "biologist": 0,
    "server": 0,
    "##ulge": 0,
    "##eton": 1,
    "hazards": 0,
    "exported": 0,
    "##edly": 0,
    "##oration": 0,
    "Philadelphia": 0,
    "Cherry": 0,
    "Hill": 0,
    "Que": 0,
    "Bet": 0,
    "##nus": 0,
    "Cup": 0,
    "950": 0,
    "platform": 0,
    "PDF": 0,
    "text": 0,
    "Still": 0,
    "angle": 0,
    "torque": 0,
    "Mt": 4,
    "Electrical": 0,
    "Groups": 0,
    "dick": 0,
    "price": 0,
    "breaks": 0,
    "goes": 0,
    "whereby": 0,
    "##ended": 0,
    "235": 0,
    "investigators": 0,
    "automatic": 0,
    "door": 0,
    "sour": 0,
    "taste": 0,
    "perception": 0,
    "paradigm": 0,
    "interpretations": 0,
    "protocols": 0,
    "therapist": 0,
    "Short": 0,
    "dei": 1,
    "##umatic": 0,
    "potato": 0,
    "Automatic": 0,
    "bottles": 0,
    "proceeds": 0,
    "balanced": 0,
    "##GB": 1,
    "##nex": 2,
    "convey": 0,
    "pumped": 0,
    "##ats": 2,
    "Identity": 0,
    "Issues": 0,
    "object": 0,
    "definitions": 0,
    "conflicting": 0,
    "plague": 0,
    "Plus": 0,
    "##icks": 0,
    "##urus": 0,
    "spins": 0,
    "concern": 0,
    "##ives": 0,
    "bottle": 0,
    "decomposition": 0,
    "116": 0,
    "ears": 0,
    "Don": 0,
    "232": 0,
    "Nearly": 0,
    "goose": 0,
    "inappropriate": 0,
    "sharp": 0,
    "anticipated": 0,
    "piece": 0,
    "preserving": 0,
    "circle": 0,
    "promoting": 0,
    "Genoa": 0,
    "breeding": 0,
    "##ah": 1,
    "##rar": 0,
    "errors": 0,
    "vol": 0,
    "##pire": 0,
    "beat": 0,
    "##PP": 5,
    "cultivation": 0,
    "Sri": 0,
    "Lanka": 0,
    "equation": 0,
    "intermittent": 0,
    "Graf": 1,
    "Near": 0,
    "White": 0,
    "generator": 0,
    "volumes": 0,
    "##dicate": 0,
    "attributed": 0,
    "economic": 0,
    "West": 0,
    "Scotland": 0,
    "375": 0,
    "pounds": 0,
    "16th": 0,
    "thumbs": 0,
    "big": 0,
    "toes": 0,
    "bowed": 0,
    "##ibi": 0,
    "exceeded": 0,
    "continued": 0,
    "traffic": 0,
    "##lement": 0,
    "Ada": 0,
    "Force": 0,
    "weighted": 0,
    "##bus": 0,
    "washing": 0,
    "readings": 0,
    "##ete": 0,
    "##utes": 0,
    "Monte": 0,
    "##luk": 0,
    "holes": 0,
    "##group": 0,
    "##inator": 0,
    "repetition": 0,
    "constructing": 0,
    "things": 0,
    "kill": 0,
    "sale": 0,
    "Selected": 0,
    "topics": 0,
    "Indeed": 0,
    "##minated": 0,
    "##ulter": 0,
    "##igi": 0,
    "##lance": 0,
    "maneuvers": 0,
    "##tery": 1,
    "noticed": 0,
    "episode": 0,
    "##nx": 0,
    "##oit": 0,
    "anonymous": 0,
    "lesser": 0,
    "news": 0,
    "occupied": 0,
    "atoms": 0,
    "##lev": 0,
    "afterwards": 0,
    "implied": 0,
    "Check": 0,
    "##suming": 0,
    "calculations": 0,
    "consumed": 0,
    "Comprehensive": 0,
    "options": 0,
    "school": 0,
    "1961": 0,
    "1965": 0,
    "1971": 0,
    "monetary": 0,
    "reward": 0,
    "plain": 0,
    "##space": 0,
    "equipment": 0,
    "nearest": 0,
    "notable": 0,
    "##rik": 0,
    "##curate": 0,
    "##ometer": 0,
    "audio": 0,
    "##phones": 0,
    "##mura": 0,
    "##umba": 0,
    "stores": 0,
    "##monia": 0,
    "##rini": 0,
    "##play": 0,
    "flora": 0,
    "##sui": 0,
    "naive": 0,
    "##eus": 0,
    "stay": 0,
    "Practice": 0,
    "Database": 0,
    "records": 0,
    "public": 0,
    "representation": 0,
    "promise": 0,
    "psychology": 0,
    "physiology": 0,
    "relieved": 0,
    "##ifice": 0,
    "##diction": 0,
    "sand": 0,
    "flowering": 0,
    "athletic": 0,
    "athletes": 0,
    "consuming": 0,
    "##falls": 0,
    "principle": 0,
    "reflected": 0,
    "##entation": 0,
    "247": 0,
    "disk": 0,
    "provoked": 0,
    "##rable": 0,
    "filling": 0,
    "sealing": 0,
    "##avan": 0,
    "cities": 0,
    "Orleans": 0,
    "residing": 0,
    "Val": 1,
    "##tz": 0,
    "powerful": 0,
    "statements": 0,
    "Hagen": 0,
    "##flies": 0,
    "cumulative": 0,
    "625": 0,
    "patent": 0,
    "deprived": 0,
    "protector": 0,
    "illustrated": 0,
    "instrumentation": 0,
    "manufacture": 0,
    "expressive": 0,
    "freedom": 0,
    "##oan": 0,
    "##power": 0,
    "listening": 0,
    "turned": 0,
    "##ship": 0,
    "mainland": 0,
    "Europe": 0,
    "favor": 0,
    "inability": 0,
    "##ische": 0,
    "Jude": 0,
    "##nica": 0,
    "Proceedings": 0,
    "Americans": 0,
    "whites": 0,
    "occupational": 0,
    "coating": 0,
    "dozen": 0,
    "wraps": 0,
    "##fields": 0,
    "Madagascar": 0,
    "disadvantage": 0,
    "nominally": 0,
    "126": 0,
    "Statistics": 0,
    "nurse": 0,
    "managers": 0,
    "branching": 0,
    "feet": 0,
    "ensure": 0,
    "traces": 0,
    "##uction": 0,
    "Republic": 0,
    "Serbia": 0,
    "donations": 0,
    "Mega": 1,
    "perennial": 0,
    "##hm": 0,
    "primitive": 0,
    "##dict": 0,
    "pharmacy": 0,
    "##SM": 4,
    "convert": 0,
    "aspect": 0,
    "ostensibly": 0,
    "Paper": 0,
    "##rase": 0,
    "blow": 0,
    "##fine": 0,
    "##brae": 0,
    "##ynx": 0,
    "fit": 0,
    "echoes": 0,
    "sparkling": 0,
    "ceased": 0,
    "Air": 0,
    "Il": 0,
    "mask": 0,
    "##truct": 0,
    "##raze": 0,
    "Sing": 0,
    "interfering": 0,
    "invade": 0,
    "Depending": 0,
    "threatening": 0,
    "casting": 0,
    "##lover": 0,
    "##hov": 0,
    "Han": 0,
    "think": 0,
    "##ese": 0,
    "equals": 0,
    "Local": 0,
    "orbital": 0,
    "##ique": 0,
    "irregular": 0,
    "shaped": 0,
    "spaces": 0,
    "jagged": 0,
    "translucent": 0,
    "##bir": 0,
    "Arte": 0,
    "##pair": 0,
    "flare": 0,
    "lasted": 0,
    "##ciating": 0,
    "Independent": 0,
    "temperate": 0,
    "science": 0,
    "engineering": 0,
    "calculation": 0,
    "##tives": 0,
    "conservative": 0,
    "joins": 0,
    "imply": 0,
    "butter": 0,
    "cleaned": 0,
    "##lston": 0,
    "popularity": 0,
    "##birth": 0,
    "##mour": 1,
    "races": 0,
    "##raction": 0,
    "##rimal": 0,
    "feedback": 0,
    "Spin": 0,
    "subdivision": 0,
    "Category": 0,
    "Fischer": 0,
    "Hartley": 0,
    "vapor": 0,
    "signing": 0,
    "extinction": 0,
    "rounds": 0,
    "habits": 0,
    "collective": 0,
    "##tium": 0,
    "disposition": 0,
    "Body": 0,
    "Grass": 0,
    "grows": 0,
    "##kh": 3,
    "##jord": 0,
    "##obe": 0,
    "Atomic": 0,
    "killer": 0,
    "graphic": 0,
    "averaging": 0,
    "afternoon": 0,
    "##nounce": 0,
    "enlarged": 0,
    "##uous": 0,
    "Secondary": 0,
    "fun": 1,
    "Intermediate": 0,
    "relating": 0,
    "recalled": 0,
    "Goldberg": 0,
    "situated": 0,
    "Flat": 0,
    "Articles": 0,
    "addressing": 0,
    "temporarily": 0,
    "converted": 0,
    "##graphical": 0,
    "extends": 0,
    "207": 0,
    "attractive": 0,
    "##ahan": 0,
    "Unlike": 0,
    "Whole": 0,
    "RAM": 1,
    "NASA": 0,
    "##bolic": 0,
    "EA": 1,
    "Shuttle": 0,
    "Atlantis": 0,
    "mission": 0,
    "regarded": 0,
    "gold": 1,
    "tones": 0,
    "simply": 0,
    "Rae": 0,
    "inspection": 0,
    "designing": 0,
    "buffer": 0,
    "Whether": 0,
    "Icelandic": 0,
    "obvious": 0,
    "necessity": 0,
    "Computer": 0,
    "exceptionally": 0,
    "desired": 0,
    "118": 0,
    "##fted": 0,
    "decisions": 0,
    "##dles": 0,
    "join": 0,
    "1962": 0,
    "1986": 0,
    "quarters": 0,
    "Third": 0,
    "Sun": 0,
    "Valle": 0,
    "##jo": 0,
    "Ramirez": 0,
    "belonging": 0,
    "UC": 7,
    "meals": 0,
    "gradual": 0,
    "mutual": 0,
    "##day": 1,
    "Flag": 0,
    "interrupted": 0,
    "peculiar": 0,
    "Sardinia": 0,
    "notified": 0,
    "never": 0,
    "centres": 0,
    "forehead": 0,
    "gaze": 0,
    "cheek": 0,
    "##bones": 0,
    "expresses": 0,
    "infrared": 0,
    "configuration": 0,
    "##nks": 0,
    "##ets": 0,
    "Motor": 0,
    "Prof": 0,
    "##tling": 0,
    "valves": 0,
    "operating": 0,
    "cave": 2,
    "Gran": 1,
    "vomit": 0,
    "waist": 0,
    "satisfactory": 0,
    "##light": 0,
    "175": 0,
    "synonymous": 0,
    "placing": 0,
    "vital": 0,
    "programme": 0,
    "LLC": 0,
    "Atlantic": 1,
    "war": 0,
    "##charged": 0,
    "Stella": 1,
    "##ntin": 0,
    "Little": 0,
    "come": 0,
    "attacks": 0,
    "##ris": 0,
    "##ygiene": 0,
    "##ilated": 0,
    "believe": 0,
    "aware": 0,
    "Abd": 1,
    "121": 0,
    "emerge": 0,
    "illumination": 0,
    "Physical": 0,
    "dissolution": 0,
    "cup": 0,
    "Nippon": 0,
    "Mining": 0,
    "ore": 0,
    "248": 1,
    "##RL": 1,
    "##vid": 0,
    "##ively": 0,
    "229": 0,
    "TV": 0,
    "##nac": 0,
    "give": 0,
    "comes": 0,
    "calculate": 0,
    "Kara": 0,
    "Sea": 0,
    "Arctic": 0,
    "Ocean": 0,
    "##bject": 0,
    "conceived": 0,
    "Thomas": 0,
    "meet": 0,
    "##stics": 0,
    "141": 0,
    "245": 0,
    "stalk": 0,
    "Heard": 0,
    "Tor": 0,
    "plots": 0,
    "##anti": 1,
    "##pate": 0,
    "glands": 0,
    "mobile": 0,
    "pupil": 0,
    "shy": 2,
    "darkness": 0,
    "runoff": 0,
    "Audi": 0,
    "##bas": 0,
    "##hoe": 0,
    "criticism": 0,
    "justified": 0,
    "educational": 0,
    "fifty": 0,
    "cavity": 0,
    "Park": 0,
    "Cry": 0,
    "feather": 0,
    "##tip": 0,
    "stand": 0,
    "stool": 0,
    "forward": 0,
    "bend": 0,
    "touch": 0,
    "son": 0,
    "##nap": 0,
    "##ifies": 0,
    "Days": 0,
    "##rsk": 1,
    "instruction": 0,
    "ward": 0,
    "##inia": 0,
    "listeners": 0,
    "parent": 1,
    "##eral": 0,
    "Leiden": 0,
    "##ditions": 0,
    "##dor": 0,
    "Gordon": 0,
    "##ference": 0,
    "wrap": 0,
    "Latin": 0,
    "square": 0,
    "##over": 0,
    "##graded": 0,
    "Rio": 0,
    "warm": 0,
    "##usa": 0,
    "moss": 0,
    "totally": 0,
    "##otte": 0,
    "External": 0,
    "ji": 0,
    "##tter": 0,
    "##beat": 0,
    "modifications": 0,
    "##iq": 0,
    "siblings": 0,
    "girl": 0,
    "boy": 0,
    "linen": 0,
    "##active": 0,
    "##tail": 0,
    "manipulated": 0,
    "raising": 0,
    "contracting": 0,
    "qualifications": 0,
    "rejected": 0,
    "practices": 0,
    "institutional": 0,
    "pits": 0,
    "USD": 0,
    "Plant": 0,
    "##ue": 0,
    "girls": 0,
    "grow": 0,
    "peers": 0,
    "breeds": 0,
    "720": 0,
    "arithmetic": 0,
    "##game": 0,
    "playing": 0,
    "films": 0,
    "interviews": 0,
    "zones": 0,
    "crisp": 0,
    "##hou": 0,
    "Problems": 0,
    "Von": 1,
    "software": 0,
    "ordering": 0,
    "integrate": 0,
    "##itation": 0,
    "nesting": 0,
    "##Vs": 0,
    "Dual": 0,
    "lamp": 0,
    "##rey": 0,
    "mesh": 0,
    "disappears": 0,
    "##pina": 0,
    "descending": 0,
    "##uded": 0,
    "utilize": 0,
    "Subsequently": 0,
    "coordinates": 0,
    "tablets": 0,
    "313": 0,
    "##vale": 0,
    "Legion": 0,
    "Branch": 0,
    "##ner": 0,
    "##rators": 0,
    "##ited": 0,
    "Crystal": 0,
    "department": 0,
    "differently": 0,
    "attributes": 0,
    "XI": 0,
    "hereditary": 1,
    "##board": 0,
    "158": 0,
    "ski": 0,
    "unacceptable": 0,
    "silicon": 0,
    "mixing": 0,
    "repaired": 0,
    "Important": 0,
    "dealing": 0,
    "grave": 0,
    "Mortal": 0,
    "ranch": 0,
    "turkey": 0,
    "heavier": 0,
    "##lord": 0,
    "spouse": 0,
    "ended": 0,
    "inherited": 0,
    "unpredictable": 0,
    "acceleration": 0,
    "briefly": 0,
    "_": 0,
    "surviving": 0,
    "alive": 0,
    "##ista": 0,
    "##zone": 0,
    "Fox": 3,
    "Cooperative": 0,
    "spite": 0,
    "##pio": 0,
    "calculating": 0,
    "##imate": 0,
    "##lative": 0,
    "coherent": 0,
    "discourse": 0,
    "semantic": 0,
    "began": 0,
    "word": 0,
    "chestnut": 0,
    "##uating": 0,
    "accordingly": 0,
    "##ressed": 0,
    "regularly": 0,
    "##WD": 1,
    "Resolution": 0,
    "nostrils": 0,
    "captured": 0,
    "perimeter": 0,
    "moments": 0,
    "axes": 0,
    "offset": 0,
    "shrimp": 0,
    "##otes": 0,
    "209": 0,
    "##tani": 0,
    "##nds": 0,
    "##human": 0,
    "expand": 0,
    "separating": 0,
    "nose": 0,
    "suspicious": 0,
    "sing": 0,
    "Rey": 0,
    "1982": 0,
    "1987": 0,
    "commenced": 0,
    "eccentric": 0,
    "mostly": 0,
    "fueled": 0,
    "suppose": 0,
    "impose": 0,
    "##pm": 2,
    "##oons": 0,
    "severity": 0,
    "reporting": 0,
    "supervisor": 0,
    "camp": 0,
    "adopt": 0,
    "##gren": 0,
    "JP": 0,
    "necessarily": 0,
    "##ash": 0,
    "collaborate": 0,
    "lifting": 0,
    "bay": 0,
    "package": 0,
    "develops": 0,
    "oxidation": 0,
    "brown": 0,
    "wine": 0,
    "joints": 0,
    "chance": 0,
    "continue": 0,
    "bleed": 0,
    "whilst": 0,
    "##leg": 0,
    "secure": 0,
    "widening": 0,
    "unnatural": 0,
    "Gus": 1,
    "##licity": 0,
    "wounds": 0,
    "dressing": 0,
    "Fund": 0,
    "##sang": 0,
    "##ulon": 0,
    "lay": 0,
    "cigarettes": 0,
    "6th": 0,
    "Conservation": 0,
    "workers": 0,
    "country": 0,
    "##mbs": 0,
    "disabled": 0,
    "analytical": 0,
    "inspired": 0,
    "heroin": 0,
    "11th": 0,
    "##nated": 0,
    "humour": 0,
    "##uns": 0,
    "declined": 0,
    "stock": 0,
    "lodged": 0,
    "institutes": 0,
    "Buenos": 0,
    "Aires": 0,
    "trapping": 0,
    "vicinity": 0,
    "Papa": 0,
    "##oman": 0,
    "##fish": 2,
    "Alternative": 0,
    "##oat": 0,
    "Shea": 0,
    "etched": 0,
    "##tage": 0,
    "Tel": 1,
    "paranoid": 0,
    "losses": 0,
    "inadequate": 0,
    "##ishing": 0,
    "treating": 0,
    "typing": 0,
    "##ganized": 0,
    "resemblance": 0,
    "Cam": 1,
    "voluntary": 0,
    "sole": 0,
    "##fference": 0,
    "filled": 0,
    "dissipated": 0,
    "Prospect": 0,
    "Follow": 0,
    "documented": 0,
    "##same": 0,
    "suspects": 0,
    "##bie": 0,
    "tend": 0,
    "principles": 0,
    "outlined": 0,
    "hint": 0,
    "actually": 0,
    "Eva": 0,
    "##lops": 1,
    "Gypsy": 1,
    "##changing": 0,
    "##rain": 0,
    "Students": 0,
    "teachers": 0,
    "making": 0,
    "industrial": 0,
    "farms": 0,
    "straining": 0,
    "##lag": 0,
    "explaining": 0,
    "facts": 0,
    "filing": 0,
    "Beta": 2,
    "preceded": 0,
    "electromagnetic": 0,
    "103": 0,
    "218": 0,
    "victims": 0,
    "deposits": 0,
    "simplified": 0,
    "style": 0,
    "##roa": 1,
    "sleeping": 0,
    "Information": 0,
    "Man": 1,
    "verified": 0,
    "favourable": 0,
    "dated": 0,
    "bears": 0,
    "destroyed": 0,
    "Prague": 0,
    "dreams": 0,
    "wages": 0,
    "stature": 0,
    "tall": 0,
    "preferring": 0,
    "Fine": 0,
    "##mity": 0,
    "Changing": 0,
    "##cco": 0,
    "##unt": 0,
    "Lay": 0,
    "grains": 0,
    "1977": 0,
    "900": 0,
    "breaths": 0,
    "inspiration": 0,
    "runs": 0,
    "contemporary": 0,
    "eruption": 0,
    "Statistical": 0,
    "halt": 0,
    "Wide": 0,
    "incident": 0,
    "selecting": 0,
    "##chal": 0,
    "##lmer": 0,
    "substitute": 0,
    "##tica": 0,
    "typed": 0,
    "engagement": 0,
    "Bowen": 0,
    "##cki": 0,
    "collecting": 0,
    "attained": 0,
    "Fen": 0,
    "##tany": 0,
    "investigative": 0,
    "Dal": 0,
    "##fic": 0,
    "##vio": 0,
    "movements": 0,
    "electronic": 0,
    "##roving": 0,
    "seal": 0,
    "military": 0,
    "strict": 0,
    "161": 0,
    "sensing": 0,
    "##urity": 0,
    "350": 0,
    "##uca": 0,
    "grouped": 0,
    "transmitting": 0,
    "Her": 0,
    "##she": 0,
    "##mot": 0,
    "Primary": 0,
    "managed": 0,
    "Fitness": 0,
    "##child": 0,
    "reassuring": 0,
    "advise": 0,
    "voice": 0,
    "intensive": 0,
    "RAF": 3,
    "competitor": 0,
    "##shing": 0,
    "##wo": 0,
    "##rak": 1,
    "##ier": 0,
    "buttons": 0,
    "##orf": 1,
    "##hetical": 0,
    "##wi": 8,
    "governed": 0,
    "Lewis": 0,
    "##cious": 0,
    "competing": 0,
    "Giant": 0,
    "##rix": 0,
    "wrapping": 0,
    "##mark": 0,
    "referenced": 0,
    "thesis": 0,
    "##ulp": 0,
    "fifth": 0,
    "prospects": 0,
    "divide": 0,
    "228": 0,
    "425": 0,
    "deaths": 0,
    "Nigeria": 0,
    "##lge": 0,
    "cheeks": 0,
    "cotton": 0,
    "wool": 0,
    "##wab": 0,
    "Au": 0,
    "Central": 0,
    "America": 0,
    "islands": 0,
    "##noy": 0,
    "##icide": 0,
    "youth": 0,
    "##economic": 0,
    "ethnic": 0,
    "grouping": 0,
    "resided": 0,
    "##ell": 0,
    "##urn": 0,
    "Animals": 0,
    "264": 0,
    "ally": 0,
    "##rga": 0,
    "Experience": 0,
    "##hani": 0,
    "##nov": 0,
    "##ety": 0,
    "bin": 0,
    "Amongst": 0,
    "qualities": 0,
    "book": 0,
    "empirical": 0,
    "19th": 0,
    "century": 0,
    "statistics": 0,
    "evidently": 0,
    "donation": 0,
    "##une": 0,
    "warn": 0,
    "risks": 0,
    "##apon": 0,
    "twenty": 0,
    "Traditional": 0,
    "exploration": 0,
    "##udd": 0,
    "Considering": 0,
    "thoroughly": 0,
    "##cribe": 0,
    "shield": 0,
    "##rl": 1,
    "Digital": 0,
    "participated": 0,
    "gambling": 0,
    "Turkish": 0,
    "Version": 0,
    "Oaks": 0,
    "accomplished": 0,
    "losing": 0,
    "quickly": 0,
    "ladder": 0,
    "Wu": 1,
    "##cher": 1,
    "ban": 0,
    "##croft": 0,
    "rings": 0,
    "Senegal": 0,
    "beating": 0,
    "insult": 0,
    "relatives": 0,
    "XV": 0,
    "wrapped": 0,
    "cylindrical": 0,
    "##uted": 0,
    "brighter": 0,
    "##nova": 0,
    "Southampton": 0,
    "gap": 2,
    "##wes": 0,
    "##runner": 0,
    "10th": 0,
    "Women": 0,
    "clinics": 0,
    "Minneapolis": 0,
    "Ray": 0,
    "##tec": 0,
    "##bt": 2,
    "Resistance": 0,
    "loads": 0,
    "##ists": 0,
    "mandatory": 0,
    "instructions": 0,
    "USSR": 0,
    "January": 0,
    "Barbie": 0,
    "Apr": 0,
    "Castle": 0,
    "Core": 0,
    "Quality": 0,
    "Life": 0,
    "afford": 0,
    "kW": 0,
    "##dt": 0,
    "ground": 0,
    "loses": 0,
    "doubled": 0,
    "doubling": 0,
    "Ryan": 0,
    "##bino": 0,
    "##say": 0,
    "dried": 0,
    "spots": 0,
    "knob": 0,
    "Live": 0,
    "matches": 0,
    "Either": 0,
    "ideas": 0,
    "Advances": 0,
    "Editorial": 0,
    "meantime": 0,
    "succeeded": 0,
    "##post": 0,
    "Private": 0,
    "accreditation": 0,
    "178": 0,
    "##tist": 0,
    "Friedrich": 0,
    "##hill": 0,
    "Jen": 0,
    "Set": 0,
    "environments": 0,
    "faced": 0,
    "UN": 4,
    "puppet": 0,
    "game": 0,
    "vowel": 0,
    "Less": 0,
    "Serra": 0,
    "faculty": 0,
    "NFL": 0,
    "World": 0,
    "Recovery": 0,
    "weights": 0,
    "460": 1,
    "bred": 0,
    "##fari": 0,
    "169": 0,
    "apply": 0,
    "mentally": 0,
    "latest": 0,
    "streak": 0,
    "Joan": 0,
    "frequencies": 0,
    "##rilla": 0,
    "Jewish": 0,
    "Israeli": 0,
    "##nder": 0,
    "combines": 0,
    "gains": 0,
    "vehicles": 0,
    "casualties": 0,
    "earthquakes": 0,
    "February": 0,
    "##citing": 0,
    "intricate": 0,
    "Inspired": 0,
    "minimize": 0,
    "flute": 0,
    "creation": 0,
    "spiral": 0,
    "##tches": 0,
    "perpendicular": 0,
    "##rick": 0,
    "##dela": 0,
    "##ink": 0,
    "Water": 0,
    "##olt": 0,
    "101": 0,
    "261": 0,
    "exploring": 0,
    "encouraged": 0,
    "marriages": 0,
    "Santiago": 0,
    "1850": 0,
    "1960": 0,
    "##tern": 0,
    "likelihood": 0,
    "sibling": 0,
    "leather": 0,
    "fund": 0,
    "shall": 0,
    "Nakamura": 0,
    "##wa": 2,
    "##rie": 0,
    "informed": 0,
    "moment": 0,
    "##ld": 0,
    "discomfort": 0,
    "sided": 0,
    "##ston": 0,
    "Middle": 0,
    "Pak": 2,
    "packaging": 0,
    "police": 0,
    "officers": 0,
    "Guinea": 0,
    "##issa": 0,
    "Doctor": 0,
    "##lund": 0,
    "warns": 0,
    "union": 0,
    "fractured": 0,
    "##aru": 0,
    "##wed": 0,
    "Walker": 0,
    "Unfortunately": 0,
    "interfere": 0,
    "##bur": 0,
    "Plan": 0,
    "equations": 0,
    "Kern": 0,
    "1968": 0,
    "visited": 0,
    "##ices": 0,
    "commitment": 0,
    "Scientific": 0,
    "countries": 0,
    "1974": 0,
    "sponsorship": 0,
    "Slovak": 0,
    "Academy": 0,
    "Sciences": 0,
    "Czechoslovakia": 0,
    "laws": 0,
    "corner": 0,
    "Diaz": 0,
    "Burkina": 0,
    "Faso": 0,
    "##vey": 0,
    "##pent": 0,
    "Edwards": 0,
    "##lde": 1,
    "jumping": 0,
    "##classified": 0,
    "##mented": 0,
    "##book": 0,
    "560": 0,
    "Kurt": 0,
    "arguments": 0,
    "advance": 0,
    "counseling": 0,
    "##XT": 2,
    "251": 0,
    "Hop": 0,
    "sized": 0,
    "Maximum": 0,
    "bare": 0,
    "crossover": 0,
    "Frank": 0,
    "Star": 0,
    "reportedly": 0,
    "besides": 0,
    "##logist": 0,
    "adequately": 0,
    "expect": 0,
    "uncovered": 0,
    "energies": 0,
    "##linity": 0,
    "nutrients": 0,
    "simplest": 0,
    "Course": 0,
    "rod": 0,
    "recycling": 0,
    "Belgian": 0,
    "##acts": 0,
    "Economic": 0,
    "##ologists": 0,
    "XIV": 0,
    "analogy": 0,
    "sly": 2,
    "appearing": 0,
    "purely": 0,
    "##gum": 0,
    "##oss": 0,
    "1896": 0,
    "og": 1,
    "financial": 0,
    "Vance": 0,
    "Annals": 0,
    "pouch": 0,
    "Reporter": 0,
    "communities": 0,
    "illustrate": 0,
    "drawn": 0,
    "Journal": 0,
    "Club": 0,
    "Pub": 0,
    "flushed": 0,
    "keeping": 0,
    "destructive": 0,
    "warfare": 0,
    "Fast": 0,
    "##zak": 0,
    "fin": 2,
    "1904": 0,
    "Tea": 2,
    "##Leod": 0,
    "Though": 0,
    "uncommon": 0,
    "altitudes": 0,
    "village": 0,
    "issue": 0,
    "##achi": 0,
    "Ava": 0,
    "nipple": 0,
    "opening": 0,
    "Raj": 0,
    "competed": 0,
    "##gies": 0,
    "Variations": 0,
    "##ife": 0,
    "Vietnam": 0,
    "##ees": 0,
    "undergraduate": 0,
    "discovery": 0,
    "boys": 0,
    "1910": 0,
    "1911": 0,
    "##aling": 0,
    "hop": 0,
    "mud": 0,
    "##iz": 0,
    "208": 0,
    "Power": 0,
    "##pped": 0,
    "drivers": 0,
    "generators": 0,
    "meeting": 0,
    "accurately": 0,
    "irrational": 0,
    "instituted": 0,
    "##lary": 0,
    "##queduct": 0,
    "deaf": 0,
    "##ush": 0,
    "##sian": 0,
    "##calated": 0,
    "##yi": 0,
    "exceed": 0,
    "##lling": 0,
    "Incident": 0,
    "##ider": 0,
    "sweat": 0,
    "worth": 0,
    "##while": 0,
    "versatile": 0,
    "exhaust": 0,
    "rule": 0,
    "chart": 0,
    "##ads": 0,
    "prompting": 0,
    "designation": 0,
    "dust": 0,
    "fish": 0,
    "1914": 0,
    "##like": 0,
    "Pole": 0,
    "##more": 0,
    "aims": 0,
    "disabilities": 0,
    "convergence": 0,
    "ERA": 0,
    "Mill": 0,
    "nominal": 0,
    "rough": 0,
    "coated": 0,
    "Let": 0,
    "##loom": 0,
    "behind": 0,
    "encompassed": 0,
    "territories": 0,
    "familiar": 0,
    "neighbors": 0,
    "##rge": 0,
    "##ental": 0,
    "spines": 0,
    "##cian": 0,
    "mercury": 0,
    "salts": 0,
    "uneven": 0,
    "760": 0,
    "personality": 0,
    "similarly": 0,
    "till": 0,
    "sacrificed": 0,
    "reviewing": 0,
    "intensely": 0,
    "bottom": 0,
    "##hang": 0,
    "Day": 0,
    "##itz": 0,
    "##tien": 0,
    "1st": 0,
    "Ulysses": 1,
    "growing": 0,
    "rag": 0,
    "##weed": 0,
    "hay": 0,
    "Ralph": 0,
    "1775": 0,
    "##chor": 0,
    "deals": 0,
    "astronaut": 0,
    "Skyla": 0,
    "##lessness": 0,
    "Danish": 0,
    "arrival": 0,
    "Mediterranean": 0,
    "##born": 0,
    "##redo": 2,
    "##uren": 0,
    "ineffective": 0,
    "Food": 0,
    "FDA": 0,
    "assign": 0,
    "ratings": 0,
    "holding": 0,
    "sponsors": 0,
    "Shine": 0,
    "confusion": 0,
    "barely": 0,
    "father": 0,
    "##lian": 0,
    "proposing": 0,
    "mechanics": 0,
    "##aton": 0,
    "##ight": 0,
    "ordered": 0,
    "summarized": 0,
    "##actions": 0,
    "##nge": 0,
    "autumn": 0,
    "182": 0,
    "mare": 0,
    "Lagos": 0,
    "Ng": 0,
    "Who": 0,
    "says": 0,
    "tattoo": 0,
    "printer": 0,
    "formats": 0,
    "static": 0,
    "Clear": 0,
    "anyone": 0,
    "trio": 2,
    "featuring": 0,
    "620": 0,
    "suited": 0,
    "fundamental": 0,
    "harmonic": 0,
    "##500": 0,
    "##win": 0,
    "##kle": 0,
    "##hara": 0,
    "captive": 0,
    "wherein": 0,
    "capability": 0,
    "flexibility": 0,
    "Beyond": 0,
    "Tower": 0,
    "##menclature": 0,
    "Keeping": 0,
    "mind": 0,
    "##rne": 0,
    "scrap": 0,
    "staff": 0,
    "Slow": 0,
    "want": 0,
    "matrices": 0,
    "carriage": 0,
    "##dea": 1,
    "##VO": 0,
    "##roved": 0,
    "##tropical": 0,
    "tailed": 0,
    "Carol": 0,
    "crosses": 0,
    "opera": 0,
    "aperture": 0,
    "Jack": 1,
    "tape": 0,
    "catalyst": 0,
    "cooling": 0,
    "##cting": 0,
    "Luc": 3,
    "MMA": 2,
    "amber": 0,
    "##rle": 0,
    "Bangladesh": 0,
    "unified": 0,
    "Oral": 0,
    "sob": 0,
    "##laus": 0,
    "Rosa": 0,
    "##ear": 0,
    "aligned": 0,
    "224": 0,
    "instances": 0,
    "revision": 0,
    "Below": 0,
    "prominently": 0,
    "Assembly": 0,
    "##lena": 1,
    "exact": 0,
    "analogous": 0,
    "Bruce": 0,
    "##rgon": 0,
    "tender": 0,
    "MIT": 1,
    "intersection": 0,
    "2nd": 0,
    "##uve": 0,
    "November": 0,
    "333": 0,
    "Elle": 0,
    "Against": 0,
    "##eka": 0,
    "##lars": 0,
    "##cea": 0,
    "Laurent": 0,
    "waters": 0,
    "north": 0,
    "Stream": 0,
    "warming": 0,
    "Ice": 0,
    "centuries": 0,
    "mushroom": 0,
    "##ege": 0,
    "##rita": 0,
    "Likewise": 0,
    "peaks": 0,
    "occupies": 0,
    "bordering": 0,
    "##ulous": 0,
    "pointed": 0,
    "masked": 0,
    "erect": 0,
    "dusk": 0,
    "crust": 0,
    "pity": 0,
    "##iche": 0,
    "##nics": 0,
    "Block": 0,
    "Having": 0,
    "##MX": 2,
    "planned": 0,
    "wanted": 0,
    "##lak": 5,
    "willingly": 0,
    "comply": 0,
    "enforcement": 0,
    "rendered": 0,
    "Calcutta": 0,
    "Asian": 0,
    "Islander": 0,
    "today": 0,
    "wooden": 0,
    "surround": 0,
    "cage": 0,
    "##glass": 0,
    "##away": 0,
    "hollow": 0,
    "Kaplan": 0,
    "Mei": 0,
    "Rank": 0,
    "Limited": 0,
    "argues": 0,
    "weighed": 0,
    "tighter": 0,
    "dies": 0,
    "casts": 0,
    "impressions": 0,
    "handle": 0,
    "performs": 0,
    "capita": 0,
    "Ecuador": 0,
    "satisfied": 0,
    "##hur": 0,
    "modeling": 0,
    "curls": 0,
    "married": 0,
    "##zaki": 0,
    "1984": 0,
    "April": 0,
    "husband": 0,
    "wife": 0,
    "employment": 0,
    "uncertainty": 0,
    "grin": 0,
    "wheels": 0,
    "difficulties": 0,
    "##rica": 1,
    "poisoned": 0,
    "##ust": 0,
    "denoted": 0,
    "##ok": 1,
    "flush": 0,
    "Standard": 0,
    "bodied": 0,
    "bus": 0,
    "Novel": 0,
    "prefers": 0,
    "Alpha": 1,
    "Indian": 0,
    "AFL": 0,
    "Ave": 0,
    "crisis": 0,
    "testify": 0,
    "unnecessary": 0,
    "harmful": 0,
    "rational": 0,
    "challenges": 0,
    "##vocation": 0,
    "Digest": 0,
    "345": 1,
    "##hee": 0,
    "precipitation": 0,
    "##stable": 0,
    "Audio": 0,
    "Purple": 0,
    "critique": 0,
    "ideal": 0,
    "drives": 0,
    "##pies": 0,
    "1966": 0,
    "depiction": 0,
    "manifold": 0,
    "petroleum": 0,
    "company": 0,
    "gravity": 0,
    "originally": 0,
    "##oja": 1,
    "rural": 0,
    "1980s": 0,
    "awareness": 0,
    "##ifying": 0,
    "##QL": 0,
    "armed": 0,
    "revolt": 0,
    "Moscow": 0,
    "##medical": 0,
    "personnel": 0,
    "##ady": 0,
    "bite": 0,
    "exaggerated": 0,
    "##pura": 0,
    "toe": 0,
    "suspect": 0,
    "explains": 0,
    "shut": 0,
    "resources": 0,
    "Copper": 0,
    "brightness": 0,
    "##gau": 0,
    "Observer": 0,
    "##ffs": 0,
    "scent": 0,
    "Ole": 0,
    "categories": 0,
    "##iro": 0,
    "Gilbert": 0,
    "Hereford": 0,
    "Holstein": 0,
    "Hair": 0,
    "wing": 0,
    "Harris": 0,
    "Benedict": 0,
    "wedge": 0,
    "decisive": 0,
    "Diary": 0,
    "authentic": 0,
    "conceptual": 0,
    "##mize": 0,
    "basement": 0,
    "inexpensive": 0,
    "shell": 0,
    "##sley": 1,
    "engaging": 0,
    "Texas": 0,
    "Victoria": 0,
    "stretching": 0,
    "edge": 0,
    "Gardner": 0,
    "##imated": 0,
    "Broad": 1,
    "transportation": 0,
    "Ai": 1,
    "Distribution": 0,
    "connections": 0,
    "trace": 0,
    "Gold": 0,
    "representations": 0,
    "##iliated": 0,
    "1976": 0,
    "flock": 0,
    "FX": 3,
    "poisoning": 0,
    "atomic": 0,
    "arrests": 0,
    "Kat": 0,
    "##ssent": 0,
    "yer": 0,
    "neighbouring": 0,
    "Rita": 0,
    "Toward": 0,
    "George": 0,
    "IDF": 0,
    "Regis": 0,
    "Landmark": 0,
    "##ann": 0,
    "##nation": 0,
    "stripes": 0,
    "coin": 0,
    "##quid": 0,
    "##ners": 0,
    "##hog": 0,
    "herb": 0,
    "confront": 0,
    "bombardment": 0,
    "Pig": 0,
    "switched": 0,
    "MAC": 0,
    "NHL": 0,
    "197": 0,
    "Report": 0,
    "assuming": 0,
    "residence": 0,
    "Greg": 0,
    "##oir": 0,
    "And": 0,
    "barriers": 0,
    "Genesis": 0,
    "Service": 0,
    "Bologna": 0,
    "##eda": 0,
    "##ggio": 0,
    "23rd": 0,
    "ups": 0,
    "admit": 0,
    "straight": 0,
    "Sixth": 0,
    "Joint": 0,
    "premise": 0,
    "Young": 0,
    "missions": 0,
    "##jou": 0,
    "Professor": 0,
    "Dan": 0,
    "##face": 0,
    "burden": 0,
    "Specialist": 0,
    "doctor": 0,
    "##abi": 0,
    "Open": 0,
    "flows": 0,
    "loaded": 0,
    "translate": 0,
    "##rgy": 0,
    "raises": 0,
    "runners": 0,
    "km": 0,
    "defence": 0,
    "##WC": 3,
    "litre": 0,
    "Small": 0,
    "equally": 0,
    "beds": 0,
    "administer": 0,
    "exterior": 0,
    "230": 0,
    "stocks": 0,
    "friction": 0,
    "relations": 0,
    "psychic": 0,
    "##yx": 0,
    "surrounds": 0,
    "Dudley": 0,
    "##finity": 0,
    "##rons": 0,
    "tram": 1,
    "##track": 1,
    "sent": 1,
    "debate": 0,
    "burned": 0,
    "Space": 0,
    "Interactive": 0,
    "Credit": 0,
    "##quire": 0,
    "##iary": 0,
    "whip": 0,
    "##immer": 0,
    "publications": 0,
    "publication": 0,
    "holds": 0,
    "magic": 0,
    "ball": 0,
    "retreat": 0,
    "Humphrey": 0,
    "##dek": 0,
    "miracle": 0,
    "287": 0,
    "MVP": 0,
    "Online": 0,
    "236": 0,
    "##hu": 0,
    "##ffle": 0,
    "viewpoint": 0,
    "##ators": 0,
    "cereal": 0,
    "connected": 0,
    "argue": 0,
    "master": 0,
    "stopping": 0,
    "##awed": 0,
    "##orum": 0,
    "horizontally": 0,
    "returning": 0,
    "eventually": 0,
    "pets": 0,
    "##PL": 2,
    "consistency": 0,
    "String": 0,
    "intended": 0,
    "destined": 0,
    "racial": 0,
    "##rca": 0,
    "humidity": 0,
    "clothing": 0,
    "professional": 0,
    "wearing": 0,
    "fighter": 0,
    "uniforms": 0,
    "##bing": 0,
    "Pop": 2,
    "##rification": 0,
    "##mada": 0,
    "##kan": 0,
    "1948": 0,
    "staged": 0,
    "##fter": 0,
    "Dharma": 1,
    "organizer": 0,
    "removes": 0,
    "homes": 0,
    "##ctus": 0,
    "improvements": 0,
    "outlet": 0,
    "regiments": 0,
    "Those": 0,
    "edited": 0,
    "Urdu": 0,
    "languages": 0,
    "scholars": 0,
    "##ssa": 0,
    "##bella": 0,
    "Galen": 0,
    "Rosen": 0,
    "tent": 0,
    "standing": 0,
    "corners": 0,
    "Dot": 0,
    "trivial": 0,
    "##ssin": 0,
    "tempo": 0,
    "##rock": 0,
    "##aca": 1,
    "clamped": 0,
    "oldest": 0,
    "##NI": 0,
    "trained": 0,
    "preserves": 0,
    "##dir": 0,
    "Environmental": 0,
    "bats": 0,
    "clade": 0,
    "Cap": 0,
    "phased": 0,
    "volunteer": 0,
    "Stanford": 0,
    "Morgan": 0,
    "Vic": 0,
    "influx": 0,
    "Sexual": 0,
    "incentives": 0,
    "insects": 0,
    "##alk": 1,
    "paralyzed": 0,
    "Fall": 0,
    "Palma": 0,
    "##bre": 0,
    "thanks": 0,
    "deposited": 0,
    "assisting": 0,
    "Ghana": 0,
    "adjusting": 0,
    "##ders": 0,
    "pairing": 0,
    "disconnected": 0,
    "ports": 0,
    "sisters": 0,
    "##ather": 0,
    "healed": 0,
    "pictures": 0,
    "judgment": 0,
    "##unta": 1,
    "Toro": 0,
    "habitat": 0,
    "##ick": 0,
    "##occo": 0,
    "border": 0,
    "homicide": 0,
    "suicide": 0,
    "lover": 0,
    "crime": 0,
    "accidentally": 0,
    "leave": 0,
    "note": 0,
    "weekend": 0,
    "subdivided": 0,
    "##tribution": 0,
    "theorem": 0,
    "Vera": 0,
    "##user": 0,
    "engines": 0,
    "cum": 0,
    "##bers": 0,
    "surroundings": 0,
    "Past": 0,
    "##elles": 0,
    "Modern": 0,
    "cannabis": 0,
    "Individuals": 0,
    "attending": 0,
    "##firmary": 0,
    "Edinburgh": 0,
    "plug": 0,
    "##loss": 0,
    "moth": 0,
    "prison": 0,
    "HMS": 0,
    "guides": 0,
    "##lons": 0,
    "tuned": 0,
    "##ducted": 0,
    "twin": 1,
    "##sle": 0,
    "suggestions": 0,
    "Reference": 0,
    "Top": 1,
    "Adam": 0,
    "##ades": 0,
    "Casablanca": 0,
    "scattered": 0,
    "bandwidth": 0,
    "exercises": 0,
    "Orient": 0,
    "pumping": 0,
    "##haus": 0,
    "Edmonton": 0,
    "Alberta": 0,
    "retail": 0,
    "facility": 0,
    "mile": 0,
    "##hia": 0,
    "twelve": 0,
    "Livingston": 0,
    "Back": 0,
    "Kahn": 0,
    "execute": 0,
    "NSW": 0,
    "##ez": 0,
    "stunt": 0,
    "##eck": 0,
    "##uity": 0,
    "##urt": 0,
    "prompted": 0,
    "flights": 0,
    "##hak": 0,
    "awaited": 0,
    "Williams": 1,
    "cab": 0,
    "Media": 0,
    "Records": 0,
    "importantly": 0,
    "242": 0,
    "Child": 0,
    "##ugh": 0,
    "format": 0,
    "Product": 0,
    "incorrect": 0,
    "considerations": 0,
    "market": 0,
    "stones": 0,
    "##nier": 0,
    "NY": 0,
    "somewhat": 0,
    "grades": 0,
    "graded": 0,
    "fair": 0,
    "partnership": 0,
    "bordered": 0,
    "uniquely": 0,
    "##pole": 0,
    "comparatively": 0,
    "Preliminary": 0,
    "sequel": 0,
    "##place": 0,
    "foil": 0,
    "Commission": 0,
    "Era": 0,
    "ICC": 0,
    "##zad": 0,
    "##cht": 0,
    "##nae": 0,
    "squares": 0,
    "##oked": 0,
    "cooked": 0,
    "Poor": 0,
    "quiet": 0,
    "starts": 0,
    "merged": 0,
    "ending": 0,
    "implying": 0,
    "Gala": 0,
    "Crisis": 0,
    "Britain": 0,
    "##hum": 0,
    "weakness": 0,
    "promptly": 0,
    "cocktail": 0,
    "Aden": 2,
    "##izer": 0,
    "Horse": 1,
    "Chilean": 0,
    "outward": 0,
    "associations": 0,
    "hardness": 0,
    "mold": 0,
    "195": 0,
    "conversations": 0,
    "conversation": 0,
    "##rise": 0,
    "accession": 0,
    "Nat": 0,
    "pursuing": 0,
    "##curement": 0,
    "fauna": 0,
    "##missible": 0,
    "##ett": 0,
    "reared": 0,
    "forth": 0,
    "##lein": 0,
    "##erty": 0,
    "daughters": 0,
    "Materials": 0,
    "sold": 0,
    "##ering": 0,
    "wires": 0,
    "##Os": 0,
    "assignments": 0,
    "##mart": 0,
    "Banks": 0,
    "##rogate": 0,
    "donated": 0,
    "interpret": 0,
    "##hit": 1,
    "specialized": 0,
    "1956": 0,
    "Jordan": 0,
    "1958": 0,
    "##lberg": 0,
    "Wes": 0,
    "investigating": 0,
    "tuning": 0,
    "##ritic": 0,
    "agricultural": 0,
    "packed": 0,
    "typically": 0,
    "shortest": 0,
    "grazing": 0,
    "May": 0,
    "upward": 0,
    "##flections": 0,
    "friends": 0,
    "##raverse": 0,
    "Abbott": 0,
    "North": 0,
    "##non": 0,
    "exceeds": 0,
    "##ered": 0,
    "Emeritus": 0,
    "Henri": 0,
    "##oos": 0,
    "##aar": 0,
    "ecology": 0,
    "resumed": 0,
    "constituent": 0,
    "road": 0,
    "tanker": 0,
    "Franz": 0,
    "Schubert": 0,
    "music": 0,
    "Case": 0,
    "articles": 0,
    "pertaining": 0,
    "Vita": 0,
    "came": 0,
    "parallels": 0,
    "covered": 0,
    "##cker": 0,
    "examines": 0,
    "##nel": 0,
    "Inner": 0,
    "##toria": 0,
    "Gap": 5,
    "##kis": 0,
    "Cullen": 0,
    "sustaining": 0,
    "plans": 0,
    "aftermath": 0,
    "cooking": 0,
    "AFB": 1,
    "Raw": 0,
    "punt": 0,
    "Chao": 0,
    "##liptic": 0,
    "Link": 0,
    "reorganization": 0,
    "unusually": 0,
    "204": 0,
    "marble": 0,
    "Field": 0,
    "630": 0,
    "rectangular": 0,
    "grid": 0,
    "Salzburg": 0,
    "##ots": 0,
    "breed": 0,
    "updated": 0,
    "##upation": 0,
    "134": 0,
    "227": 0,
    "ahead": 0,
    "Inn": 0,
    "Dental": 0,
    "##gie": 0,
    "##uctive": 0,
    "Quantum": 0,
    "##urs": 0,
    "##lad": 0,
    "packing": 0,
    "slide": 0,
    "coloured": 0,
    "explanations": 0,
    "heal": 0,
    "Behind": 0,
    "drastic": 0,
    "eligible": 0,
    "supervised": 0,
    "##vise": 0,
    "worm": 0,
    "##lished": 0,
    "favour": 0,
    "Bel": 2,
    "##lined": 0,
    "competitors": 0,
    "##rum": 0,
    "producer": 0,
    "alma": 0,
    "Congo": 0,
    "##ville": 0,
    "Drugs": 0,
    "Carbon": 1,
    "forensic": 0,
    "expertise": 0,
    "criminal": 0,
    "Paulo": 0,
    "onward": 0,
    "crew": 0,
    "operates": 0,
    "payload": 0,
    "documents": 0,
    "EMI": 0,
    "driving": 0,
    "weren": 0,
    "didn": 0,
    "lose": 0,
    "algorithms": 0,
    "##este": 1,
    "Chen": 0,
    "dissolve": 0,
    "##emon": 0,
    "##uru": 0,
    "broken": 0,
    "theater": 0,
    "sleeve": 0,
    "tracking": 0,
    "Rather": 0,
    "144": 0,
    "competes": 0,
    "strips": 0,
    "compiled": 0,
    "butterfly": 0,
    "Mae": 0,
    "Ion": 0,
    "alleviate": 0,
    "Exchange": 0,
    "Last": 0,
    "firing": 0,
    "prints": 0,
    "admissions": 0,
    "Mai": 1,
    "oppose": 0,
    "turnout": 0,
    "##oran": 0,
    "Liu": 0,
    "concert": 0,
    "##pose": 0,
    "dedicated": 0,
    "Random": 0,
    "station": 0,
    "rivalry": 0,
    "recommendation": 0,
    "Sigma": 0,
    "Alzheimer": 0,
    "seeing": 0,
    "##bles": 0,
    "##ored": 1,
    "accomplish": 0,
    "cables": 0,
    "##buted": 0,
    "##ix": 0,
    "Bud": 0,
    "##trine": 0,
    "##ogue": 0,
    "module": 0,
    "Currently": 0,
    "##eman": 0,
    "Iron": 0,
    "ripe": 0,
    "Alvarez": 0,
    "##wood": 0,
    "Gonzalez": 0,
    "say": 0,
    "steadily": 0,
    "angular": 0,
    "stretched": 0,
    "Francisco": 0,
    "168": 0,
    "Luther": 0,
    "damaged": 0,
    "sixth": 0,
    "stands": 0,
    "dominance": 0,
    "forest": 0,
    "tracts": 0,
    "farther": 0,
    "drill": 0,
    "regained": 0,
    "reply": 0,
    "telephone": 0,
    "visits": 0,
    "migrate": 0,
    "##FM": 1,
    "fired": 0,
    "##porated": 0,
    "##ratic": 0,
    "sorted": 0,
    "originates": 0,
    "yo": 1,
    "##nai": 0,
    "##usage": 0,
    "dessert": 0,
    "##fit": 0,
    "##tta": 0,
    "Bull": 0,
    "felt": 0,
    "advocated": 0,
    "flavor": 0,
    "##hold": 0,
    "##wasaki": 0,
    "Rick": 0,
    "##ott": 0,
    "##ronology": 0,
    "visible": 0,
    "##jet": 0,
    "recovering": 0,
    "drained": 0,
    "bet": 1,
    "2002": 0,
    "27th": 0,
    "40th": 0,
    "##mpus": 0,
    "deserve": 0,
    "##anne": 0,
    "Indoor": 0,
    "outdoor": 0,
    "Greek": 0,
    "Microsoft": 0,
    "Windows": 0,
    "equipped": 0,
    "processors": 0,
    "seconds": 0,
    "wheel": 0,
    "##zable": 0,
    "geographical": 0,
    "##fan": 0,
    "##uz": 0,
    "ya": 0,
    "##gt": 0,
    "official": 0,
    "1979": 0,
    "tilting": 0,
    "cramped": 0,
    "autonomous": 1,
    "inadvertently": 0,
    "Senior": 0,
    "faithful": 0,
    "tell": 0,
    "truth": 0,
    "##come": 0,
    "homeless": 0,
    "##lve": 0,
    "##liance": 0,
    "volunteered": 0,
    "joined": 0,
    "grand": 0,
    "trait": 0,
    "Win": 1,
    "##vior": 0,
    "##fulness": 0,
    "reptiles": 0,
    "##gating": 0,
    "##vade": 0,
    "aerial": 0,
    "Hear": 0,
    "Hotel": 0,
    "pop": 2,
    "##see": 0,
    "computing": 0,
    "Today": 0,
    "doubt": 0,
    "Sino": 0,
    "setup": 0,
    "Duffy": 0,
    "##ibrating": 0,
    "numb": 0,
    "interview": 0,
    "consultation": 0,
    "spells": 0,
    "scoring": 0,
    "delays": 0,
    "Kumar": 0,
    "3rd": 0,
    "ankle": 0,
    "1500": 0,
    "Florida": 0,
    "bomb": 0,
    "survivor": 0,
    "##gues": 0,
    "province": 0,
    "Elementary": 0,
    "abrupt": 0,
    "Street": 0,
    "1774": 0,
    "relieve": 0,
    "Us": 3,
    "270": 0,
    "##bled": 0,
    "##nberg": 0,
    "shelf": 0,
    "employees": 0,
    "1776": 0,
    "sickness": 0,
    "##num": 0,
    "dominate": 0,
    "possession": 0,
    "wavelength": 0,
    "coincidence": 0,
    "Picture": 0,
    "smell": 0,
    "Call": 0,
    "anger": 0,
    "Anger": 0,
    "staircase": 0,
    "matching": 0,
    "Page": 0,
    "soaked": 0,
    "311": 0,
    "1894": 0,
    "Din": 1,
    "generations": 0,
    "deny": 0,
    "Just": 0,
    "crest": 0,
    "widen": 0,
    "cone": 0,
    "gigantic": 0,
    "Fisher": 0,
    "Pearson": 0,
    "CBS": 1,
    "Bangalore": 0,
    "packets": 0,
    "##grading": 0,
    "Kind": 0,
    "Was": 0,
    "constellation": 0,
    "Restoration": 0,
    "##urage": 0,
    "melt": 0,
    "##guin": 0,
    "redundant": 0,
    "brewery": 0,
    "##mill": 0,
    "Silas": 0,
    "discusses": 0,
    "mortal": 0,
    "cake": 0,
    "alias": 0,
    "Casper": 1,
    "##hood": 0,
    "##most": 0,
    "##mentary": 0,
    "Catch": 0,
    "travel": 0,
    "concerns": 0,
    "138": 0,
    "Team": 0,
    "occupy": 0,
    "strengthened": 0,
    "Chicken": 0,
    "##ean": 0,
    "##lean": 0,
    "1975": 0,
    "##sting": 0,
    "akin": 0,
    "shoots": 0,
    "mix": 0,
    "tray": 0,
    "307": 0,
    "NSA": 0,
    "##actic": 0,
    "Australia": 0,
    "Focus": 0,
    "beams": 0,
    "compares": 0,
    "Anatomy": 0,
    "accessed": 0,
    "Thereafter": 0,
    "146": 0,
    "UHF": 0,
    "analyst": 0,
    "expert": 0,
    "yesterday": 0,
    "graduates": 0,
    "texture": 0,
    "##lient": 0,
    "escapes": 0,
    "##zar": 0,
    "said": 0,
    "315": 0,
    "Kris": 0,
    "##rite": 0,
    "Vienna": 0,
    "##erated": 0,
    "Chan": 0,
    "scored": 0,
    "ego": 0,
    "bizarre": 0,
    "Close": 0,
    "television": 0,
    "coup": 0,
    "##ament": 0,
    "380": 0,
    "Buffalo": 0,
    "pigeon": 0,
    "crop": 0,
    "##lton": 0,
    "##yer": 0,
    "Progress": 0,
    "sweating": 0,
    "Trouble": 0,
    "Care": 0,
    "##Net": 0,
    "##work": 0,
    "gets": 0,
    "pact": 0,
    "teacher": 0,
    "Saigon": 0,
    "arbitrary": 0,
    "tracing": 0,
    "##cion": 0,
    "angel": 0,
    "##oy": 0,
    "Mechanical": 0,
    "chord": 0,
    "##rises": 0,
    "Coca": 0,
    "##gth": 0,
    "weapons": 0,
    "convention": 0,
    "##nology": 0,
    "elemental": 0,
    "##estone": 0,
    "survivors": 0,
    "##oese": 0,
    "rises": 0,
    "sell": 0,
    "School": 0,
    "marks": 0,
    "##maker": 0,
    "Hamilton": 0,
    "Depression": 0,
    "instrumental": 0,
    "perfection": 0,
    "219": 0,
    "##rage": 0,
    "##rde": 0,
    "incentive": 0,
    "engaged": 0,
    "highlight": 0,
    "Tin": 2,
    "spherical": 0,
    "obey": 0,
    "forcing": 0,
    "lever": 0,
    "pressing": 0,
    "turbulent": 0,
    "Variety": 0,
    "sire": 0,
    "mirror": 0,
    "overs": 0,
    "closer": 0,
    "latitude": 0,
    "Malay": 0,
    "seriously": 0,
    "exposing": 0,
    "interrupting": 0,
    "editorial": 0,
    "weakened": 0,
    "##rcle": 0,
    "fabric": 0,
    "canals": 0,
    "##cated": 0,
    "unaware": 0,
    "##sche": 0,
    "descriptive": 0,
    "##hof": 0,
    "##rave": 0,
    "##ego": 0,
    "##rical": 0,
    "manufacturing": 0,
    "##smos": 0,
    "##tres": 0,
    "##ilities": 0,
    "##plied": 0,
    "shaft": 0,
    "socket": 0,
    "raise": 0,
    "Lands": 0,
    "Mason": 0,
    "Ash": 0,
    "##ken": 0,
    "descent": 0,
    "185": 0,
    "850": 0,
    "slit": 0,
    "considering": 0,
    "perspectives": 0,
    "##ail": 0,
    "Active": 0,
    "Left": 0,
    "Corp": 0,
    "Oakland": 0,
    "console": 0,
    "Social": 0,
    "Consider": 0,
    "correspondence": 0,
    "drank": 0,
    "##tad": 0,
    "save": 0,
    "continuation": 0,
    "Bomb": 0,
    "eh": 0,
    "Lisbon": 0,
    "##rud": 0,
    "entirety": 0,
    "##hwa": 0,
    "Downs": 0,
    "Movement": 0,
    "programming": 0,
    "brush": 0,
    "##isk": 0,
    "academic": 0,
    "achievement": 0,
    "ever": 0,
    "##ury": 0,
    "towns": 0,
    "south": 0,
    "##roup": 0,
    "curl": 1,
    "marketed": 0,
    "Labor": 0,
    "##ires": 0,
    "Sonic": 1,
    "hedge": 0,
    "##mite": 0,
    "Institutes": 0,
    "knock": 0,
    "disappointing": 0,
    "qualifying": 0,
    "##iment": 1,
    "241": 0,
    "names": 0,
    "Panel": 0,
    "ranked": 0,
    "elementary": 0,
    "##lving": 0,
    "technician": 0,
    "sampled": 0,
    "##rouch": 1,
    "ked": 0,
    "critic": 0,
    "##rading": 0,
    "screens": 0,
    "Neill": 0,
    "bank": 0,
    "Key": 0,
    "alternatives": 0,
    "##ogies": 0,
    "##fest": 0,
    "occupation": 0,
    "numbering": 0,
    "##nant": 0,
    "##hone": 0,
    "##wer": 0,
    "Ham": 0,
    "surprised": 0,
    "##ues": 0,
    "Berkeley": 0,
    "Project": 0,
    "Patel": 0,
    "Work": 0,
    "occasionally": 0,
    "gender": 0,
    "damages": 0,
    "Tam": 0,
    "argued": 0,
    "jobs": 0,
    "Integrated": 0,
    "Werner": 0,
    "Son": 1,
    "##ience": 0,
    "manuscripts": 0,
    "##finger": 0,
    "hairs": 0,
    "##itate": 0,
    "Mother": 0,
    "implemented": 0,
    "cheap": 0,
    "##sation": 0,
    "##turn": 0,
    "adulthood": 0,
    "ultimate": 0,
    "##maging": 0,
    "drowning": 0,
    "Campo": 0,
    "wore": 0,
    "Puerto": 0,
    "Rico": 0,
    "fury": 0,
    "borne": 0,
    "##fying": 0,
    "inn": 0,
    "excited": 0,
    "Butcher": 0,
    "Hat": 0,
    "##haw": 0,
    "McKinley": 0,
    "attitudes": 0,
    "irrelevant": 0,
    "obscure": 0,
    "reserves": 0,
    "Eastern": 0,
    "specialists": 0,
    "Peter": 0,
    "explores": 0,
    "ruling": 0,
    "##evity": 0,
    "Kaufman": 0,
    "theme": 0,
    "percussion": 0,
    "##quel": 0,
    "texts": 0,
    "##jected": 0,
    "##fies": 0,
    "Cheung": 0,
    "Initially": 0,
    "##tated": 0,
    "impossible": 0,
    "outline": 0,
    "comedic": 0,
    "reasonably": 0,
    "damaging": 0,
    "vanished": 0,
    "##eep": 0,
    "Pakistani": 0,
    "traps": 0,
    "Bose": 0,
    "contacted": 0,
    "480": 0,
    "Kit": 0,
    "communicate": 0,
    "Nonetheless": 0,
    "settings": 0,
    "Horne": 0,
    "launched": 0,
    "harmony": 0,
    "vivid": 0,
    "purple": 0,
    "Length": 0,
    "proposal": 0,
    "assemble": 0,
    "menu": 0,
    "recipe": 0,
    "fog": 0,
    "compensation": 0,
    "Hip": 0,
    "handed": 0,
    "Helsinki": 0,
    "pedal": 0,
    "absorbing": 0,
    "services": 0,
    "gaps": 0,
    "custom": 0,
    "turbine": 0,
    "cable": 0,
    "395": 0,
    "1946": 0,
    "dressed": 0,
    "Bart": 0,
    "managing": 0,
    "employ": 0,
    "##aks": 1,
    "unexpected": 0,
    "Full": 1,
    "Twice": 0,
    "neglect": 0,
    "Richards": 0,
    "Dam": 0,
    "Blue": 0,
    "##kaya": 0,
    "Paso": 0,
    "Argentina": 0,
    "##uts": 0,
    "Progressive": 0,
    "##UE": 0,
    "##usions": 0,
    "knockout": 0,
    "California": 0,
    "1927": 0,
    "pollution": 0,
    "respects": 0,
    "applies": 0,
    "reconcile": 0,
    "Lebanon": 0,
    "CBC": 0,
    "##cycle": 0,
    "1100": 0,
    "weeping": 0,
    "offspring": 0,
    "soon": 0,
    "Qi": 0,
    "##cene": 0,
    "Yusuf": 0,
    "##tisfaction": 0,
    "freezing": 0,
    "splitting": 0,
    "##ais": 0,
    "Poll": 0,
    "pasture": 0,
    "Incorporated": 0,
    "Diego": 0,
    "##aby": 0,
    "Hart": 0,
    "document": 0,
    "northeastern": 0,
    "Venezuela": 0,
    "specialist": 0,
    "LSU": 0,
    "HK": 0,
    "aiming": 0,
    "press": 0,
    "Dong": 0,
    "Hay": 0,
    "Summit": 0,
    "Volvo": 0,
    "Rams": 0,
    "labor": 0,
    "That": 0,
    "Zambia": 0,
    "##cket": 0,
    "buzz": 0,
    "Yates": 0,
    "talking": 0,
    "kn": 0,
    "##uckle": 0,
    "cough": 0,
    "anymore": 0,
    "2010": 0,
    "1954": 0,
    "paced": 0,
    "##tary": 0,
    "##loading": 0,
    "harp": 1,
    "Tour": 0,
    "##ette": 0,
    "certified": 0,
    "##nched": 0,
    "bitch": 0,
    "##lage": 1,
    "Down": 0,
    "##different": 0,
    "Moment": 0,
    "Principal": 0,
    "discontinued": 0,
    "pause": 0,
    "Duo": 0,
    "declining": 0,
    "diving": 0,
    "attended": 0,
    "##ield": 0,
    "grass": 0,
    "manuscript": 0,
    "builders": 0,
    "##aft": 0,
    "##unity": 0,
    "chill": 0,
    "##ws": 0,
    "##witch": 0,
    "reason": 0,
    "cock": 0,
    "##roach": 0,
    "##lane": 0,
    "Amy": 1,
    "##flower": 0,
    "##chet": 0,
    "Ken": 0,
    "##sberg": 0,
    "Odd": 0,
    "##wei": 0,
    "##sler": 0,
    "introduce": 0,
    "advised": 0,
    "HBO": 0,
    "Author": 0,
    "##hali": 0,
    "deemed": 0,
    "Jersey": 0,
    "distraction": 0,
    "banks": 0,
    "Box": 0,
    "Future": 0,
    "dispute": 0,
    "##gging": 0,
    "##physical": 0,
    "complaints": 0,
    "storm": 0,
    "##physics": 0,
    "##ples": 0,
    "Action": 0,
    "exam": 0,
    "##els": 0,
    "skipped": 0,
    "Korea": 0,
    "Walter": 0,
    "##igor": 0,
    "looks": 0,
    "##antly": 0,
    "Triumph": 0,
    "Lenin": 0,
    "muzzle": 0,
    "challenging": 0,
    "bony": 0,
    "orderly": 0,
    "wired": 0,
    "installation": 0,
    "##vide": 0,
    "##ading": 0,
    "entering": 0,
    "Foreign": 0,
    "factories": 0,
    "worker": 0,
    "Monkey": 0,
    "Guam": 0,
    "##yam": 0,
    "Brazil": 0,
    "Disco": 0,
    "disagreement": 0,
    "Armed": 0,
    "Polish": 0,
    "edible": 0,
    "demands": 0,
    "##oms": 0,
    "carpet": 0,
    "##paper": 0,
    "##quer": 0,
    "locate": 0,
    "choose": 0,
    "##hora": 0,
    "lace": 1,
    "wet": 0,
    "NAS": 0,
    "##cluded": 0,
    "##eim": 0,
    "Danger": 0,
    "##mba": 0,
    "Lopez": 0,
    "Marcia": 0,
    "Mont": 0,
    "alternating": 0,
    "departing": 0,
    "begun": 0,
    "Guide": 0,
    "lottery": 0,
    "captures": 0,
    "essence": 0,
    "predator": 0,
    "prey": 0,
    "Lt": 2,
    "##inga": 0,
    "Sites": 0,
    "##cede": 0,
    "1782": 0,
    "illustration": 0,
    "incorrectly": 0,
    "ignore": 0,
    "parcel": 0,
    "arrived": 0,
    "176": 0,
    "abusive": 0,
    "Hampshire": 0,
    "##hers": 0,
    "##vier": 0,
    "drastically": 0,
    "quantum": 0,
    "grandfather": 0,
    "granddaughter": 0,
    "violated": 0,
    "302": 0,
    "cloak": 0,
    "##grating": 0,
    "##liness": 0,
    "timber": 0,
    "wolves": 0,
    "Selena": 0,
    "##orn": 0,
    "authorized": 0,
    "29th": 0,
    "Conservative": 0,
    "Uh": 1,
    "uh": 2,
    "301": 1,
    "sector": 0,
    "##cribing": 0,
    "Semi": 0,
    "projecting": 0,
    "##worth": 0,
    "recognise": 0,
    "cylinders": 0,
    "wrists": 0,
    "straw": 0,
    "sake": 0,
    "revealing": 0,
    "Utrecht": 0,
    "##matical": 0,
    "coral": 0,
    "reef": 0,
    "schemes": 0,
    "217": 0,
    "silk": 2,
    "##worm": 1,
    "##venge": 1,
    "you": 0,
    "ignorance": 0,
    "Law": 0,
    "##mple": 0,
    "restrained": 0,
    "ninety": 0,
    "Then": 0,
    "##passing": 0,
    "##ente": 0,
    "Bengal": 0,
    "pink": 0,
    "##digo": 0,
    "subtropical": 0,
    "##hop": 1,
    "Jensen": 0,
    "##pard": 0,
    "transmitter": 0,
    "Council": 0,
    "hears": 0,
    "director": 0,
    "##hole": 0,
    "interchange": 0,
    "##vet": 0,
    "reads": 0,
    "file": 0,
    "shop": 0,
    "Ski": 2,
    "##ares": 0,
    "Patton": 0,
    "Mix": 0,
    "city": 0,
    "##nar": 0,
    "scarlet": 0,
    "##alan": 0,
    "Score": 0,
    "facilities": 0,
    "Houston": 0,
    "Tex": 0,
    "abruptly": 0,
    "inflation": 0,
    "60s": 0,
    "##ying": 0,
    "##icz": 0,
    "Photo": 0,
    "founder": 0,
    "aside": 0,
    "Given": 0,
    "Web": 0,
    "trends": 0,
    "##coming": 0,
    "desirable": 0,
    "rated": 0,
    "Gregory": 0,
    "computational": 0,
    "plane": 0,
    "posting": 0,
    "##rten": 0,
    "Suffolk": 0,
    "Commercial": 0,
    "diesel": 0,
    "kits": 0,
    "Dunn": 0,
    "files": 0,
    "Massachusetts": 0,
    "Healthcare": 0,
    "Record": 0,
    "##bank": 0,
    "Access": 0,
    "haul": 0,
    "##nir": 0,
    "eighty": 0,
    "continental": 0,
    "East": 0,
    "Theory": 0,
    "##sium": 0,
    "irritation": 0,
    "costly": 0,
    "Rare": 0,
    "folds": 0,
    "##rief": 0,
    "surprising": 0,
    "dissolved": 0,
    "interested": 0,
    "concepts": 0,
    "Mass": 0,
    "drinks": 0,
    "invalid": 0,
    "expands": 0,
    "##hering": 0,
    "##lough": 0,
    "Fuji": 1,
    "notice": 0,
    "##nating": 0,
    "motors": 0,
    "constraints": 0,
    "##oshi": 0,
    "##byss": 0,
    "1881": 0,
    "databases": 0,
    "youngest": 0,
    "Summers": 0,
    "Global": 0,
    "##eil": 0,
    "fellow": 0,
    "##ponents": 0,
    "##sea": 0,
    "Caucasian": 0,
    "remotely": 0,
    "##coat": 0,
    "Dani": 0,
    "onwards": 0,
    "##utz": 0,
    "##feld": 0,
    "Jakob": 0,
    "contingent": 0,
    "medicinal": 0,
    "Raja": 2,
    "syntax": 1,
    "Pay": 1,
    "##ee": 0,
    "##bee": 0,
    "##tto": 0,
    "hub": 0,
    "USC": 0,
    "attach": 0,
    "##hai": 0,
    "##tracted": 0,
    "formerly": 0,
    "##uche": 0,
    "##uf": 0,
    "recreation": 0,
    "##imes": 0,
    "execution": 0,
    "##tly": 0,
    "wind": 0,
    "stacked": 0,
    "jaws": 0,
    "##nch": 0,
    "wa": 0,
    "##baum": 0,
    "skeleton": 0,
    "wed": 0,
    "district": 0,
    "Pie": 0,
    "employee": 0,
    "##ffling": 0,
    "arc": 0,
    "outs": 0,
    "##TY": 0,
    "easier": 0,
    "Gross": 0,
    "##pad": 0,
[...]
