{
  "B": {
    "Se": 7,
    "##leg": 1,
    "##ili": 0,
    "##ne": 19,
    "-": 0,
    "induced": 0,
    "post": 11,
    "##ural": 10,
    "h": 275,
    "##y": 153,
    "##pot": 82,
    "##ens": 76,
    "##ion": 117,
    "in": 39,
    "Parkinson": 22,
    "'": 0,
    "s": 26,
    "disease": 0,
    ":": 0,
    "a": 47,
    "longitudinal": 0,
    "study": 0,
    "on": 0,
    "the": 0,
    "effects": 0,
    "of": 0,
    "drug": 7,
    "withdrawal": 3,
    ".": 0,
    "O": 7,
    "##B": 8,
    "##J": 0,
    "##EC": 0,
    "##TI": 0,
    "##VE": 0,
    "##S": 7,
    "The": 0,
    "United": 0,
    "Kingdom": 0,
    "Disease": 1,
    "Research": 0,
    "Group": 0,
    "(": 0,
    "UK": 0,
    "##PD": 0,
    "##R": 0,
    "##G": 8,
    ")": 0,
    "trial": 0,
    "found": 0,
    "an": 56,
    "increased": 1,
    "mortality": 0,
    "patients": 0,
    "with": 0,
    "PD": 18,
    "random": 0,
    "##ized": 0,
    "to": 2,
    "receive": 0,
    "10": 0,
    "mg": 0,
    "se": 6,
    "per": 5,
    "day": 0,
    "and": 0,
    "L": 12,
    "do": 1,
    "##pa": 88,
    "compared": 0,
    "those": 0,
    "taking": 0,
    "alone": 0,
    "Recently": 0,
    ",": 0,
    "we": 0,
    "that": 0,
    "therapy": 0,
    "was": 0,
    "associated": 0,
    "selective": 0,
    "##ys": 67,
    "##to": 119,
    "##lic": 14,
    "or": 9,
    "##th": 22,
    "##ost": 6,
    "##atic": 6,
    "which": 0,
    "abolished": 0,
    "by": 0,
    "This": 0,
    "unwanted": 0,
    "effect": 0,
    "blood": 3,
    "pressure": 0,
    "not": 0,
    "result": 0,
    "underlying": 0,
    "auto": 10,
    "##no": 20,
    "##mic": 15,
    "failure": 0,
    "aims": 0,
    "this": 0,
    "were": 0,
    "confirm": 0,
    "our": 0,
    "previous": 0,
    "findings": 0,
    "separate": 0,
    "co": 19,
    "##hor": 0,
    "##t": 0,
    "determine": 0,
    "time": 0,
    "course": 0,
    "card": 39,
    "##iovascular": 15,
    "consequences": 0,
    "stopping": 0,
    "expectation": 0,
    "might": 0,
    "shed": 0,
    "light": 0,
    "mechanisms": 0,
    "causes": 0,
    "ME": 0,
    "##TH": 0,
    "##OD": 0,
    "responses": 0,
    "standing": 0,
    "head": 6,
    "up": 0,
    "tilt": 0,
    "studied": 0,
    "repeatedly": 0,
    "receiving": 0,
    "as": 9,
    "withdrawn": 0,
    "R": 3,
    "##ES": 0,
    "##U": 0,
    "##LT": 0,
    "Head": 1,
    "caused": 0,
    "marked": 0,
    "six": 0,
    "20": 0,
    "one": 0,
    "whom": 0,
    "lost": 0,
    "consciousness": 0,
    "un": 0,
    "##re": 9,
    "##cor": 0,
    "##da": 0,
    "##ble": 0,
    "pressures": 0,
    "A": 13,
    "lesser": 0,
    "degree": 0,
    "occurred": 0,
    "Or": 1,
    "am": 13,
    "##eli": 3,
    "##ora": 2,
    "##ted": 0,
    "4": 0,
    "days": 0,
    "after": 0,
    "totally": 0,
    "7": 0,
    "disco": 0,
    "##ntin": 0,
    "##uation": 0,
    "Stop": 0,
    "##ping": 0,
    "also": 0,
    "significantly": 0,
    "reduced": 1,
    "su": 3,
    "##pine": 0,
    "di": 25,
    "##ast": 7,
    "##olic": 0,
    "consistent": 0,
    "previously": 0,
    "und": 1,
    "##es": 8,
    "##cribed": 0,
    "press": 0,
    "##or": 36,
    "action": 0,
    "CO": 0,
    "##NC": 0,
    "##L": 4,
    "##US": 3,
    "##ION": 0,
    "confirms": 0,
    "finding": 0,
    "combination": 0,
    "is": 12,
    "possibilities": 0,
    "these": 0,
    "be": 0,
    "non": 8,
    "##hibition": 0,
    "mon": 0,
    "##oam": 0,
    "##ine": 40,
    "o": 32,
    "##xi": 74,
    "##das": 0,
    "##e": 17,
    "##phe": 1,
    "##tamine": 1,
    "meta": 0,
    "##mp": 1,
    "##he": 18,
    "are": 0,
    "discussed": 0,
    "Further": 0,
    "studies": 0,
    "irrigation": 0,
    "solutions": 0,
    "rat": 0,
    "bladder": 13,
    "##s": 119,
    "certain": 0,
    "i": 4,
    "##rri": 3,
    "##gating": 0,
    "fluids": 0,
    "for": 0,
    "18": 0,
    "hours": 0,
    "reported": 0,
    "results": 0,
    "have": 0,
    "shown": 0,
    "degradation": 0,
    "product": 0,
    "p": 32,
    "ch": 24,
    "##olo": 1,
    "##roa": 0,
    "##ni": 6,
    "##line": 0,
    "significant": 0,
    "factor": 0,
    "##lor": 0,
    "##dine": 1,
    "dig": 0,
    "##lu": 1,
    "##cona": 0,
    "##te": 1,
    "er": 7,
    "##os": 33,
    "##ive": 24,
    "c": 35,
    "##titis": 52,
    "high": 1,
    "percentage": 0,
    "ka": 0,
    "##nam": 0,
    "##cin": 11,
    "##list": 0,
    "##in": 6,
    "##ov": 1,
    "##ido": 1,
    "##od": 7,
    "suggested": 0,
    "possible": 0,
    "com": 0,
    "##plication": 0,
    "human": 5,
    "usage": 0,
    "Pi": 0,
    "##c": 53,
    "##lo": 26,
    "##xy": 0,
    "appeared": 0,
    "lower": 1,
    "incidence": 0,
    "but": 0,
    "further": 0,
    "would": 0,
    "performed": 0,
    "before": 0,
    "it": 1,
    "could": 0,
    "recommended": 0,
    "use": 0,
    "u": 10,
    "##rol": 12,
    "##ogical": 0,
    "procedures": 0,
    "Effects": 0,
    "te": 4,
    "##tra": 25,
    "##nd": 1,
    "##rine": 1,
    "fan": 0,
    "##g": 1,
    "##chin": 1,
    "##olin": 0,
    "experimental": 0,
    "th": 60,
    "##rom": 57,
    "##bos": 21,
    "##is": 50,
    "mice": 0,
    "plate": 3,
    "##let": 3,
    "##gg": 0,
    "##regation": 0,
    "Te": 0,
    "T": 34,
    "##ET": 0,
    "FA": 0,
    "##N": 8,
    "two": 0,
    "naturally": 0,
    "occurring": 0,
    "analogue": 0,
    "bi": 14,
    "##ben": 0,
    "##zy": 0,
    "##lis": 0,
    "##o": 1,
    "##quin": 0,
    "structure": 0,
    "present": 0,
    "undertaken": 0,
    "investigate": 0,
    "##lla": 0,
    "##gen": 1,
    "plus": 0,
    "e": 22,
    "##ph": 87,
    "EP": 2,
    "##agu": 2,
    "##lation": 0,
    "v": 15,
    "##it": 0,
    "##ro": 5,
    "In": 5,
    "##ivo": 0,
    "administration": 0,
    "50": 0,
    "/": 0,
    "kg": 0,
    "showed": 0,
    "55": 0,
    "%": 0,
    "35": 0,
    "respectively": 0,
    "while": 0,
    "ace": 0,
    "##ty": 0,
    "##ls": 14,
    "##ali": 0,
    "##cy": 24,
    "acid": 2,
    "AS": 0,
    "##A": 1,
    "positive": 0,
    "control": 0,
    "only": 0,
    "30": 0,
    "ago": 5,
    "##nist": 0,
    "used": 0,
    "tests": 0,
    "dose": 0,
    "dependent": 0,
    "##ly": 16,
    "addition": 0,
    "neither": 0,
    "nor": 0,
    "any": 0,
    "anti": 1,
    "##coa": 0,
    "##gu": 3,
    "activities": 0,
    "measurement": 0,
    "activated": 0,
    "partial": 1,
    "##bo": 15,
    "##p": 33,
    "##last": 2,
    "AP": 0,
    "##TT": 0,
    "pro": 18,
    "##bin": 3,
    "PT": 0,
    "##T": 10,
    "using": 0,
    "##rated": 0,
    "plasma": 1,
    "These": 0,
    "suggest": 0,
    "may": 0,
    "mainly": 0,
    "related": 0,
    "##plate": 0,
    "Ang": 6,
    "##io": 23,
    "##ede": 7,
    "##ma": 26,
    "due": 0,
    "AC": 0,
    "##E": 0,
    "inhibitor": 0,
    "common": 0,
    "inadequate": 0,
    "diagnosed": 0,
    "estimated": 0,
    "##gio": 6,
    "during": 0,
    "##tens": 55,
    "converting": 0,
    "enzyme": 0,
    "treatment": 0,
    "between": 0,
    "1": 0,
    "thousand": 0,
    "potentially": 0,
    "serious": 0,
    "adverse": 6,
    "often": 0,
    "preceded": 0,
    "minor": 0,
    "manifest": 0,
    "##ations": 2,
    "serve": 0,
    "warning": 0,
    "Coca": 0,
    "mood": 6,
    "disorder": 1,
    "prevalence": 0,
    "rates": 0,
    "psychiatric": 8,
    "symptoms": 0,
    "out": 0,
    "##patient": 0,
    "cocaine": 8,
    "sample": 0,
    "paper": 0,
    "attempts": 0,
    "examine": 0,
    "compare": 0,
    "##ym": 0,
    "##pt": 1,
    "##om": 0,
    "patterns": 0,
    "DS": 1,
    "##M": 5,
    "substance": 1,
    "other": 0,
    "disorders": 1,
    "243": 0,
    "C": 21,
    "##IM": 5,
    "##D": 28,
    "no": 2,
    "measures": 0,
    "rate": 0,
    "12": 0,
    "at": 39,
    "base": 0,
    "Introduction": 0,
    "IV": 0,
    "diagnosis": 0,
    "did": 0,
    "substantially": 0,
    "affect": 0,
    "de": 8,
    "##pressive": 5,
    "Pat": 0,
    "##ients": 0,
    "had": 0,
    "severity": 0,
    "levels": 0,
    "without": 0,
    "some": 0,
    "validity": 0,
    "new": 0,
    "requires": 0,
    "specification": 0,
    "replication": 0,
    "Effect": 0,
    "f": 12,
    "##uc": 7,
    "##oid": 0,
    "##an": 0,
    "##ase": 0,
    "##cer": 18,
    "##eb": 11,
    "##ral": 11,
    "hem": 60,
    "##r": 51,
    "##hage": 10,
    "rats": 0,
    "##f": 2,
    "##lam": 1,
    "##mat": 3,
    "##ory": 3,
    "cells": 0,
    "##ulated": 0,
    "media": 0,
    "brain": 2,
    "damage": 0,
    "following": 0,
    "##che": 8,
    "stroke": 12,
    "more": 0,
    "inflammation": 2,
    "than": 0,
    "We": 9,
    "tested": 0,
    "##lf": 0,
    "##ated": 1,
    "##oly": 47,
    "##sa": 0,
    "##cc": 1,
    "##hari": 0,
    "##de": 3,
    "has": 0,
    "been": 0,
    "reduce": 0,
    "inflammatory": 3,
    "model": 0,
    "injection": 0,
    "bacterial": 0,
    "into": 0,
    "ca": 11,
    "##uda": 1,
    "nucleus": 0,
    "Rat": 0,
    "treated": 0,
    "seven": 0,
    "##ven": 0,
    "##ous": 2,
    "##fusion": 3,
    "micro": 5,
    "##gram": 0,
    "vehicle": 0,
    "##ato": 16,
    "assessed": 0,
    "magnetic": 0,
    "resonance": 0,
    "imaging": 0,
    "Motor": 0,
    "behavior": 0,
    "passive": 0,
    "avoid": 0,
    "##ance": 0,
    "skilled": 0,
    "fore": 0,
    "##lim": 0,
    "##b": 2,
    "function": 0,
    "weeks": 0,
    "Fu": 0,
    "##co": 1,
    "##ida": 0,
    "##n": 7,
    "exhibited": 0,
    "evidence": 0,
    "impaired": 8,
    "##lot": 1,
    "##ting": 1,
    "##il": 7,
    "##ution": 7,
    "larger": 0,
    "##mas": 5,
    "tended": 0,
    "less": 0,
    "vicinity": 0,
    "three": 0,
    "They": 0,
    "rapid": 0,
    "improvement": 0,
    "motor": 4,
    "first": 0,
    "week": 0,
    "better": 0,
    "memory": 9,
    "retention": 1,
    "test": 0,
    "##cute": 2,
    "white": 3,
    "matter": 0,
    "ed": 1,
    "##ema": 2,
    "eventual": 0,
    "ne": 179,
    "##uron": 7,
    "##al": 77,
    "loss": 6,
    "##tri": 6,
    "##at": 2,
    "##um": 16,
    "adjacent": 0,
    "differ": 0,
    "groups": 0,
    "Investigation": 0,
    "specific": 0,
    "agents": 0,
    "##uti": 3,
    "##ng": 0,
    "warrant": 0,
    "##ed": 1,
    "Re": 1,
    "##cu": 7,
    "##rar": 0,
    "##ization": 0,
    "recovery": 0,
    "room": 0,
    "case": 0,
    "re": 78,
    "##ulation": 0,
    "##rac": 0,
    "##uri": 1,
    "line": 0,
    "led": 0,
    "flush": 2,
    "##ing": 15,
    "respiratory": 12,
    "arrest": 0,
    "severe": 0,
    "des": 1,
    "##uration": 1,
    "bra": 29,
    "##dy": 27,
    "##card": 43,
    "##ia": 102,
    "##ir": 8,
    "##cum": 0,
    "##stance": 0,
    "leading": 0,
    "event": 0,
    "enabling": 0,
    "##uro": 78,
    "##mus": 5,
    "##cular": 20,
    "blockade": 0,
    "occur": 0,
    "small": 0,
    "relax": 0,
    "##ant": 1,
    "ha": 15,
    "##em": 23,
    "##ody": 0,
    "##ic": 91,
    "prop": 0,
    "##of": 4,
    "##ol": 0,
    "##dr": 2,
    "elderly": 0,
    "3": 0,
    "##as": 32,
    "##ila": 0,
    "##tor": 1,
    "negative": 0,
    "##ot": 1,
    "##ropic": 0,
    "disadvantage": 0,
    "##rail": 0,
    "investigated": 0,
    "safety": 0,
    "efficacy": 0,
    "adding": 0,
    "different": 0,
    "doses": 0,
    "order": 0,
    "##bt": 0,
    "##und": 0,
    "response": 0,
    "15": 0,
    "25": 0,
    "200": 0,
    "40": 0,
    "over": 17,
    "60": 0,
    "years": 0,
    "presenting": 0,
    "g": 37,
    "##eni": 0,
    "##rina": 5,
    "##ry": 23,
    "surgery": 0,
    "appears": 0,
    "effective": 0,
    "method": 0,
    "all": 16,
    "However": 0,
    "ta": 26,
    "##chy": 19,
    "majority": 0,
    "occasionally": 0,
    "reaching": 0,
    "individual": 0,
    "Due": 0,
    "risk": 0,
    "##ducing": 0,
    "my": 94,
    "##oc": 77,
    "##ard": 65,
    "##ial": 61,
    "##mia": 58,
    "recommend": 0,
    "mixture": 0,
    "G": 2,
    "##ci": 20,
    "##ta": 3,
    "##bine": 1,
    "##ino": 13,
    "##rel": 0,
    "##sma": 4,
    "##ll": 4,
    "cell": 0,
    "lung": 2,
    "car": 11,
    "##oma": 20,
    "age": 0,
    "70": 0,
    "older": 0,
    "who": 0,
    "cannot": 0,
    "##lat": 2,
    "On": 0,
    "##z": 0,
    "Cooperative": 0,
    "BA": 0,
    "##C": 3,
    "##K": 1,
    "##GR": 0,
    "##O": 0,
    "##UN": 0,
    "Although": 0,
    "N": 21,
    "##SC": 9,
    "##LC": 9,
    "among": 0,
    "few": 0,
    "data": 0,
    "available": 0,
    "regarding": 0,
    "toxicity": 76,
    "##otherapy": 0,
    "group": 0,
    "Recent": 0,
    "reports": 0,
    "indicate": 0,
    "single": 0,
    "agent": 0,
    "V": 15,
    "GE": 0,
    "obtain": 0,
    "acceptable": 0,
    "quality": 0,
    "life": 0,
    "current": 0,
    "advanced": 0,
    "con": 34,
    "##ind": 0,
    "##ica": 9,
    "##tion": 10,
    "Forty": 0,
    "nine": 0,
    "included": 0,
    "38": 0,
    ">": 0,
    "=": 0,
    "11": 0,
    "<": 0,
    "All": 1,
    "##val": 0,
    "##ua": 5,
    "Treatment": 0,
    "comprised": 0,
    "m": 3,
    "2": 0,
    "1000": 0,
    "both": 0,
    "Days": 0,
    "8": 0,
    "every": 0,
    "28": 0,
    "received": 0,
    "minimum": 0,
    "courses": 0,
    "unless": 0,
    "progressive": 0,
    "detected": 0,
    "One": 0,
    "hundred": 0,
    "sixty": 0,
    "five": 0,
    "administered": 0,
    "median": 0,
    "6": 0,
    "patient": 0,
    "overall": 0,
    "26": 0,
    "95": 0,
    "confidence": 0,
    "interval": 0,
    "41": 0,
    "Two": 0,
    "attained": 0,
    "complete": 0,
    "22": 0,
    "achieved": 0,
    "Eastern": 0,
    "##cology": 0,
    "performance": 0,
    "status": 11,
    "improved": 0,
    "initial": 0,
    "value": 0,
    "0": 0,
    "whereas": 0,
    "relief": 0,
    "least": 0,
    "worse": 0,
    "##ning": 0,
    "noted": 0,
    "27": 0,
    "progression": 0,
    "16": 0,
    "year": 0,
    "survival": 0,
    "33": 0,
    "To": 4,
    "##city": 60,
    "mild": 0,
    "Six": 0,
    "World": 0,
    "Health": 0,
    "Organization": 0,
    "Grade": 0,
    "##ut": 8,
    "##rop": 28,
    "##enia": 24,
    "##top": 18,
    "Three": 0,
    "died": 0,
    "##psis": 3,
    "developing": 0,
    "higher": 0,
    "remaining": 0,
    "75": 0,
    "vs": 0,
    "72": 0,
    ";": 0,
    "P": 7,
    "04": 0,
    "##7": 0,
    "moderately": 0,
    "active": 0,
    "well": 0,
    "tolerate": 0,
    "##d": 2,
    "except": 0,
    "##elo": 9,
    "##su": 4,
    "##pp": 4,
    "##ression": 5,
    "Therefore": 0,
    "##hyl": 0,
    "##actic": 0,
    "##ran": 4,
    "##ulo": 6,
    "colony": 0,
    "##ti": 9,
    "##mulating": 0,
    "should": 0,
    "considered": 0,
    "New": 0,
    "combinations": 0,
    "activity": 0,
    "needed": 0,
    "##mine": 3,
    "D": 0,
    "##4": 0,
    "receptor": 0,
    "antagonist": 0,
    "##RA": 0,
    "##01": 0,
    "##60": 0,
    "pre": 5,
    "##lini": 0,
    "##cal": 5,
    "##pha": 53,
    "##rma": 2,
    "##cological": 0,
    "profile": 0,
    "5": 0,
    "[": 0,
    "flu": 0,
    "##oro": 3,
    "##lide": 0,
    "pipe": 0,
    "##rid": 0,
    "y": 0,
    "##l": 49,
    "et": 0,
    "]": 0,
    "##ny": 0,
    "##zo": 4,
    "##le": 7,
    "##box": 0,
    "##ami": 1,
    "affinity": 0,
    "clone": 0,
    "receptors": 0,
    "Ki": 0,
    "values": 0,
    "9": 0,
    "n": 2,
    "000": 0,
    "##fold": 0,
    "potent": 0,
    "##2": 0,
    "##gli": 0,
    "##gible": 0,
    "##3": 0,
    "39": 0,
    "##rot": 54,
    "##oni": 5,
    "H": 41,
    "180": 0,
    "alpha": 0,
    "##1": 0,
    "ad": 4,
    "##ren": 5,
    "##ept": 1,
    "237": 0,
    "##za": 0,
    "ant": 0,
    "##agon": 0,
    "lo": 4,
    "##com": 13,
    "##oto": 11,
    "##yper": 175,
    "##act": 28,
    "##ivity": 22,
    "met": 6,
    "##ham": 0,
    "MA": 5,
    "##P": 15,
    "stereo": 0,
    "##type": 0,
    "although": 0,
    "their": 0,
    "exceed": 0,
    "even": 0,
    "highest": 0,
    "given": 0,
    "cat": 15,
    "##ale": 12,
    "##psy": 19,
    "induction": 0,
    "reversed": 0,
    "disruption": 0,
    "##pu": 1,
    "PP": 0,
    "##I": 0,
    "produced": 0,
    "##po": 20,
    "##mor": 0,
    "##phine": 0,
    "shortened": 0,
    "##hen": 5,
    "##lid": 0,
    "PC": 5,
    "prolonged": 2,
    "swimming": 0,
    "late": 0,
    "##ncy": 2,
    "water": 0,
    "maze": 0,
    "task": 0,
    "unique": 0,
    "##cho": 4,
    "##tic": 62,
    "liability": 0,
    "side": 0,
    "typical": 0,
    "classical": 0,
    "##tics": 0,
    "War": 0,
    "##fari": 0,
    "artery": 14,
    "##fication": 10,
    "accelerated": 0,
    "growth": 0,
    "vitamin": 0,
    "demonstrate": 0,
    "enhance": 0,
    "extent": 0,
    "sufficient": 0,
    "##hibit": 0,
    "gamma": 0,
    "##yla": 1,
    "matrix": 0,
    "##la": 9,
    "protein": 61,
    "known": 0,
    "expressed": 0,
    "smooth": 0,
    "muscle": 7,
    "mac": 0,
    "wall": 0,
    "series": 0,
    "experiments": 0,
    "examined": 0,
    "influence": 0,
    "massive": 2,
    "focal": 5,
    "old": 0,
    "extensive": 1,
    "42": 0,
    "contrast": 0,
    "month": 0,
    "adult": 0,
    "directly": 0,
    "importance": 0,
    "animals": 0,
    "same": 0,
    "fed": 0,
    "either": 0,
    "l": 10,
    "##ibi": 0,
    "##tum": 0,
    "diet": 0,
    "d": 37,
    "restricted": 1,
    "maintains": 0,
    "weight": 6,
    "prevents": 0,
    "Con": 4,
    "##current": 0,
    "##ary": 3,
    "detect": 0,
    "##able": 0,
    "explanation": 0,
    "association": 0,
    "determined": 0,
    "from": 0,
    "there": 0,
    "relationship": 0,
    "serum": 0,
    "phosphate": 0,
    "##ce": 41,
    "##ibility": 0,
    "young": 0,
    "resistant": 0,
    "observation": 0,
    "suggests": 0,
    "second": 0,
    "set": 0,
    "##yne": 3,
    "##rgy": 0,
    "High": 0,
    "cause": 0,
    "little": 0,
    "K": 0,
    "times": 0,
    "longer": 0,
    "yet": 0,
    "treatments": 0,
    "concurrent": 0,
    "dramatically": 0,
    "There": 0,
    "close": 0,
    "parallel": 0,
    "elevation": 0,
    "calcium": 0,
    "induce": 0,
    "through": 0,
    "its": 0,
    "Because": 0,
    "probably": 0,
    "best": 0,
    "explained": 0,
    "hypothesis": 0,
    "sites": 0,
    "chemical": 0,
    "analysis": 0,
    "accumulated": 0,
    "indeed": 0,
    "observations": 0,
    "##lut": 0,
    "##ama": 0,
    "residues": 0,
    "apparently": 0,
    "required": 0,
    "they": 0,
    "accumulation": 0,
    "Test": 0,
    "conditions": 0,
    "challenge": 0,
    "rode": 0,
    "##nts": 0,
    "conducted": 0,
    "differential": 0,
    "under": 0,
    "varied": 0,
    "routinely": 0,
    "employed": 0,
    "behavioral": 9,
    "##phy": 2,
    "##sio": 0,
    "##logical": 14,
    "##sel": 0,
    "##ec": 3,
    "##tive": 6,
    "selected": 0,
    "##si": 10,
    "ability": 0,
    "##her": 25,
    "produce": 0,
    "distinct": 0,
    "changes": 0,
    "turnover": 0,
    "##nt": 2,
    "From": 0,
    "such": 0,
    "characterization": 0,
    "detection": 0,
    "critically": 2,
    "depends": 0,
    "upon": 0,
    "facilitated": 0,
    "period": 0,
    "##ati": 3,
    "##zation": 0,
    "Moreover": 0,
    "can": 0,
    "impact": 0,
    "physiological": 0,
    "q": 2,
    "##ual": 2,
    "##itative": 0,
    "novel": 0,
    "when": 0,
    "behaviors": 0,
    "el": 0,
    "##icit": 30,
    "home": 0,
    "cage": 0,
    "Drug": 1,
    "gross": 0,
    "counts": 0,
    "ex": 18,
    "##lora": 0,
    "##tory": 3,
    "box": 0,
    "##pic": 0,
    "similar": 0,
    "By": 0,
    "##otion": 0,
    "prominent": 0,
    "Do": 0,
    "ratios": 0,
    "##OP": 0,
    "##AC": 0,
    "##VA": 0,
    "exposed": 0,
    "counterparts": 0,
    "reduction": 8,
    "##ata": 0,
    "environments": 0,
    "implications": 0,
    "particular": 0,
    "emphasis": 0,
    "conducting": 0,
    "ps": 16,
    "##ych": 14,
    "##op": 33,
    "##har": 1,
    "He": 7,
    "##mo": 5,
    "##lysis": 18,
    "##yt": 15,
    "##hr": 29,
    "##ocytes": 0,
    "##fen": 0,
    "membrane": 0,
    "Tam": 0,
    "##ox": 43,
    "##ife": 0,
    "##AM": 0,
    "##est": 8,
    "##rogen": 0,
    "most": 0,
    "widely": 0,
    "prescribed": 0,
    "breast": 12,
    "cancer": 13,
    "normal": 0,
    "##id": 21,
    "shape": 0,
    "##emia": 45,
    "work": 0,
    "evaluate": 0,
    "isolated": 0,
    "attempting": 0,
    "identify": 0,
    "involvement": 0,
    "bio": 0,
    "##me": 2,
    "##mb": 1,
    "##rane": 0,
    "##sis": 51,
    "concentration": 0,
    "extension": 0,
    "variable": 0,
    "##yte": 0,
    "samples": 0,
    "total": 0,
    "suspension": 0,
    "Despite": 0,
    "does": 0,
    "shift": 0,
    "##smo": 0,
    "##rag": 1,
    "##ility": 0,
    "curves": 0,
    "prevented": 0,
    "low": 6,
    "concentrations": 0,
    "##pher": 0,
    "##tate": 0,
    "inactivated": 0,
    "functional": 2,
    "##ydro": 1,
    "indicating": 0,
    "evidenced": 0,
    "absence": 10,
    "oxygen": 0,
    "consumption": 0,
    "##og": 7,
    "oxidation": 0,
    "Furthermore": 0,
    "observed": 0,
    "AA": 0,
    "##H": 0,
    "thus": 0,
    "ruling": 0,
    "stress": 4,
    "leak": 0,
    "##age": 2,
    "+": 0,
    "excluding": 0,
    "##llo": 0,
    "type": 1,
    "mechanism": 0,
    "according": 0,
    "release": 0,
    "peripheral": 15,
    "proteins": 0,
    "##kel": 1,
    "##eton": 0,
    "##oso": 0,
    "essentially": 0,
    "bound": 0,
    "band": 0,
    "Either": 0,
    "increases": 3,
    "packing": 0,
    "partition": 0,
    "protection": 0,
    "##ols": 0,
    "decreased": 4,
    "incorporation": 0,
    "##den": 0,
    "##sed": 0,
    "structural": 2,
    "consequently": 0,
    "avoided": 0,
    "##tur": 0,
    "##bation": 0,
    "red": 0,
    "framework": 0,
    "defects": 0,
    "explain": 0,
    "abnormal": 5,
    "mechanical": 0,
    "stability": 0,
    "promoted": 0,
    "resulting": 0,
    "Additionally": 0,
    "since": 0,
    "final": 0,
    "stage": 0,
    "characteristics": 0,
    "contribute": 0,
    "multiple": 1,
    "##can": 0,
    "Changes": 0,
    "sodium": 0,
    "ATP": 0,
    "##ffin": 0,
    "##ities": 9,
    "cardiac": 25,
    "Na": 0,
    "ni": 0,
    "##tric": 7,
    "oxide": 0,
    "def": 2,
    "##icient": 0,
    "system": 0,
    "NO": 0,
    "involved": 0,
    "regulation": 0,
    "variety": 0,
    "functions": 0,
    "synthesis": 0,
    "sustained": 0,
    "several": 0,
    "models": 0,
    "##cellular": 4,
    "level": 0,
    "documented": 0,
    "tissue": 2,
    "assess": 0,
    "molecular": 0,
    "basis": 0,
    "disturbance": 1,
    "trans": 2,
    "transport": 0,
    "##ynth": 0,
    "##tro": 11,
    "##rg": 1,
    "##ini": 0,
    "est": 0,
    "##er": 4,
    "four": 0,
    "After": 0,
    "S": 4,
    "36": 0,
    "terminating": 0,
    "recovered": 0,
    "When": 0,
    "act": 0,
    "##ivating": 0,
    "substrate": 0,
    "##m": 23,
    "##max": 0,
    "During": 0,
    "activation": 0,
    "remained": 0,
    "unchanged": 0,
    "however": 0,
    "profound": 0,
    "decrease": 1,
    "binding": 0,
    "site": 0,
    "revealed": 0,
    "lowered": 0,
    "returned": 0,
    "##versible": 0,
    "accompanied": 0,
    "depressed": 12,
    "##trusion": 0,
    "consequence": 0,
    "deteriorated": 0,
    "properties": 0,
    "restoration": 0,
    "long": 1,
    "term": 0,
    "##tre": 1,
    "##ment": 5,
    "##rote": 0,
    "br": 13,
    "##omo": 5,
    "##cript": 0,
    "conscious": 0,
    "It": 0,
    "persisted": 0,
    "##rena": 0,
    "##lect": 0,
    "##omy": 0,
    "mediated": 0,
    "central": 0,
    "ii": 0,
    "supporting": 0,
    "therefore": 0,
    "sympathetic": 0,
    "##flow": 0,
    "heart": 28,
    "whether": 0,
    "##bol": 1,
    "##ish": 0,
    "Is": 0,
    "affecting": 0,
    "150": 0,
    "B": 1,
    "##rip": 2,
    "##tine": 6,
    "##af": 0,
    "##fected": 0,
    "partly": 0,
    "##mper": 0,
    "Neither": 0,
    "##aga": 0,
    "tone": 0,
    "altered": 0,
    "##fused": 0,
    "preparations": 0,
    "ma": 10,
    "##ximal": 1,
    "increase": 9,
    "left": 2,
    "vent": 27,
    "##ric": 36,
    "##ular": 40,
    "sa": 0,
    "EC": 0,
    "##50": 0,
    "enhanced": 0,
    "approximately": 0,
    "fold": 0,
    "show": 0,
    "beta": 2,
    "##iti": 9,
    "rather": 0,
    "imp": 8,
    "##air": 6,
    "##dom": 7,
    "##inate": 0,
    "mask": 0,
    "developmental": 0,
    "##lon": 4,
    "ultra": 0,
    "##sound": 0,
    "production": 0,
    "infant": 0,
    "Under": 0,
    "controlled": 0,
    "em": 4,
    "##sonic": 0,
    "vocal": 2,
    "##izations": 0,
    "extreme": 0,
    "cold": 0,
    "exposure": 0,
    "Previous": 0,
    "investigations": 0,
    "2nd": 0,
    "##par": 1,
    "decreases": 3,
    "thereafter": 0,
    "Given": 0,
    "neural": 0,
    "dominance": 0,
    "exhibits": 0,
    "pattern": 0,
    "##hes": 0,
    "mirror": 0,
    "each": 0,
    "experiment": 0,
    "Age": 0,
    "correspond": 0,
    "variables": 0,
    "including": 0,
    "regard": 0,
    "acoustic": 0,
    "maneuver": 0,
    "compensate": 0,
    "##mental": 1,
    "newer": 0,
    "oral": 0,
    "##ceptive": 1,
    "ve": 13,
    "##nous": 13,
    "##boe": 2,
    "##mbo": 2,
    "##pid": 1,
    "##iol": 0,
    "##TE": 12,
    "distinguish": 0,
    "namely": 0,
    "users": 0,
    "repeat": 0,
    "##ers": 0,
    "switch": 0,
    "Data": 0,
    "Trans": 1,
    "##national": 0,
    "latter": 0,
    "accounting": 0,
    "duration": 0,
    "Over": 0,
    "1993": 0,
    "1996": 0,
    "cases": 0,
    "identified": 0,
    "Germany": 0,
    "along": 0,
    "206": 0,
    "##6": 0,
    "controls": 0,
    "Total": 0,
    "128": 0,
    "650": 0,
    "anal": 0,
    "135": 0,
    "62": 0,
    "switching": 0,
    "adjusted": 0,
    "ratio": 0,
    "third": 0,
    "generation": 0,
    "relative": 0,
    "pills": 0,
    "conclude": 0,
    "equivalent": 0,
    "risks": 0,
    "interrupt": 0,
    "periods": 0,
    "switched": 0,
    "generations": 0,
    "analyses": 0,
    "comparisons": 0,
    "pill": 0,
    "Different": 0,
    "systemic": 1,
    "##ally": 1,
    "k": 0,
    "##eta": 0,
    "lid": 0,
    "##aine": 0,
    "dynamic": 0,
    "static": 0,
    "##ges": 23,
    "##der": 0,
    "##mal": 4,
    "caps": 0,
    "##aic": 0,
    "humans": 0,
    "brush": 0,
    "##voked": 0,
    "pain": 77,
    "pu": 1,
    "##nc": 0,
    "double": 0,
    "blind": 0,
    "place": 0,
    "crossover": 0,
    "volunteers": 0,
    "Cap": 0,
    "##sai": 0,
    "100": 0,
    "injected": 0,
    "vol": 0,
    "##ar": 22,
    "forearm": 0,
    "followed": 0,
    "b": 0,
    "##us": 22,
    "min": 0,
    "started": 0,
    "measured": 0,
    "spontaneous": 0,
    "stimuli": 0,
    "VA": 0,
    "areas": 0,
    "Ke": 0,
    "area": 0,
    "Li": 0,
    "##do": 0,
    "##ca": 2,
    "scores": 0,
    "types": 0,
    "Development": 0,
    "aggressive": 7,
    "comparison": 0,
    "male": 0,
    "female": 0,
    "W": 1,
    "##ista": 0,
    "development": 0,
    "once": 0,
    "daily": 0,
    "obtained": 0,
    "breed": 0,
    "consecutive": 0,
    "sets": 0,
    "repeated": 0,
    "gradual": 0,
    "intensity": 0,
    "##ness": 12,
    "attack": 0,
    "toward": 0,
    "opponent": 0,
    "weak": 0,
    "tendency": 0,
    "conclusion": 0,
    "demonstrates": 0,
    "gender": 0,
    "differences": 0,
    "indicates": 0,
    "fill": 0,
    "valid": 0,
    "##ation": 6,
    "criteria": 0,
    "##rani": 10,
    "##eur": 17,
    "##ms": 7,
    "abuse": 0,
    "##gno": 0,
    "##stic": 8,
    "indicators": 0,
    "outcome": 0,
    "sub": 6,
    "##ara": 9,
    "##ch": 8,
    "reportedly": 0,
    "poor": 0,
    "literature": 0,
    "statistical": 0,
    "analyze": 0,
    "review": 0,
    "admissions": 0,
    "14": 0,
    "r": 23,
    "##up": 5,
    "##tured": 1,
    "history": 0,
    "presentation": 0,
    "##ctus": 0,
    "##cation": 0,
    "Hunt": 0,
    "Hess": 0,
    "grade": 0,
    "size": 0,
    "location": 0,
    "Glasgow": 0,
    "Out": 0,
    "##come": 0,
    "Scale": 0,
    "score": 0,
    "younger": 0,
    "00": 0,
    "located": 0,
    "anterior": 0,
    "circulation": 0,
    "smaller": 0,
    "08": 0,
    "mm": 0,
    "versus": 0,
    "05": 0,
    "##bid": 0,
    "##ity": 16,
    "##5": 0,
    "predict": 0,
    "##ors": 1,
    "##dis": 0,
    "##posed": 0,
    "##ture": 0,
    "earlier": 0,
    "much": 0,
    "##trar": 0,
    "published": 0,
    "reasonably": 0,
    "management": 0,
    "##di": 2,
    "acute": 50,
    "AND": 0,
    "##UR": 0,
    "##PO": 0,
    "##SE": 0,
    "Ni": 0,
    "West": 0,
    "European": 0,
    "St": 3,
    "##roke": 3,
    "Trial": 0,
    "IN": 0,
    "##W": 1,
    "correlation": 0,
    "BP": 1,
    "##fa": 0,
    "##vor": 0,
    "sought": 0,
    "adjustment": 0,
    "subgroup": 0,
    "increasing": 0,
    "clinical": 0,
    "within": 0,
    "24": 0,
    "allocated": 0,
    "101": 0,
    "94": 0,
    "average": 0,
    "change": 0,
    "21": 0,
    "analyzed": 0,
    "92": 0,
    "93": 0,
    "80": 0,
    "resulted": 0,
    "DB": 2,
    "multi": 1,
    "##var": 2,
    "##iate": 0,
    "49": 0,
    "##8": 0,
    "OR": 0,
    "compound": 0,
    "death": 25,
    "depend": 0,
    "##ency": 0,
    "Bart": 0,
    "##hel": 0,
    "Index": 0,
    "02": 0,
    "74": 0,
    "131": 0,
    "61": 0,
    "##9": 0,
    "For": 0,
    "##clusive": 0,
    "exclude": 0,
    "##ctive": 0,
    "property": 0,
    "Neo": 0,
    "##nat": 1,
    "##yr": 0,
    "##xin": 0,
    "##sp": 2,
    "##ons": 0,
    "##vu": 28,
    "##ions": 11,
    "##onia": 6,
    "##zi": 0,
    "17": 0,
    "13": 0,
    "birth": 7,
    "because": 0,
    "maternal": 0,
    "tuberculosis": 2,
    "admitted": 0,
    "fits": 1,
    "No": 0,
    "##fect": 0,
    "##chemical": 0,
    "ceased": 0,
    "administer": 0,
    "suggesting": 0,
    "##eti": 0,
    "##ology": 0,
    "deficiency": 0,
    "secondary": 2,
    "medication": 0,
    "##dation": 0,
    "children": 0,
    "fracture": 8,
    "emergency": 0,
    "department": 0,
    "recently": 0,
    "##rgen": 0,
    "##til": 0,
    "##hetic": 0,
    "requiring": 0,
    "purpose": 0,
    "fourteen": 0,
    "range": 0,
    "twelve": 0,
    "months": 0,
    "ten": 0,
    "underwent": 0,
    "closed": 0,
    "##location": 2,
    "I": 13,
    "trauma": 2,
    "center": 0,
    "prospective": 0,
    "evaluated": 0,
    "##ide": 3,
    "##ously": 0,
    "mill": 0,
    "##ig": 0,
    "##rams": 0,
    "##ilo": 0,
    "body": 0,
    "ninety": 0,
    "fifteen": 0,
    "board": 0,
    "certified": 0,
    "physician": 0,
    "air": 1,
    "##way": 1,
    "supervised": 0,
    "monitored": 0,
    "registered": 0,
    "nurse": 0,
    "Any": 0,
    "rated": 0,
    "##ae": 5,
    "##dic": 0,
    "surgeon": 0,
    "treating": 0,
    "Children": 0,
    "Hospital": 0,
    "Ontario": 0,
    "Pain": 11,
    "CH": 7,
    "manipulation": 0,
    "minute": 0,
    "thirty": 0,
    "seconds": 0,
    "twenty": 0,
    "minutes": 0,
    "forty": 0,
    "points": 0,
    "reflecting": 0,
    "minimal": 0,
    "Ad": 0,
    "##qua": 0,
    "111": 0,
    "Nine": 0,
    "percent": 0,
    "eight": 0,
    "parents": 0,
    "pleased": 0,
    "allow": 0,
    "again": 0,
    "situation": 0,
    "independent": 0,
    "##spiration": 0,
    "maintained": 0,
    "Blood": 0,
    "stable": 0,
    "Minor": 0,
    "nausea": 26,
    "thirteen": 0,
    "##esis": 4,
    "##lums": 1,
    "##iness": 3,
    "evident": 0,
    "##ax": 3,
    "movements": 0,
    "##ori": 1,
    "reaction": 0,
    "sequel": 0,
    "hall": 4,
    "##ination": 4,
    "nightmares": 0,
    "##lia": 5,
    "##bly": 0,
    "safely": 0,
    "quickly": 0,
    "provided": 0,
    "adequate": 0,
    "effectively": 0,
    "facilitate": 0,
    "institution": 0,
    "environment": 0,
    "where": 0,
    "proper": 0,
    "monitoring": 0,
    "physicians": 0,
    "care": 0,
    "Cy": 0,
    "##los": 1,
    "##por": 2,
    "##imus": 0,
    "##bot": 17,
    "##ang": 5,
    "##pathy": 17,
    "##MA": 7,
    "exchange": 0,
    "im": 1,
    "##mu": 5,
    "##bul": 0,
    "recipients": 0,
    "organ": 0,
    "transplant": 1,
    "removing": 0,
    "##citing": 0,
    "attendant": 0,
    "##pit": 0,
    "##ating": 2,
    "rejection": 0,
    "##raft": 0,
    "last": 0,
    "decade": 0,
    "seen": 0,
    "emergence": 0,
    "##nos": 0,
    "virtually": 0,
    "identical": 0,
    "As": 0,
    "viable": 0,
    "therapeutic": 0,
    "option": 0,
    "setting": 0,
    "With": 1,
    "widespread": 0,
    "application": 0,
    "recognized": 0,
    "##rrence": 0,
    "##quential": 0,
    "limited": 0,
    "report": 0,
    "living": 0,
    "donor": 0,
    "##nal": 66,
    "recipient": 0,
    "developed": 0,
    "responded": 0,
    "conjunction": 0,
    "##phere": 0,
    "fresh": 0,
    "frozen": 0,
    "replacement": 0,
    "alternative": 0,
    "subsequent": 0,
    "vice": 0,
    "versa": 0,
    "closely": 0,
    "signs": 0,
    "Ana": 1,
    "##lge": 0,
    "problematic": 0,
    "Animal": 0,
    "##MD": 0,
    "improving": 0,
    "op": 5,
    "difficult": 0,
    "syndrome": 0,
    "##pathic": 17,
    "slow": 0,
    "##hy": 22,
    "##not": 0,
    "whose": 0,
    "##ie": 1,
    "##ved": 0,
    "numerical": 0,
    "scale": 0,
    "vomit": 10,
    "##rows": 1,
    "confusion": 11,
    "dry": 3,
    "mouth": 0,
    "slight": 0,
    "lot": 0,
    "awful": 0,
    "Mini": 0,
    "Mental": 0,
    "State": 0,
    "Examination": 0,
    "M": 0,
    "##MS": 0,
    "art": 13,
    "##erial": 2,
    "recorded": 0,
    "drugs": 0,
    "##0": 0,
    "##30": 0,
    "120": 0,
    "##12": 1,
    "##18": 0,
    "solution": 0,
    "almost": 0,
    "relevant": 0,
    "Hall": 1,
    "unpleasant": 0,
    "sensation": 0,
    "\"": 0,
    "empty": 0,
    "episodes": 0,
    "##az": 0,
    "##ep": 13,
    "##am": 3,
    "Sign": 0,
    "##ificant": 0,
    "difference": 0,
    "improve": 0,
    "occurrence": 0,
    "taken": 0,
    "account": 0,
    "especially": 0,
    "Pac": 0,
    "##lit": 11,
    "##el": 1,
    "##disciplinary": 0,
    "approach": 0,
    "##static": 9,
    "based": 0,
    "translate": 0,
    "regime": 0,
    "##ns": 0,
    "objective": 0,
    "##eas": 0,
    "##ac": 10,
    "treat": 0,
    "Thirty": 0,
    "naive": 0,
    "Stage": 0,
    "Day": 0,
    "800": 0,
    "responding": 0,
    "scheduled": 0,
    "consolidation": 0,
    "radio": 0,
    "##ther": 8,
    "##ap": 1,
    "##lan": 2,
    "##ned": 0,
    "refer": 0,
    "34": 0,
    "exam": 0,
    "##ina": 1,
    "An": 1,
    "73": 0,
    "87": 0,
    "According": 0,
    "intention": 0,
    "71": 0,
    "53": 0,
    "85": 0,
    "154": 0,
    "97": 0,
    "117": 0,
    "137": 0,
    "86": 0,
    "Non": 0,
    "##hem": 5,
    "##log": 9,
    "toxic": 13,
    "follow": 0,
    "free": 0,
    "shows": 0,
    "merits": 0,
    "Ser": 0,
    "##ner": 0,
    "##gic": 8,
    "##press": 0,
    "##ants": 2,
    "##con": 8,
    "##nce": 11,
    "Many": 0,
    "##one": 2,
    "introduced": 0,
    "past": 0,
    "listed": 0,
    "package": 0,
    "insert": 0,
    "concerns": 0,
    "experienced": 0,
    "authors": 0,
    "describe": 0,
    "##take": 0,
    "par": 2,
    "##rt": 6,
    "lit": 0,
    "##hium": 0,
    "carbon": 0,
    "##ate": 0,
    "block": 0,
    "contributed": 0,
    "##HT": 0,
    "research": 0,
    "del": 5,
    "frequency": 0,
    "t": 20,
    "##rou": 0,
    "##bling": 0,
    "how": 0,
    "seizure": 98,
    "sensitivity": 0,
    "##bred": 0,
    "mouse": 0,
    "strains": 0,
    "Mat": 0,
    "##ure": 7,
    "stain": 0,
    "##iz": 7,
    "end": 10,
    "hind": 0,
    "running": 0,
    "jumping": 0,
    "bouncing": 0,
    "strain": 0,
    "##vi": 0,
    "##ties": 0,
    "J": 3,
    "being": 0,
    "sensitive": 0,
    "##BL": 0,
    "NZ": 0,
    "Lac": 0,
    "intermediate": 0,
    "E": 31,
    "##EG": 0,
    "recordings": 0,
    "made": 0,
    "revealing": 0,
    "correspondence": 0,
    "electrical": 0,
    "hip": 2,
    "##cam": 2,
    "##pus": 0,
    "cortex": 0,
    "Additional": 0,
    "useful": 0,
    "investigating": 0,
    "genetic": 0,
    "influences": 0,
    "initiation": 2,
    "##iza": 0,
    "chronic": 26,
    "Central": 2,
    "acting": 0,
    "##rene": 1,
    "spa": 11,
    "nervous": 0,
    "##ior": 3,
    "##pi": 2,
    "##rator": 2,
    "Adults": 0,
    "respond": 0,
    "simultaneously": 0,
    "blocked": 0,
    "boy": 0,
    "##isi": 0,
    "##ril": 1,
    "interaction": 0,
    "##pert": 0,
    "kept": 0,
    "mind": 0,
    "##cribing": 0,
    "lines": 0,
    "various": 0,
    "GA": 0,
    "##BA": 0,
    "##igan": 0,
    "##ds": 0,
    "bred": 0,
    "BS": 0,
    "resistance": 0,
    "BR": 0,
    "CC": 0,
    "inverse": 0,
    "ben": 0,
    "##dia": 0,
    "##ze": 0,
    "Our": 0,
    "aim": 0,
    "character": 0,
    "##ize": 0,
    "elevated": 1,
    "recording": 0,
    "##igi": 0,
    "##lance": 0,
    "states": 0,
    "pen": 7,
    "##lene": 0,
    "Results": 0,
    "presented": 0,
    "here": 0,
    "extended": 0,
    "selection": 0,
    "general": 0,
    "Pro": 7,
    "##py": 7,
    "##lt": 0,
    "##hi": 2,
    "##our": 0,
    "##lea": 0,
    "##hil": 1,
    "##las": 3,
    "##anti": 0,
    "##body": 0,
    "##rdi": 13,
    "##tis": 17,
    "##yl": 0,
    "##thi": 15,
    "woman": 0,
    "##thy": 2,
    "##roid": 6,
    "##ism": 5,
    "fever": 2,
    "##mer": 21,
    "##ulon": 10,
    "##itis": 32,
    "testing": 0,
    "done": 0,
    "Graves": 1,
    "illness": 0,
    "confirmed": 0,
    "evaluation": 0,
    "presence": 0,
    "##dies": 0,
    "##AN": 0,
    "##CA": 0,
    "against": 0,
    "##per": 0,
    "##idas": 0,
    "MP": 3,
    "she": 0,
    "##dn": 0,
    "##ison": 0,
    "alleviate": 0,
    "her": 0,
    "prior": 0,
    "Per": 4,
    "##but": 0,
    "Rep": 0,
    "##eat": 0,
    "##ient": 4,
    "##uria": 91,
    "los": 0,
    "##art": 2,
    "solitary": 0,
    "kidney": 3,
    "##tensive": 17,
    "man": 10,
    "ins": 0,
    "##uff": 0,
    "##iciency": 0,
    "hospital": 0,
    "##far": 9,
    "##ction": 4,
    "pulmonary": 10,
    "##function": 0,
    "Sur": 0,
    "##rising": 0,
    "sudden": 2,
    "lasted": 0,
    "despite": 0,
    "fur": 0,
    "##ose": 1,
    "##mi": 0,
    "later": 0,
    "mistake": 0,
    "episode": 0,
    "lasting": 0,
    "his": 0,
    "diminished": 0,
    "Ultimately": 0,
    "##eri": 3,
    "##ography": 0,
    "##ten": 1,
    "##osis": 16,
    "combined": 0,
    "certainly": 0,
    "strong": 0,
    "##nin": 0,
    "RA": 0,
    "II": 0,
    "critical": 0,
    "fall": 0,
    "fi": 15,
    "##ltration": 0,
    "highlights": 0,
    "fact": 0,
    "unexpected": 0,
    "complications": 0,
    "##nova": 4,
    "caution": 0,
    "Cal": 0,
    "##cine": 0,
    "##IP": 3,
    "Bone": 0,
    "frequent": 0,
    "diseases": 0,
    "strategies": 0,
    "correct": 0,
    "feet": 0,
    "scan": 0,
    "trace": 0,
    "foot": 1,
    "bones": 0,
    "Ma": 0,
    "##gnetic": 0,
    "demonstrated": 0,
    "bone": 7,
    "##rrow": 0,
    "painful": 1,
    "causing": 0,
    "like": 0,
    "reflex": 1,
    "Morton": 1,
    "##gia": 3,
    "go": 1,
    "##ste": 5,
    "##vas": 4,
    "##rosis": 41,
    "intermittent": 2,
    "##lau": 2,
    "##dication": 0,
    "##orm": 2,
    "##athy": 74,
    "##rough": 0,
    "channel": 0,
    "##duced": 0,
    "##yn": 1,
    "##drome": 0,
    "rare": 0,
    "accurately": 0,
    "Inc": 0,
    "##ct": 16,
    "will": 0,
    "lead": 0,
    "suffering": 0,
    "Brain": 0,
    "na": 0,
    "##eptide": 0,
    "##hra": 1,
    "##cline": 0,
    "##iot": 15,
    "##racy": 0,
    "##lastic": 11,
    "frequently": 0,
    "conventional": 0,
    "need": 0,
    "search": 0,
    "methods": 0,
    "highly": 0,
    "capable": 0,
    "##NP": 0,
    "simple": 0,
    "diagnostic": 0,
    "indicator": 0,
    "le": 12,
    "##uke": 6,
    "da": 0,
    "##uno": 0,
    "##ru": 2,
    "##bic": 0,
    "##NR": 0,
    "containing": 0,
    "Thirteen": 0,
    "Card": 6,
    "##iac": 3,
    "##nu": 2,
    "##graphy": 0,
    "##oth": 2,
    "##era": 0,
    "##pies": 0,
    "##rial": 22,
    "AN": 0,
    "completion": 0,
    "Five": 0,
    "having": 0,
    "above": 0,
    "limit": 0,
    "hand": 1,
    "700": 0,
    "always": 0,
    "preliminary": 0,
    "early": 0,
    "##hal": 3,
    "##ent": 7,
    "tub": 2,
    "characterized": 0,
    "##li": 13,
    "very": 0,
    "carefully": 0,
    "##biotic": 0,
    "##na": 0,
    "##pop": 5,
    "deaths": 6,
    "##tam": 0,
    "##dar": 0,
    "##x": 0,
    "##ubi": 1,
    "##36": 0,
    "grape": 0,
    "seed": 0,
    "##ho": 6,
    "##ani": 0,
    "##din": 0,
    "extract": 0,
    "##rap": 5,
    "primarily": 0,
    "##ulate": 0,
    "wide": 0,
    "biological": 0,
    "##ological": 1,
    "##SP": 0,
    "prevent": 0,
    "AM": 0,
    "##OX": 0,
    "Experimental": 0,
    "design": 0,
    "consisted": 0,
    "##ava": 0,
    "##ged": 0,
    "500": 0,
    "48": 0,
    "Para": 0,
    "##meter": 0,
    "chemistry": 0,
    "AL": 16,
    "CP": 0,
    "orderly": 0,
    "fragment": 0,
    "##eno": 6,
    "DNA": 0,
    "##on": 5,
    "##se": 2,
    "##scopic": 0,
    "corresponding": 0,
    "PA": 0,
    "stained": 0,
    "tissues": 0,
    "##ex": 0,
    "##sure": 0,
    "near": 0,
    "terms": 0,
    "His": 0,
    "##ath": 1,
    "examination": 0,
    "sections": 0,
    "moderate": 0,
    "##phological": 0,
    "##ber": 0,
    "##rations": 0,
    "residual": 0,
    "alterations": 0,
    "mirrored": 0,
    "Interest": 0,
    "##ingly": 0,
    "respective": 0,
    "organs": 0,
    "Since": 0,
    "undergo": 0,
    "##formation": 0,
    "damaging": 0,
    "radical": 0,
    "linked": 0,
    "metabolism": 0,
    "presumed": 0,
    "contribution": 0,
    "repair": 0,
    "another": 0,
    "important": 0,
    "attribute": 0,
    "played": 0,
    "role": 0,
    "##vention": 0,
    "process": 0,
    "Take": 0,
    "together": 0,
    "events": 0,
    "undoubtedly": 0,
    "establish": 0,
    "abundant": 0,
    "##bility": 3,
    "power": 0,
    "defend": 0,
    "target": 0,
    "assaults": 0,
    "diverse": 0,
    "entities": 0,
    "Anti": 0,
    "##pol": 14,
    "identification": 0,
    "factors": 0,
    "about": 0,
    "continue": 0,
    "interfere": 0,
    "establishment": 0,
    "optimal": 0,
    "paradigm": 0,
    "depression": 16,
    "44": 0,
    "meeting": 0,
    "naturalist": 0,
    "Montgomery": 0,
    "##berg": 0,
    "Depression": 2,
    "Be": 0,
    "Rafael": 0,
    "##son": 0,
    "Man": 1,
    "##mani": 3,
    "sex": 0,
    "number": 0,
    "electro": 0,
    "##lsive": 9,
    "particularly": 0,
    "SSR": 0,
    "stab": 0,
    "##ilizer": 0,
    "temper": 0,
    "##ament": 0,
    "norm": 0,
    "component": 0,
    "Semi": 0,
    "structured": 0,
    "##ffe": 0,
    "Interview": 0,
    "##witch": 0,
    "##a": 29,
    "Sex": 0,
    "additional": 0,
    "switches": 0,
    "seemed": 0,
    "probability": 0,
    "##structure": 0,
    "greater": 0,
    "Part": 0,
    "##icular": 0,
    "attention": 2,
    "paid": 0,
    "##ub": 0,
    "cap": 0,
    "##illa": 0,
    "basement": 0,
    "##lication": 0,
    "native": 0,
    "clinic": 0,
    "278": 0,
    "specimens": 0,
    "##CR": 0,
    "practical": 0,
    "theoretical": 0,
    "tried": 0,
    "143": 0,
    "##st": 15,
    "##ructural": 0,
    "protocol": 0,
    "##ps": 2,
    "##ies": 4,
    "Native": 0,
    "##path": 4,
    "##gnant": 8,
    "inter": 9,
    "##rit": 4,
    "Sc": 1,
    "##hon": 1,
    "##lein": 0,
    "##res": 0,
    "##cent": 0,
    "Mi": 2,
    "##ld": 0,
    "significance": 0,
    "unclear": 0,
    "occurs": 0,
    "though": 0,
    "injury": 2,
    "les": 0,
    "##fe": 0,
    "##rr": 12,
    "##gni": 1,
    "danger": 0,
    "health": 0,
    "##food": 0,
    "products": 0,
    "existing": 0,
    "mit": 3,
    "valve": 1,
    "##lap": 0,
    "##tract": 0,
    "##bri": 0,
    "consuming": 0,
    "natural": 0,
    "energy": 0,
    "##rana": 0,
    "drink": 0,
    "label": 0,
    "##ling": 0,
    "analog": 0,
    "##100": 0,
    "##sen": 10,
    "##go": 0,
    "##leo": 0,
    "##tide": 0,
    "targeting": 0,
    "si": 0,
    "##gma": 0,
    "interact": 0,
    "Swiss": 0,
    "Webster": 0,
    "##10": 1,
    "##abi": 0,
    "##ane": 0,
    "##pipe": 0,
    "##raz": 0,
    "##13": 0,
    "Competition": 0,
    "ass": 0,
    "##ays": 0,
    "compounds": 0,
    "vary": 0,
    "exhibit": 0,
    "##uated": 0,
    "lethal": 0,
    "proportion": 0,
    "put": 1,
    "##ative": 14,
    "##gua": 0,
    "##31": 0,
    "At": 5,
    "##lator": 0,
    "##uate": 0,
    "Together": 0,
    "##uating": 0,
    "Rani": 0,
    "##ver": 0,
    "preventing": 0,
    "ul": 10,
    "ran": 0,
    "specimen": 0,
    "path": 0,
    "##mon": 3,
    "features": 0,
    "##phi": 4,
    "##fi": 0,
    "compartment": 2,
    "rapidly": 0,
    "Live": 2,
    "presents": 0,
    "laboratory": 0,
    "electron": 0,
    "he": 80,
    "list": 0,
    "must": 0,
    "liver": 16,
    "##dra": 2,
    "##wal": 1,
    "emerge": 0,
    "rabbit": 2,
    "Rabbit": 2,
    "RS": 3,
    "extra": 7,
    "##ram": 7,
    "##idal": 7,
    "##ptic": 16,
    "Here": 0,
    "kind": 0,
    "successfully": 0,
    "##ri": 0,
    "##liner": 0,
    "Ph": 0,
    "##arma": 0,
    "##kin": 27,
    "##etic": 4,
    "##dynamic": 0,
    "assessment": 0,
    "##40": 0,
    "##isa": 0,
    "##ride": 0,
    "##rf": 0,
    "##ena": 0,
    "##rod": 1,
    "##has": 0,
    "potential": 0,
    "dog": 0,
    "Tor": 1,
    "##sad": 1,
    "point": 0,
    "TD": 8,
    "fatal": 0,
    "Q": 1,
    "market": 0,
    "Four": 0,
    "mimic": 0,
    "designed": 0,
    "76": 0,
    "##rrel": 0,
    "differentiation": 0,
    "##ff": 0,
    "##cious": 0,
    "margins": 0,
    "##mize": 0,
    "respect": 0,
    "candidates": 0,
    "##lad": 0,
    "urine": 0,
    "continuous": 0,
    "##any": 0,
    "commonly": 0,
    "neon": 0,
    "##xious": 0,
    "invasive": 0,
    "intensive": 0,
    "unit": 0,
    "##ync": 1,
    "##ony": 0,
    "breaths": 0,
    "Fen": 0,
    "##tany": 1,
    "purposes": 0,
    "Various": 0,
    "include": 0,
    "chest": 10,
    "rigid": 12,
    "##voc": 0,
    "##aly": 1,
    "##cea": 0,
    "##king": 0,
    "Fat": 0,
    "##ence": 24,
    "##lop": 34,
    "accidental": 0,
    "##the": 1,
    "##rist": 0,
    "girl": 0,
    "##ymph": 6,
    "##ob": 3,
    "##uce": 0,
    "57": 0,
    "Clinical": 0,
    "onset": 0,
    "##ist": 1,
    "sensory": 1,
    "ascending": 0,
    "para": 10,
    "##his": 1,
    "##FB": 0,
    "CD": 0,
    "68": 0,
    "##gene": 11,
    "##ration": 2,
    "##elin": 0,
    "##xon": 4,
    "pseudo": 9,
    "transformation": 0,
    "numerous": 0,
    "Pa": 1,
    "##pe": 2,
    "##bra": 8,
    "twitch": 1,
    "adolescent": 0,
    "##ital": 1,
    "Current": 0,
    "estimates": 0,
    "affected": 0,
    "major": 4,
    "favorable": 0,
    "##mit": 2,
    "##sal": 1,
    "##azi": 0,
    "strikes": 0,
    "lady": 0,
    "constellation": 0,
    "der": 1,
    "##ade": 2,
    "beginning": 0,
    "17th": 0,
    "##uma": 12,
    "Ce": 6,
    "##vic": 1,
    "ing": 0,
    "##uin": 0,
    "node": 0,
    "##ising": 0,
    "##ha": 9,
    "##tosis": 1,
    "##rates": 0,
    "viral": 1,
    "inclusion": 0,
    "bodies": 0,
    "##ul": 3,
    "##mina": 2,
    "nuclear": 0,
    "markers": 0,
    "##im": 4,
    "##nity": 2,
    "super": 0,
    "She": 0,
    "subsequently": 0,
    "commencement": 0,
    "Post": 0,
    "##ort": 1,
    "##vity": 8,
    "##gna": 3,
    "thought": 0,
    "##ronology": 0,
    "bore": 0,
    "##marks": 0,
    "so": 3,
    "called": 0,
    "##alle": 0,
    "aka": 14,
    "##sia": 15,
    "ST": 0,
    "##Y": 0,
    "city": 0,
    "teaching": 0,
    "aged": 0,
    "headache": 18,
    "eligible": 0,
    "Study": 0,
    "participants": 0,
    "means": 0,
    "push": 0,
    "main": 0,
    "experiencing": 0,
    "##kat": 1,
    "defined": 0,
    "restless": 0,
    "agitation": 2,
    "rating": 0,
    "investigator": 0,
    "visual": 9,
    "enrolled": 0,
    "participant": 0,
    "excluded": 0,
    "violation": 0,
    "Seven": 0,
    "99": 0,
    "32": 0,
    "Delta": 0,
    "saw": 0,
    "29": 0,
    "likewise": 0,
    "appear": 0,
    "formal": 0,
    "Combined": 0,
    "##ret": 2,
    "##rov": 0,
    "##ira": 1,
    "##my": 11,
    "##eva": 0,
    "##tes": 1,
    "la": 0,
    "##genic": 1,
    "AIDS": 6,
    "##AA": 3,
    "##RT": 0,
    "implicated": 0,
    "LA": 0,
    "mitochondrial": 10,
    "NL": 0,
    "3D": 0,
    "gag": 0,
    "wild": 0,
    "F": 2,
    "##VB": 0,
    "litter": 0,
    "##mates": 0,
    "z": 0,
    "##dina": 0,
    "##vir": 0,
    "termination": 0,
    "echo": 0,
    "##uant": 0,
    "##itation": 0,
    "abundance": 0,
    "##RNA": 0,
    "encoding": 0,
    "##F": 26,
    "##rc": 1,
    "SE": 10,
    "##RC": 0,
    "determination": 0,
    "My": 7,
    "semi": 0,
    "##nti": 1,
    "##tative": 0,
    "transmission": 0,
    "##sco": 0,
    "mass": 2,
    "160": 0,
    "Molecular": 0,
    "250": 0,
    "Path": 0,
    "enlarged": 0,
    "damaged": 0,
    "##och": 0,
    "##ond": 0,
    "##ria": 8,
    "Finding": 0,
    "##ts": 0,
    "cumulative": 0,
    "Phase": 0,
    "WR": 0,
    "272": 0,
    "##if": 0,
    "Older": 0,
    "limiting": 0,
    "initially": 0,
    "protect": 0,
    "military": 0,
    "personnel": 0,
    "war": 0,
    "Am": 1,
    "al": 1,
    "##ky": 0,
    "##lating": 0,
    "decreasing": 0,
    "Early": 0,
    "trials": 0,
    "91": 0,
    "##yd": 0,
    "until": 0,
    "ineligible": 0,
    "cycles": 0,
    "37": 0,
    "Most": 0,
    "stopped": 0,
    "52": 0,
    "threatening": 0,
    "tumor": 16,
    "protective": 0,
    "Oral": 0,
    "##tage": 0,
    "##ode": 2,
    "##von": 0,
    "mutations": 0,
    "nationwide": 0,
    "population": 0,
    "248": 0,
    "women": 0,
    "1990": 0,
    "1995": 0,
    "matched": 0,
    "calendar": 0,
    "index": 0,
    "residence": 0,
    "Sub": 0,
    "##jects": 0,
    "supplied": 0,
    "information": 0,
    "Leiden": 0,
    "##20": 0,
    "##21": 0,
    "mutation": 0,
    "gene": 0,
    "217": 0,
    "odds": 0,
    "##user": 0,
    "Among": 0,
    "End": 2,
    "##SR": 22,
    "##X": 0,
    "Their": 0,
    "success": 0,
    "retrospective": 0,
    "examines": 0,
    "CR": 8,
    "June": 0,
    "1985": 0,
    "December": 0,
    "1994": 0,
    "survived": 0,
    "##oper": 11,
    "83": 0,
    "collected": 0,
    "database": 0,
    "source": 0,
    "divided": 0,
    "Control": 0,
    "##rea": 1,
    "##tin": 0,
    "45": 0,
    "Groups": 0,
    "Compared": 0,
    "##tore": 2,
    "requirement": 0,
    "dial": 0,
    "Multi": 0,
    "step": 0,
    "##wise": 0,
    "log": 0,
    "##istic": 0,
    "##gression": 0,
    "Overall": 0,
    "54": 0,
    "develop": 0,
    "likely": 0,
    "##pile": 19,
    "##ical": 1,
    "seal": 0,
    "##xa": 0,
    "Fi": 1,
    "derived": 0,
    "##rger": 0,
    "typically": 0,
    "contain": 0,
    "synthetic": 0,
    "substitute": 0,
    "wanted": 0,
    "retains": 0,
    "if": 0,
    "incorporated": 0,
    "47": 0,
    "applied": 0,
    "surface": 0,
    "##tized": 0,
    "##raphy": 0,
    "behaviour": 0,
    "##hesia": 2,
    "##IN": 4,
    "##DI": 0,
    "##NG": 0,
    "Thus": 0,
    "generalized": 1,
    "lowest": 0,
    "brief": 0,
    "jerk": 0,
    "correlated": 0,
    "##voke": 0,
    "##RP": 0,
    "##RE": 0,
    "##TA": 0,
    "##ON": 0,
    "##NS": 7,
    "pose": 0,
    "substantial": 0,
    "##tero": 2,
    "direct": 0,
    "support": 0,
    "remains": 0,
    "theory": 0,
    "allows": 0,
    "mid": 0,
    "##esta": 1,
    "##ryo": 0,
    "##zac": 0,
    "##nic": 0,
    "let": 1,
    "many": 0,
    "preserved": 0,
    "classified": 0,
    "simply": 0,
    "large": 0,
    "amount": 0,
    "Micro": 1,
    "configuration": 0,
    "##ging": 2,
    "detachment": 0,
    "##rm": 0,
    "##15": 0,
    "modes": 0,
    "##cula": 8,
    "distribution": 0,
    "vessels": 0,
    "##gro": 0,
    "##wth": 0,
    "parts": 0,
    "##car": 3,
    "avid": 0,
    "##utical": 0,
    "necessary": 0,
    "animal": 0,
    "implies": 0,
    "##iga": 0,
    "easily": 0,
    "prepared": 0,
    "##CM": 0,
    "##Z": 0,
    "easy": 0,
    "prepare": 0,
    "96": 0,
    "##tribution": 0,
    "clearance": 0,
    "via": 0,
    "standard": 0,
    "##ised": 0,
    "UV": 0,
    "##cted": 0,
    "drawn": 0,
    "camera": 0,
    "images": 0,
    "image": 0,
    "makes": 0,
    "ideal": 0,
    "Z": 1,
    "##ban": 0,
    "##yclic": 0,
    "formulation": 0,
    "released": 0,
    "Ireland": 0,
    "smoking": 0,
    "##ess": 4,
    "aid": 0,
    "introduction": 0,
    "##dos": 17,
    "National": 0,
    "Po": 0,
    "Information": 0,
    "Centre": 0,
    "Common": 0,
    "##sus": 0,
    "##tated": 0,
    "31": 0,
    "admission": 0,
    "Care": 0,
    "Unit": 0,
    "ventilation": 0,
    "full": 0,
    "supportive": 0,
    "broad": 0,
    "complex": 0,
    "##sin": 1,
    "##LE": 0,
    "##PP": 0,
    "##hos": 7,
    "##tase": 0,
    "marker": 0,
    "pod": 0,
    "##pical": 1,
    "processes": 0,
    "plays": 0,
    "regulating": 0,
    "understand": 0,
    "utility": 0,
    "##chemistry": 0,
    "Western": 0,
    "##ay": 1,
    "amino": 2,
    "##cle": 27,
    "##ito": 0,
    "##nea": 12,
    "##iss": 0,
    "##ues": 0,
    "126": 0,
    "phase": 0,
    "##ace": 0,
    "##ulos": 7,
    "265": 0,
    "79": 0,
    "x": 1,
    "mole": 0,
    "##ulus": 0,
    "content": 0,
    "begun": 0,
    "return": 0,
    "towards": 0,
    "scar": 0,
    "##ring": 0,
    "absent": 1,
    "expression": 0,
    "unlike": 0,
    "reflects": 0,
    "##ici": 0,
    "described": 0,
    "Use": 0,
    "Met": 0,
    "##ception": 0,
    "##ip": 7,
    "177": 0,
    "13th": 0,
    "charcoal": 0,
    "meal": 0,
    "##test": 1,
    "##inal": 9,
    "transit": 0,
    "Si": 0,
    "##lta": 0,
    "##iation": 0,
    "139": 0,
    "units": 0,
    "280": 0,
    "au": 0,
    "partially": 0,
    "##ider": 0,
    "tolerance": 0,
    "regardless": 0,
    "If": 0,
    "en": 29,
    "##ter": 8,
    "##ix": 3,
    "IF": 0,
    "51": 0,
    "upper": 1,
    "##tom": 5,
    "awake": 0,
    "mental": 0,
    "rest": 0,
    "failed": 0,
    "reveal": 0,
    "lesions": 0,
    "metabolic": 4,
    "irregular": 0,
    "slowing": 0,
    "##xed": 0,
    "periodic": 0,
    "trip": 0,
    "waves": 0,
    "discontinued": 0,
    "resolved": 0,
    "completely": 0,
    "resolution": 0,
    "##tag": 2,
    "##sm": 13,
    "##uki": 0,
    "##oi": 1,
    "IL": 0,
    "fusion": 0,
    "insulin": 0,
    "##iet": 0,
    "proliferation": 0,
    "Bo": 0,
    "##vin": 0,
    "culture": 0,
    "##ola": 0,
    "##yers": 0,
    "thy": 2,
    "cultures": 0,
    "separated": 0,
    "##fu": 0,
    "##gation": 0,
    "fraction": 0,
    "##pal": 2,
    "##ergic": 14,
    "prone": 0,
    "pathway": 0,
    "##ogen": 1,
    "alcohol": 0,
    "ethanol": 0,
    "Cho": 4,
    "##sist": 0,
    "Animals": 0,
    "##cot": 0,
    "##bach": 0,
    "neo": 3,
    "timed": 0,
    "tail": 0,
    "vein": 0,
    "##ncies": 1,
    "##rem": 22,
    "converted": 0,
    "threshold": 0,
    "##dial": 0,
    "measure": 0,
    "basal": 1,
    "potassium": 0,
    "stimulate": 0,
    "##h": 5,
    "CA": 3,
    "region": 0,
    "##tas": 0,
    "##sium": 0,
    "reverse": 0,
    "twice": 0,
    "Hip": 0,
    "handling": 0,
    "Sen": 1,
    "##points": 0,
    "KC": 0,
    "output": 0,
    "192": 0,
    "##sign": 0,
    "59": 0,
    "posts": 1,
    "##yna": 1,
    "##lica": 0,
    "Specifically": 0,
    "brought": 0,
    "neurons": 0,
    "alter": 0,
    "jaw": 0,
    "stretch": 0,
    "##logy": 0,
    "tempo": 1,
    "##roma": 2,
    "##ndi": 9,
    "##bula": 1,
    "fully": 0,
    "understood": 0,
    "##ulates": 0,
    "characteristic": 0,
    "ways": 0,
    "##ffer": 0,
    "fibers": 0,
    "length": 0,
    "velocity": 0,
    "##eter": 2,
    "healthy": 0,
    "Short": 0,
    "temporal": 6,
    "muscles": 0,
    "device": 0,
    "##loc": 3,
    "displacement": 0,
    "amplitude": 0,
    "constant": 0,
    "faster": 0,
    "stretches": 0,
    "##reased": 0,
    "##imo": 0,
    "##jected": 0,
    "##umba": 0,
    "shell": 0,
    "core": 0,
    "##gion": 1,
    "Male": 0,
    "##lanted": 0,
    "bilateral": 0,
    "then": 0,
    "locally": 0,
    "System": 0,
    "##ula": 2,
    "Such": 0,
    "maximum": 0,
    "modified": 0,
    "modification": 0,
    "consisting": 0,
    "##tat": 2,
    "words": 0,
    "play": 0,
    "##mis": 0,
    "##sive": 0,
    "seeing": 0,
    "tip": 0,
    "ice": 0,
    "?": 0,
    "recreational": 0,
    "ought": 0,
    "familiar": 0,
    "faced": 0,
    "victim": 0,
    "otherwise": 0,
    "##lemma": 0,
    "Finally": 0,
    "moral": 0,
    "issues": 0,
    "relating": 0,
    "addressed": 0,
    "Cross": 0,
    "##over": 0,
    "preference": 0,
    "##pta": 0,
    "##got": 0,
    "##amine": 0,
    "mi": 27,
    "##gra": 29,
    "absorption": 0,
    "tablet": 0,
    "tablets": 0,
    "43": 0,
    "Of": 0,
    "expressing": 0,
    "89": 0,
    "preferred": 0,
    "69": 0,
    "Fast": 0,
    "reason": 0,
    "cited": 0,
    "67": 0,
    "preferring": 0,
    "primary": 5,
    "##point": 0,
    "favor": 0,
    "superior": 0,
    "##ache": 1,
    "dos": 0,
    "Almost": 0,
    "proportions": 0,
    "##bia": 6,
    "photo": 1,
    "##obia": 1,
    "intake": 0,
    "More": 0,
    "somewhat": 0,
    "satisfied": 0,
    "Both": 0,
    "##zzi": 3,
    "##len": 2,
    "##vere": 0,
    "orbital": 0,
    "##lio": 5,
    "##blast": 4,
    "##ere": 6,
    "##rum": 0,
    "adulthood": 0,
    "radiation": 0,
    "expect": 0,
    "##ancy": 0,
    "sometimes": 0,
    "added": 0,
    "Generally": 0,
    "said": 0,
    "##quent": 0,
    "58": 0,
    "lobe": 0,
    "complained": 0,
    "##teral": 0,
    "eye": 0,
    "##ico": 3,
    "##ster": 0,
    "##oids": 0,
    "angle": 0,
    "closure": 0,
    "##ille": 1,
    "##tina": 10,
    "continued": 0,
    "##use": 0,
    "##orio": 2,
    "vision": 0,
    "performing": 0,
    "aware": 0,
    "blinding": 0,
    "effort": 0,
    "minimize": 0,
    "Visual": 3,
    "spectrum": 0,
    "##ile": 15,
    "readings": 0,
    "video": 0,
    "capture": 0,
    "None": 0,
    "recent": 0,
    "disappeared": 0,
    "help": 0,
    "##lar": 7,
    "##ify": 0,
    "Until": 0,
    "##ians": 0,
    "##vo": 1,
    "##ba": 0,
    "##bat": 0,
    "##rin": 0,
    "good": 0,
    "##side": 0,
    "##uing": 0,
    "off": 0,
    "##ending": 0,
    "##yric": 0,
    "transmitted": 0,
    "##ala": 1,
    "##tical": 0,
    "circuit": 0,
    "accounts": 0,
    "part": 0,
    "promoting": 0,
    "accompanying": 0,
    "trigger": 0,
    "possibility": 0,
    "##ra": 0,
    "##vation": 0,
    "whenever": 0,
    "understanding": 0,
    "inappropriate": 1,
    "Pre": 0,
    "##met": 0,
    "programs": 0,
    "Dex": 0,
    "##ame": 0,
    "##tha": 0,
    "##etus": 0,
    "accelerate": 0,
    "programmed": 0,
    "##tional": 1,
    "19": 0,
    "Off": 0,
    "56": 0,
    "comparable": 0,
    "##uli": 0,
    "23": 0,
    "380": 0,
    "Adult": 0,
    "sole": 0,
    "Kid": 0,
    "##ney": 0,
    "morphology": 0,
    "short": 1,
    "sir": 0,
    "##oli": 2,
    "Sir": 0,
    "SR": 2,
    "supplement": 0,
    "seems": 0,
    "differently": 0,
    "displaying": 0,
    "question": 0,
    "still": 0,
    "open": 0,
    "protocols": 0,
    "indication": 0,
    "##pra": 3,
    "##gue": 0,
    "Da": 0,
    "##wley": 0,
    "FK": 0,
    "##lly": 0,
    "achieve": 0,
    "quantitative": 0,
    "scoring": 0,
    "striped": 0,
    "##bro": 16,
    "##cap": 0,
    "##sul": 0,
    "##ules": 0,
    "Sirius": 0,
    "Red": 0,
    "substances": 0,
    "worst": 0,
    "marginal": 0,
    "Evaluation": 0,
    "##graphic": 0,
    "serial": 0,
    "examinations": 0,
    "weekly": 0,
    "Ten": 0,
    "Access": 0,
    "ng": 0,
    "##ass": 0,
    "MB": 0,
    "posterior": 0,
    "thickness": 0,
    "##V": 9,
    "diameter": 0,
    "##ening": 0,
    "surviving": 0,
    "##tology": 0,
    "Eight": 0,
    "##een": 0,
    "premature": 2,
    "parameters": 0,
    "hearts": 0,
    "degrees": 0,
    "##iva": 0,
    "##uo": 0,
    "Only": 0,
    "rise": 0,
    "Maxim": 0,
    "Analysis": 0,
    "81": 0,
    "65": 0,
    "greatest": 0,
    "disc": 0,
    "##pan": 0,
    "cross": 0,
    "react": 0,
    "##iv": 1,
    "##bs": 10,
    "forms": 0,
    "magnitude": 0,
    "prediction": 0,
    "possibly": 0,
    "Oct": 0,
    "##pox": 6,
    "##ates": 0,
    "enter": 0,
    "##uta": 0,
    "fist": 2,
    "##izing": 1,
    "##mona": 1,
    "discuss": 0,
    "##rone": 0,
    "##hin": 0,
    "##rad": 0,
    "nest": 0,
    "licensed": 0,
    "hi": 4,
    "##rs": 3,
    "##vary": 0,
    "##OS": 3,
    "##Cs": 0,
    "believe": 0,
    "##found": 0,
    "Using": 0,
    "General": 0,
    "Practice": 0,
    "Database": 0,
    "estimate": 0,
    "reference": 0,
    "pregnancy": 0,
    "men": 3,
    "##aus": 0,
    "gave": 0,
    "##j": 0,
    "gum": 0,
    "Arabic": 0,
    "GM": 0,
    "w": 1,
    "##que": 0,
    "powder": 0,
    "##ita": 0,
    "##ntly": 0,
    "measuring": 0,
    "##ione": 0,
    "indicated": 0,
    "183": 0,
    "239": 0,
    "slightly": 0,
    "##ferred": 0,
    "modest": 0,
    "##oration": 0,
    "##dices": 0,
    "aspects": 0,
    "##xe": 0,
    "##state": 8,
    "DE": 0,
    "##SI": 0,
    "##spective": 0,
    "##ING": 0,
    "Institutes": 0,
    "##EN": 0,
    "##TS": 0,
    "##NT": 0,
    "Each": 0,
    "evening": 0,
    "cycle": 0,
    "excessive": 1,
    "##AS": 0,
    "##EM": 4,
    "Clinic": 0,
    "##ole": 20,
    "##UM": 0,
    "##RI": 0,
    "##cut": 0,
    "##aneous": 1,
    "##rona": 12,
    "##mission": 0,
    "stimulation": 0,
    "##IS": 0,
    "##CU": 0,
    "##SS": 0,
    "##les": 4,
    "English": 0,
    "j": 5,
    "##au": 8,
    "run": 0,
    "##usal": 0,
    "##sta": 11,
    "##mm": 0,
    "##une": 0,
    "immune": 0,
    "future": 0,
    "replaced": 0,
    "subunit": 0,
    "##cre": 2,
    "salt": 0,
    "##idated": 0,
    "constituent": 0,
    "collecting": 0,
    "duct": 0,
    "amounts": 0,
    "real": 0,
    "Ta": 0,
    "##q": 0,
    "kinetic": 0,
    "appearance": 0,
    "So": 0,
    "##dium": 0,
    "Conversely": 0,
    "down": 0,
    "escape": 0,
    "vinyl": 0,
    "##AL": 0,
    "Vin": 0,
    "##rre": 0,
    "##vers": 0,
    "##ibly": 0,
    "##nas": 0,
    "##ab": 0,
    "##olis": 0,
    "field": 0,
    "lifetime": 0,
    "explored": 0,
    "450": 0,
    "wash": 0,
    "##out": 0,
    "exceeded": 0,
    "extends": 0,
    "reducing": 0,
    "##DS": 0,
    "MR": 3,
    "diffusion": 0,
    "mapping": 0,
    "weighted": 0,
    "##ppa": 0,
    "##rent": 0,
    "coefficient": 0,
    "AD": 3,
    "incomplete": 0,
    "Di": 3,
    "##usion": 0,
    "outcomes": 0,
    "recruited": 0,
    "fixed": 0,
    "apart": 0,
    "##ters": 0,
    "isolation": 0,
    "##bate": 0,
    "300": 0,
    "incorporating": 0,
    "nm": 0,
    "##ear": 0,
    "extraction": 0,
    "calculated": 0,
    "##chia": 3,
    "##i": 4,
    "Deep": 0,
    "raised": 0,
    "108": 0,
    "245": 0,
    "pm": 0,
    "90": 0,
    "01": 0,
    "77": 0,
    "##gration": 0,
    "##ou": 0,
    "bleeding": 6,
    "##vated": 0,
    "##CH": 10,
    "established": 0,
    "##ification": 0,
    "##tras": 0,
    "07": 0,
    "350": 0,
    "volume": 3,
    "volumes": 0,
    "##stra": 0,
    "##dio": 2,
    "reduces": 1,
    "##omi": 0,
    "##zed": 0,
    "##stro": 0,
    "##gens": 0,
    "##bet": 0,
    "subjected": 0,
    "oil": 0,
    "terminated": 0,
    "silver": 0,
    "males": 0,
    "sectors": 0,
    "ho": 1,
    "##rmon": 0,
    "##udo": 2,
    "##rome": 11,
    "##gal": 14,
    "hormone": 0,
    "secret": 0,
    "pit": 2,
    "##uit": 3,
    "##land": 0,
    "cart": 0,
    "##ge": 0,
    "soft": 0,
    "thick": 0,
    "skin": 1,
    "coarse": 0,
    "facial": 0,
    "cut": 1,
    "##yra": 0,
    "unusually": 0,
    "proven": 0,
    "physical": 0,
    "intervals": 0,
    "PS": 0,
    "##osterone": 0,
    "measurements": 0,
    "limits": 0,
    "mean": 0,
    "declined": 0,
    "##ytic": 0,
    "X": 0,
    "predictable": 0,
    "corrected": 0,
    "##comb": 0,
    "##u": 0,
    "##EP": 0,
    "Del": 6,
    "##iri": 10,
    "##iden": 0,
    "require": 0,
    "computer": 0,
    "pharmacy": 0,
    "records": 0,
    "reviewed": 0,
    "medical": 0,
    "associations": 0,
    "gradually": 0,
    "203": 0,
    "person": 0,
    "Associated": 0,
    "cost": 0,
    "fell": 0,
    "unrelated": 0,
    "inconsistent": 0,
    "stay": 0,
    "costs": 0,
    "inferior": 3,
    "##ites": 0,
    "##yle": 0,
    "immediately": 0,
    "mentioned": 0,
    "##rat": 0,
    "temperature": 0,
    "devoid": 0,
    "rendered": 0,
    "##lux": 1,
    "##tal": 3,
    "##tec": 0,
    "##active": 1,
    "##ids": 0,
    "##led": 0,
    "##oa": 0,
    "actions": 0,
    "relevance": 0,
    "host": 0,
    "offer": 0,
    "seem": 0,
    "stages": 0,
    "dependence": 0,
    "assessments": 0,
    "positively": 0,
    "##dered": 0,
    "##lone": 0,
    "##ana": 0,
    "derivative": 0,
    "suppress": 0,
    "##ogenic": 0,
    "Kind": 0,
    "##ulator": 0,
    "suppressed": 0,
    "##zing": 1,
    "add": 0,
    "growing": 0,
    "humor": 0,
    "HC": 0,
    "##iated": 0,
    "##so": 2,
    "##hs": 0,
    "penetrate": 0,
    "barrier": 0,
    "##ros": 3,
    "hour": 0,
    "##lase": 0,
    "320": 0,
    "##ple": 1,
    "##ech": 1,
    "And": 0,
    "acts": 0,
    "##tar": 0,
    "##ding": 0,
    "##pse": 0,
    "feeding": 0,
    "HP": 0,
    "attempt": 0,
    "##born": 0,
    "Co": 2,
    "generated": 0,
    "comparing": 0,
    "flow": 0,
    "Consequently": 0,
    "accent": 0,
    "##itive": 0,
    "decline": 2,
    "formation": 0,
    "##rating": 0,
    "##sor": 3,
    "##ption": 0,
    "fluid": 0,
    "leaving": 0,
    "##stal": 0,
    "delivery": 0,
    "ABS": 0,
    "##TR": 0,
    "AT": 0,
    "##OR": 0,
    "##hn": 5,
    "pilot": 0,
    "##ler": 0,
    "##ability": 0,
    "planned": 0,
    "##rading": 0,
    "63": 0,
    "##kal": 14,
    "benefit": 0,
    "ineffective": 0,
    "exist": 0,
    "scientific": 0,
    "rational": 0,
    "##oki": 0,
    "bow": 0,
    "topic": 0,
    "sexual": 7,
    "III": 0,
    "##ified": 0,
    "Beck": 0,
    "##ung": 0,
    "scales": 0,
    "Protection": 0,
    "##27": 0,
    "##46": 0,
    "##14": 0,
    "##RS": 0,
    "##phon": 3,
    "##ome": 5,
    "##ulf": 0,
    "persistent": 0,
    "competitive": 0,
    "##k": 0,
    "De": 2,
    "protected": 0,
    "strengthen": 0,
    "involves": 0,
    "weakness": 4,
    "legs": 1,
    "##eto": 0,
    "complaints": 0,
    "faded": 0,
    "away": 0,
    "Few": 0,
    "picture": 0,
    "Laboratory": 0,
    "CT": 0,
    "illustrate": 0,
    "reactions": 0,
    "##esi": 23,
    "park": 8,
    "##ins": 8,
    "monkeys": 0,
    "Lev": 0,
    "##ID": 11,
    "problem": 0,
    "##pen": 1,
    "##dence": 0,
    "populations": 0,
    "independently": 0,
    "##aque": 0,
    "##TP": 0,
    "Monkey": 0,
    "sooner": 0,
    "146": 0,
    "similarly": 0,
    "start": 0,
    "studying": 0,
    "sugar": 1,
    "produces": 0,
    "state": 0,
    "similarities": 0,
    "access": 0,
    "##rose": 0,
    "##ow": 0,
    "##elle": 0,
    "starting": 0,
    "dark": 0,
    "Lo": 0,
    "Beginning": 0,
    "alternating": 0,
    "bin": 0,
    "leads": 0,
    "Rev": 0,
    "##ible": 0,
    "##lated": 3,
    "##oter": 0,
    "##sse": 1,
    "##minated": 0,
    "##cci": 1,
    "##cos": 3,
    "##osa": 2,
    "substituted": 0,
    "recognize": 0,
    "##ton": 3,
    "immediate": 0,
    "delayed": 0,
    "genuine": 0,
    "provoked": 0,
    "##gly": 0,
    "Fifteen": 0,
    "##urs": 1,
    "aura": 0,
    "participated": 0,
    "404": 0,
    "subjects": 0,
    "schedule": 0,
    "peak": 0,
    "Ba": 0,
    "Plate": 0,
    "timing": 0,
    "##lets": 0,
    "counter": 0,
    "##bari": 0,
    "Conservative": 0,
    "absolute": 0,
    "form": 0,
    "safe": 0,
    "none": 0,
    "usually": 0,
    "attributed": 0,
    "##rig": 1,
    "##otic": 7,
    "Risk": 0,
    "beverages": 0,
    "States": 0,
    "Food": 0,
    "Administration": 0,
    "banned": 0,
    "##cturnal": 1,
    "leg": 0,
    "lack": 0,
    "ton": 1,
    "bitter": 0,
    "lemon": 0,
    "Numerous": 0,
    "coma": 7,
    "##sy": 1,
    "##logists": 0,
    "##quire": 0,
    "##tein": 11,
    "right": 1,
    "##hun": 0,
    "##yan": 1,
    "patent": 1,
    "oval": 0,
    "##vent": 8,
    "stretching": 0,
    "creation": 0,
    "bubble": 0,
    "vascular": 1,
    "cluster": 2,
    "##luster": 1,
    "systems": 0,
    "##rima": 0,
    "##eries": 0,
    "du": 0,
    "mater": 0,
    "laser": 0,
    "##metry": 0,
    "nasal": 0,
    "##ium": 0,
    "chloride": 0,
    "Ty": 0,
    "VIP": 0,
    "onto": 0,
    "##inge": 2,
    "Similar": 0,
    "Organ": 0,
    "##phate": 2,
    "prevention": 0,
    "damages": 0,
    "##phorus": 0,
    "##FP": 0,
    "##man": 0,
    "##lines": 0,
    "##tera": 0,
    "##ses": 0,
    "##Es": 0,
    "BC": 0,
    "##Ps": 0,
    "SC": 0,
    "##dote": 0,
    "Han": 0,
    "##PA": 0,
    "##80": 0,
    "hydrogen": 0,
    "olive": 0,
    "instead": 0,
    "poisoning": 5,
    "##ked": 0,
    "sleeping": 1,
    "difficulties": 0,
    "disappearance": 0,
    "Period": 0,
    "##uren": 0,
    "try": 0,
    "##han": 0,
    "##citation": 0,
    "den": 0,
    "moss": 0,
    "fiber": 0,
    "##rout": 0,
    "Population": 0,
    "##ule": 0,
    "transverse": 1,
    "slice": 0,
    "ventral": 0,
    "bathing": 0,
    "medium": 0,
    "##llin": 0,
    "##lus": 0,
    "spike": 0,
    "experience": 0,
    "survivors": 0,
    "DC": 0,
    "shifts": 0,
    "repetitive": 1,
    "##cha": 4,
    "##rges": 0,
    "ion": 0,
    "photos": 0,
    "layer": 0,
    "distant": 0,
    "##tte": 0,
    "reorganization": 0,
    "resembling": 0,
    "U": 1,
    "relation": 0,
    "##ise": 0,
    "Swedish": 0,
    "Register": 0,
    "106": 0,
    "1969": 0,
    "Through": 0,
    "link": 0,
    "Cancer": 5,
    "##ested": 0,
    "113": 0,
    "doubled": 0,
    "reached": 0,
    "expected": 0,
    "entire": 0,
    "operating": 0,
    "negatively": 0,
    "mixed": 0,
    "##men": 0,
    "600": 0,
    "var": 0,
    "##iability": 0,
    "##tel": 0,
    "operated": 0,
    "##v": 0,
    "domain": 0,
    "##viation": 0,
    "beat": 0,
    "SD": 4,
    "root": 0,
    "square": 0,
    "successive": 0,
    "wave": 0,
    "restored": 0,
    "##lates": 0,
    "highlight": 0,
    "Cat": 1,
    "excess": 0,
    "decades": 0,
    "phenomenon": 0,
    "inadvertently": 0,
    "stunning": 0,
    "compromise": 0,
    "albeit": 0,
    "errors": 0,
    "staff": 0,
    "supervision": 0,
    "tin": 5,
    "##cture": 0,
    "##rata": 0,
    "##eg": 1,
    "Tin": 0,
    "alcoholic": 0,
    "berries": 0,
    "##orn": 0,
    "herb": 0,
    "medicine": 0,
    "##weight": 0,
    "lip": 1,
    "enzymes": 0,
    "coupling": 0,
    "##tus": 5,
    "##ign": 0,
    "cent": 0,
    "tubes": 0,
    "subjective": 0,
    "IS": 2,
    "obscure": 0,
    "##ologies": 0,
    "Fifty": 0,
    "entered": 0,
    "finished": 0,
    "##sat": 0,
    "changed": 0,
    "mode": 0,
    "##cup": 0,
    "##un": 0,
    "##back": 0,
    "disappointing": 0,
    "warned": 0,
    "##igo": 1,
    "disappear": 0,
    "them": 0,
    "cope": 0,
    "Bin": 0,
    "exploration": 0,
    "##eric": 1,
    "channels": 0,
    "composed": 0,
    "comprises": 0,
    "null": 0,
    "sit": 0,
    "hybrid": 0,
    "probe": 0,
    "##actor": 0,
    "bulb": 0,
    "##lli": 0,
    "##culus": 0,
    "brains": 0,
    "##tors": 0,
    "cats": 0,
    "66": 0,
    "tidal": 0,
    "became": 0,
    "##min": 0,
    "##rove": 0,
    "carries": 0,
    "##UC": 0,
    "conditioning": 0,
    "me": 5,
    "triple": 0,
    "##lant": 0,
    "diabetes": 15,
    "sided": 0,
    "##rra": 0,
    "##diation": 0,
    "##jection": 0,
    "ages": 0,
    "##cologist": 0,
    "monitor": 0,
    "balance": 0,
    "##amo": 0,
    "technique": 0,
    "applicable": 0,
    "quick": 0,
    "priced": 0,
    "commercially": 0,
    "shaped": 0,
    "Ai": 0,
    "agreement": 0,
    "##naire": 0,
    "##truct": 2,
    "asked": 0,
    "centre": 0,
    "subdivided": 0,
    "##centric": 0,
    "circles": 0,
    "distance": 0,
    "circle": 0,
    "succeeded": 0,
    "millimetres": 0,
    "radius": 0,
    "sessions": 0,
    "arm": 0,
    "horizontally": 0,
    "outstretched": 0,
    "supported": 0,
    "##rest": 0,
    "finally": 0,
    "holding": 0,
    "exhaustion": 0,
    "Inter": 0,
    "observer": 0,
    "observers": 0,
    "Sal": 0,
    "way": 0,
    "Within": 0,
    "adults": 0,
    "262": 0,
    "09": 0,
    "session": 0,
    "Support": 0,
    "##lass": 0,
    "##ifying": 0,
    "inexpensive": 0,
    "exception": 0,
    "Safety": 0,
    "##alo": 0,
    "Multiple": 0,
    "Ra": 0,
    "Women": 0,
    "randomly": 0,
    "assigned": 0,
    "##cts": 5,
    "gal": 18,
    "##bla": 4,
    "##dder": 4,
    "##lasia": 1,
    "170": 0,
    "OF": 0,
    "##VI": 0,
    "##DE": 0,
    "Op": 0,
    "While": 0,
    "individuals": 0,
    "formula": 0,
    "rule": 0,
    "##rate": 0,
    "##junct": 2,
    "medications": 0,
    "become": 0,
    "Following": 0,
    "emerging": 0,
    "approaches": 0,
    "Other": 0,
    "gas": 11,
    "##int": 6,
    "sleep": 4,
    "##nia": 12,
    "interactions": 0,
    "maintain": 0,
    "functioning": 0,
    "exercise": 0,
    "Long": 0,
    "audio": 2,
    "hearing": 22,
    "104": 0,
    "regular": 0,
    "##ela": 0,
    "program": 0,
    "maintaining": 0,
    "##fer": 2,
    "##rio": 3,
    "sensor": 7,
    "##HL": 3,
    "relatively": 0,
    "submitted": 0,
    "temporary": 0,
    "intervention": 0,
    "##dicative": 0,
    "contributing": 0,
    "Regular": 0,
    "##erative": 0,
    "##udi": 1,
    "Individual": 0,
    "raises": 0,
    "inflicted": 0,
    "Ren": 3,
    "Le": 1,
    "##vage": 0,
    "sacrificed": 0,
    "harvested": 0,
    "anticipated": 0,
    "Basel": 0,
    "influx": 0,
    "supports": 0,
    "assumption": 0,
    "##pose": 0,
    "favourable": 0,
    "self": 0,
    "permanent": 1,
    "##ron": 0,
    "##cton": 0,
    "evaluating": 0,
    "benefits": 0,
    "practice": 0,
    "Case": 0,
    "chemist": 0,
    "##ries": 0,
    "134": 0,
    "loop": 0,
    "##ser": 0,
    "##ronic": 1,
    "##ve": 7,
    "##uous": 0,
    "chewing": 0,
    "tongue": 0,
    "Hal": 0,
    "segments": 0,
    "Important": 0,
    "disk": 0,
    "##ines": 0,
    "##ft": 2,
    "##hia": 6,
    "surgical": 0,
    "##ef": 0,
    "situations": 0,
    "fast": 0,
    "operative": 0,
    "abdominal": 4,
    "son": 0,
    "##ogram": 0,
    "##aris": 0,
    "starvation": 0,
    "Formation": 0,
    "bare": 0,
    "metal": 0,
    "vessel": 1,
    "app": 0,
    "##ition": 0,
    "routine": 0,
    "##ona": 0,
    "contact": 0,
    "segment": 0,
    "Cause": 0,
    "##omb": 2,
    "reflection": 0,
    "aimed": 0,
    "2003": 0,
    "2004": 0,
    "King": 0,
    "##ah": 0,
    "##ad": 0,
    "Guard": 0,
    "##iya": 0,
    "##dh": 0,
    "Saudi": 0,
    "Arabia": 0,
    "reviewing": 0,
    "slides": 0,
    "##ching": 0,
    "abroad": 0,
    "referred": 0,
    "us": 0,
    "fifth": 0,
    "##BR": 0,
    "##iro": 0,
    "Unlike": 0,
    "extensively": 0,
    "dim": 0,
    "##eth": 0,
    "##phony": 0,
    "##ano": 0,
    "Drugs": 0,
    "separately": 0,
    "pregnant": 0,
    "plug": 0,
    "Fe": 0,
    "delivered": 0,
    "Comprehensive": 0,
    "pool": 0,
    "##SD": 0,
    "MD": 1,
    "historic": 0,
    "##ern": 0,
    "##uter": 1,
    "external": 0,
    "skeletal": 0,
    "variations": 0,
    "Dec": 1,
    "##rease": 1,
    "##etal": 1,
    "##rato": 0,
    "dams": 0,
    "Lone": 0,
    "##oh": 0,
    "ill": 0,
    "Caucasian": 0,
    "came": 0,
    "##ark": 0,
    "fingers": 0,
    "##gnesium": 0,
    "screen": 0,
    "denied": 0,
    "questioned": 0,
    "##fra": 0,
    "rhythm": 0,
    "discharged": 0,
    "plans": 0,
    "Ex": 0,
    "athletes": 0,
    "##ege": 0,
    "##tarian": 0,
    "take": 0,
    "replace": 0,
    "what": 0,
    "meat": 0,
    "fish": 0,
    "##ligent": 0,
    "interview": 0,
    "histories": 0,
    "questions": 0,
    "consumed": 0,
    "##ures": 3,
    "##ite": 0,
    "##gon": 1,
    "half": 0,
    "strokes": 2,
    "responsible": 0,
    "##qui": 0,
    "mum": 0,
    "juvenile": 2,
    "##reate": 0,
    "Whereas": 0,
    "rarely": 0,
    "Electrical": 0,
    "rhythmic": 0,
    "voltage": 0,
    "respects": 0,
    "emphasizes": 0,
    "##43": 0,
    "##55": 0,
    "restore": 0,
    "##sts": 0,
    "learning": 2,
    "involve": 0,
    "cognitive": 16,
    "enhancing": 0,
    "##zen": 0,
    "object": 0,
    "recognition": 0,
    "employing": 0,
    "##fo": 0,
    "##nate": 0,
    "Initial": 0,
    "forgetting": 0,
    "delay": 0,
    "training": 0,
    "inactive": 0,
    "deficit": 2,
    "##tation": 0,
    "continues": 0,
    "epidemic": 0,
    "##usive": 0,
    "technology": 0,
    "offers": 0,
    "venue": 0,
    "antibodies": 0,
    "bind": 0,
    "stream": 0,
    "##bino": 0,
    "##ju": 0,
    "##cell": 0,
    "ranging": 0,
    "190": 0,
    "tool": 0,
    "El": 0,
    "##bus": 1,
    "##chi": 15,
    "Eleven": 0,
    "bundle": 1,
    "branch": 0,
    "##vior": 0,
    "distributed": 0,
    "graded": 0,
    "dip": 1,
    "hole": 0,
    "entries": 0,
    "chamber": 0,
    "black": 0,
    "platform": 0,
    "arms": 0,
    "forced": 0,
    "food": 0,
    "horizontal": 0,
    "Whatever": 0,
    "erection": 0,
    "climbing": 0,
    "Learning": 1,
    "##nesia": 11,
    "##bar": 0,
    "##bit": 0,
    "##sso": 0,
    "##cia": 2,
    "carried": 0,
    "trained": 0,
    "shelf": 0,
    "reinforce": 0,
    "shelves": 0,
    "##ciation": 0,
    "##fference": 0,
    "formed": 0,
    "participation": 0,
    "perception": 0,
    "##AF": 0,
    "Mark": 0,
    "##table": 0,
    "##ope": 11,
    "Twenty": 0,
    "kits": 0,
    "Variations": 0,
    "Wilcox": 0,
    "Relations": 0,
    "##hip": 0,
    "demographic": 0,
    "##hea": 2,
    "Val": 2,
    "necessarily": 0,
    "problems": 0,
    "##ag": 0,
    "condition": 0,
    "complaining": 0,
    "Her": 0,
    "##ressed": 0,
    "reappeared": 0,
    "##roduced": 0,
    "knowledge": 0,
    "protector": 0,
    "##biotics": 0,
    "virtue": 0,
    "middle": 0,
    "ear": 0,
    "Its": 0,
    "audit": 3,
    "##tem": 0,
    "frequencies": 0,
    "smoke": 0,
    "Nico": 0,
    "deliver": 0,
    "profiles": 0,
    "193": 0,
    "pounds": 0,
    "smoked": 0,
    "cigarettes": 0,
    "fifty": 0,
    "264": 0,
    "equally": 0,
    "##ups": 1,
    "##ious": 2,
    "##nor": 2,
    "processing": 0,
    "##nso": 0,
    "inputs": 0,
    "surrounding": 0,
    "Secondary": 1,
    "shares": 0,
    "##aba": 0,
    "##pent": 0,
    "##MR": 0,
    "stimulus": 0,
    "##ivation": 1,
    "robust": 0,
    "signal": 0,
    "##urable": 0,
    "stronger": 0,
    "undergoing": 0,
    "concept": 0,
    "##ulating": 0,
    "##NA": 0,
    "complexes": 0,
    "encoded": 0,
    "chain": 0,
    "quantity": 0,
    "find": 0,
    "##verse": 0,
    "album": 6,
    "##ics": 0,
    "##lip": 3,
    "##ped": 0,
    "clip": 0,
    "178": 0,
    "served": 0,
    "##ote": 2,
    "En": 1,
    "progressively": 0,
    "163": 0,
    "##rsa": 2,
    "##des": 2,
    "##long": 0,
    "fun": 1,
    "infection": 5,
    "Gene": 0,
    "genes": 0,
    "##code": 0,
    "blocking": 0,
    "calls": 0,
    "acquired": 0,
    "##date": 0,
    "suffered": 0,
    "consider": 0,
    "cerebral": 20,
    "represents": 0,
    "restrict": 0,
    "##ug": 0,
    "executive": 0,
    "##ments": 1,
    "coupled": 0,
    "social": 0,
    "emotional": 0,
    "judgement": 0,
    "working": 0,
    "##ened": 0,
    "ecstasy": 0,
    "shifting": 0,
    "##dating": 0,
    "##front": 0,
    "user": 0,
    "completed": 0,
    "##rix": 0,
    "Spa": 0,
    "##tial": 0,
    "##pation": 0,
    "Back": 0,
    "##ward": 0,
    "##git": 0,
    "procedure": 0,
    "Return": 0,
    "intelligence": 0,
    "Social": 0,
    "Intelligence": 0,
    "##utive": 0,
    "Question": 0,
    "controlling": 0,
    "lend": 0,
    "proposal": 0,
    "##34": 0,
    "top": 0,
    "##ois": 0,
    "##omer": 0,
    "poison": 0,
    "64": 0,
    "WHO": 0,
    "sq": 4,
    "##mous": 4,
    "##olar": 0,
    "##iff": 1,
    "##eu": 1,
    "equal": 0,
    "infections": 2,
    "grand": 0,
    "##hl": 2,
    "##umour": 2,
    "schedules": 0,
    "##etics": 0,
    "##45": 0,
    "##oe": 3,
    "##nz": 0,
    "##yme": 0,
    "##YP": 0,
    "2D": 0,
    "##teen": 0,
    "##izer": 0,
    "occasions": 0,
    "Fourteen": 0,
    "##lative": 0,
    "AU": 0,
    "##mini": 0,
    "##stered": 0,
    "narrow": 0,
    "##ional": 0,
    "Into": 0,
    "interesting": 0,
    "84": 0,
    "discovered": 0,
    "newspaper": 0,
    "stating": 0,
    "plant": 0,
    "Alzheimer": 6,
    "##lin": 0,
    "bought": 0,
    "pure": 0,
    "father": 0,
    "400": 0,
    "Car": 0,
    "##pect": 0,
    "##try": 0,
    "Minutes": 0,
    "sweating": 0,
    "collapsed": 0,
    "Brady": 2,
    "##lm": 0,
    "adrenaline": 0,
    "successful": 0,
    "##tub": 0,
    "##chor": 1,
    "##hoe": 2,
    "##ea": 2,
    "##cess": 0,
    "##itated": 0,
    "##uba": 0,
    "##rab": 0,
    "##ilis": 0,
    "transferred": 0,
    "ward": 0,
    "next": 0,
    "contained": 0,
    "amounted": 0,
    "popular": 0,
    "initiated": 0,
    "peer": 0,
    "##als": 1,
    "analytical": 0,
    "supposed": 0,
    "130": 0,
    "260": 0,
    "Especially": 0,
    "##ivist": 0,
    "##ota": 0,
    "seeds": 0,
    "##ester": 0,
    "apparatus": 0,
    "Diaz": 0,
    "Similarly": 0,
    "improvements": 0,
    "remarkable": 0,
    "prove": 0,
    "remedy": 0,
    "beneficial": 0,
    "lowering": 0,
    "##roi": 0,
    "VP": 0,
    "Rare": 0,
    "pan": 2,
    "suppression": 1,
    "background": 0,
    "proof": 0,
    "##usa": 0,
    "assumed": 0,
    "county": 0,
    "Sweden": 0,
    "hospitals": 0,
    "2000": 0,
    "2002": 0,
    "Medical": 0,
    "imply": 0,
    "136": 0,
    "##zophrenia": 10,
    "RAM": 0,
    "##HP": 0,
    "traveled": 0,
    "speed": 0,
    "##bing": 0,
    "##iating": 0,
    "##ctor": 0,
    "##aud": 2,
    "Convention": 0,
    "##adi": 2,
    "spinal": 0,
    "##IC": 0,
    "##EA": 0,
    "##TU": 0,
    "back": 0,
    "##UT": 0,
    "##CO": 0,
    "##ME": 0,
    "gauge": 0,
    "##uh": 0,
    "needle": 0,
    "inserted": 0,
    "##read": 0,
    "space": 0,
    "verify": 0,
    "numb": 1,
    "##mity": 0,
    "saddle": 0,
    "medial": 0,
    "aspect": 0,
    "pin": 0,
    "##rick": 0,
    "tend": 0,
    "unable": 0,
    "feeling": 0,
    "Foley": 0,
    "##fied": 0,
    "deposits": 0,
    "reflect": 0,
    "Ho": 0,
    "never": 0,
    "harmless": 0,
    "Poole": 0,
    "Xi": 0,
    "##mel": 0,
    "efficient": 0,
    "##bolic": 2,
    "ACT": 0,
    "##IVE": 0,
    "##rb": 0,
    "Prevention": 0,
    "Events": 0,
    "##ux": 0,
    "Factor": 0,
    "hold": 0,
    "promise": 0,
    "##dell": 0,
    "Preliminary": 0,
    "##version": 0,
    "exclusion": 0,
    "##end": 0,
    "investigation": 0,
    "##dant": 0,
    "##oxide": 0,
    "possesses": 0,
    "availability": 0,
    "thereby": 0,
    "drinking": 0,
    "tap": 0,
    "alternate": 0,
    "cu": 0,
    "##ore": 2,
    "##lax": 1,
    "transcription": 0,
    "polymer": 0,
    "109": 0,
    "133": 0,
    "119": 0,
    "relaxation": 0,
    "volunteer": 0,
    "donation": 0,
    "collection": 0,
    "Past": 0,
    "Report": 0,
    "##ume": 0,
    "##tani": 1,
    "tingling": 1,
    "around": 0,
    "hands": 0,
    "Em": 0,
    "##rical": 0,
    "contraction": 0,
    "slowly": 0,
    "##sided": 0,
    "Upon": 0,
    "careful": 0,
    "screening": 0,
    "##sing": 9,
    "donors": 0,
    "heightened": 0,
    "managing": 0,
    "##ifer": 1,
    "rap": 0,
    "##mmal": 0,
    "##ian": 2,
    "kinase": 0,
    "advance": 0,
    "share": 0,
    "designated": 0,
    "circumstances": 0,
    "currently": 0,
    "mini": 0,
    "##mise": 0,
    "appropriate": 0,
    "##fine": 0,
    "conversion": 0,
    "displayed": 0,
    "Ka": 2,
    "tumors": 4,
    "cars": 0,
    "virus": 0,
    "78": 0,
    "Mean": 0,
    "Before": 0,
    "afterwards": 0,
    "##rano": 1,
    "98": 0,
    "Heavy": 0,
    "rescue": 0,
    "International": 0,
    "Society": 0,
    "##ediatric": 0,
    "Mali": 1,
    "Me": 0,
    "Tu": 0,
    "##IO": 0,
    "##MT": 0,
    "Ages": 0,
    "ranged": 0,
    "females": 0,
    "neck": 0,
    "pH": 0,
    "##oz": 0,
    "subset": 0,
    "Fan": 2,
    "##FS": 1,
    "Progressive": 0,
    "##HC": 0,
    "What": 0,
    "whereby": 0,
    "progress": 0,
    "##ib": 0,
    "fibre": 0,
    "##hot": 0,
    "initiate": 0,
    "responds": 0,
    "uncertain": 0,
    "##ulum": 0,
    "chromosome": 0,
    "substitution": 0,
    "varies": 0,
    "Ch": 1,
    "CS": 0,
    "##cross": 0,
    "trait": 0,
    "##TL": 0,
    "local": 0,
    "panel": 0,
    "Highest": 0,
    "slower": 0,
    "reach": 0,
    "##mes": 0,
    "progressed": 0,
    "diver": 0,
    "##otype": 0,
    "Late": 0,
    "shorter": 0,
    "provides": 0,
    "identifying": 0,
    "candidate": 0,
    "##tr": 0,
    "Whether": 0,
    "presently": 0,
    "Response": 0,
    "strip": 0,
    "Hz": 0,
    "##rino": 0,
    "##ceptor": 0,
    "##ene": 0,
    "##AT": 0,
    "##ire": 1,
    "contract": 2,
    "strips": 0,
    "Direct": 0,
    "##ari": 0,
    "gate": 0,
    "pace": 0,
    "##maker": 0,
    "strategy": 0,
    "Act": 0,
    "##nap": 0,
    "accepted": 0,
    "targeted": 0,
    "##AB": 0,
    "Alpha": 0,
    "##pm": 0,
    "beating": 0,
    "knockout": 0,
    "sin": 7,
    "##oat": 5,
    "generating": 0,
    "##29": 0,
    "slope": 0,
    "contributes": 0,
    "represent": 0,
    "structures": 0,
    "Gran": 1,
    "##lav": 0,
    "represented": 0,
    "derivatives": 0,
    "childhood": 0,
    "differentiate": 0,
    "Echo": 0,
    "196": 0,
    "dimension": 0,
    "clearly": 0,
    "##lue": 0,
    "Does": 0,
    "##aco": 0,
    "##ustic": 0,
    "emissions": 0,
    "newborn": 0,
    "tobacco": 0,
    "##OA": 0,
    "ears": 0,
    "mothers": 0,
    "Expo": 0,
    "88": 0,
    "across": 0,
    "4000": 0,
    "outer": 0,
    "hair": 0,
    "true": 0,
    "##rgent": 0,
    "##cio": 0,
    "uneven": 0,
    "##ful": 0,
    "worldwide": 0,
    "approval": 0,
    "##mation": 1,
    "autism": 5,
    "Au": 1,
    "##tism": 1,
    "##vel": 1,
    "communication": 0,
    "skills": 0,
    "labor": 0,
    "##dance": 0,
    "twins": 0,
    "##glia": 0,
    "regions": 0,
    "##bella": 4,
    "novelty": 0,
    "overs": 0,
    "inn": 0,
    "pathways": 0,
    "Up": 0,
    "resembles": 0,
    "predominantly": 0,
    "##BB": 0,
    "mutant": 0,
    "helpful": 0,
    "defining": 0,
    "substrates": 0,
    "competent": 0,
    "##ED": 0,
    "draw": 0,
    "genetically": 0,
    "prompted": 0,
    "##tant": 0,
    "##ores": 0,
    "##cence": 0,
    "##ves": 0,
    "throughout": 0,
    "obvious": 0,
    "Experiment": 0,
    "##quid": 0,
    "##stant": 0,
    "compensation": 0,
    "performs": 0,
    "Role": 0,
    "##hine": 0,
    "##bal": 0,
    "reactive": 0,
    "species": 0,
    "110": 0,
    "##phic": 0,
    "Side": 0,
    "##red": 0,
    "##nis": 0,
    "Luke": 0,
    "##aman": 0,
    "Malta": 0,
    "armed": 0,
    "##less": 0,
    "##coe": 0,
    "plain": 0,
    "Assessment": 0,
    "##bi": 1,
    "emission": 0,
    "##puted": 0,
    "gold": 0,
    "SP": 0,
    "compatible": 0,
    "severely": 0,
    "giving": 0,
    "savings": 0,
    "considerations": 0,
    "date": 0,
    "narrowing": 0,
    "demand": 0,
    "##truction": 0,
    "##lusion": 0,
    "largely": 0,
    "##cus": 0,
    "##peculative": 0,
    "epic": 0,
    "##mura": 0,
    "discrete": 0,
    "opposite": 0,
    "##inn": 0,
    "um": 0,
    "##bil": 1,
    "intact": 0,
    "inner": 0,
    "involving": 0,
    "arise": 0,
    "219": 0,
    "lacking": 0,
    "dimensional": 0,
    "gel": 0,
    "MS": 0,
    "spots": 0,
    "assisted": 0,
    "flight": 0,
    "atmospheric": 0,
    "tandem": 0,
    "alphabet": 0,
    "crystal": 0,
    "##uan": 0,
    "##mple": 0,
    "##mentary": 2,
    "techniques": 0,
    "western": 0,
    "##nob": 0,
    "insights": 0,
    "##aire": 0,
    "##lal": 0,
    "interventions": 0,
    "##stein": 0,
    "204": 0,
    "210": 0,
    "03": 0,
    "##arte": 1,
    "dem": 7,
    "newly": 0,
    "synthesized": 0,
    "Mal": 0,
    "SH": 0,
    "Cell": 0,
    "Taking": 0,
    "spread": 0,
    "proposed": 0,
    "terminal": 0,
    "roles": 0,
    "##igate": 0,
    "##lace": 0,
    "##tions": 3,
    "manner": 0,
    "##altered": 0,
    "interrupted": 0,
    "concluded": 0,
    "window": 0,
    "##ert": 0,
    "highlighting": 0,
    "urgent": 0,
    "raise": 0,
    "awareness": 0,
    "##ssi": 0,
    "increasingly": 0,
    "Considering": 0,
    "##medical": 0,
    "recommendations": 0,
    "regulations": 0,
    "##hab": 7,
    "##yo": 7,
    "##ficiency": 0,
    "fatigue": 2,
    "orange": 0,
    "bed": 0,
    "##time": 0,
    "680": 0,
    "nitrogen": 0,
    "157": 0,
    "temporarily": 0,
    "dropped": 0,
    "169": 0,
    "consideration": 0,
    "assessing": 0,
    "carry": 0,
    "##action": 0,
    "Gram": 0,
    "bacteria": 0,
    "Physicians": 0,
    "Mu": 0,
    "##tations": 0,
    "infected": 0,
    "HIV": 6,
    "South": 0,
    "African": 0,
    "carriers": 0,
    "##ult": 0,
    "Abbott": 0,
    "Laboratories": 0,
    "North": 0,
    "Chicago": 0,
    "##plified": 0,
    "prime": 0,
    "##quencing": 0,
    "Y": 0,
    "motif": 0,
    "##alytic": 0,
    "load": 0,
    "Monitor": 0,
    "Roche": 0,
    "Pen": 0,
    "constitutes": 0,
    "loads": 0,
    "82": 0,
    "copies": 0,
    "AR": 0,
    "Africa": 0,
    "representing": 0,
    "gang": 1,
    "movement": 2,
    "Individuals": 0,
    "now": 0,
    "live": 0,
    "lives": 0,
    "includes": 0,
    "hormones": 0,
    "utilized": 0,
    "address": 0,
    "##rief": 0,
    "differentiated": 0,
    "PM": 0,
    "aggregate": 0,
    "RNA": 0,
    "##venge": 0,
    "##AR": 0,
    "##gam": 0,
    "fluorescent": 0,
    "##ifies": 0,
    "##bial": 0,
    "id": 4,
    "##ios": 3,
    "##ratic": 0,
    "height": 0,
    "175": 0,
    "cm": 0,
    "Mar": 0,
    "##mara": 0,
    "University": 0,
    "Emergency": 0,
    "Department": 0,
    "Istanbul": 0,
    "Turkey": 0,
    "##lai": 0,
    "tract": 0,
    "follows": 0,
    "270": 0,
    "46": 0,
    "220": 0,
    "unknown": 0,
    "origin": 0,
    "incidents": 0,
    "Tel": 0,
    "##ith": 5,
    "##cter": 1,
    "US": 0,
    "Based": 0,
    "##jo": 0,
    "probable": 0,
    "incident": 0,
    "communicated": 0,
    "attending": 0,
    "##ui": 9,
    "AI": 0,
    "subject": 0,
    "quasi": 0,
    "##sions": 0,
    "transparent": 0,
    "##ime": 0,
    "stop": 0,
    "watch": 0,
    "Mann": 0,
    "Whitney": 0,
    "signed": 0,
    "ranks": 0,
    "##EL": 0,
    "TO": 0,
    "PR": 0,
    "##CE": 0,
    "extend": 0,
    "debated": 0,
    "consumers": 0,
    "propose": 0,
    "Association": 0,
    "abilities": 0,
    "##Ds": 0,
    "wards": 0,
    "164": 0,
    "nearly": 0,
    "remainder": 0,
    "sum": 0,
    "interviewed": 0,
    "discharge": 0,
    "##nose": 0,
    "adjustments": 0,
    "inability": 1,
    "##wa": 0,
    "night": 0,
    "tired": 1,
    "mornings": 0,
    "walk": 0,
    "daytime": 3,
    "##uad": 2,
    "##ares": 1,
    "##inating": 0,
    "limbs": 0,
    "##OL": 0,
    "Shin": 0,
    "##ong": 0,
    "##arm": 0,
    "##san": 0,
    "Korea": 0,
    "suicide": 0,
    "confused": 0,
    "##ss": 1,
    "noticed": 0,
    "hoarse": 1,
    "nerve": 1,
    "conduct": 0,
    "La": 0,
    "##ryn": 0,
    "ample": 0,
    "##gos": 0,
    "##copy": 0,
    "##metric": 0,
    "began": 0,
    "transfer": 0,
    "##vet": 0,
    "3000": 0,
    "Fr": 0,
    "##ops": 0,
    "word": 0,
    "##ict": 0,
    "rhythms": 0,
    "Nor": 0,
    "signaling": 0,
    "anxiety": 11,
    "abused": 0,
    "reward": 0,
    "NE": 0,
    "yo": 0,
    "##him": 0,
    "##hala": 1,
    "messenger": 0,
    "rib": 0,
    "##ute": 0,
    "fertility": 0,
    "poorly": 0,
    "surge": 0,
    "pulse": 0,
    "Sul": 0,
    "components": 0,
    "greatly": 0,
    "##gment": 0,
    "Last": 0,
    "##OC": 0,
    "regulated": 0,
    "arc": 0,
    "##lex": 0,
    "provide": 0,
    "##HD": 3,
    "122": 0,
    "fl": 0,
    "vital": 0,
    "suggestions": 0,
    "Mode": 0,
    "Dr": 1,
    "##ows": 1,
    "generally": 0,
    "advise": 0,
    "likelihood": 0,
    "Advances": 0,
    "Wilson": 1,
    "##MF": 0,
    "Lam": 0,
    "##va": 0,
    "suspected": 0,
    "got": 0,
    "triggered": 0,
    "augmented": 0,
    "Higher": 0,
    "optical": 0,
    "density": 0,
    "##IT": 14,
    "utilizes": 0,
    "count": 0,
    "##ceive": 0,
    "Opera": 0,
    "Character": 0,
    "##ur": 0,
    "chance": 0,
    "##hali": 0,
    "##lent": 0,
    "##du": 0,
    "mantle": 1,
    "believed": 0,
    "##lie": 0,
    "##genesis": 0,
    "##nes": 1,
    "Between": 0,
    "July": 0,
    "2001": 0,
    "April": 0,
    "es": 2,
    "concern": 0,
    "distinguished": 0,
    "##dal": 0,
    "##mers": 0,
    "mildly": 0,
    "thermal": 0,
    "hot": 0,
    "warm": 0,
    "##trom": 0,
    "Across": 0,
    "sexually": 0,
    "##olm": 0,
    "Sr": 0,
    "lacks": 0,
    "##late": 0,
    "##24": 0,
    "releasing": 0,
    "125": 0,
    "extracted": 0,
    "Pan": 0,
    "##eng": 0,
    "spatial": 0,
    "capacity": 0,
    "Morris": 0,
    "Mo": 0,
    "##rp": 1,
    "spent": 0,
    "##rant": 0,
    "entering": 0,
    "freely": 0,
    "moving": 0,
    "##tised": 0,
    "##onic": 0,
    "##ya": 0,
    "##ides": 0,
    "A2": 0,
    "SA": 0,
    "excellent": 0,
    "pot": 0,
    "select": 0,
    "Evidence": 0,
    "observe": 0,
    "habit": 0,
    "examining": 0,
    "unfamiliar": 0,
    "233": 0,
    "##90": 0,
    "##zine": 0,
    "SK": 0,
    "##39": 0,
    "pronounced": 0,
    "##ht": 3,
    "##mology": 0,
    "academic": 0,
    "##tility": 2,
    "blurred": 2,
    "Chinese": 0,
    "uncommon": 0,
    "Extra": 1,
    "informed": 0,
    "##ero": 1,
    "##sol": 0,
    "attain": 0,
    "endings": 0,
    "Nat": 0,
    "2006": 0,
    "deleted": 0,
    "green": 0,
    "depleted": 0,
    "beyond": 0,
    "contrasted": 0,
    "sharply": 0,
    "resident": 0,
    "##sca": 0,
    "surveying": 0,
    "migration": 0,
    "##pont": 1,
    "##chan": 0,
    "inhaled": 0,
    "darkness": 0,
    "##ont": 0,
    "nuclei": 0,
    "participate": 0,
    "##dir": 0,
    "##cca": 0,
    "pursuit": 0,
    "parent": 0,
    "exhibiting": 0,
    "protecting": 0,
    "322": 0,
    "drastic": 0,
    "comparatively": 0,
    "offset": 0,
    "drastically": 0,
    "Some": 0,
    "Studies": 0,
    "concerning": 0,
    "mast": 0,
    "LP": 0,
    "challenged": 0,
    "##gas": 0,
    "corn": 1,
    "stomach": 0,
    "##gated": 0,
    "simulated": 0,
    "juice": 0,
    "Gas": 1,
    "##umi": 0,
    "##BS": 0,
    "##AG": 0,
    "solid": 0,
    "historical": 0,
    "objectives": 0,
    "##shing": 0,
    "Twelve": 0,
    "Recovery": 0,
    "ever": 0,
    "##ense": 0,
    "signals": 0,
    "cord": 2,
    "roots": 0,
    "##oms": 0,
    "##IG": 0,
    "Improvement": 0,
    "eventually": 0,
    "advantages": 0,
    "maintenance": 0,
    "216": 0,
    "requirements": 0,
    "##ining": 0,
    "unnecessary": 0,
    "##gol": 0,
    "Course": 0,
    "modifications": 0,
    "systematically": 0,
    "##iens": 0,
    "invited": 0,
    "attend": 0,
    "##iology": 0,
    "valves": 0,
    "grades": 0,
    "reveals": 0,
    "usual": 0,
    "complicated": 0,
    "##gy": 4,
    "##nine": 0,
    "transition": 0,
    "counted": 0,
    "strongly": 0,
    "failing": 0,
    "Auto": 0,
    "Mass": 0,
    "focused": 0,
    "remain": 0,
    "describes": 0,
    "##actions": 0,
    "wake": 0,
    "suffers": 0,
    "calculation": 0,
    "215": 0,
    "making": 0,
    "limitations": 0,
    "malaria": 1,
    "nutrition": 2,
    "goal": 0,
    "deprived": 0,
    "pub": 0,
    "##erty": 0,
    "explore": 0,
    "##apa": 0,
    "Papa": 0,
    "manage": 0,
    "##pas": 6,
    "operations": 0,
    "Top": 0,
    "ongoing": 0,
    "##form": 1,
    "eighth": 0,
    "##be": 0,
    "##itating": 0,
    "elevations": 0,
    "##en": 0,
    "Hispanic": 0,
    "##ono": 0,
    "##ases": 0,
    "ale": 0,
    "Japanese": 0,
    "disappearing": 0,
    "##vate": 0,
    "##cible": 0,
    "mineral": 0,
    "mug": 0,
    "heavy": 0,
    "##cite": 3,
    "##bu": 2,
    "sign": 0,
    "##fica": 0,
    "gain": 0,
    "blunt": 0,
    "Ha": 3,
    "suspect": 0,
    "pet": 1,
    "##iae": 1,
    "##ura": 1,
    "##orax": 0,
    "accurate": 0,
    "phases": 0,
    "apparent": 0,
    "##rative": 0,
    "exposing": 0,
    "dorsal": 0,
    "##lion": 0,
    "DR": 0,
    "allowed": 0,
    "essential": 0,
    "##aper": 0,
    "protects": 0,
    "regulatory": 0,
    "encourage": 0,
    "##atory": 0,
    "##25": 0,
    "##11": 0,
    "former": 0,
    "dogs": 0,
    "monkey": 0,
    "elsewhere": 0,
    "indirect": 0,
    "pursued": 0,
    "producing": 0,
    "##rable": 0,
    "blinded": 0,
    "##TM": 0,
    "pulses": 0,
    "##aries": 0,
    "existence": 0,
    "applications": 0,
    "exploited": 0,
    "uses": 0,
    "##vern": 0,
    "##pis": 3,
    "penis": 0,
    "arousal": 0,
    "options": 0,
    "##ctic": 0,
    "effectiveness": 0,
    "October": 0,
    "file": 0,
    "fourth": 0,
    "tenth": 0,
    "Shortly": 0,
    "others": 0,
    "sings": 0,
    "tea": 0,
    "ISO": 0,
    "29th": 0,
    "30th": 0,
    "##llar": 0,
    "concentrating": 0,
    "Fischer": 0,
    "recover": 0,
    "defect": 0,
    "##phism": 0,
    "cast": 0,
    "Radio": 0,
    "##et": 0,
    "##licit": 0,
    "##rim": 0,
    "ratings": 0,
    "remember": 0,
    "sparse": 0,
    "breaks": 0,
    "balanced": 0,
    "digit": 0,
    "online": 0,
    "recalled": 0,
    "pains": 1,
    "flare": 0,
    "burning": 0,
    "decay": 0,
    "##nent": 0,
    "##ially": 0,
    "able": 0,
    "requested": 0,
    "recall": 0,
    "precise": 0,
    "##eval": 0,
    "traces": 0,
    "reliable": 0,
    "interim": 0,
    "trim": 0,
    "pneumonia": 1,
    "##port": 2,
    "##uni": 2,
    "exams": 0,
    "readily": 0,
    "##kini": 0,
    "##abe": 16,
    "##IL": 0,
    "##OE": 0,
    "140": 0,
    "classic": 0,
    "##aw": 0,
    "Randall": 0,
    "engaged": 0,
    "participates": 0,
    "activate": 0,
    "##ev": 0,
    "French": 0,
    "##gi": 0,
    "systematic": 0,
    "153": 0,
    "mostly": 0,
    "metro": 0,
    "focus": 0,
    "##WI": 0,
    "FL": 0,
    "##IR": 0,
    "November": 0,
    "2005": 0,
    "September": 0,
    "2007": 0,
    "map": 0,
    "Follow": 0,
    "14th": 0,
    "##ogist": 0,
    "consensus": 0,
    "locations": 0,
    "corpus": 0,
    "call": 1,
    "##llas": 0,
    "latest": 0,
    "##NI": 0,
    "documentation": 0,
    "encountered": 0,
    "Washington": 0,
    "Center": 0,
    "1999": 0,
    "morning": 1,
    "##ometric": 0,
    "grams": 0,
    "insufficient": 0,
    "striking": 0,
    "unpredictable": 0,
    "resolve": 0,
    "##mpo": 1,
    "limo": 0,
    "##nen": 0,
    "##ill": 0,
    "oils": 0,
    "relieved": 0,
    "##lman": 0,
    "perceived": 0,
    "##ceived": 0,
    "distracted": 0,
    "showing": 0,
    "##vian": 0,
    "##graph": 0,
    "continuously": 0,
    "##say": 0,
    "possessing": 0,
    "claimed": 0,
    "supplemented": 0,
    "Also": 0,
    "similarity": 0,
    "chosen": 0,
    "fails": 0,
    "##avi": 0,
    "##iter": 0,
    "face": 0,
    "consistently": 0,
    "display": 0,
    "recalling": 0,
    "name": 0,
    "predominant": 0,
    "cannabis": 0,
    "Roberts": 0,
    "##van": 0,
    "2008": 0,
    "##fic": 1,
    "##its": 1,
    "front": 0,
    "##mage": 0,
    "132": 0,
    "##cs": 0,
    "frontal": 1,
    "ACC": 0,
    "vulnerability": 0,
    "##yana": 0,
    "professional": 0,
    "France": 0,
    "regulator": 0,
    "agriculture": 0,
    "##ud": 0,
    "break": 0,
    "fruit": 0,
    "trees": 0,
    "Contact": 0,
    "occupational": 0,
    "contains": 0,
    "surveillance": 0,
    "farmer": 0,
    "glasses": 0,
    "wine": 0,
    "necessity": 0,
    "avoiding": 0,
    "instructions": 0,
    "Comparative": 0,
    "##don": 0,
    "peaked": 0,
    "pupil": 0,
    "verbal": 0,
    "trend": 0,
    "##ER": 0,
    "belief": 0,
    "##38": 0,
    "##00": 0,
    "displays": 0,
    "idea": 0,
    "interest": 0,
    "indirectly": 0,
    "Nr": 0,
    "bar": 0,
    "##mate": 0,
    "##TC": 0,
    "dual": 0,
    "##ices": 0,
    "comprising": 0,
    "pyramid": 0,
    "Low": 0,
    "exactly": 0,
    "##tist": 0,
    "nightmare": 0,
    "##vid": 0,
    "Twin": 0,
    "##pina": 0,
    "twin": 0,
    "born": 0,
    "mother": 0,
    "boost": 0,
    "elimination": 0,
    "##nov": 0,
    "##tives": 0,
    "crisis": 0,
    "interference": 0,
    "##ilized": 0,
    "Less": 0,
    "section": 0,
    "Birth": 1,
    "##site": 0,
    "155": 0,
    "geographical": 0,
    "##41": 0,
    "##SU": 0,
    "Odd": 0,
    "peaking": 0,
    "##oan": 1,
    "limb": 0,
    "##aph": 2,
    "##matic": 2,
    "##thal": 1,
    "##mos": 1,
    "##uring": 0,
    "scrutiny": 0,
    "variants": 0,
    "vaccine": 0,
    "prefer": 0,
    "##ential": 0,
    "##uk": 5,
    "prevalent": 0,
    "##gat": 0,
    "##core": 0,
    "promoter": 0,
    "extremely": 0,
    "##oll": 1,
    "##inger": 1,
    "Ellison": 0,
    "breath": 0,
    "alerted": 0,
    "##ress": 0,
    "Heart": 0,
    "SV": 0,
    "##duction": 0,
    "##rga": 0,
    "bypass": 0,
    "cry": 0,
    "VII": 0,
    "Un": 0,
    "##edly": 0,
    "181": 0,
    "reversal": 0,
    "teams": 0,
    "services": 0,
    "context": 0,
    "234": 0,
    "##uth": 0,
    "Global": 0,
    "Sexual": 2,
    "Fun": 0,
    "##GI": 0,
    "SF": 0,
    "##EF": 0,
    "Arizona": 0,
    "Experience": 0,
    "##EX": 0,
    "Sa": 0,
    "##tisfaction": 0,
    "##pants": 0,
    "##week": 0,
    "Men": 0,
    "domains": 0,
    "linear": 0,
    "empirical": 0,
    "##MC": 0,
    "network": 0,
    "Normal": 0,
    "##oda": 0,
    "##fin": 0,
    "Sleep": 0,
    "architecture": 0,
    "accommodation": 0,
    "Morning": 0,
    "promotes": 0,
    "##izes": 0,
    "##tinent": 0,
    "##EE": 0,
    "broadly": 0,
    "Mid": 0,
    "##lum": 0,
    "variant": 4,
    "##gin": 2,
    "##ector": 0,
    "localized": 0,
    "##vocation": 0,
    "make": 0,
    "powerful": 0,
    "##fulness": 0,
    "violent": 1,
    "Dental": 0,
    "##ygiene": 0,
    "##sto": 1,
    "ramp": 0,
    "tooth": 1,
    "wear": 0,
    "rehabilitation": 0,
    "challenging": 0,
    "dental": 0,
    "bad": 1,
    "comprehensive": 0,
    "##oral": 3,
    "##lities": 0,
    "offered": 0,
    "August": 0,
    "##FI": 0,
    "practitioners": 0,
    "skeptical": 0,
    "reliability": 0,
    "appointment": 0,
    "keeping": 0,
    "miss": 0,
    "appointments": 0,
    "reasonable": 0,
    "justification": 0,
    "Asia": 0,
    "Prospect": 0,
    "January": 0,
    "1986": 0,
    "2009": 0,
    "Another": 0,
    "simultaneous": 0,
    "definitive": 0,
    "bleed": 0,
    "presentations": 0,
    "predicted": 0,
    "constituted": 0,
    "determining": 0,
    "Design": 0,
    "121": 0,
    "York": 0,
    "NY": 0,
    "##HA": 5,
    "class": 0,
    "focusing": 0,
    "253": 0,
    "##classified": 0,
    "##mpt": 0,
    "Nuclear": 0,
    "##ka": 0,
    "addiction": 0,
    "Memory": 0,
    "experiences": 0,
    "tasks": 0,
    "approved": 0,
    "forward": 0,
    "##sitive": 0,
    "contrasts": 0,
    "##uka": 0,
    "Ara": 0,
    "salvage": 0,
    "went": 0,
    "whole": 0,
    "##rmal": 0,
    "Whole": 0,
    "##lity": 0,
    "eroded": 0,
    "happens": 0,
    "starts": 0,
    "molecules": 0,
    "##kh": 0,
    "##ings": 0,
    "##scope": 0,
    "patch": 0,
    "already": 0,
    "pivotal": 0,
    "##CD": 5,
    "marble": 0,
    "burying": 0,
    "##fle": 0,
    "##nation": 0,
    "win": 0,
    "1A": 0,
    "demonstration": 0,
    "permanently": 0,
    "##17": 0,
    "##MP": 0,
    "##inas": 0,
    "Thor": 0,
    "expressions": 0,
    "regional": 0,
    "elastic": 0,
    "deposition": 0,
    "trends": 0,
    "obviously": 0,
    "establishes": 0,
    "##iar": 0,
    "##del": 0,
    "Su": 0,
    "gets": 0,
    "##activated": 0,
    "ensued": 0,
    "##icidal": 0,
    "concealed": 0,
    "team": 0,
    "Vehicle": 0,
    "##day": 0,
    "Pass": 0,
    "altering": 0,
    "##vant": 0,
    "Can": 0,
    "sun": 1,
    "soluble": 0,
    "##ifiable": 0,
    "Future": 0,
    "##uction": 0,
    "buffer": 0,
    "acidic": 0,
    "adjust": 0,
    "accomplished": 0,
    "##FC": 0,
    "eleventh": 0,
    "cape": 0,
    "THE": 0,
    "##IE": 0,
    "##LD": 0,
    "color": 2,
    "article": 0,
    "reviews": 0,
    "special": 0,
    "reader": 0,
    "insight": 0,
    "##KE": 0,
    "##OM": 0,
    "Cape": 0,
    "fulfill": 0,
    "convenient": 0,
    "promising": 0,
    "##ilia": 0,
    "filling": 0,
    "bench": 0,
    "bedside": 0,
    "gap": 0,
    "precursor": 0,
    "##uations": 0,
    "key": 0,
    "##all": 0,
    "receives": 0,
    "##iner": 0,
    "##park": 0,
    "##48": 0,
    "organic": 5,
    "Organic": 1,
    "lab": 0,
    "attitude": 0,
    "personality": 0,
    "lateral": 0,
    "horns": 0,
    "But": 0,
    "Danish": 0,
    "distress": 0,
    "eleven": 0,
    "##ographic": 0,
    "##ye": 1,
    "##lina": 1,
    "storage": 0,
    "##opy": 0,
    "##iam": 0,
    "167": 0,
    "Maximum": 0,
    "curve": 0,
    "149": 0,
    "##vis": 2,
    "detailed": 0,
    "disclosed": 0,
    "##rita": 0,
    "pig": 1,
    "Audi": 1,
    "Des": 0,
    "coincided": 0,
    "aluminium": 0,
    "flux": 0,
    "##zer": 0,
    "preparation": 0,
    "dramatic": 0,
    "sufficiently": 0,
    "enough": 0,
    "Random": 0,
    "##zin": 0,
    "Du": 5,
    "##chen": 4,
    "boys": 0,
    "strength": 0,
    "appetite": 0,
    "gained": 0,
    "##zone": 0,
    "##rgo": 0,
    "outside": 0,
    "Japan": 0,
    "comment": 0,
    "##olate": 0,
    "quantities": 0,
    "##ynamic": 0,
    "considering": 0,
    "din": 0,
    "healed": 0,
    "##ually": 0,
    "detailing": 0,
    "##dox": 0,
    "downstream": 0,
    "dioxide": 0,
    "##umatic": 0,
    "capsule": 0,
    "Holt": 0,
    "beats": 0,
    "emphasized": 0,
    "passing": 0,
    "train": 0,
    "vulnerable": 0,
    "##ilation": 1,
    "##fy": 0,
    "Trent": 0,
    "201": 0,
    "##rida": 0,
    "flows": 0,
    "240": 0,
    "verified": 0,
    "Annual": 0,
    "1981": 0,
    "11th": 0,
    "5th": 0,
    "##copic": 0,
    "recommendation": 0,
    "##eral": 0,
    "##lamp": 1,
    "##MG": 0,
    "ji": 0,
    "##tter": 0,
    "##pur": 0,
    "06": 0,
    "nod": 0,
    "##ced": 0,
    "##poradic": 0,
    "##heses": 0,
    "##gement": 2,
    "##hesis": 0,
    "acted": 0,
    "view": 0,
    "contention": 0,
    "##inda": 0,
    "Gamma": 0,
    "ingredient": 0,
    "insect": 0,
    "##icide": 0,
    "##rca": 0,
    "##BO": 0,
    "##obe": 0,
    "Argentine": 2,
    "##HF": 3,
    "evolution": 0,
    "neutral": 0,
    "drop": 0,
    "managed": 0,
    "##bies": 2,
    "hazardous": 0,
    "choice": 0,
    "Linda": 0,
    "agricultural": 0,
    "industrial": 0,
    "sold": 0,
    "hazard": 0,
    "##cribe": 0,
    "give": 0,
    "warnings": 0,
    "Mouse": 0,
    "brown": 0,
    "Subsequent": 0,
    "overnight": 0,
    "Read": 0,
    "susceptible": 0,
    "Source": 0,
    "primitive": 0,
    "attacks": 0,
    "Subsequently": 0,
    "crucial": 0,
    "unusual": 0,
    "pacing": 0,
    "##sha": 0,
    "##ically": 0,
    "CE": 0,
    "Munich": 0,
    "124": 0,
    "570": 0,
    "##ien": 0,
    "##yre": 0,
    "GT": 0,
    "example": 0,
    "##zad": 0,
    "##eo": 1,
    "thirds": 0,
    "##pate": 0,
    "Perhaps": 0,
    "physically": 0,
    "##nder": 0,
    "accounted": 0,
    "Vol": 0,
    "##ei": 0,
    "Arte": 0,
    "##ushing": 1,
    "Capt": 0,
    "AMC": 0,
    "gives": 0,
    "weights": 0,
    "contents": 0,
    "lungs": 0,
    "reflected": 0,
    "considerably": 0,
    "circulating": 0,
    "deposited": 0,
    "routes": 0,
    "##ove": 2,
    "##graphical": 0,
    "route": 0,
    "exceeds": 0,
    "##russ": 0,
    "##oped": 0,
    "##bound": 0,
    "Lab": 0,
    "loaded": 0,
    "loading": 0,
    "intrinsic": 0,
    "exists": 0,
    "unstable": 1,
    "##tron": 0,
    "distorted": 0,
    "rough": 0,
    "Go": 0,
    "##ister": 0,
    "##nae": 0,
    "##hom": 0,
    "numbers": 0,
    "##culate": 0,
    "##sities": 0,
    "bringing": 0,
    "##usions": 0,
    "##asa": 0,
    "joint": 0,
    "CB": 0,
    "itself": 0,
    "##die": 0,
    "##sh": 0,
    "##ock": 0,
    "below": 0,
    "normally": 0,
    "awaiting": 0,
    "Epic": 0,
    "steal": 0,
    "##dre": 0,
    "##ead": 0,
    "152": 0,
    "##pin": 0,
    "portal": 0,
    "feedback": 0,
    "Portal": 0,
    "Application": 0,
    "##hane": 1,
    "resting": 0,
    "Rest": 0,
    "Nora": 0,
    "delta": 0,
    "##anna": 0,
    "OH": 0,
    "##DA": 0,
    "contrary": 0,
    "##luded": 0,
    "soon": 0,
    "HM": 0,
    "members": 0,
    "##poli": 0,
    "5000": 0,
    "marketed": 0,
    "HD": 0,
    "fewer": 0,
    "1100": 0,
    "wider": 0,
    "1984": 0,
    "Committee": 0,
    "Medicine": 0,
    "adequately": 0,
    "unlikely": 0,
    "##ash": 2,
    "returning": 0,
    "advised": 0,
    "##bur": 0,
    "persons": 0,
    "##CP": 0,
    "##VP": 0,
    "##ilated": 0,
    "instrumentation": 0,
    "presumably": 0,
    "Vera": 0,
    "##rae": 0,
    "undergone": 0,
    "firmly": 0,
    "Survival": 0,
    "Obviously": 0,
    "Death": 1,
    "principle": 0,
    "Gold": 0,
    "##rk": 0,
    "##itz": 0,
    "213": 0,
    "originating": 0,
    "walls": 0,
    "veins": 0,
    "spaces": 0,
    "##herence": 0,
    "explanations": 0,
    "classification": 0,
    "die": 0,
    "Not": 0,
    "##with": 0,
    "##standing": 0,
    "facts": 0,
    "Close": 0,
    "##AP": 0,
    "dynamics": 0,
    "variation": 0,
    "wedge": 0,
    "enabled": 0,
    "##load": 0,
    "##lem": 2,
    "deliberate": 0,
    "##are": 0,
    "cautious": 0,
    "entry": 0,
    "difficulty": 0,
    "highlighted": 0,
    "##ilt": 0,
    "proved": 0,
    "valuable": 0,
    "##oar": 1,
    "##ndy": 1,
    "pair": 0,
    "marital": 0,
    "happiness": 0,
    "Mari": 0,
    "Happiness": 0,
    "##HS": 0,
    "reporting": 0,
    "##pressed": 1,
    "##ssa": 0,
    "##roth": 1,
    "suggestion": 0,
    "Heinz": 0,
    "Cambodian": 0,
    "RB": 0,
    "##tos": 1,
    "Southeast": 0,
    "Asian": 0,
    "ethnic": 0,
    "backgrounds": 0,
    "##rte": 0,
    "shock": 2,
    "debris": 0,
    "belonging": 0,
    "German": 0,
    "harmful": 0,
    "Certain": 0,
    "clues": 0,
    "superiority": 0,
    "##ean": 0,
    "iron": 0,
    "##bel": 0,
    "reverted": 0,
    "Audio": 0,
    "aids": 0,
    "disability": 0,
    "restart": 0,
    "depending": 0,
    "convincing": 0,
    "plan": 0,
    "##makers": 0,
    "him": 0,
    "##ras": 0,
    "tender": 2,
    "joints": 0,
    "swelling": 1,
    "stiff": 0,
    "##ference": 0,
    "knee": 0,
    "##eca": 1,
    "##lind": 0,
    "NSA": 0,
    "Several": 0,
    "stressed": 0,
    "owing": 0,
    "hopes": 0,
    "justified": 0,
    "threatened": 0,
    "arose": 0,
    "##cluded": 0,
    "Regional": 0,
    "##azed": 0,
    "##ese": 0,
    "##ias": 6,
    "540": 0,
    "##chal": 0,
    "reproduced": 0,
    "Flow": 0,
    "Schmidt": 0,
    "inspired": 0,
    "Tri": 0,
    "Large": 0,
    "Features": 0,
    "excitement": 0,
    "coincide": 0,
    "Evans": 0,
    "##ages": 1,
    "scored": 0,
    "sampled": 0,
    "Those": 0,
    "shortly": 0,
    "cavity": 0,
    "sixth": 0,
    "seventh": 0,
    "Disco": 0,
    "muscular": 2,
    "akin": 2,
    "licking": 0,
    "##wing": 0,
    "Nevertheless": 0,
    "radial": 0,
    "compression": 1,
    "##rice": 0,
    "wrist": 0,
    "branches": 0,
    "Surgery": 0,
    "compressed": 0,
    "densely": 0,
    "##rich": 1,
    "abrupt": 0,
    "##ovo": 0,
    "steady": 0,
    "era": 0,
    "hit": 0,
    "confined": 0,
    "strictly": 0,
    "takes": 0,
    "reserved": 0,
    "il": 0,
    "tear": 0,
    "##gical": 0,
    "##pment": 0,
    "varying": 0,
    "##mme": 0,
    "Review": 0,
    "ensure": 0,
    "Wolff": 2,
    "White": 0,
    "##sistence": 0,
    "ranges": 0,
    "specifically": 0,
    "safer": 0,
    "guidelines": 0,
    "Indo": 0,
    "##onal": 0,
    "##tern": 0,
    "1967": 0,
    "1977": 0,
    "Il": 0,
    "##ln": 0,
    "##xia": 1,
    "##iable": 0,
    "fatty": 1,
    "accidentally": 0,
    "##nar": 0,
    "##mated": 0,
    "##tan": 1,
    "##oria": 2,
    "benefited": 0,
    "troubles": 0,
    "##bes": 0,
    "Gala": 0,
    "penetrating": 0,
    "demonstrating": 0,
    "combat": 0,
    "liquid": 0,
    "##tography": 0,
    "deep": 0,
    "aroused": 0,
    "smallest": 0,
    "infants": 0,
    "##lies": 0,
    "Potter": 2,
    "##ova": 0,
    "##rus": 0,
    "##rust": 0,
    "##nosis": 0,
    "missed": 0,
    "Impact": 0,
    "##ets": 0,
    "630": 0,
    "reading": 0,
    "blocks": 0,
    "runs": 0,
    "regarded": 0,
    "Previously": 0,
    "ray": 0,
    "241": 0,
    "115": 0,
    "border": 0,
    "Vita": 0,
    "dairy": 0,
    "cows": 0,
    "Jersey": 0,
    "milk": 5,
    "margin": 0,
    "practically": 0,
    "nerves": 0,
    "Nigerian": 0,
    "##uil": 1,
    "##lain": 1,
    "Barr": 0,
    "arising": 0,
    "##mined": 0,
    "##lial": 0,
    "connect": 1,
    "briefly": 0,
    "allegedly": 0,
    "IP": 0,
    "sound": 0,
    "modify": 0,
    "Screen": 0,
    "Project": 0,
    "Ace": 0,
    "radioactive": 0,
    "dot": 0,
    "Dot": 0,
    "panic": 5,
    "psychological": 0,
    "tapped": 0,
    "##dated": 0,
    "##rro": 0,
    "##cede": 0,
    "firm": 0,
    "congestion": 0,
    "Small": 0,
    "sized": 0,
    "Published": 0,
    "##urance": 0,
    "##vasive": 0,
    "aging": 0,
    "swim": 0,
    "GO": 0,
    "GP": 0,
    "##dent": 0,
    "dealing": 0,
    "inform": 0,
    "dealt": 0,
    "solvent": 0,
    "impressive": 0,
    "Light": 0,
    "##lich": 1,
    "##rna": 0,
    "ou": 0,
    "providing": 0,
    "superficial": 0,
    "transitional": 0,
    "##section": 0,
    "monthly": 0,
    "penetration": 0,
    "##SA": 0,
    "##link": 0,
    "##cans": 0,
    "build": 0,
    "##yal": 0,
    "linking": 0,
    "fury": 0,
    "forest": 1,
    "##NF": 0,
    "adaptation": 0,
    "##ntary": 0,
    "abdomen": 0,
    "took": 0,
    "considerable": 0,
    "##NU": 0,
    "advantage": 0,
    "internal": 0,
    "operation": 0,
    "156": 0,
    "exercised": 0,
    "removed": 0,
    "##sea": 1,
    "Pit": 1,
    "pairs": 0,
    "##matical": 0,
    "separation": 0,
    "gravity": 0,
    "sediment": 0,
    "yields": 0,
    "Beyond": 0,
    "investigators": 0,
    "establishing": 0,
    "cellular": 0,
    "averaged": 0,
    "net": 0,
    "sat": 0,
    "clear": 2,
    "exit": 0,
    "flutter": 0,
    "offspring": 0,
    "##agi": 0,
    "instances": 0,
    "suspicion": 0,
    "##yster": 0,
    "instance": 0,
    "film": 0,
    "##pia": 1,
    "##generate": 0,
    "continuation": 0,
    "yield": 0,
    "##unk": 0,
    "finely": 0,
    "begin": 0,
    "stone": 0,
    "passed": 0,
    "salts": 0,
    "Bus": 0,
    "bus": 0,
    "appearances": 0,
    "world": 0,
    "##arian": 0,
    "widening": 0,
    "direction": 0,
    "axis": 0,
    "##cognition": 0,
    "differs": 0,
    "##asi": 0,
    "MAC": 0,
    "Nearly": 0,
    "million": 0,
    "people": 0,
    "country": 0,
    "annually": 0,
    "Gen": 0,
    "charge": 0,
    "##hop": 0,
    "##arity": 0,
    "##ease": 0,
    "integrity": 0,
    "##we": 0,
    "deaf": 1,
    "vest": 0,
    "580": 0,
    "relieve": 0,
    "236": 0,
    "1992": 0,
    "Benz": 0,
    "Biological": 0,
    "##inated": 0,
    "##nological": 0,
    "searches": 0,
    "Interactive": 0,
    "223": 0,
    "Ring": 0,
    "Independent": 0,
    "arrested": 0,
    "alternatives": 0,
    "##nio": 0,
    "challenges": 0,
    "##pie": 0,
    "basic": 0,
    "##liance": 0,
    "enrollment": 0,
    "London": 0,
    "Toronto": 0,
    "tape": 0,
    "aggression": 1,
    "Al": 1,
    "willing": 0,
    "accept": 0,
    "Crescent": 0,
    "##amp": 0,
    "##life": 0,
    "dense": 0,
    "ruled": 0,
    "documents": 0,
    "laps": 0,
    "##trate": 0,
    "Time": 0,
    "sacrifice": 0,
    "flushed": 0,
    "##ue": 0,
    "Composition": 0,
    "stones": 0,
    "composition": 0,
    "Chemical": 0,
    "retrieved": 0,
    "##uns": 0,
    "##field": 0,
    "rich": 0,
    "##vable": 0,
    "guided": 0,
    "fine": 0,
    "whilst": 0,
    "sampling": 0,
    "##DC": 0,
    "dissolution": 0,
    "corresponds": 0,
    "table": 0,
    "##them": 1,
    "Mac": 0,
    "MI": 0,
    "dangerous": 0,
    "##lution": 0,
    "Survey": 0,
    "fund": 0,
    "sent": 0,
    "institutions": 0,
    "client": 0,
    "Company": 0,
    "manufactures": 0,
    "decision": 0,
    "proceed": 0,
    "urgency": 0,
    "flash": 0,
    "##ctions": 0,
    "##ii": 0,
    "chick": 0,
    "##lock": 0,
    "livestock": 0,
    "weakly": 0,
    "rabbits": 0,
    "toes": 0,
    "motion": 0,
    "summary": 0,
    "##ST": 0,
    "##bent": 0,
    "Skin": 0,
    "##LL": 0,
    "just": 0,
    "Challenge": 0,
    "largest": 0,
    "far": 0,
    "exact": 0,
    "107": 0,
    "Left": 0,
    "Sigma": 0,
    "Carbon": 0,
    "##pore": 0,
    "calculus": 1,
    "##horn": 0,
    "permitting": 0,
    "##asis": 2,
    "##lude": 0,
    "##GE": 0,
    "##BF": 0,
    "heat": 0,
    "poster": 0,
    "opening": 0,
    "organization": 0,
    "feature": 0,
    "A1": 0,
    "##ater": 0,
    "##media": 0,
    "mapped": 0,
    "##ele": 0,
    "actual": 0,
    "burst": 0,
    "##pped": 0,
    "##tura": 0,
    "becomes": 0,
    "##bon": 0,
    "erect": 6,
    "overcome": 0,
    "global": 0,
    "glucose": 1,
    "insertion": 0,
    "##ulata": 0,
    "clubs": 0,
    "depended": 0,
    "traumatic": 1,
    "rose": 0,
    "passes": 0,
    "##lston": 5,
    "1500": 0,
    "##dge": 0,
    "Sin": 1,
    "zero": 0,
    "eyes": 0,
    "eyelids": 0,
    "##tral": 0,
    "##ival": 1,
    "Upper": 0,
    "##traction": 0,
    "noticeable": 0,
    "##pion": 1,
    "##eal": 1,
    "##sion": 0,
    "notable": 0,
    "##nton": 0,
    "discomfort": 0,
    "##cing": 0,
    "pump": 0,
    "Loss": 1,
    "satisfaction": 0,
    "choose": 0,
    "##MB": 0,
    "##As": 0,
    "Reports": 0,
    "eliminated": 0,
    "##roved": 0,
    "Tax": 0,
    "Bristol": 0,
    "Myers": 0,
    "##bb": 0,
    "Princeton": 0,
    "NJ": 0,
    "Primary": 1,
    "##ynx": 0,
    "incorporate": 0,
    "permitted": 0,
    "permits": 0,
    "writing": 0,
    "Ball": 0,
    "ballistic": 0,
    "Europe": 0,
    "countries": 0,
    "Carolina": 0,
    "northern": 0,
    "Maryland": 0,
    "Berlin": 0,
    "burden": 0,
    "themselves": 0,
    "dismissed": 0,
    "remarkably": 0,
    "dye": 0,
    "cup": 0,
    "blue": 0,
    "processor": 0,
    "##grading": 0,
    "ABC": 0,
    "minority": 0,
    "scattered": 0,
    "Number": 0,
    "Media": 0,
    "DL": 0,
    "##uses": 0,
    "##28": 0,
    "jointly": 0,
    "regulate": 0,
    "Les": 0,
    "damp": 0,
    "written": 0,
    "subtle": 0,
    "creativity": 0,
    "##mar": 0,
    "Open": 0,
    "motivation": 0,
    "creative": 0,
    "selecting": 0,
    "##plicate": 0,
    "##tu": 1,
    "conform": 0,
    "unconscious": 0,
    "stem": 0,
    "disturbed": 0,
    "##raphic": 0,
    "##bell": 1,
    "circular": 0,
    "polar": 0,
    "coil": 0,
    "spin": 0,
    "orientation": 0,
    "gradient": 0,
    "sequences": 0,
    "processed": 0,
    "##iably": 0,
    "##hol": 0,
    "Pol": 0,
    "elements": 0,
    "##elles": 0,
    "swollen": 0,
    "##vil": 0,
    "Press": 0,
    "loose": 0,
    "breaking": 0,
    "tight": 0,
    "junction": 0,
    "Dam": 0,
    "Bergman": 0,
    "Alt": 0,
    "##eration": 0,
    "##isted": 0,
    "##je": 0,
    "earliest": 0,
    "##graphs": 0,
    "sides": 0,
    "##med": 0,
    "execution": 0,
    "##hee": 1,
    "scene": 0,
    "viewed": 0,
    "labeled": 0,
    "1987": 0,
    "1991": 0,
    "regularly": 0,
    "perform": 0,
    "sick": 0,
    "witnessed": 0,
    "instituted": 0,
    "withdrawing": 0,
    "replacing": 0,
    "AK": 0,
    "##OT": 0,
    "##GP": 0,
    "arch": 0,
    "branching": 0,
    "sensations": 0,
    "mistaken": 0,
    "##burn": 1,
    "##ika": 0,
    "van": 5,
    "Fund": 0,
    "##lang": 1,
    "Currently": 0,
    "too": 0,
    "cigarette": 0,
    "flat": 0,
    "##VR": 2,
    "##ctional": 0,
    "##rade": 0,
    "oz": 0,
    "industry": 0,
    "CF": 0,
    "Limited": 0,
    "workers": 0,
    "123": 0,
    "worker": 0,
    "zone": 0,
    "tracts": 0,
    "beings": 0,
    "##mart": 0,
    "##ably": 0,
    "develops": 0,
    "rules": 0,
    "responsibility": 0,
    "Every": 0,
    "screened": 0,
    "desire": 0,
    "Det": 0,
    "##mination": 0,
    "personal": 0,
    "340": 0,
    "Main": 0,
    "efficiency": 0,
    "##nado": 0,
    "##gan": 0,
    "definite": 0,
    "contributions": 0,
    "definitely": 0,
    "justify": 0,
    "advocate": 0,
    "shared": 0,
    "##FL": 0,
    "Major": 0,
    "dead": 0,
    "fairly": 0,
    "attempted": 0,
    "alert": 0,
    "##VN": 0,
    "##cripts": 0,
    "amplifier": 0,
    "pigs": 0,
    "flick": 0,
    "M1": 0,
    "##ich": 0,
    "##rium": 0,
    "##eum": 0,
    "rot": 0,
    "rod": 0,
    "##ncing": 0,
    "speech": 0,
    "pencil": 0,
    "##sation": 0,
    "amid": 0,
    "Accordingly": 0,
    "compares": 0,
    "American": 0,
    "##ails": 0,
    "unaware": 0,
    "details": 0,
    "Times": 0,
    "void": 0,
    "165": 0,
    "238": 0,
    "Malawi": 0,
    "##pts": 0,
    "Apart": 0,
    "##holding": 0,
    "##riad": 0,
    "connection": 0,
    "Eat": 1,
    "denial": 0,
    "eating": 2,
    "##ement": 0,
    "reminds": 0,
    "adaptive": 0,
    "arises": 0,
    "Pet": 0,
    "##pet": 0,
    "##sible": 1,
    "shouts": 0,
    "##dicated": 0,
    "850": 0,
    "225": 0,
    "correction": 0,
    "woke": 0,
    "refused": 0,
    "##ishing": 5,
    "Stevens": 4,
    "Johnson": 0,
    "child": 0,
    "affects": 0,
    "Belgium": 0,
    "restriction": 0,
    "prescription": 0,
    "standardized": 0,
    "policy": 0,
    "unrest": 0,
    "##ricted": 0,
    "##rals": 0,
    "##mot": 0,
    "##had": 0,
    "occasional": 0,
    "heroine": 0,
    "##bio": 0,
    "phenomena": 0,
    "Col": 0,
    "##bor": 0,
    "Working": 0,
    "choosing": 0,
    "disrupt": 3,
    "assignment": 0,
    "replica": 0,
    "upward": 0,
    "apply": 0,
    "maneuvers": 0,
    "gram": 0,
    "dried": 0,
    "fat": 0,
    "liter": 0,
    "consent": 0,
    "overlap": 0,
    "foam": 0,
    "consists": 0,
    "distributions": 0,
    "canal": 0,
    "freeze": 0,
    "precisely": 0,
    "scanning": 0,
    "##taining": 0,
    "outline": 0,
    "fashion": 0,
    "##lining": 0,
    "ET": 0,
    "Irwin": 0,
    "inspection": 0,
    "##isms": 0,
    "102": 0,
    "##sent": 0,
    "230": 0,
    "Little": 0
  },
  "I": {
    "Se": 0,
    "##leg": 0,
    "##ili": 0,
    "##ne": 0,
    "-": 89,
    "induced": 7,
    "post": 1,
    "##ural": 0,
    "h": 40,
    "##y": 18,
    "##pot": 11,
    "##ens": 11,
    "##ion": 28,
    "in": 87,
    "Parkinson": 3,
    "'": 57,
    "s": 68,
    "disease": 87,
    ":": 0,
    "a": 16,
    "longitudinal": 0,
    "study": 0,
    "on": 2,
    "the": 34,
    "effects": 1,
    "of": 56,
    "drug": 5,
    "withdrawal": 0,
    ".": 2,
    "O": 0,
    "##B": 2,
    "##J": 0,
    "##EC": 0,
    "##TI": 0,
    "##VE": 0,
    "##S": 0,
    "The": 0,
    "United": 0,
    "Kingdom": 0,
    "Disease": 1,
    "Research": 0,
    "Group": 0,
    "(": 13,
    "UK": 0,
    "##PD": 0,
    "##R": 1,
    "##G": 0,
    ")": 13,
    "trial": 0,
    "found": 0,
    "an": 47,
    "increased": 0,
    "mortality": 0,
    "patients": 0,
    "with": 2,
    "PD": 0,
    "random": 0,
    "##ized": 0,
    "to": 6,
    "receive": 0,
    "10": 0,
    "mg": 0,
    "se": 6,
    "per": 3,
    "day": 0,
    "and": 78,
    "L": 0,
    "do": 0,
    "##pa": 36,
    "compared": 0,
    "those": 0,
    "taking": 0,
    "alone": 0,
    "Recently": 0,
    ",": 19,
    "we": 0,
    "that": 0,
    "therapy": 0,
    "was": 2,
    "associated": 0,
    "selective": 0,
    "##ys": 93,
    "##to": 15,
    "##lic": 5,
    "or": 14,
    "##th": 12,
    "##ost": 2,
    "##atic": 3,
    "which": 0,
    "abolished": 0,
    "by": 1,
    "This": 0,
    "unwanted": 0,
    "effect": 1,
    "blood": 16,
    "pressure": 10,
    "not": 0,
    "result": 0,
    "underlying": 0,
    "auto": 1,
    "##no": 7,
    "##mic": 7,
    "failure": 90,
    "aims": 0,
    "this": 0,
    "were": 0,
    "confirm": 0,
    "our": 0,
    "previous": 0,
    "findings": 0,
    "separate": 0,
    "co": 19,
    "##hor": 0,
    "##t": 0,
    "determine": 0,
    "time": 0,
    "course": 0,
    "card": 9,
    "##iovascular": 3,
    "consequences": 0,
    "stopping": 0,
    "expectation": 0,
    "might": 0,
    "shed": 0,
    "light": 0,
    "mechanisms": 0,
    "causes": 0,
    "ME": 0,
    "##TH": 0,
    "##OD": 0,
    "responses": 0,
    "standing": 0,
    "head": 2,
    "up": 0,
    "tilt": 0,
    "studied": 0,
    "repeatedly": 0,
    "receiving": 0,
    "as": 2,
    "withdrawn": 0,
    "R": 0,
    "##ES": 0,
    "##U": 0,
    "##LT": 0,
    "Head": 0,
    "caused": 0,
    "marked": 0,
    "six": 0,
    "20": 0,
    "one": 1,
    "whom": 0,
    "lost": 0,
    "consciousness": 3,
    "un": 0,
    "##re": 0,
    "##cor": 0,
    "##da": 0,
    "##ble": 0,
    "pressures": 2,
    "A": 0,
    "lesser": 0,
    "degree": 0,
    "occurred": 0,
    "Or": 0,
    "am": 0,
    "##eli": 0,
    "##ora": 0,
    "##ted": 0,
    "4": 1,
    "days": 0,
    "after": 0,
    "totally": 0,
    "7": 0,
    "disco": 0,
    "##ntin": 0,
    "##uation": 0,
    "Stop": 0,
    "##ping": 0,
    "also": 1,
    "significantly": 0,
    "reduced": 1,
    "su": 1,
    "##pine": 1,
    "di": 7,
    "##ast": 5,
    "##olic": 3,
    "consistent": 0,
    "previously": 0,
    "und": 0,
    "##es": 3,
    "##cribed": 0,
    "press": 0,
    "##or": 35,
    "action": 0,
    "CO": 1,
    "##NC": 0,
    "##L": 0,
    "##US": 0,
    "##ION": 0,
    "confirms": 0,
    "finding": 0,
    "combination": 0,
    "is": 9,
    "possibilities": 0,
    "these": 0,
    "be": 0,
    "non": 1,
    "##hibition": 0,
    "mon": 1,
    "##oam": 0,
    "##ine": 2,
    "o": 17,
    "##xi": 7,
    "##das": 0,
    "##e": 10,
    "##phe": 0,
    "##tamine": 0,
    "meta": 0,
    "##mp": 1,
    "##he": 3,
    "are": 0,
    "discussed": 0,
    "Further": 0,
    "studies": 0,
    "irrigation": 0,
    "solutions": 0,
    "rat": 0,
    "bladder": 8,
    "##s": 71,
    "certain": 0,
    "i": 1,
    "##rri": 0,
    "##gating": 0,
    "fluids": 0,
    "for": 1,
    "18": 0,
    "hours": 0,
    "reported": 0,
    "results": 0,
    "have": 0,
    "shown": 0,
    "degradation": 0,
    "product": 0,
    "p": 17,
    "ch": 5,
    "##olo": 0,
    "##roa": 0,
    "##ni": 1,
    "##line": 2,
    "significant": 0,
    "factor": 0,
    "##lor": 0,
    "##dine": 0,
    "dig": 0,
    "##lu": 1,
    "##cona": 0,
    "##te": 1,
    "er": 2,
    "##os": 1,
    "##ive": 5,
    "c": 13,
    "##titis": 33,
    "high": 1,
    "percentage": 0,
    "ka": 0,
    "##nam": 0,
    "##cin": 32,
    "##list": 0,
    "##in": 1,
    "##ov": 0,
    "##ido": 0,
    "##od": 0,
    "suggested": 0,
    "possible": 0,
    "com": 4,
    "##plication": 1,
    "human": 0,
    "usage": 0,
    "Pi": 0,
    "##c": 20,
    "##lo": 12,
    "##xy": 0,
    "appeared": 0,
    "lower": 0,
    "incidence": 0,
    "but": 0,
    "further": 0,
    "would": 0,
    "performed": 0,
    "before": 0,
    "it": 0,
    "could": 0,
    "recommended": 0,
    "use": 0,
    "u": 15,
    "##rol": 0,
    "##ogical": 0,
    "procedures": 0,
    "Effects": 0,
    "te": 0,
    "##tra": 1,
    "##nd": 0,
    "##rine": 0,
    "fan": 0,
    "##g": 2,
    "##chin": 0,
    "##olin": 0,
    "experimental": 0,
    "th": 13,
    "##rom": 11,
    "##bos": 0,
    "##is": 22,
    "mice": 0,
    "plate": 0,
    "##let": 0,
    "##gg": 3,
    "##regation": 3,
    "Te": 0,
    "T": 4,
    "##ET": 0,
    "FA": 0,
    "##N": 0,
    "two": 0,
    "naturally": 0,
    "occurring": 0,
    "analogue": 0,
    "bi": 6,
    "##ben": 0,
    "##zy": 0,
    "##lis": 10,
    "##o": 1,
    "##quin": 4,
    "structure": 0,
    "present": 0,
    "undertaken": 0,
    "investigate": 0,
    "##lla": 20,
    "##gen": 2,
    "plus": 0,
    "e": 29,
    "##ph": 15,
    "EP": 0,
    "##agu": 4,
    "##lation": 4,
    "v": 7,
    "##it": 0,
    "##ro": 0,
    "In": 0,
    "##ivo": 0,
    "administration": 0,
    "50": 0,
    "/": 3,
    "kg": 0,
    "showed": 0,
    "55": 0,
    "%": 0,
    "35": 0,
    "respectively": 0,
    "while": 0,
    "ace": 0,
    "##ty": 0,
    "##ls": 0,
    "##ali": 0,
    "##cy": 4,
    "acid": 3,
    "AS": 0,
    "##A": 0,
    "positive": 1,
    "control": 0,
    "only": 0,
    "30": 0,
    "ago": 0,
    "##nist": 0,
    "used": 0,
    "tests": 0,
    "dose": 0,
    "dependent": 0,
    "##ly": 6,
    "addition": 0,
    "neither": 0,
    "nor": 0,
    "any": 0,
    "anti": 2,
    "##coa": 0,
    "##gu": 5,
    "activities": 0,
    "measurement": 0,
    "activated": 0,
    "partial": 0,
    "##bo": 1,
    "##p": 5,
    "##last": 0,
    "AP": 0,
    "##TT": 0,
    "pro": 3,
    "##bin": 0,
    "PT": 0,
    "##T": 2,
    "using": 0,
    "##rated": 0,
    "plasma": 0,
    "These": 0,
    "suggest": 0,
    "may": 0,
    "mainly": 0,
    "related": 0,
    "##plate": 0,
    "Ang": 0,
    "##io": 22,
    "##ede": 1,
    "##ma": 2,
    "due": 0,
    "AC": 0,
    "##E": 1,
    "inhibitor": 0,
    "common": 0,
    "inadequate": 0,
    "diagnosed": 0,
    "estimated": 0,
    "##gio": 0,
    "during": 0,
    "##tens": 12,
    "converting": 0,
    "enzyme": 0,
    "treatment": 0,
    "between": 0,
    "1": 0,
    "thousand": 0,
    "potentially": 0,
    "serious": 0,
    "adverse": 1,
    "often": 0,
    "preceded": 0,
    "minor": 0,
    "manifest": 0,
    "##ations": 6,
    "serve": 0,
    "warning": 0,
    "Coca": 0,
    "mood": 3,
    "disorder": 24,
    "prevalence": 0,
    "rates": 0,
    "psychiatric": 1,
    "symptoms": 15,
    "out": 0,
    "##patient": 0,
    "cocaine": 0,
    "sample": 0,
    "paper": 0,
    "attempts": 0,
    "examine": 0,
    "compare": 0,
    "##ym": 0,
    "##pt": 1,
    "##om": 0,
    "patterns": 0,
    "DS": 0,
    "##M": 0,
    "substance": 0,
    "other": 0,
    "disorders": 22,
    "243": 0,
    "C": 5,
    "##IM": 0,
    "##D": 0,
    "no": 0,
    "measures": 0,
    "rate": 1,
    "12": 0,
    "at": 8,
    "base": 0,
    "Introduction": 0,
    "IV": 1,
    "diagnosis": 0,
    "did": 0,
    "substantially": 0,
    "affect": 0,
    "de": 6,
    "##pressive": 0,
    "Pat": 0,
    "##ients": 0,
    "had": 0,
    "severity": 0,
    "levels": 0,
    "without": 1,
    "some": 0,
    "validity": 0,
    "new": 0,
    "requires": 0,
    "specification": 0,
    "replication": 0,
    "Effect": 0,
    "f": 1,
    "##uc": 5,
    "##oid": 0,
    "##an": 0,
    "##ase": 0,
    "##cer": 1,
    "##eb": 0,
    "##ral": 2,
    "hem": 29,
    "##r": 44,
    "##hage": 32,
    "rats": 0,
    "##f": 0,
    "##lam": 0,
    "##mat": 9,
    "##ory": 3,
    "cells": 0,
    "##ulated": 0,
    "media": 0,
    "brain": 2,
    "damage": 36,
    "following": 0,
    "##che": 8,
    "stroke": 7,
    "more": 1,
    "inflammation": 0,
    "than": 1,
    "We": 0,
    "tested": 0,
    "##lf": 6,
    "##ated": 0,
    "##oly": 7,
    "##sa": 0,
    "##cc": 9,
    "##hari": 0,
    "##de": 8,
    "has": 0,
    "been": 0,
    "reduce": 0,
    "inflammatory": 0,
    "model": 0,
    "injection": 0,
    "bacterial": 0,
    "into": 1,
    "ca": 16,
    "##uda": 0,
    "nucleus": 0,
    "Rat": 0,
    "treated": 0,
    "seven": 0,
    "##ven": 0,
    "##ous": 0,
    "##fusion": 1,
    "micro": 16,
    "##gram": 1,
    "vehicle": 0,
    "##ato": 2,
    "assessed": 0,
    "magnetic": 0,
    "resonance": 0,
    "imaging": 0,
    "Motor": 0,
    "behavior": 5,
    "passive": 0,
    "avoid": 0,
    "##ance": 0,
    "skilled": 0,
    "fore": 0,
    "##lim": 0,
    "##b": 0,
    "function": 9,
    "weeks": 0,
    "Fu": 0,
    "##co": 0,
    "##ida": 0,
    "##n": 1,
    "exhibited": 0,
    "evidence": 0,
    "impaired": 2,
    "##lot": 1,
    "##ting": 1,
    "##il": 0,
    "##ution": 0,
    "larger": 0,
    "##mas": 2,
    "tended": 0,
    "less": 1,
    "vicinity": 0,
    "three": 0,
    "They": 0,
    "rapid": 0,
    "improvement": 0,
    "motor": 4,
    "first": 0,
    "week": 0,
    "better": 0,
    "memory": 10,
    "retention": 4,
    "test": 0,
    "##cute": 0,
    "white": 0,
    "matter": 3,
    "ed": 6,
    "##ema": 6,
    "eventual": 0,
    "ne": 74,
    "##uron": 0,
    "##al": 14,
    "loss": 35,
    "##tri": 0,
    "##at": 0,
    "##um": 0,
    "adjacent": 0,
    "differ": 0,
    "groups": 0,
    "Investigation": 0,
    "specific": 0,
    "agents": 0,
    "##uti": 0,
    "##ng": 0,
    "warrant": 0,
    "##ed": 0,
    "Re": 0,
    "##cu": 7,
    "##rar": 0,
    "##ization": 0,
    "recovery": 0,
    "room": 0,
    "case": 0,
    "re": 53,
    "##ulation": 0,
    "##rac": 0,
    "##uri": 1,
    "line": 0,
    "led": 0,
    "flush": 0,
    "##ing": 11,
    "respiratory": 1,
    "arrest": 12,
    "severe": 0,
    "des": 0,
    "##uration": 0,
    "bra": 1,
    "##dy": 1,
    "##card": 20,
    "##ia": 35,
    "##ir": 0,
    "##cum": 0,
    "##stance": 0,
    "leading": 0,
    "event": 0,
    "enabling": 0,
    "##uro": 42,
    "##mus": 3,
    "##cular": 2,
    "blockade": 2,
    "occur": 0,
    "small": 2,
    "relax": 0,
    "##ant": 0,
    "ha": 14,
    "##em": 12,
    "##ody": 0,
    "##ic": 13,
    "prop": 0,
    "##of": 0,
    "##ol": 0,
    "##dr": 0,
    "elderly": 0,
    "3": 0,
    "##as": 6,
    "##ila": 1,
    "##tor": 1,
    "negative": 0,
    "##ot": 1,
    "##ropic": 0,
    "disadvantage": 0,
    "##rail": 0,
    "investigated": 0,
    "safety": 0,
    "efficacy": 0,
    "adding": 0,
    "different": 0,
    "doses": 0,
    "order": 0,
    "##bt": 0,
    "##und": 0,
    "response": 0,
    "15": 0,
    "25": 0,
    "200": 0,
    "40": 0,
    "over": 4,
    "60": 0,
    "years": 0,
    "presenting": 0,
    "g": 28,
    "##eni": 1,
    "##rina": 0,
    "##ry": 7,
    "surgery": 0,
    "appears": 0,
    "effective": 0,
    "method": 0,
    "all": 4,
    "However": 0,
    "ta": 23,
    "##chy": 25,
    "majority": 0,
    "occasionally": 0,
    "reaching": 0,
    "individual": 0,
    "Due": 0,
    "risk": 0,
    "##ducing": 0,
    "my": 16,
    "##oc": 11,
    "##ard": 8,
    "##ial": 5,
    "##mia": 31,
    "recommend": 0,
    "mixture": 0,
    "G": 1,
    "##ci": 14,
    "##ta": 1,
    "##bine": 0,
    "##ino": 1,
    "##rel": 0,
    "##sma": 0,
    "##ll": 0,
    "cell": 19,
    "lung": 7,
    "car": 27,
    "##oma": 46,
    "age": 0,
    "70": 0,
    "older": 0,
    "who": 0,
    "cannot": 0,
    "##lat": 0,
    "On": 0,
    "##z": 0,
    "Cooperative": 0,
    "BA": 0,
    "##C": 0,
    "##K": 0,
    "##GR": 0,
    "##O": 0,
    "##UN": 0,
    "Although": 0,
    "N": 0,
    "##SC": 0,
    "##LC": 0,
    "among": 0,
    "few": 0,
    "data": 0,
    "available": 0,
    "regarding": 0,
    "toxicity": 30,
    "##otherapy": 0,
    "group": 1,
    "Recent": 0,
    "reports": 0,
    "indicate": 0,
    "single": 0,
    "agent": 0,
    "V": 1,
    "GE": 0,
    "obtain": 0,
    "acceptable": 0,
    "quality": 0,
    "life": 0,
    "current": 0,
    "advanced": 0,
    "con": 3,
    "##ind": 0,
    "##ica": 3,
    "##tion": 20,
    "Forty": 0,
    "nine": 0,
    "included": 0,
    "38": 0,
    ">": 0,
    "=": 0,
    "11": 0,
    "<": 1,
    "All": 0,
    "##val": 0,
    "##ua": 1,
    "Treatment": 0,
    "comprised": 0,
    "m": 2,
    "2": 0,
    "1000": 0,
    "both": 0,
    "Days": 0,
    "8": 1,
    "every": 0,
    "28": 0,
    "received": 0,
    "minimum": 0,
    "courses": 0,
    "unless": 0,
    "progressive": 0,
    "detected": 0,
    "One": 0,
    "hundred": 0,
    "sixty": 0,
    "five": 0,
    "administered": 0,
    "median": 0,
    "6": 0,
    "patient": 0,
    "overall": 0,
    "26": 0,
    "95": 0,
    "confidence": 0,
    "interval": 1,
    "41": 0,
    "Two": 0,
    "attained": 0,
    "complete": 0,
    "22": 0,
    "achieved": 0,
    "Eastern": 0,
    "##cology": 0,
    "performance": 0,
    "status": 0,
    "improved": 0,
    "initial": 0,
    "value": 0,
    "0": 2,
    "whereas": 0,
    "relief": 0,
    "least": 0,
    "worse": 0,
    "##ning": 0,
    "noted": 0,
    "27": 0,
    "progression": 0,
    "16": 0,
    "year": 0,
    "survival": 0,
    "33": 0,
    "To": 0,
    "##city": 5,
    "mild": 0,
    "Six": 0,
    "World": 0,
    "Health": 0,
    "Organization": 0,
    "Grade": 0,
    "##ut": 0,
    "##rop": 12,
    "##enia": 0,
    "##top": 1,
    "Three": 0,
    "died": 0,
    "##psis": 0,
    "developing": 0,
    "higher": 0,
    "remaining": 0,
    "75": 0,
    "vs": 0,
    "72": 0,
    ";": 0,
    "P": 2,
    "04": 0,
    "##7": 0,
    "moderately": 0,
    "active": 4,
    "well": 0,
    "tolerate": 0,
    "##d": 2,
    "except": 0,
    "##elo": 1,
    "##su": 0,
    "##pp": 0,
    "##ression": 0,
    "Therefore": 0,
    "##hyl": 0,
    "##actic": 0,
    "##ran": 9,
    "##ulo": 11,
    "colony": 0,
    "##ti": 0,
    "##mulating": 0,
    "should": 0,
    "considered": 0,
    "New": 0,
    "combinations": 0,
    "activity": 5,
    "needed": 0,
    "##mine": 0,
    "D": 1,
    "##4": 0,
    "receptor": 0,
    "antagonist": 0,
    "##RA": 0,
    "##01": 0,
    "##60": 0,
    "pre": 0,
    "##lini": 0,
    "##cal": 0,
    "##pha": 0,
    "##rma": 0,
    "##cological": 0,
    "profile": 0,
    "5": 0,
    "[": 0,
    "flu": 1,
    "##oro": 0,
    "##lide": 0,
    "pipe": 0,
    "##rid": 0,
    "y": 0,
    "##l": 20,
    "et": 0,
    "]": 0,
    "##ny": 0,
    "##zo": 0,
    "##le": 6,
    "##box": 0,
    "##ami": 0,
    "affinity": 0,
    "clone": 0,
    "receptors": 0,
    "Ki": 0,
    "values": 0,
    "9": 0,
    "n": 0,
    "000": 2,
    "##fold": 0,
    "potent": 0,
    "##2": 0,
    "##gli": 0,
    "##gible": 0,
    "##3": 0,
    "39": 0,
    "##rot": 0,
    "##oni": 1,
    "H": 2,
    "180": 0,
    "alpha": 0,
    "##1": 1,
    "ad": 4,
    "##ren": 0,
    "##ept": 0,
    "237": 0,
    "##za": 0,
    "ant": 0,
    "##agon": 0,
    "lo": 5,
    "##com": 6,
    "##oto": 6,
    "##yper": 27,
    "##act": 6,
    "##ivity": 6,
    "met": 0,
    "##ham": 0,
    "MA": 1,
    "##P": 2,
    "stereo": 0,
    "##type": 0,
    "although": 0,
    "their": 0,
    "exceed": 0,
    "even": 0,
    "highest": 0,
    "given": 0,
    "cat": 2,
    "##ale": 2,
    "##psy": 12,
    "induction": 0,
    "reversed": 0,
    "disruption": 0,
    "##pu": 3,
    "PP": 0,
    "##I": 1,
    "produced": 0,
    "##po": 1,
    "##mor": 1,
    "##phine": 0,
    "shortened": 0,
    "##hen": 2,
    "##lid": 0,
    "PC": 0,
    "prolonged": 0,
    "swimming": 0,
    "late": 0,
    "##ncy": 0,
    "water": 0,
    "maze": 0,
    "task": 0,
    "unique": 0,
    "##cho": 0,
    "##tic": 18,
    "liability": 0,
    "side": 0,
    "typical": 0,
    "classical": 0,
    "##tics": 0,
    "War": 0,
    "##fari": 0,
    "artery": 11,
    "##fication": 14,
    "accelerated": 0,
    "growth": 1,
    "vitamin": 0,
    "demonstrate": 0,
    "enhance": 0,
    "extent": 0,
    "sufficient": 0,
    "##hibit": 0,
    "gamma": 0,
    "##yla": 0,
    "matrix": 0,
    "##la": 0,
    "protein": 0,
    "known": 0,
    "expressed": 0,
    "smooth": 0,
    "muscle": 2,
    "mac": 0,
    "wall": 1,
    "series": 0,
    "experiments": 0,
    "examined": 0,
    "influence": 0,
    "massive": 0,
    "focal": 0,
    "old": 0,
    "extensive": 0,
    "42": 0,
    "contrast": 0,
    "month": 0,
    "adult": 0,
    "directly": 0,
    "importance": 0,
    "animals": 0,
    "same": 0,
    "fed": 0,
    "either": 0,
    "l": 15,
    "##ibi": 0,
    "##tum": 0,
    "diet": 0,
    "d": 68,
    "restricted": 0,
    "maintains": 0,
    "weight": 0,
    "prevents": 0,
    "Con": 0,
    "##current": 1,
    "##ary": 0,
    "detect": 0,
    "##able": 0,
    "explanation": 0,
    "association": 0,
    "determined": 0,
    "from": 0,
    "there": 0,
    "relationship": 0,
    "serum": 0,
    "phosphate": 0,
    "##ce": 0,
    "##ibility": 0,
    "young": 0,
    "resistant": 0,
    "observation": 0,
    "suggests": 0,
    "second": 0,
    "set": 0,
    "##yne": 0,
    "##rgy": 0,
    "High": 0,
    "cause": 0,
    "little": 0,
    "K": 0,
    "times": 0,
    "longer": 0,
    "yet": 0,
    "treatments": 0,
    "concurrent": 0,
    "dramatically": 0,
    "There": 0,
    "close": 0,
    "parallel": 0,
    "elevation": 0,
    "calcium": 0,
    "induce": 0,
    "through": 0,
    "its": 0,
    "Because": 0,
    "probably": 0,
    "best": 0,
    "explained": 0,
    "hypothesis": 0,
    "sites": 0,
    "chemical": 0,
    "analysis": 0,
    "accumulated": 0,
    "indeed": 0,
    "observations": 0,
    "##lut": 0,
    "##ama": 0,
    "residues": 0,
    "apparently": 0,
    "required": 0,
    "they": 0,
    "accumulation": 0,
    "Test": 0,
    "conditions": 0,
    "challenge": 0,
    "rode": 0,
    "##nts": 0,
    "conducted": 0,
    "differential": 0,
    "under": 0,
    "varied": 0,
    "routinely": 0,
    "employed": 0,
    "behavioral": 0,
    "##phy": 6,
    "##sio": 0,
    "##logical": 0,
    "##sel": 0,
    "##ec": 0,
    "##tive": 1,
    "selected": 0,
    "##si": 0,
    "ability": 0,
    "##her": 1,
    "produce": 0,
    "distinct": 0,
    "changes": 0,
    "turnover": 0,
    "##nt": 4,
    "From": 0,
    "such": 0,
    "characterization": 0,
    "detection": 0,
    "critically": 0,
    "depends": 0,
    "upon": 0,
    "facilitated": 0,
    "period": 0,
    "##ati": 0,
    "##zation": 2,
    "Moreover": 0,
    "can": 0,
    "impact": 0,
    "physiological": 0,
    "q": 1,
    "##ual": 0,
    "##itative": 0,
    "novel": 0,
    "when": 0,
    "behaviors": 5,
    "el": 0,
    "##icit": 0,
    "home": 0,
    "cage": 0,
    "Drug": 0,
    "gross": 0,
    "counts": 0,
    "ex": 2,
    "##lora": 0,
    "##tory": 0,
    "box": 0,
    "##pic": 0,
    "similar": 0,
    "By": 0,
    "##otion": 0,
    "prominent": 0,
    "Do": 0,
    "ratios": 0,
    "##OP": 0,
    "##AC": 0,
    "##VA": 0,
    "exposed": 0,
    "counterparts": 0,
    "reduction": 3,
    "##ata": 0,
    "environments": 0,
    "implications": 0,
    "particular": 0,
    "emphasis": 0,
    "conducting": 0,
    "ps": 3,
    "##ych": 3,
    "##op": 17,
    "##har": 0,
    "He": 0,
    "##mo": 1,
    "##lysis": 1,
    "##yt": 3,
    "##hr": 11,
    "##ocytes": 0,
    "##fen": 0,
    "membrane": 0,
    "Tam": 0,
    "##ox": 2,
    "##ife": 0,
    "##AM": 0,
    "##est": 1,
    "##rogen": 0,
    "most": 0,
    "widely": 0,
    "prescribed": 0,
    "breast": 2,
    "cancer": 42,
    "normal": 0,
    "##id": 6,
    "shape": 0,
    "##emia": 25,
    "work": 0,
    "evaluate": 0,
    "isolated": 0,
    "attempting": 0,
    "identify": 0,
    "involvement": 0,
    "bio": 0,
    "##me": 0,
    "##mb": 0,
    "##rane": 0,
    "##sis": 7,
    "concentration": 0,
    "extension": 1,
    "variable": 0,
    "##yte": 0,
    "samples": 0,
    "total": 0,
    "suspension": 0,
    "Despite": 0,
    "does": 0,
    "shift": 0,
    "##smo": 0,
    "##rag": 0,
    "##ility": 1,
    "curves": 1,
    "prevented": 0,
    "low": 0,
    "concentrations": 0,
    "##pher": 0,
    "##tate": 0,
    "inactivated": 0,
    "functional": 2,
    "##ydro": 0,
    "indicating": 0,
    "evidenced": 0,
    "absence": 0,
    "oxygen": 1,
    "consumption": 0,
    "##og": 3,
    "oxidation": 0,
    "Furthermore": 0,
    "observed": 0,
    "AA": 0,
    "##H": 0,
    "thus": 0,
    "ruling": 0,
    "stress": 0,
    "leak": 0,
    "##age": 0,
    "+": 0,
    "excluding": 0,
    "##llo": 0,
    "type": 1,
    "mechanism": 0,
    "according": 0,
    "release": 0,
    "peripheral": 1,
    "proteins": 0,
    "##kel": 0,
    "##eton": 0,
    "##oso": 0,
    "essentially": 0,
    "bound": 0,
    "band": 0,
    "Either": 0,
    "increases": 0,
    "packing": 0,
    "partition": 0,
    "protection": 0,
    "##ols": 0,
    "decreased": 0,
    "incorporation": 0,
    "##den": 0,
    "##sed": 0,
    "structural": 0,
    "consequently": 0,
    "avoided": 0,
    "##tur": 0,
    "##bation": 0,
    "red": 0,
    "framework": 0,
    "defects": 11,
    "explain": 0,
    "abnormal": 13,
    "mechanical": 0,
    "stability": 0,
    "promoted": 0,
    "resulting": 0,
    "Additionally": 0,
    "since": 0,
    "final": 0,
    "stage": 3,
    "characteristics": 0,
    "contribute": 0,
    "multiple": 0,
    "##can": 0,
    "Changes": 0,
    "sodium": 0,
    "ATP": 0,
    "##ffin": 0,
    "##ities": 13,
    "cardiac": 3,
    "Na": 0,
    "ni": 1,
    "##tric": 1,
    "oxide": 0,
    "def": 1,
    "##icient": 0,
    "system": 4,
    "NO": 0,
    "involved": 0,
    "regulation": 0,
    "variety": 0,
    "functions": 2,
    "synthesis": 0,
    "sustained": 1,
    "several": 0,
    "models": 0,
    "##cellular": 2,
    "level": 0,
    "documented": 0,
    "tissue": 1,
    "assess": 0,
    "molecular": 0,
    "basis": 0,
    "disturbance": 11,
    "trans": 0,
    "transport": 0,
    "##ynth": 0,
    "##tro": 7,
    "##rg": 5,
    "##ini": 0,
    "est": 0,
    "##er": 2,
    "four": 0,
    "After": 0,
    "S": 1,
    "36": 0,
    "terminating": 0,
    "recovered": 0,
    "When": 0,
    "act": 0,
    "##ivating": 0,
    "substrate": 0,
    "##m": 17,
    "##max": 0,
    "During": 0,
    "activation": 0,
    "remained": 0,
    "unchanged": 0,
    "however": 0,
    "profound": 0,
    "decrease": 1,
    "binding": 0,
    "site": 0,
    "revealed": 0,
    "lowered": 0,
    "returned": 0,
    "##versible": 0,
    "accompanied": 0,
    "depressed": 0,
    "##trusion": 0,
    "consequence": 0,
    "deteriorated": 0,
    "properties": 0,
    "restoration": 0,
    "long": 0,
    "term": 0,
    "##tre": 3,
    "##ment": 16,
    "##rote": 0,
    "br": 0,
    "##omo": 1,
    "##cript": 0,
    "conscious": 0,
    "It": 0,
    "persisted": 0,
    "##rena": 0,
    "##lect": 0,
    "##omy": 0,
    "mediated": 0,
    "central": 3,
    "ii": 0,
    "supporting": 0,
    "therefore": 0,
    "sympathetic": 1,
    "##flow": 1,
    "heart": 15,
    "whether": 0,
    "##bol": 0,
    "##ish": 0,
    "Is": 0,
    "affecting": 0,
    "150": 0,
    "B": 8,
    "##rip": 0,
    "##tine": 5,
    "##af": 0,
    "##fected": 0,
    "partly": 0,
    "##mper": 0,
    "Neither": 0,
    "##aga": 0,
    "tone": 0,
    "altered": 0,
    "##fused": 0,
    "preparations": 0,
    "ma": 14,
    "##ximal": 1,
    "increase": 0,
    "left": 3,
    "vent": 5,
    "##ric": 5,
    "##ular": 12,
    "sa": 2,
    "EC": 0,
    "##50": 0,
    "enhanced": 0,
    "approximately": 0,
    "fold": 2,
    "show": 0,
    "beta": 0,
    "##iti": 3,
    "rather": 0,
    "imp": 20,
    "##air": 20,
    "##dom": 0,
    "##inate": 0,
    "mask": 0,
    "developmental": 0,
    "##lon": 1,
    "ultra": 0,
    "##sound": 0,
    "production": 0,
    "infant": 0,
    "Under": 0,
    "controlled": 0,
    "em": 1,
    "##sonic": 0,
    "vocal": 0,
    "##izations": 0,
    "extreme": 0,
    "cold": 0,
    "exposure": 0,
    "Previous": 0,
    "investigations": 0,
    "2nd": 0,
    "##par": 0,
    "decreases": 0,
    "thereafter": 0,
    "Given": 0,
    "neural": 2,
    "dominance": 0,
    "exhibits": 0,
    "pattern": 0,
    "##hes": 0,
    "mirror": 0,
    "each": 0,
    "experiment": 0,
    "Age": 0,
    "correspond": 0,
    "variables": 0,
    "including": 0,
    "regard": 0,
    "acoustic": 0,
    "maneuver": 0,
    "compensate": 0,
    "##mental": 0,
    "newer": 0,
    "oral": 1,
    "##ceptive": 0,
    "ve": 1,
    "##nous": 0,
    "##boe": 10,
    "##mbo": 10,
    "##pid": 0,
    "##iol": 0,
    "##TE": 0,
    "distinguish": 0,
    "namely": 0,
    "users": 0,
    "repeat": 0,
    "##ers": 1,
    "switch": 0,
    "Data": 0,
    "Trans": 0,
    "##national": 0,
    "latter": 0,
    "accounting": 0,
    "duration": 0,
    "Over": 0,
    "1993": 0,
    "1996": 0,
    "cases": 0,
    "identified": 0,
    "Germany": 0,
    "along": 0,
    "206": 0,
    "##6": 0,
    "controls": 0,
    "Total": 0,
    "128": 0,
    "650": 0,
    "anal": 0,
    "135": 0,
    "62": 0,
    "switching": 0,
    "adjusted": 0,
    "ratio": 0,
    "third": 0,
    "generation": 0,
    "relative": 0,
    "pills": 0,
    "conclude": 0,
    "equivalent": 0,
    "risks": 0,
    "interrupt": 0,
    "periods": 0,
    "switched": 0,
    "generations": 0,
    "analyses": 0,
    "comparisons": 0,
    "pill": 0,
    "Different": 0,
    "systemic": 0,
    "##ally": 0,
    "k": 0,
    "##eta": 0,
    "lid": 1,
    "##aine": 0,
    "dynamic": 0,
    "static": 0,
    "##ges": 5,
    "##der": 0,
    "##mal": 3,
    "caps": 0,
    "##aic": 0,
    "humans": 0,
    "brush": 0,
    "##voked": 0,
    "pain": 41,
    "pu": 2,
    "##nc": 0,
    "double": 0,
    "blind": 0,
    "place": 0,
    "crossover": 0,
    "volunteers": 0,
    "Cap": 0,
    "##sai": 0,
    "100": 0,
    "injected": 0,
    "vol": 0,
    "##ar": 4,
    "forearm": 0,
    "followed": 0,
    "b": 1,
    "##us": 16,
    "min": 0,
    "started": 0,
    "measured": 0,
    "spontaneous": 0,
    "stimuli": 0,
    "VA": 0,
    "areas": 0,
    "Ke": 0,
    "area": 0,
    "Li": 0,
    "##do": 0,
    "##ca": 0,
    "scores": 0,
    "types": 0,
    "Development": 0,
    "aggressive": 1,
    "comparison": 0,
    "male": 0,
    "female": 0,
    "W": 0,
    "##ista": 0,
    "development": 0,
    "once": 0,
    "daily": 0,
    "obtained": 0,
    "breed": 0,
    "consecutive": 0,
    "sets": 0,
    "repeated": 0,
    "gradual": 0,
    "intensity": 0,
    "##ness": 1,
    "attack": 0,
    "toward": 0,
    "opponent": 0,
    "weak": 0,
    "tendency": 0,
    "conclusion": 0,
    "demonstrates": 0,
    "gender": 0,
    "differences": 0,
    "indicates": 0,
    "fill": 0,
    "valid": 0,
    "##ation": 5,
    "criteria": 0,
    "##rani": 0,
    "##eur": 11,
    "##ms": 5,
    "abuse": 6,
    "##gno": 0,
    "##stic": 1,
    "indicators": 0,
    "outcome": 0,
    "sub": 1,
    "##ara": 0,
    "##ch": 0,
    "reportedly": 0,
    "poor": 0,
    "literature": 0,
    "statistical": 0,
    "analyze": 0,
    "review": 0,
    "admissions": 0,
    "14": 0,
    "r": 4,
    "##up": 3,
    "##tured": 0,
    "history": 0,
    "presentation": 0,
    "##ctus": 0,
    "##cation": 1,
    "Hunt": 0,
    "Hess": 0,
    "grade": 0,
    "size": 0,
    "location": 0,
    "Glasgow": 0,
    "Out": 0,
    "##come": 0,
    "Scale": 0,
    "score": 0,
    "younger": 0,
    "00": 1,
    "located": 0,
    "anterior": 0,
    "circulation": 0,
    "smaller": 0,
    "08": 0,
    "mm": 0,
    "versus": 0,
    "05": 1,
    "##bid": 0,
    "##ity": 7,
    "##5": 0,
    "predict": 0,
    "##ors": 0,
    "##dis": 0,
    "##posed": 0,
    "##ture": 2,
    "earlier": 0,
    "much": 0,
    "##trar": 0,
    "published": 0,
    "reasonably": 0,
    "management": 0,
    "##di": 1,
    "acute": 0,
    "AND": 0,
    "##UR": 0,
    "##PO": 0,
    "##SE": 0,
    "Ni": 0,
    "West": 0,
    "European": 0,
    "St": 0,
    "##roke": 0,
    "Trial": 0,
    "IN": 0,
    "##W": 0,
    "correlation": 0,
    "BP": 1,
    "##fa": 0,
    "##vor": 0,
    "sought": 0,
    "adjustment": 0,
    "subgroup": 0,
    "increasing": 0,
    "clinical": 0,
    "within": 0,
    "24": 0,
    "allocated": 0,
    "101": 0,
    "94": 0,
    "average": 0,
    "change": 1,
    "21": 0,
    "analyzed": 0,
    "92": 0,
    "93": 0,
    "80": 0,
    "resulted": 0,
    "DB": 0,
    "multi": 4,
    "##var": 0,
    "##iate": 0,
    "49": 0,
    "##8": 0,
    "OR": 0,
    "compound": 0,
    "death": 2,
    "depend": 2,
    "##ency": 3,
    "Bart": 0,
    "##hel": 0,
    "Index": 0,
    "02": 0,
    "74": 0,
    "131": 0,
    "61": 0,
    "##9": 0,
    "For": 0,
    "##clusive": 0,
    "exclude": 0,
    "##ctive": 0,
    "property": 0,
    "Neo": 0,
    "##nat": 0,
    "##yr": 0,
    "##xin": 0,
    "##sp": 0,
    "##ons": 0,
    "##vu": 0,
    "##ions": 0,
    "##onia": 0,
    "##zi": 0,
    "17": 0,
    "13": 0,
    "birth": 0,
    "because": 0,
    "maternal": 0,
    "tuberculosis": 2,
    "admitted": 0,
    "fits": 1,
    "No": 0,
    "##fect": 1,
    "##chemical": 0,
    "ceased": 0,
    "administer": 0,
    "suggesting": 0,
    "##eti": 0,
    "##ology": 0,
    "deficiency": 4,
    "secondary": 0,
    "medication": 0,
    "##dation": 1,
    "children": 0,
    "fracture": 1,
    "emergency": 0,
    "department": 0,
    "recently": 0,
    "##rgen": 0,
    "##til": 0,
    "##hetic": 0,
    "requiring": 0,
    "purpose": 0,
    "fourteen": 0,
    "range": 1,
    "twelve": 0,
    "months": 0,
    "ten": 0,
    "underwent": 0,
    "closed": 0,
    "##location": 0,
    "I": 3,
    "trauma": 0,
    "center": 0,
    "prospective": 0,
    "evaluated": 0,
    "##ide": 0,
    "##ously": 0,
    "mill": 0,
    "##ig": 0,
    "##rams": 0,
    "##ilo": 0,
    "body": 1,
    "ninety": 0,
    "fifteen": 0,
    "board": 0,
    "certified": 0,
    "physician": 0,
    "air": 1,
    "##way": 0,
    "supervised": 0,
    "monitored": 0,
    "registered": 0,
    "nurse": 0,
    "Any": 0,
    "rated": 0,
    "##ae": 5,
    "##dic": 0,
    "surgeon": 0,
    "treating": 0,
    "Children": 0,
    "Hospital": 0,
    "Ontario": 0,
    "Pain": 0,
    "CH": 0,
    "manipulation": 0,
    "minute": 0,
    "thirty": 0,
    "seconds": 0,
    "twenty": 0,
    "minutes": 0,
    "forty": 0,
    "points": 0,
    "reflecting": 0,
    "minimal": 0,
    "Ad": 0,
    "##qua": 0,
    "111": 0,
    "Nine": 0,
    "percent": 0,
    "eight": 0,
    "parents": 0,
    "pleased": 0,
    "allow": 0,
    "again": 0,
    "situation": 0,
    "independent": 0,
    "##spiration": 0,
    "maintained": 0,
    "Blood": 0,
    "stable": 0,
    "Minor": 0,
    "nausea": 6,
    "thirteen": 0,
    "##esis": 0,
    "##lums": 0,
    "##iness": 3,
    "evident": 0,
    "##ax": 0,
    "movements": 7,
    "##ori": 0,
    "reaction": 12,
    "sequel": 2,
    "hall": 5,
    "##ination": 5,
    "nightmares": 0,
    "##lia": 1,
    "##bly": 0,
    "safely": 0,
    "quickly": 0,
    "provided": 0,
    "adequate": 0,
    "effectively": 0,
    "facilitate": 0,
    "institution": 0,
    "environment": 0,
    "where": 0,
    "proper": 0,
    "monitoring": 0,
    "physicians": 0,
    "care": 0,
    "Cy": 0,
    "##los": 0,
    "##por": 0,
    "##imus": 0,
    "##bot": 0,
    "##ang": 16,
    "##pathy": 49,
    "##MA": 0,
    "exchange": 0,
    "im": 5,
    "##mu": 5,
    "##bul": 0,
    "recipients": 0,
    "organ": 1,
    "transplant": 0,
    "removing": 0,
    "##citing": 0,
    "attendant": 0,
    "##pit": 0,
    "##ating": 0,
    "rejection": 0,
    "##raft": 3,
    "last": 0,
    "decade": 0,
    "seen": 0,
    "emergence": 0,
    "##nos": 0,
    "virtually": 0,
    "identical": 0,
    "As": 0,
    "viable": 0,
    "therapeutic": 0,
    "option": 0,
    "setting": 0,
    "With": 0,
    "widespread": 0,
    "application": 0,
    "recognized": 0,
    "##rrence": 0,
    "##quential": 0,
    "limited": 0,
    "report": 0,
    "living": 0,
    "donor": 0,
    "##nal": 41,
    "recipient": 0,
    "developed": 0,
    "responded": 0,
    "conjunction": 0,
    "##phere": 0,
    "fresh": 0,
    "frozen": 0,
    "replacement": 0,
    "alternative": 0,
    "subsequent": 0,
    "vice": 0,
    "versa": 0,
    "closely": 0,
    "signs": 2,
    "Ana": 0,
    "##lge": 0,
    "problematic": 0,
    "Animal": 0,
    "##MD": 0,
    "improving": 0,
    "op": 1,
    "difficult": 0,
    "syndrome": 69,
    "##pathic": 0,
    "slow": 0,
    "##hy": 14,
    "##not": 0,
    "whose": 0,
    "##ie": 0,
    "##ved": 0,
    "numerical": 0,
    "scale": 0,
    "vomit": 8,
    "##rows": 0,
    "confusion": 0,
    "dry": 0,
    "mouth": 8,
    "slight": 0,
    "lot": 0,
    "awful": 0,
    "Mini": 0,
    "Mental": 0,
    "State": 0,
    "Examination": 0,
    "M": 0,
    "##MS": 0,
    "art": 16,
    "##erial": 5,
    "recorded": 0,
    "drugs": 0,
    "##0": 0,
    "##30": 0,
    "120": 0,
    "##12": 0,
    "##18": 0,
    "solution": 0,
    "almost": 0,
    "relevant": 0,
    "Hall": 0,
    "unpleasant": 0,
    "sensation": 2,
    "\"": 0,
    "empty": 0,
    "episodes": 1,
    "##az": 0,
    "##ep": 0,
    "##am": 0,
    "Sign": 0,
    "##ificant": 0,
    "difference": 0,
    "improve": 0,
    "occurrence": 0,
    "taken": 0,
    "account": 0,
    "especially": 0,
    "Pac": 0,
    "##lit": 8,
    "##el": 5,
    "##disciplinary": 0,
    "approach": 0,
    "##static": 0,
    "based": 0,
    "translate": 0,
    "regime": 0,
    "##ns": 2,
    "objective": 0,
    "##eas": 0,
    "##ac": 1,
    "treat": 0,
    "Thirty": 0,
    "naive": 0,
    "Stage": 0,
    "Day": 0,
    "800": 0,
    "responding": 0,
    "scheduled": 0,
    "consolidation": 0,
    "radio": 0,
    "##ther": 0,
    "##ap": 5,
    "##lan": 1,
    "##ned": 0,
    "refer": 0,
    "34": 0,
    "exam": 0,
    "##ina": 0,
    "An": 0,
    "73": 0,
    "87": 0,
    "According": 0,
    "intention": 0,
    "71": 0,
    "53": 0,
    "85": 0,
    "154": 0,
    "97": 0,
    "117": 0,
    "137": 0,
    "86": 0,
    "Non": 0,
    "##hem": 2,
    "##log": 2,
    "toxic": 3,
    "follow": 0,
    "free": 2,
    "shows": 0,
    "merits": 0,
    "Ser": 0,
    "##ner": 0,
    "##gic": 4,
    "##press": 0,
    "##ants": 0,
    "##con": 7,
    "##nce": 5,
    "Many": 0,
    "##one": 0,
    "introduced": 0,
    "past": 0,
    "listed": 0,
    "package": 0,
    "insert": 0,
    "concerns": 0,
    "experienced": 0,
    "authors": 0,
    "describe": 0,
    "##take": 0,
    "par": 1,
    "##rt": 2,
    "lit": 0,
    "##hium": 0,
    "carbon": 0,
    "##ate": 0,
    "block": 7,
    "contributed": 0,
    "##HT": 0,
    "research": 0,
    "del": 0,
    "frequency": 2,
    "t": 1,
    "##rou": 0,
    "##bling": 0,
    "how": 0,
    "seizure": 12,
    "sensitivity": 0,
    "##bred": 0,
    "mouse": 0,
    "strains": 0,
    "Mat": 0,
    "##ure": 2,
    "stain": 0,
    "##iz": 0,
    "end": 1,
    "hind": 0,
    "running": 0,
    "jumping": 0,
    "bouncing": 0,
    "strain": 0,
    "##vi": 0,
    "##ties": 0,
    "J": 0,
    "being": 0,
    "sensitive": 0,
    "##BL": 0,
    "NZ": 0,
    "Lac": 0,
    "intermediate": 0,
    "E": 1,
    "##EG": 0,
    "recordings": 0,
    "made": 0,
    "revealing": 0,
    "correspondence": 0,
    "electrical": 0,
    "hip": 0,
    "##cam": 0,
    "##pus": 0,
    "cortex": 1,
    "Additional": 0,
    "useful": 0,
    "investigating": 0,
    "genetic": 0,
    "influences": 0,
    "initiation": 0,
    "##iza": 0,
    "chronic": 0,
    "Central": 0,
    "acting": 0,
    "##rene": 0,
    "spa": 3,
    "nervous": 4,
    "##ior": 3,
    "##pi": 0,
    "##rator": 0,
    "Adults": 0,
    "respond": 0,
    "simultaneously": 0,
    "blocked": 0,
    "boy": 0,
    "##isi": 0,
    "##ril": 0,
    "interaction": 0,
    "##pert": 0,
    "kept": 0,
    "mind": 0,
    "##cribing": 0,
    "lines": 0,
    "various": 0,
    "GA": 0,
    "##BA": 0,
    "##igan": 0,
    "##ds": 0,
    "bred": 0,
    "BS": 0,
    "resistance": 0,
    "BR": 0,
    "CC": 0,
    "inverse": 0,
    "ben": 0,
    "##dia": 0,
    "##ze": 0,
    "Our": 0,
    "aim": 0,
    "character": 0,
    "##ize": 0,
    "elevated": 0,
    "recording": 0,
    "##igi": 0,
    "##lance": 0,
    "states": 0,
    "pen": 0,
    "##lene": 0,
    "Results": 0,
    "presented": 0,
    "here": 0,
    "extended": 0,
    "selection": 0,
    "general": 0,
    "Pro": 0,
    "##py": 0,
    "##lt": 0,
    "##hi": 0,
    "##our": 0,
    "##lea": 0,
    "##hil": 0,
    "##las": 0,
    "##anti": 0,
    "##body": 1,
    "##rdi": 2,
    "##tis": 2,
    "##yl": 0,
    "##thi": 0,
    "woman": 0,
    "##thy": 0,
    "##roid": 0,
    "##ism": 0,
    "fever": 7,
    "##mer": 12,
    "##ulon": 0,
    "##itis": 16,
    "testing": 0,
    "done": 0,
    "Graves": 0,
    "illness": 3,
    "confirmed": 0,
    "evaluation": 0,
    "presence": 0,
    "##dies": 0,
    "##AN": 0,
    "##CA": 0,
    "against": 0,
    "##per": 0,
    "##idas": 0,
    "MP": 0,
    "she": 0,
    "##dn": 0,
    "##ison": 0,
    "alleviate": 0,
    "her": 1,
    "prior": 0,
    "Per": 0,
    "##but": 0,
    "Rep": 0,
    "##eat": 0,
    "##ient": 0,
    "##uria": 0,
    "los": 0,
    "##art": 0,
    "solitary": 0,
    "kidney": 8,
    "##tensive": 0,
    "man": 0,
    "ins": 20,
    "##uff": 16,
    "##iciency": 16,
    "hospital": 0,
    "##far": 46,
    "##ction": 44,
    "pulmonary": 7,
    "##function": 51,
    "Sur": 0,
    "##rising": 0,
    "sudden": 0,
    "lasted": 0,
    "despite": 0,
    "fur": 0,
    "##ose": 0,
    "##mi": 0,
    "later": 0,
    "mistake": 0,
    "episode": 0,
    "lasting": 0,
    "his": 0,
    "diminished": 0,
    "Ultimately": 0,
    "##eri": 0,
    "##ography": 0,
    "##ten": 3,
    "##osis": 16,
    "combined": 0,
    "certainly": 0,
    "strong": 0,
    "##nin": 0,
    "RA": 0,
    "II": 4,
    "critical": 0,
    "fall": 0,
    "fi": 20,
    "##ltration": 2,
    "highlights": 0,
    "fact": 0,
    "unexpected": 0,
    "complications": 8,
    "##nova": 0,
    "caution": 0,
    "Cal": 0,
    "##cine": 0,
    "##IP": 0,
    "Bone": 0,
    "frequent": 0,
    "diseases": 4,
    "strategies": 0,
    "correct": 0,
    "feet": 0,
    "scan": 0,
    "trace": 0,
    "foot": 1,
    "bones": 0,
    "Ma": 0,
    "##gnetic": 0,
    "demonstrated": 0,
    "bone": 0,
    "##rrow": 7,
    "painful": 0,
    "causing": 0,
    "like": 6,
    "reflex": 0,
    "Morton": 0,
    "##gia": 2,
    "go": 0,
    "##ste": 0,
    "##vas": 0,
    "##rosis": 24,
    "intermittent": 0,
    "##lau": 2,
    "##dication": 2,
    "##orm": 7,
    "##athy": 16,
    "##rough": 0,
    "channel": 0,
    "##duced": 0,
    "##yn": 0,
    "##drome": 0,
    "rare": 0,
    "accurately": 0,
    "Inc": 0,
    "##ct": 1,
    "will": 0,
    "lead": 0,
    "suffering": 0,
    "Brain": 0,
    "na": 0,
    "##eptide": 0,
    "##hra": 0,
    "##cline": 0,
    "##iot": 0,
    "##racy": 0,
    "##lastic": 6,
    "frequently": 0,
    "conventional": 0,
    "need": 0,
    "search": 0,
    "methods": 0,
    "highly": 0,
    "capable": 0,
    "##NP": 0,
    "simple": 1,
    "diagnostic": 0,
    "indicator": 0,
    "le": 13,
    "##uke": 10,
    "da": 0,
    "##uno": 0,
    "##ru": 0,
    "##bic": 0,
    "##NR": 0,
    "containing": 0,
    "Thirteen": 0,
    "Card": 0,
    "##iac": 0,
    "##nu": 0,
    "##graphy": 0,
    "##oth": 0,
    "##era": 0,
    "##pies": 0,
    "##rial": 0,
    "AN": 0,
    "completion": 0,
    "Five": 0,
    "having": 0,
    "above": 0,
    "limit": 0,
    "hand": 0,
    "700": 0,
    "always": 0,
    "preliminary": 0,
    "early": 0,
    "##hal": 1,
    "##ent": 2,
    "tub": 2,
    "characterized": 0,
    "##li": 2,
    "very": 0,
    "carefully": 0,
    "##biotic": 0,
    "##na": 2,
    "##pop": 0,
    "deaths": 0,
    "##tam": 0,
    "##dar": 0,
    "##x": 0,
    "##ubi": 0,
    "##36": 0,
    "grape": 0,
    "seed": 0,
    "##ho": 2,
    "##ani": 0,
    "##din": 0,
    "extract": 0,
    "##rap": 0,
    "primarily": 0,
    "##ulate": 0,
    "wide": 0,
    "biological": 0,
    "##ological": 0,
    "##SP": 0,
    "prevent": 0,
    "AM": 0,
    "##OX": 0,
    "Experimental": 0,
    "design": 0,
    "consisted": 0,
    "##ava": 0,
    "##ged": 0,
    "500": 0,
    "48": 0,
    "Para": 0,
    "##meter": 0,
    "chemistry": 0,
    "AL": 0,
    "CP": 0,
    "orderly": 0,
    "fragment": 0,
    "##eno": 4,
    "DNA": 0,
    "##on": 0,
    "##se": 1,
    "##scopic": 0,
    "corresponding": 0,
    "PA": 0,
    "stained": 0,
    "tissues": 0,
    "##ex": 1,
    "##sure": 0,
    "near": 0,
    "terms": 0,
    "His": 1,
    "##ath": 1,
    "examination": 0,
    "sections": 0,
    "moderate": 0,
    "##phological": 1,
    "##ber": 0,
    "##rations": 0,
    "residual": 0,
    "alterations": 3,
    "mirrored": 0,
    "Interest": 0,
    "##ingly": 0,
    "respective": 0,
    "organs": 0,
    "Since": 0,
    "undergo": 0,
    "##formation": 0,
    "damaging": 0,
    "radical": 0,
    "linked": 0,
    "metabolism": 0,
    "presumed": 0,
    "contribution": 0,
    "repair": 0,
    "another": 0,
    "important": 0,
    "attribute": 0,
    "played": 0,
    "role": 0,
    "##vention": 0,
    "process": 1,
    "Take": 0,
    "together": 0,
    "events": 2,
    "undoubtedly": 0,
    "establish": 0,
    "abundant": 0,
    "##bility": 1,
    "power": 0,
    "defend": 0,
    "target": 0,
    "assaults": 0,
    "diverse": 0,
    "entities": 0,
    "Anti": 0,
    "##pol": 1,
    "identification": 0,
    "factors": 0,
    "about": 0,
    "continue": 0,
    "interfere": 0,
    "establishment": 0,
    "optimal": 0,
    "paradigm": 0,
    "depression": 10,
    "44": 0,
    "meeting": 0,
    "naturalist": 0,
    "Montgomery": 0,
    "##berg": 0,
    "Depression": 0,
    "Be": 0,
    "Rafael": 0,
    "##son": 0,
    "Man": 0,
    "##mani": 0,
    "sex": 0,
    "number": 5,
    "electro": 0,
    "##lsive": 3,
    "particularly": 0,
    "SSR": 0,
    "stab": 0,
    "##ilizer": 0,
    "temper": 0,
    "##ament": 0,
    "norm": 0,
    "component": 0,
    "Semi": 0,
    "structured": 0,
    "##ffe": 0,
    "Interview": 0,
    "##witch": 0,
    "##a": 19,
    "Sex": 0,
    "additional": 0,
    "switches": 0,
    "seemed": 0,
    "probability": 0,
    "##structure": 0,
    "greater": 0,
    "Part": 0,
    "##icular": 0,
    "attention": 2,
    "paid": 0,
    "##ub": 0,
    "cap": 0,
    "##illa": 5,
    "basement": 0,
    "##lication": 0,
    "native": 0,
    "clinic": 0,
    "278": 0,
    "specimens": 0,
    "##CR": 0,
    "practical": 0,
    "theoretical": 0,
    "tried": 0,
    "143": 0,
    "##st": 2,
    "##ructural": 0,
    "protocol": 0,
    "##ps": 3,
    "##ies": 2,
    "Native": 0,
    "##path": 0,
    "##gnant": 0,
    "inter": 1,
    "##rit": 10,
    "Sc": 1,
    "##hon": 1,
    "##lein": 1,
    "##res": 1,
    "##cent": 0,
    "Mi": 0,
    "##ld": 0,
    "significance": 0,
    "unclear": 0,
    "occurs": 0,
    "though": 0,
    "injury": 31,
    "les": 3,
    "##fe": 0,
    "##rr": 4,
    "##gni": 0,
    "danger": 0,
    "health": 0,
    "##food": 0,
    "products": 0,
    "existing": 0,
    "mit": 0,
    "valve": 1,
    "##lap": 1,
    "##tract": 0,
    "##bri": 20,
    "consuming": 0,
    "natural": 0,
    "energy": 0,
    "##rana": 0,
    "drink": 0,
    "label": 0,
    "##ling": 0,
    "analog": 0,
    "##100": 0,
    "##sen": 3,
    "##go": 0,
    "##leo": 0,
    "##tide": 0,
    "targeting": 0,
    "si": 0,
    "##gma": 0,
    "interact": 0,
    "Swiss": 0,
    "Webster": 0,
    "##10": 0,
    "##abi": 0,
    "##ane": 0,
    "##pipe": 0,
    "##raz": 0,
    "##13": 0,
    "Competition": 0,
    "ass": 1,
    "##ays": 0,
    "compounds": 0,
    "vary": 0,
    "exhibit": 0,
    "##uated": 0,
    "lethal": 0,
    "proportion": 0,
    "put": 0,
    "##ative": 1,
    "##gua": 0,
    "##31": 0,
    "At": 0,
    "##lator": 0,
    "##uate": 0,
    "Together": 0,
    "##uating": 0,
    "Rani": 0,
    "##ver": 0,
    "preventing": 0,
    "ul": 1,
    "ran": 0,
    "specimen": 0,
    "path": 0,
    "##mon": 0,
    "features": 0,
    "##phi": 0,
    "##fi": 2,
    "compartment": 0,
    "rapidly": 0,
    "Live": 0,
    "presents": 0,
    "laboratory": 0,
    "electron": 0,
    "he": 35,
    "list": 0,
    "must": 0,
    "liver": 15,
    "##dra": 0,
    "##wal": 0,
    "emerge": 3,
    "rabbit": 1,
    "Rabbit": 0,
    "RS": 2,
    "extra": 1,
    "##ram": 1,
    "##idal": 0,
    "##ptic": 11,
    "Here": 0,
    "kind": 0,
    "successfully": 0,
    "##ri": 0,
    "##liner": 0,
    "Ph": 0,
    "##arma": 0,
    "##kin": 11,
    "##etic": 1,
    "##dynamic": 0,
    "assessment": 0,
    "##40": 0,
    "##isa": 0,
    "##ride": 0,
    "##rf": 0,
    "##ena": 0,
    "##rod": 0,
    "##has": 0,
    "potential": 0,
    "dog": 0,
    "Tor": 0,
    "##sad": 0,
    "point": 3,
    "TD": 0,
    "fatal": 0,
    "Q": 3,
    "market": 0,
    "Four": 0,
    "mimic": 0,
    "designed": 0,
    "76": 0,
    "##rrel": 0,
    "differentiation": 0,
    "##ff": 3,
    "##cious": 0,
    "margins": 0,
    "##mize": 0,
    "respect": 0,
    "candidates": 0,
    "##lad": 0,
    "urine": 1,
    "continuous": 0,
    "##any": 0,
    "commonly": 0,
    "neon": 0,
    "##xious": 0,
    "invasive": 0,
    "intensive": 0,
    "unit": 0,
    "##ync": 0,
    "##ony": 0,
    "breaths": 0,
    "Fen": 0,
    "##tany": 0,
    "purposes": 0,
    "Various": 0,
    "include": 0,
    "chest": 0,
    "rigid": 4,
    "##voc": 0,
    "##aly": 0,
    "##cea": 0,
    "##king": 0,
    "Fat": 0,
    "##ence": 0,
    "##lop": 0,
    "accidental": 0,
    "##the": 0,
    "##rist": 1,
    "girl": 0,
    "##ymph": 14,
    "##ob": 7,
    "##uce": 1,
    "57": 0,
    "Clinical": 0,
    "onset": 0,
    "##ist": 0,
    "sensory": 2,
    "ascending": 0,
    "para": 1,
    "##his": 0,
    "##FB": 0,
    "CD": 0,
    "68": 0,
    "##gene": 1,
    "##ration": 0,
    "##elin": 1,
    "##xon": 1,
    "pseudo": 1,
    "transformation": 1,
    "numerous": 0,
    "Pa": 0,
    "##pe": 0,
    "##bra": 1,
    "twitch": 2,
    "adolescent": 0,
    "##ital": 0,
    "Current": 0,
    "estimates": 0,
    "affected": 0,
    "major": 0,
    "favorable": 0,
    "##mit": 2,
    "##sal": 0,
    "##azi": 0,
    "strikes": 0,
    "lady": 0,
    "constellation": 0,
    "der": 0,
    "##ade": 0,
    "beginning": 0,
    "17th": 0,
    "##uma": 2,
    "Ce": 0,
    "##vic": 0,
    "ing": 0,
    "##uin": 0,
    "node": 0,
    "##ising": 0,
    "##ha": 5,
    "##tosis": 0,
    "##rates": 0,
    "viral": 0,
    "inclusion": 0,
    "bodies": 0,
    "##ul": 0,
    "##mina": 1,
    "nuclear": 0,
    "markers": 0,
    "##im": 0,
    "##nity": 0,
    "super": 0,
    "She": 0,
    "subsequently": 0,
    "commencement": 0,
    "Post": 0,
    "##ort": 4,
    "##vity": 0,
    "##gna": 1,
    "thought": 0,
    "##ronology": 0,
    "bore": 0,
    "##marks": 0,
    "so": 0,
    "called": 0,
    "##alle": 0,
    "aka": 0,
    "##sia": 0,
    "ST": 0,
    "##Y": 0,
    "city": 0,
    "teaching": 0,
    "aged": 0,
    "headache": 3,
    "eligible": 0,
    "Study": 0,
    "participants": 0,
    "means": 0,
    "push": 0,
    "main": 0,
    "experiencing": 0,
    "##kat": 0,
    "defined": 0,
    "restless": 0,
    "agitation": 1,
    "rating": 0,
    "investigator": 0,
    "visual": 2,
    "enrolled": 0,
    "participant": 0,
    "excluded": 0,
    "violation": 0,
    "Seven": 0,
    "99": 0,
    "32": 0,
    "Delta": 0,
    "saw": 0,
    "29": 0,
    "likewise": 0,
    "appear": 0,
    "formal": 0,
    "Combined": 0,
    "##ret": 3,
    "##rov": 0,
    "##ira": 0,
    "##my": 6,
    "##eva": 0,
    "##tes": 0,
    "la": 1,
    "##genic": 0,
    "AIDS": 0,
    "##AA": 0,
    "##RT": 0,
    "implicated": 0,
    "LA": 0,
    "mitochondrial": 0,
    "NL": 0,
    "3D": 0,
    "gag": 0,
    "wild": 0,
    "F": 0,
    "##VB": 0,
    "litter": 0,
    "##mates": 0,
    "z": 0,
    "##dina": 0,
    "##vir": 0,
    "termination": 0,
    "echo": 0,
    "##uant": 0,
    "##itation": 5,
    "abundance": 0,
    "##RNA": 0,
    "encoding": 0,
    "##F": 0,
    "##rc": 2,
    "SE": 0,
    "##RC": 0,
    "determination": 0,
    "My": 0,
    "semi": 0,
    "##nti": 0,
    "##tative": 0,
    "transmission": 1,
    "##sco": 0,
    "mass": 1,
    "160": 0,
    "Molecular": 0,
    "250": 0,
    "Path": 0,
    "enlarged": 0,
    "damaged": 0,
    "##och": 0,
    "##ond": 0,
    "##ria": 0,
    "Finding": 0,
    "##ts": 0,
    "cumulative": 0,
    "Phase": 0,
    "WR": 0,
    "272": 0,
    "##if": 0,
    "Older": 0,
    "limiting": 0,
    "initially": 0,
    "protect": 0,
    "military": 0,
    "personnel": 0,
    "war": 0,
    "Am": 0,
    "al": 1,
    "##ky": 0,
    "##lating": 0,
    "decreasing": 0,
    "Early": 0,
    "trials": 0,
    "91": 0,
    "##yd": 0,
    "until": 0,
    "ineligible": 0,
    "cycles": 0,
    "37": 0,
    "Most": 0,
    "stopped": 0,
    "52": 0,
    "threatening": 0,
    "tumor": 3,
    "protective": 0,
    "Oral": 0,
    "##tage": 1,
    "##ode": 2,
    "##von": 0,
    "mutations": 0,
    "nationwide": 0,
    "population": 0,
    "248": 0,
    "women": 0,
    "1990": 0,
    "1995": 0,
    "matched": 0,
    "calendar": 0,
    "index": 0,
    "residence": 0,
    "Sub": 0,
    "##jects": 0,
    "supplied": 0,
    "information": 0,
    "Leiden": 0,
    "##20": 0,
    "##21": 0,
    "mutation": 0,
    "gene": 0,
    "217": 0,
    "odds": 0,
    "##user": 0,
    "Among": 0,
    "End": 0,
    "##SR": 0,
    "##X": 0,
    "Their": 0,
    "success": 0,
    "retrospective": 0,
    "examines": 0,
    "CR": 0,
    "June": 0,
    "1985": 0,
    "December": 0,
    "1994": 0,
    "survived": 0,
    "##oper": 1,
    "83": 0,
    "collected": 0,
    "database": 0,
    "source": 0,
    "divided": 0,
    "Control": 0,
    "##rea": 0,
    "##tin": 0,
    "45": 0,
    "Groups": 0,
    "Compared": 0,
    "##tore": 0,
    "requirement": 0,
    "dial": 0,
    "Multi": 0,
    "step": 0,
    "##wise": 0,
    "log": 0,
    "##istic": 0,
    "##gression": 0,
    "Overall": 0,
    "54": 0,
    "develop": 0,
    "likely": 0,
    "##pile": 21,
    "##ical": 1,
    "seal": 0,
    "##xa": 0,
    "Fi": 1,
    "derived": 0,
    "##rger": 0,
    "typically": 0,
    "contain": 0,
    "synthetic": 0,
    "substitute": 0,
    "wanted": 0,
    "retains": 0,
    "if": 0,
    "incorporated": 0,
    "47": 0,
    "applied": 0,
    "surface": 0,
    "##tized": 0,
    "##raphy": 0,
    "behaviour": 0,
    "##hesia": 0,
    "##IN": 0,
    "##DI": 0,
    "##NG": 0,
    "Thus": 0,
    "generalized": 0,
    "lowest": 0,
    "brief": 0,
    "jerk": 1,
    "correlated": 0,
    "##voke": 0,
    "##RP": 0,
    "##RE": 0,
    "##TA": 0,
    "##ON": 0,
    "##NS": 1,
    "pose": 0,
    "substantial": 0,
    "##tero": 0,
    "direct": 0,
    "support": 0,
    "remains": 0,
    "theory": 0,
    "allows": 0,
    "mid": 2,
    "##esta": 0,
    "##ryo": 0,
    "##zac": 0,
    "##nic": 0,
    "let": 0,
    "many": 0,
    "preserved": 0,
    "classified": 0,
    "simply": 0,
    "large": 0,
    "amount": 0,
    "Micro": 0,
    "configuration": 0,
    "##ging": 0,
    "detachment": 1,
    "##rm": 0,
    "##15": 0,
    "modes": 0,
    "##cula": 0,
    "distribution": 0,
    "vessels": 0,
    "##gro": 0,
    "##wth": 0,
    "parts": 0,
    "##car": 4,
    "avid": 0,
    "##utical": 0,
    "necessary": 0,
    "animal": 0,
    "implies": 0,
    "##iga": 0,
    "easily": 0,
    "prepared": 0,
    "##CM": 0,
    "##Z": 0,
    "easy": 0,
    "prepare": 0,
    "96": 0,
    "##tribution": 0,
    "clearance": 0,
    "via": 0,
    "standard": 0,
    "##ised": 0,
    "UV": 0,
    "##cted": 0,
    "drawn": 0,
    "camera": 0,
    "images": 0,
    "image": 0,
    "makes": 0,
    "ideal": 0,
    "Z": 0,
    "##ban": 0,
    "##yclic": 0,
    "formulation": 0,
    "released": 0,
    "Ireland": 0,
    "smoking": 0,
    "##ess": 0,
    "aid": 0,
    "introduction": 0,
    "##dos": 4,
    "National": 0,
    "Po": 0,
    "Information": 0,
    "Centre": 0,
    "Common": 0,
    "##sus": 2,
    "##tated": 0,
    "31": 0,
    "admission": 0,
    "Care": 0,
    "Unit": 0,
    "ventilation": 0,
    "full": 0,
    "supportive": 0,
    "broad": 0,
    "complex": 0,
    "##sin": 0,
    "##LE": 0,
    "##PP": 0,
    "##hos": 0,
    "##tase": 0,
    "marker": 0,
    "pod": 0,
    "##pical": 0,
    "processes": 1,
    "plays": 0,
    "regulating": 0,
    "understand": 0,
    "utility": 0,
    "##chemistry": 0,
    "Western": 0,
    "##ay": 0,
    "amino": 0,
    "##cle": 8,
    "##ito": 0,
    "##nea": 0,
    "##iss": 0,
    "##ues": 0,
    "126": 0,
    "phase": 0,
    "##ace": 0,
    "##ulos": 5,
    "265": 0,
    "79": 0,
    "x": 0,
    "mole": 0,
    "##ulus": 0,
    "content": 0,
    "begun": 0,
    "return": 0,
    "towards": 0,
    "scar": 0,
    "##ring": 0,
    "absent": 0,
    "expression": 0,
    "unlike": 0,
    "reflects": 0,
    "##ici": 1,
    "described": 0,
    "Use": 0,
    "Met": 0,
    "##ception": 0,
    "##ip": 5,
    "177": 0,
    "13th": 0,
    "charcoal": 0,
    "meal": 0,
    "##test": 0,
    "##inal": 1,
    "transit": 0,
    "Si": 0,
    "##lta": 0,
    "##iation": 0,
    "139": 0,
    "units": 0,
    "280": 0,
    "au": 0,
    "partially": 0,
    "##ider": 0,
    "tolerance": 1,
    "regardless": 0,
    "If": 0,
    "en": 2,
    "##ter": 4,
    "##ix": 0,
    "IF": 0,
    "51": 0,
    "upper": 1,
    "##tom": 0,
    "awake": 0,
    "mental": 3,
    "rest": 0,
    "failed": 0,
    "reveal": 0,
    "lesions": 6,
    "metabolic": 0,
    "irregular": 0,
    "slowing": 0,
    "##xed": 0,
    "periodic": 0,
    "trip": 0,
    "waves": 0,
    "discontinued": 0,
    "resolved": 0,
    "completely": 0,
    "resolution": 0,
    "##tag": 0,
    "##sm": 4,
    "##uki": 0,
    "##oi": 0,
    "IL": 0,
    "fusion": 0,
    "insulin": 0,
    "##iet": 0,
    "proliferation": 0,
    "Bo": 0,
    "##vin": 0,
    "culture": 0,
    "##ola": 0,
    "##yers": 0,
    "thy": 1,
    "cultures": 0,
    "separated": 0,
    "##fu": 0,
    "##gation": 0,
    "fraction": 0,
    "##pal": 0,
    "##ergic": 1,
    "prone": 0,
    "pathway": 0,
    "##ogen": 1,
    "alcohol": 1,
    "ethanol": 0,
    "Cho": 0,
    "##sist": 0,
    "Animals": 0,
    "##cot": 0,
    "##bach": 0,
    "neo": 0,
    "timed": 0,
    "tail": 0,
    "vein": 5,
    "##ncies": 1,
    "##rem": 6,
    "converted": 0,
    "threshold": 0,
    "##dial": 0,
    "measure": 0,
    "basal": 1,
    "potassium": 0,
    "stimulate": 0,
    "##h": 0,
    "CA": 0,
    "region": 0,
    "##tas": 0,
    "##sium": 0,
    "reverse": 0,
    "twice": 0,
    "Hip": 0,
    "handling": 0,
    "Sen": 0,
    "##points": 0,
    "KC": 0,
    "output": 3,
    "192": 0,
    "##sign": 0,
    "59": 0,
    "posts": 0,
    "##yna": 0,
    "##lica": 0,
    "Specifically": 0,
    "brought": 0,
    "neurons": 0,
    "alter": 0,
    "jaw": 0,
    "stretch": 0,
    "##logy": 0,
    "tempo": 0,
    "##roma": 0,
    "##ndi": 0,
    "##bula": 0,
    "fully": 0,
    "understood": 0,
    "##ulates": 0,
    "characteristic": 0,
    "ways": 0,
    "##ffer": 0,
    "fibers": 0,
    "length": 0,
    "velocity": 0,
    "##eter": 0,
    "healthy": 0,
    "Short": 0,
    "temporal": 0,
    "muscles": 0,
    "device": 0,
    "##loc": 0,
    "displacement": 0,
    "amplitude": 1,
    "constant": 0,
    "faster": 0,
    "stretches": 0,
    "##reased": 0,
    "##imo": 0,
    "##jected": 0,
    "##umba": 0,
    "shell": 0,
    "core": 0,
    "##gion": 0,
    "Male": 0,
    "##lanted": 0,
    "bilateral": 0,
    "then": 0,
    "locally": 0,
    "System": 0,
    "##ula": 0,
    "Such": 0,
    "maximum": 0,
    "modified": 0,
    "modification": 0,
    "consisting": 0,
    "##tat": 0,
    "words": 0,
    "play": 0,
    "##mis": 0,
    "##sive": 0,
    "seeing": 0,
    "tip": 0,
    "ice": 0,
    "?": 0,
    "recreational": 0,
    "ought": 0,
    "familiar": 0,
    "faced": 0,
    "victim": 0,
    "otherwise": 0,
    "##lemma": 0,
    "Finally": 0,
    "moral": 0,
    "issues": 0,
    "relating": 0,
    "addressed": 0,
    "Cross": 0,
    "##over": 0,
    "preference": 0,
    "##pta": 4,
    "##got": 0,
    "##amine": 0,
    "mi": 1,
    "##gra": 1,
    "absorption": 0,
    "tablet": 0,
    "tablets": 0,
    "43": 0,
    "Of": 0,
    "expressing": 0,
    "89": 0,
    "preferred": 0,
    "69": 0,
    "Fast": 0,
    "reason": 0,
    "cited": 0,
    "67": 0,
    "preferring": 0,
    "primary": 0,
    "##point": 0,
    "favor": 0,
    "superior": 0,
    "##ache": 0,
    "dos": 0,
    "Almost": 0,
    "proportions": 0,
    "##bia": 0,
    "photo": 0,
    "##obia": 0,
    "intake": 0,
    "More": 0,
    "somewhat": 0,
    "satisfied": 0,
    "Both": 0,
    "##zzi": 0,
    "##len": 0,
    "##vere": 0,
    "orbital": 3,
    "##lio": 2,
    "##blast": 1,
    "##ere": 0,
    "##rum": 0,
    "adulthood": 0,
    "radiation": 0,
    "expect": 0,
    "##ancy": 0,
    "sometimes": 0,
    "added": 0,
    "Generally": 0,
    "said": 0,
    "##quent": 0,
    "58": 0,
    "lobe": 9,
    "complained": 0,
    "##teral": 1,
    "eye": 2,
    "##ico": 0,
    "##ster": 0,
    "##oids": 0,
    "angle": 0,
    "closure": 0,
    "##ille": 0,
    "##tina": 1,
    "continued": 0,
    "##use": 0,
    "##orio": 0,
    "vision": 3,
    "performing": 0,
    "aware": 0,
    "blinding": 0,
    "effort": 0,
    "minimize": 0,
    "Visual": 0,
    "spectrum": 1,
    "##ile": 0,
    "readings": 0,
    "video": 0,
    "capture": 0,
    "None": 0,
    "recent": 0,
    "disappeared": 0,
    "help": 0,
    "##lar": 1,
    "##ify": 0,
    "Until": 0,
    "##ians": 0,
    "##vo": 1,
    "##ba": 0,
    "##bat": 0,
    "##rin": 0,
    "good": 0,
    "##side": 0,
    "##uing": 0,
    "off": 0,
    "##ending": 0,
    "##yric": 0,
    "transmitted": 0,
    "##ala": 3,
    "##tical": 0,
    "circuit": 0,
    "accounts": 0,
    "part": 0,
    "promoting": 0,
    "accompanying": 0,
    "trigger": 0,
    "possibility": 0,
    "##ra": 4,
    "##vation": 0,
    "whenever": 0,
    "understanding": 0,
    "inappropriate": 0,
    "Pre": 0,
    "##met": 0,
    "programs": 0,
    "Dex": 0,
    "##ame": 1,
    "##tha": 0,
    "##etus": 0,
    "accelerate": 0,
    "programmed": 0,
    "##tional": 0,
    "19": 0,
    "Off": 0,
    "56": 0,
    "comparable": 0,
    "##uli": 0,
    "23": 0,
    "380": 0,
    "Adult": 0,
    "sole": 0,
    "Kid": 0,
    "##ney": 0,
    "morphology": 0,
    "short": 0,
    "sir": 0,
    "##oli": 1,
    "Sir": 0,
    "SR": 0,
    "supplement": 0,
    "seems": 0,
    "differently": 0,
    "displaying": 0,
    "question": 0,
    "still": 0,
    "open": 0,
    "protocols": 0,
    "indication": 0,
    "##pra": 0,
    "##gue": 0,
    "Da": 0,
    "##wley": 0,
    "FK": 0,
    "##lly": 0,
    "achieve": 0,
    "quantitative": 0,
    "scoring": 0,
    "striped": 0,
    "##bro": 1,
    "##cap": 0,
    "##sul": 0,
    "##ules": 0,
    "Sirius": 0,
    "Red": 0,
    "substances": 0,
    "worst": 0,
    "marginal": 0,
    "Evaluation": 0,
    "##graphic": 0,
    "serial": 0,
    "examinations": 0,
    "weekly": 0,
    "Ten": 0,
    "Access": 0,
    "ng": 0,
    "##ass": 0,
    "MB": 0,
    "posterior": 0,
    "thickness": 0,
    "##V": 1,
    "diameter": 0,
    "##ening": 0,
    "surviving": 0,
    "##tology": 0,
    "Eight": 0,
    "##een": 0,
    "premature": 0,
    "parameters": 0,
    "hearts": 0,
    "degrees": 0,
    "##iva": 0,
    "##uo": 0,
    "Only": 0,
    "rise": 0,
    "Maxim": 0,
    "Analysis": 0,
    "81": 0,
    "65": 0,
    "greatest": 0,
    "disc": 0,
    "##pan": 0,
    "cross": 2,
    "react": 0,
    "##iv": 0,
    "##bs": 7,
    "forms": 0,
    "magnitude": 0,
    "prediction": 0,
    "possibly": 0,
    "Oct": 0,
    "##pox": 1,
    "##ates": 0,
    "enter": 2,
    "##uta": 0,
    "fist": 0,
    "##izing": 0,
    "##mona": 0,
    "discuss": 0,
    "##rone": 0,
    "##hin": 0,
    "##rad": 0,
    "nest": 0,
    "licensed": 0,
    "hi": 0,
    "##rs": 0,
    "##vary": 1,
    "##OS": 0,
    "##Cs": 0,
    "believe": 0,
    "##found": 0,
    "Using": 0,
    "General": 0,
    "Practice": 0,
    "Database": 0,
    "estimate": 0,
    "reference": 0,
    "pregnancy": 0,
    "men": 0,
    "##aus": 0,
    "gave": 0,
    "##j": 0,
    "gum": 0,
    "Arabic": 0,
    "GM": 0,
    "w": 0,
    "##que": 0,
    "powder": 0,
    "##ita": 3,
    "##ntly": 0,
    "measuring": 0,
    "##ione": 0,
    "indicated": 0,
    "183": 0,
    "239": 0,
    "slightly": 0,
    "##ferred": 0,
    "modest": 0,
    "##oration": 0,
    "##dices": 0,
    "aspects": 0,
    "##xe": 0,
    "##state": 0,
    "DE": 0,
    "##SI": 0,
    "##spective": 0,
    "##ING": 0,
    "Institutes": 0,
    "##EN": 0,
    "##TS": 0,
    "##NT": 0,
    "Each": 0,
    "evening": 0,
    "cycle": 0,
    "excessive": 0,
    "##AS": 0,
    "##EM": 0,
    "Clinic": 0,
    "##ole": 5,
    "##UM": 0,
    "##RI": 0,
    "##cut": 0,
    "##aneous": 0,
    "##rona": 1,
    "##mission": 0,
    "stimulation": 0,
    "##IS": 0,
    "##CU": 0,
    "##SS": 0,
    "##les": 0,
    "English": 0,
    "j": 0,
    "##au": 0,
    "run": 0,
    "##usal": 0,
    "##sta": 4,
    "##mm": 0,
    "##une": 0,
    "immune": 0,
    "future": 0,
    "replaced": 0,
    "subunit": 0,
    "##cre": 1,
    "salt": 0,
    "##idated": 0,
    "constituent": 0,
    "collecting": 0,
    "duct": 7,
    "amounts": 0,
    "real": 0,
    "Ta": 0,
    "##q": 0,
    "kinetic": 0,
    "appearance": 0,
    "So": 0,
    "##dium": 0,
    "Conversely": 0,
    "down": 0,
    "escape": 0,
    "vinyl": 0,
    "##AL": 0,
    "Vin": 0,
    "##rre": 0,
    "##vers": 0,
    "##ibly": 0,
    "##nas": 0,
    "##ab": 0,
    "##olis": 0,
    "field": 1,
    "lifetime": 0,
    "explored": 0,
    "450": 0,
    "wash": 0,
    "##out": 0,
    "exceeded": 0,
    "extends": 0,
    "reducing": 0,
    "##DS": 0,
    "MR": 0,
    "diffusion": 0,
    "mapping": 0,
    "weighted": 0,
    "##ppa": 0,
    "##rent": 0,
    "coefficient": 0,
    "AD": 0,
    "incomplete": 0,
    "Di": 0,
    "##usion": 1,
    "outcomes": 0,
    "recruited": 0,
    "fixed": 0,
    "apart": 0,
    "##ters": 0,
    "isolation": 0,
    "##bate": 0,
    "300": 0,
    "incorporating": 0,
    "nm": 0,
    "##ear": 0,
    "extraction": 0,
    "calculated": 0,
    "##chia": 0,
    "##i": 2,
    "Deep": 0,
    "raised": 0,
    "108": 0,
    "245": 0,
    "pm": 0,
    "90": 0,
    "01": 0,
    "77": 0,
    "##gration": 0,
    "##ou": 0,
    "bleeding": 3,
    "##vated": 0,
    "##CH": 0,
    "established": 0,
    "##ification": 0,
    "##tras": 0,
    "07": 0,
    "350": 0,
    "volume": 0,
    "volumes": 0,
    "##stra": 0,
    "##dio": 0,
    "reduces": 0,
    "##omi": 0,
    "##zed": 0,
    "##stro": 0,
    "##gens": 0,
    "##bet": 0,
    "subjected": 0,
    "oil": 0,
    "terminated": 0,
    "silver": 0,
    "males": 0,
    "sectors": 0,
    "ho": 0,
    "##rmon": 0,
    "##udo": 0,
    "##rome": 0,
    "##gal": 0,
    "hormone": 1,
    "secret": 1,
    "pit": 0,
    "##uit": 0,
    "##land": 0,
    "cart": 0,
    "##ge": 0,
    "soft": 0,
    "thick": 0,
    "skin": 0,
    "coarse": 0,
    "facial": 0,
    "cut": 0,
    "##yra": 1,
    "unusually": 0,
    "proven": 0,
    "physical": 0,
    "intervals": 0,
    "PS": 0,
    "##osterone": 0,
    "measurements": 0,
    "limits": 0,
    "mean": 1,
    "declined": 0,
    "##ytic": 1,
    "X": 0,
    "predictable": 0,
    "corrected": 0,
    "##comb": 0,
    "##u": 1,
    "##EP": 0,
    "Del": 0,
    "##iri": 0,
    "##iden": 0,
    "require": 0,
    "computer": 0,
    "pharmacy": 0,
    "records": 0,
    "reviewed": 0,
    "medical": 0,
    "associations": 0,
    "gradually": 0,
    "203": 0,
    "person": 0,
    "Associated": 0,
    "cost": 0,
    "fell": 0,
    "unrelated": 0,
    "inconsistent": 0,
    "stay": 0,
    "costs": 0,
    "inferior": 0,
    "##ites": 0,
    "##yle": 0,
    "immediately": 0,
    "mentioned": 0,
    "##rat": 0,
    "temperature": 0,
    "devoid": 0,
    "rendered": 0,
    "##lux": 0,
    "##tal": 0,
    "##tec": 0,
    "##active": 0,
    "##ids": 0,
    "##led": 0,
    "##oa": 0,
    "actions": 0,
    "relevance": 0,
    "host": 0,
    "offer": 0,
    "seem": 0,
    "stages": 0,
    "dependence": 1,
    "assessments": 0,
    "positively": 0,
    "##dered": 0,
    "##lone": 0,
    "##ana": 0,
    "derivative": 0,
    "suppress": 0,
    "##ogenic": 1,
    "Kind": 0,
    "##ulator": 0,
    "suppressed": 0,
    "##zing": 0,
    "add": 0,
    "growing": 0,
    "humor": 0,
    "HC": 0,
    "##iated": 0,
    "##so": 0,
    "##hs": 0,
    "penetrate": 0,
    "barrier": 0,
    "##ros": 0,
    "hour": 0,
    "##lase": 0,
    "320": 0,
    "##ple": 0,
    "##ech": 0,
    "And": 0,
    "acts": 0,
    "##tar": 1,
    "##ding": 0,
    "##pse": 0,
    "feeding": 0,
    "HP": 0,
    "attempt": 0,
    "##born": 0,
    "Co": 0,
    "generated": 0,
    "comparing": 0,
    "flow": 2,
    "Consequently": 0,
    "accent": 0,
    "##itive": 0,
    "decline": 1,
    "formation": 0,
    "##rating": 0,
    "##sor": 0,
    "##ption": 0,
    "fluid": 0,
    "leaving": 0,
    "##stal": 0,
    "delivery": 0,
    "ABS": 0,
    "##TR": 0,
    "AT": 0,
    "##OR": 0,
    "##hn": 0,
    "pilot": 0,
    "##ler": 0,
    "##ability": 0,
    "planned": 0,
    "##rading": 0,
    "63": 0,
    "##kal": 0,
    "benefit": 0,
    "ineffective": 0,
    "exist": 0,
    "scientific": 0,
    "rational": 0,
    "##oki": 0,
    "bow": 3,
    "topic": 0,
    "sexual": 5,
    "III": 0,
    "##ified": 0,
    "Beck": 0,
    "##ung": 0,
    "scales": 0,
    "Protection": 0,
    "##27": 0,
    "##46": 0,
    "##14": 0,
    "##RS": 0,
    "##phon": 0,
    "##ome": 0,
    "##ulf": 0,
    "persistent": 0,
    "competitive": 0,
    "##k": 0,
    "De": 1,
    "protected": 0,
    "strengthen": 0,
    "involves": 0,
    "weakness": 2,
    "legs": 0,
    "##eto": 0,
    "complaints": 0,
    "faded": 0,
    "away": 0,
    "Few": 0,
    "picture": 0,
    "Laboratory": 0,
    "CT": 0,
    "illustrate": 0,
    "reactions": 7,
    "##esi": 9,
    "park": 1,
    "##ins": 1,
    "monkeys": 0,
    "Lev": 0,
    "##ID": 0,
    "problem": 0,
    "##pen": 0,
    "##dence": 0,
    "populations": 0,
    "independently": 0,
    "##aque": 0,
    "##TP": 0,
    "Monkey": 0,
    "sooner": 0,
    "146": 0,
    "similarly": 0,
    "start": 0,
    "studying": 0,
    "sugar": 0,
    "produces": 0,
    "state": 0,
    "similarities": 0,
    "access": 0,
    "##rose": 0,
    "##ow": 0,
    "##elle": 0,
    "starting": 0,
    "dark": 0,
    "Lo": 0,
    "Beginning": 0,
    "alternating": 0,
    "bin": 0,
    "leads": 0,
    "Rev": 0,
    "##ible": 0,
    "##lated": 2,
    "##oter": 0,
    "##sse": 2,
    "##minated": 0,
    "##cci": 0,
    "##cos": 0,
    "##osa": 0,
    "substituted": 0,
    "recognize": 0,
    "##ton": 2,
    "immediate": 1,
    "delayed": 0,
    "genuine": 0,
    "provoked": 0,
    "##gly": 0,
    "Fifteen": 0,
    "##urs": 0,
    "aura": 1,
    "participated": 0,
    "404": 0,
    "subjects": 0,
    "schedule": 0,
    "peak": 0,
    "Ba": 0,
    "Plate": 0,
    "timing": 0,
    "##lets": 0,
    "counter": 0,
    "##bari": 0,
    "Conservative": 0,
    "absolute": 0,
    "form": 0,
    "safe": 0,
    "none": 0,
    "usually": 0,
    "attributed": 0,
    "##rig": 0,
    "##otic": 1,
    "Risk": 0,
    "beverages": 0,
    "States": 0,
    "Food": 0,
    "Administration": 0,
    "banned": 0,
    "##cturnal": 0,
    "leg": 2,
    "lack": 0,
    "ton": 0,
    "bitter": 0,
    "lemon": 0,
    "Numerous": 0,
    "coma": 0,
    "##sy": 0,
    "##logists": 0,
    "##quire": 0,
    "##tein": 0,
    "right": 3,
    "##hun": 0,
    "##yan": 0,
    "patent": 0,
    "oval": 1,
    "##vent": 0,
    "stretching": 0,
    "creation": 0,
    "bubble": 0,
    "vascular": 2,
    "cluster": 0,
    "##luster": 0,
    "systems": 1,
    "##rima": 0,
    "##eries": 0,
    "du": 2,
    "mater": 0,
    "laser": 0,
    "##metry": 0,
    "nasal": 0,
    "##ium": 0,
    "chloride": 0,
    "Ty": 0,
    "VIP": 0,
    "onto": 0,
    "##inge": 0,
    "Similar": 0,
    "Organ": 0,
    "##phate": 0,
    "prevention": 0,
    "damages": 1,
    "##phorus": 0,
    "##FP": 0,
    "##man": 0,
    "##lines": 0,
    "##tera": 0,
    "##ses": 0,
    "##Es": 1,
    "BC": 0,
    "##Ps": 0,
    "SC": 0,
    "##dote": 0,
    "Han": 0,
    "##PA": 0,
    "##80": 0,
    "hydrogen": 0,
    "olive": 0,
    "instead": 0,
    "poisoning": 0,
    "##ked": 0,
    "sleeping": 0,
    "difficulties": 1,
    "disappearance": 0,
    "Period": 0,
    "##uren": 0,
    "try": 0,
    "##han": 0,
    "##citation": 0,
    "den": 0,
    "moss": 0,
    "fiber": 0,
    "##rout": 0,
    "Population": 0,
    "##ule": 0,
    "transverse": 0,
    "slice": 0,
    "ventral": 0,
    "bathing": 0,
    "medium": 0,
    "##llin": 0,
    "##lus": 2,
    "spike": 0,
    "experience": 0,
    "survivors": 0,
    "DC": 0,
    "shifts": 0,
    "repetitive": 0,
    "##cha": 1,
    "##rges": 0,
    "ion": 0,
    "photos": 0,
    "layer": 0,
    "distant": 0,
    "##tte": 0,
    "reorganization": 0,
    "resembling": 0,
    "U": 0,
    "relation": 0,
    "##ise": 0,
    "Swedish": 0,
    "Register": 0,
    "106": 0,
    "1969": 0,
    "Through": 0,
    "link": 0,
    "Cancer": 0,
    "##ested": 0,
    "113": 0,
    "doubled": 0,
    "reached": 0,
    "expected": 0,
    "entire": 0,
    "operating": 0,
    "negatively": 0,
    "mixed": 0,
    "##men": 0,
    "600": 0,
    "var": 0,
    "##iability": 0,
    "##tel": 0,
    "operated": 0,
    "##v": 0,
    "domain": 0,
    "##viation": 0,
    "beat": 0,
    "SD": 0,
    "root": 0,
    "square": 0,
    "successive": 0,
    "wave": 0,
    "restored": 0,
    "##lates": 0,
    "highlight": 0,
    "Cat": 0,
    "excess": 0,
    "decades": 0,
    "phenomenon": 0,
    "inadvertently": 0,
    "stunning": 1,
    "compromise": 0,
    "albeit": 0,
    "errors": 0,
    "staff": 0,
    "supervision": 0,
    "tin": 1,
    "##cture": 0,
    "##rata": 0,
    "##eg": 0,
    "Tin": 0,
    "alcoholic": 0,
    "berries": 0,
    "##orn": 0,
    "herb": 0,
    "medicine": 0,
    "##weight": 1,
    "lip": 1,
    "enzymes": 0,
    "coupling": 0,
    "##tus": 8,
    "##ign": 0,
    "cent": 0,
    "tubes": 0,
    "subjective": 1,
    "IS": 0,
    "obscure": 0,
    "##ologies": 0,
    "Fifty": 0,
    "entered": 0,
    "finished": 0,
    "##sat": 0,
    "changed": 0,
    "mode": 0,
    "##cup": 0,
    "##un": 0,
    "##back": 0,
    "disappointing": 0,
    "warned": 0,
    "##igo": 0,
    "disappear": 0,
    "them": 0,
    "cope": 0,
    "Bin": 0,
    "exploration": 0,
    "##eric": 0,
    "channels": 0,
    "composed": 0,
    "comprises": 0,
    "null": 0,
    "sit": 0,
    "hybrid": 0,
    "probe": 0,
    "##actor": 0,
    "bulb": 0,
    "##lli": 10,
    "##culus": 3,
    "brains": 0,
    "##tors": 0,
    "cats": 0,
    "66": 0,
    "tidal": 0,
    "became": 0,
    "##min": 0,
    "##rove": 0,
    "carries": 0,
    "##UC": 0,
    "conditioning": 0,
    "me": 9,
    "triple": 0,
    "##lant": 0,
    "diabetes": 1,
    "sided": 0,
    "##rra": 0,
    "##diation": 0,
    "##jection": 0,
    "ages": 0,
    "##cologist": 0,
    "monitor": 0,
    "balance": 0,
    "##amo": 0,
    "technique": 0,
    "applicable": 0,
    "quick": 0,
    "priced": 0,
    "commercially": 0,
    "shaped": 0,
    "Ai": 0,
    "agreement": 0,
    "##naire": 0,
    "##truct": 2,
    "asked": 0,
    "centre": 0,
    "subdivided": 0,
    "##centric": 0,
    "circles": 0,
    "distance": 0,
    "circle": 0,
    "succeeded": 0,
    "millimetres": 0,
    "radius": 0,
    "sessions": 0,
    "arm": 0,
    "horizontally": 0,
    "outstretched": 0,
    "supported": 0,
    "##rest": 0,
    "finally": 0,
    "holding": 0,
    "exhaustion": 0,
    "Inter": 0,
    "observer": 0,
    "observers": 0,
    "Sal": 0,
    "way": 0,
    "Within": 0,
    "adults": 0,
    "262": 0,
    "09": 0,
    "session": 0,
    "Support": 0,
    "##lass": 0,
    "##ifying": 0,
    "inexpensive": 0,
    "exception": 0,
    "Safety": 0,
    "##alo": 0,
    "Multiple": 0,
    "Ra": 0,
    "Women": 0,
    "randomly": 0,
    "assigned": 0,
    "##cts": 0,
    "gal": 0,
    "##bla": 0,
    "##dder": 0,
    "##lasia": 3,
    "170": 0,
    "OF": 0,
    "##VI": 0,
    "##DE": 0,
    "Op": 0,
    "While": 0,
    "individuals": 0,
    "formula": 0,
    "rule": 0,
    "##rate": 0,
    "##junct": 0,
    "medications": 0,
    "become": 0,
    "Following": 0,
    "emerging": 0,
    "approaches": 0,
    "Other": 0,
    "gas": 2,
    "##int": 1,
    "sleep": 5,
    "##nia": 1,
    "interactions": 0,
    "maintain": 0,
    "functioning": 0,
    "exercise": 0,
    "Long": 0,
    "audio": 1,
    "hearing": 8,
    "104": 0,
    "regular": 0,
    "##ela": 0,
    "program": 0,
    "maintaining": 0,
    "##fer": 0,
    "##rio": 0,
    "sensor": 0,
    "##HL": 0,
    "relatively": 0,
    "submitted": 0,
    "temporary": 0,
    "intervention": 0,
    "##dicative": 0,
    "contributing": 0,
    "Regular": 0,
    "##erative": 0,
    "##udi": 0,
    "Individual": 0,
    "raises": 0,
    "inflicted": 0,
    "Ren": 0,
    "Le": 0,
    "##vage": 0,
    "sacrificed": 0,
    "harvested": 0,
    "anticipated": 0,
    "Basel": 0,
    "influx": 0,
    "supports": 0,
    "assumption": 0,
    "##pose": 0,
    "favourable": 0,
    "self": 0,
    "permanent": 0,
    "##ron": 0,
    "##cton": 0,
    "evaluating": 0,
    "benefits": 0,
    "practice": 0,
    "Case": 0,
    "chemist": 0,
    "##ries": 0,
    "134": 0,
    "loop": 0,
    "##ser": 0,
    "##ronic": 0,
    "##ve": 1,
    "##uous": 0,
    "chewing": 0,
    "tongue": 0,
    "Hal": 0,
    "segments": 0,
    "Important": 0,
    "disk": 1,
    "##ines": 1,
    "##ft": 0,
    "##hia": 1,
    "surgical": 0,
    "##ef": 0,
    "situations": 0,
    "fast": 0,
    "operative": 0,
    "abdominal": 0,
    "son": 0,
    "##ogram": 0,
    "##aris": 0,
    "starvation": 0,
    "Formation": 0,
    "bare": 0,
    "metal": 0,
    "vessel": 0,
    "app": 0,
    "##ition": 0,
    "routine": 0,
    "##ona": 0,
    "contact": 0,
    "segment": 3,
    "Cause": 0,
    "##omb": 0,
    "reflection": 0,
    "aimed": 0,
    "2003": 0,
    "2004": 0,
    "King": 0,
    "##ah": 0,
    "##ad": 0,
    "Guard": 0,
    "##iya": 0,
    "##dh": 0,
    "Saudi": 0,
    "Arabia": 0,
    "reviewing": 0,
    "slides": 0,
    "##ching": 1,
    "abroad": 0,
    "referred": 0,
    "us": 0,
    "fifth": 0,
    "##BR": 0,
    "##iro": 0,
    "Unlike": 0,
    "extensively": 0,
    "dim": 0,
    "##eth": 0,
    "##phony": 0,
    "##ano": 0,
    "Drugs": 0,
    "separately": 0,
    "pregnant": 0,
    "plug": 0,
    "Fe": 0,
    "delivered": 0,
    "Comprehensive": 0,
    "pool": 0,
    "##SD": 1,
    "MD": 1,
    "historic": 0,
    "##ern": 0,
    "##uter": 0,
    "external": 1,
    "skeletal": 1,
    "variations": 1,
    "Dec": 0,
    "##rease": 0,
    "##etal": 0,
    "##rato": 0,
    "dams": 0,
    "Lone": 0,
    "##oh": 0,
    "ill": 2,
    "Caucasian": 0,
    "came": 0,
    "##ark": 0,
    "fingers": 0,
    "##gnesium": 0,
    "screen": 0,
    "denied": 0,
    "questioned": 0,
    "##fra": 0,
    "rhythm": 1,
    "discharged": 0,
    "plans": 0,
    "Ex": 0,
    "athletes": 0,
    "##ege": 0,
    "##tarian": 0,
    "take": 0,
    "replace": 0,
    "what": 0,
    "meat": 0,
    "fish": 0,
    "##ligent": 0,
    "interview": 0,
    "histories": 0,
    "questions": 0,
    "consumed": 0,
    "##ures": 0,
    "##ite": 0,
    "##gon": 0,
    "half": 0,
    "strokes": 2,
    "responsible": 0,
    "##qui": 0,
    "mum": 0,
    "juvenile": 0,
    "##reate": 0,
    "Whereas": 0,
    "rarely": 0,
    "Electrical": 0,
    "rhythmic": 0,
    "voltage": 0,
    "respects": 0,
    "emphasizes": 0,
    "##43": 0,
    "##55": 0,
    "restore": 0,
    "##sts": 0,
    "learning": 5,
    "involve": 0,
    "cognitive": 2,
    "enhancing": 0,
    "##zen": 0,
    "object": 0,
    "recognition": 0,
    "employing": 0,
    "##fo": 0,
    "##nate": 0,
    "Initial": 0,
    "forgetting": 0,
    "delay": 0,
    "training": 0,
    "inactive": 0,
    "deficit": 18,
    "##tation": 0,
    "continues": 0,
    "epidemic": 0,
    "##usive": 0,
    "technology": 0,
    "offers": 0,
    "venue": 0,
    "antibodies": 0,
    "bind": 0,
    "stream": 0,
    "##bino": 0,
    "##ju": 0,
    "##cell": 0,
    "ranging": 0,
    "190": 0,
    "tool": 0,
    "El": 0,
    "##bus": 0,
    "##chi": 1,
    "Eleven": 0,
    "bundle": 0,
    "branch": 1,
    "##vior": 0,
    "distributed": 0,
    "graded": 0,
    "dip": 0,
    "hole": 0,
    "entries": 0,
    "chamber": 0,
    "black": 0,
    "platform": 0,
    "arms": 0,
    "forced": 0,
    "food": 0,
    "horizontal": 0,
    "Whatever": 0,
    "erection": 1,
    "climbing": 0,
    "Learning": 0,
    "##nesia": 0,
    "##bar": 0,
    "##bit": 0,
    "##sso": 2,
    "##cia": 0,
    "carried": 0,
    "trained": 0,
    "shelf": 0,
    "reinforce": 0,
    "shelves": 0,
    "##ciation": 2,
    "##fference": 0,
    "formed": 0,
    "participation": 0,
    "perception": 0,
    "##AF": 0,
    "Mark": 0,
    "##table": 0,
    "##ope": 0,
    "Twenty": 0,
    "kits": 0,
    "Variations": 0,
    "Wilcox": 0,
    "Relations": 0,
    "##hip": 0,
    "demographic": 0,
    "##hea": 0,
    "Val": 0,
    "necessarily": 0,
    "problems": 1,
    "##ag": 0,
    "condition": 0,
    "complaining": 0,
    "Her": 0,
    "##ressed": 0,
    "reappeared": 0,
    "##roduced": 0,
    "knowledge": 0,
    "protector": 0,
    "##biotics": 0,
    "virtue": 0,
    "middle": 0,
    "ear": 0,
    "Its": 0,
    "audit": 3,
    "##tem": 0,
[...]
