{
  "B": {
    "Met": 14,
    "##han": 17,
    "##ore": 7,
    "##gu": 7,
    "##la": 37,
    "form": 0,
    "##ici": 6,
    "##ca": 1,
    "s": 6,
    "##p": 9,
    ".": 0,
    "no": 0,
    "##v": 1,
    ",": 0,
    "a": 0,
    "met": 3,
    "##hane": 0,
    "-": 0,
    "producing": 0,
    "arch": 0,
    "##ae": 9,
    "##on": 4,
    "isolated": 0,
    "from": 0,
    "##ogenic": 3,
    "##lu": 1,
    "##dge": 0,
    "A": 93,
    "novel": 0,
    "strain": 1,
    "SMS": 5,
    "##P": 7,
    "(": 0,
    "T": 76,
    ")": 0,
    "was": 0,
    "an": 0,
    "##ro": 6,
    "##bic": 0,
    "prop": 0,
    "##ion": 1,
    "##ate": 0,
    "de": 0,
    "##grading": 0,
    "en": 0,
    "##rich": 0,
    "##ment": 0,
    "culture": 0,
    "that": 0,
    "originally": 0,
    "obtained": 0,
    "g": 4,
    "##ran": 0,
    "##ular": 1,
    "in": 5,
    "me": 3,
    "##so": 1,
    "##phi": 22,
    "##lic": 2,
    "up": 0,
    "##flow": 0,
    "blanket": 0,
    "U": 10,
    "##AS": 0,
    "##B": 16,
    "reactor": 0,
    "used": 0,
    "to": 0,
    "treat": 0,
    "beer": 0,
    "brewery": 0,
    "e": 1,
    "##ff": 0,
    "##lue": 0,
    "##nt": 0,
    "Cell": 0,
    "##s": 48,
    "were": 0,
    "non": 0,
    "m": 1,
    "##ot": 5,
    "##ile": 0,
    "blunt": 0,
    "ended": 0,
    "straight": 0,
    "rods": 0,
    "1": 0,
    "0": 0,
    "2": 0,
    "6": 3,
    "mum": 0,
    "long": 4,
    "by": 0,
    "5": 0,
    "wide": 0,
    ";": 0,
    "cells": 0,
    "sometimes": 0,
    "7": 0,
    "As": 49,
    "##ym": 3,
    "##metric": 0,
    "##al": 6,
    "cell": 0,
    "division": 0,
    "observed": 0,
    "rod": 0,
    "shaped": 0,
    "Co": 10,
    "##cco": 0,
    "##id": 9,
    "diameter": 0,
    "also": 0,
    "mid": 0,
    "late": 0,
    "ex": 0,
    "##po": 12,
    "##nent": 0,
    "##ial": 0,
    "phase": 0,
    "cultures": 0,
    "Growth": 0,
    "between": 0,
    "10": 0,
    "and": 0,
    "40": 0,
    "^": 0,
    "##C": 10,
    "op": 0,
    "##ti": 6,
    "##mum": 0,
    "30": 0,
    "33": 0,
    "pH": 0,
    "4": 0,
    "The": 4,
    "G": 41,
    "+": 0,
    "C": 79,
    "content": 0,
    "of": 0,
    "the": 0,
    "##eno": 7,
    "##mic": 2,
    "DNA": 0,
    "56": 0,
    "##ol": 0,
    "%": 0,
    "utilized": 0,
    "format": 0,
    "##e": 6,
    "hydrogen": 0,
    "for": 0,
    "growth": 0,
    "production": 0,
    "Based": 0,
    "on": 0,
    "comparative": 0,
    "sequence": 0,
    "analyses": 0,
    "16": 0,
    "##S": 14,
    "r": 0,
    "##RNA": 0,
    "##c": 4,
    "##r": 19,
    "##A": 5,
    "encoding": 0,
    "alpha": 0,
    "subunit": 0,
    "##hyl": 0,
    "co": 1,
    "##en": 0,
    "##zy": 0,
    "##me": 8,
    "M": 39,
    "red": 12,
    "##uc": 2,
    "##tase": 0,
    "key": 0,
    "enzyme": 0,
    "pathway": 0,
    "genes": 0,
    "affiliated": 0,
    "with": 0,
    "group": 0,
    "E": 71,
    "##1": 32,
    "/": 0,
    "##2": 3,
    "within": 0,
    "order": 0,
    "##omi": 0,
    "##bial": 0,
    "##es": 9,
    "closest": 0,
    "relative": 0,
    "based": 0,
    "both": 0,
    "gene": 0,
    "sequences": 0,
    "b": 3,
    "##oon": 0,
    "##ei": 9,
    "##8": 14,
    "96": 0,
    "3": 0,
    "similarity": 0,
    "85": 0,
    "##duced": 0,
    "amino": 0,
    "acid": 0,
    "percentage": 0,
    "indicates": 0,
    "represent": 0,
    "different": 0,
    "species": 0,
    "same": 0,
    "genus": 1,
    "This": 0,
    "is": 0,
    "supported": 0,
    "our": 0,
    "findings": 0,
    "shared": 0,
    "p": 23,
    "##hen": 0,
    "##otypic": 0,
    "properties": 0,
    "including": 0,
    "morphology": 0,
    "temperature": 0,
    "range": 0,
    "differences": 0,
    "substrate": 0,
    "usage": 0,
    "these": 0,
    "genetic": 0,
    "we": 0,
    "propose": 0,
    "represents": 0,
    "which": 0,
    "name": 0,
    "type": 6,
    "=": 0,
    "N": 57,
    "##BR": 3,
    "105": 0,
    "##24": 0,
    "##4": 1,
    "DS": 1,
    "##M": 33,
    "222": 0,
    "Character": 0,
    "##izing": 0,
    "role": 0,
    "micro": 0,
    "##tub": 0,
    "##ule": 2,
    "binding": 0,
    "protein": 0,
    "B": 89,
    "##im": 0,
    "Cry": 9,
    "##pt": 23,
    "##oc": 71,
    "##cus": 25,
    "neo": 0,
    "##form": 0,
    "##ans": 0,
    "During": 0,
    "sexual": 0,
    "development": 0,
    "human": 66,
    "fun": 0,
    "##gal": 0,
    "path": 0,
    "##ogen": 0,
    "undergo": 0,
    "developmental": 0,
    "transition": 0,
    "yeast": 33,
    "fi": 0,
    "##lam": 0,
    "##ent": 1,
    "##ous": 0,
    "requires": 0,
    "cellular": 0,
    "restructuring": 0,
    "di": 0,
    "##kar": 0,
    "##yon": 0,
    "Di": 4,
    "##yo": 2,
    "##tic": 1,
    "tightly": 0,
    "controlled": 0,
    "nuclear": 0,
    "migration": 0,
    "ensure": 0,
    "faithful": 0,
    "replication": 0,
    "##sse": 0,
    "##mination": 0,
    "material": 0,
    "##pore": 0,
    "pro": 0,
    "##geny": 0,
    "Although": 0,
    "gross": 0,
    "##or": 5,
    "##phological": 0,
    "changes": 0,
    "take": 0,
    "place": 0,
    "during": 0,
    "are": 0,
    "largely": 0,
    "known": 0,
    "molecular": 0,
    "under": 0,
    "##pin": 0,
    "##ning": 0,
    "control": 0,
    "this": 0,
    "process": 0,
    "un": 0,
    "##cha": 2,
    "##rac": 1,
    "##ter": 3,
    "##ized": 0,
    "Here": 0,
    "identify": 0,
    "character": 0,
    "##ize": 0,
    "ho": 1,
    "##mo": 10,
    "##log": 0,
    "Sa": 18,
    "##cc": 30,
    "##har": 20,
    "##omy": 27,
    "##ces": 31,
    "c": 2,
    "##ere": 1,
    "##vis": 0,
    "##iae": 0,
    "##IM": 1,
    "establish": 0,
    "importance": 0,
    "proper": 0,
    "Del": 0,
    "##eti": 1,
    "leads": 0,
    "t": 4,
    "##runcated": 0,
    "##ents": 0,
    "severe": 2,
    "defect": 0,
    "dip": 0,
    "##lo": 3,
    "formation": 0,
    "block": 0,
    "mon": 0,
    "##oka": 0,
    "##ryo": 0,
    "fruit": 0,
    "##ing": 1,
    "Our": 0,
    "lead": 0,
    "model": 0,
    "consistent": 0,
    "critical": 0,
    "integrity": 0,
    "congress": 0,
    "mediated": 0,
    "through": 0,
    "##yt": 5,
    "##os": 17,
    "##kel": 0,
    "##eton": 0,
    "Ser": 4,
    "##ini": 5,
    "##co": 17,
    "##us": 98,
    "##fu": 0,
    "##ndi": 0,
    "act": 0,
    "##ino": 2,
    "##my": 7,
    "##ce": 7,
    "##te": 2,
    "deep": 0,
    "sea": 0,
    "sediment": 0,
    "em": 0,
    "##ended": 0,
    "description": 0,
    "Gram": 0,
    "reaction": 0,
    "positive": 0,
    "bacterial": 0,
    "designated": 0,
    "MCC": 3,
    "1A": 0,
    "##0": 2,
    "##5": 7,
    "##9": 11,
    "##65": 0,
    "53": 0,
    "##6": 2,
    "Indian": 1,
    "Ocean": 0,
    "##mp": 0,
    "##aris": 0,
    "revealed": 0,
    "##olate": 0,
    "97": 1,
    "ma": 0,
    "##rin": 2,
    "J": 14,
    "##10": 0,
    "##7": 1,
    "only": 0,
    "described": 0,
    "related": 0,
    "##ness": 0,
    "two": 0,
    "strains": 2,
    "46": 0,
    "standard": 0,
    "##viation": 0,
    "86": 0,
    "wall": 0,
    "contained": 0,
    "al": 0,
    "##ani": 1,
    "##ne": 12,
    "##ly": 0,
    "##cine": 2,
    "se": 3,
    "##rine": 0,
    "l": 1,
    "or": 2,
    "##ni": 2,
    "##thin": 0,
    "##lut": 2,
    "##ami": 0,
    "corresponds": 0,
    "##cy": 6,
    "##l": 2,
    "##can": 1,
    "chain": 0,
    "##ept": 0,
    "##ido": 25,
    "##gly": 0,
    "Other": 0,
    "characteristics": 0,
    "those": 0,
    "moderately": 0,
    "ha": 0,
    "##lop": 2,
    "##hil": 2,
    "##ic": 0,
    "o": 0,
    "##xi": 1,
    "##das": 0,
    "negative": 0,
    "cat": 0,
    "##ala": 0,
    "##se": 15,
    "forming": 0,
    "major": 0,
    "men": 1,
    "##aq": 0,
    "##uin": 0,
    "##one": 0,
    "##K": 8,
    "8": 0,
    "H": 48,
    "predominant": 0,
    "fatty": 0,
    "acids": 0,
    "##o": 5,
    "15": 0,
    ":": 0,
    "34": 0,
    "17": 0,
    "polar": 0,
    "lip": 0,
    "##ids": 0,
    "##hos": 0,
    "##pha": 8,
    "##dy": 2,
    "##cer": 3,
    "##cho": 12,
    "##line": 0,
    "##lino": 0,
    "##si": 0,
    "##to": 2,
    "unknown": 0,
    "##lip": 0,
    "72": 0,
    "St": 19,
    "##rain": 1,
    "07": 0,
    "##14": 0,
    "213": 0,
    "##3": 3,
    "##GM": 0,
    "##CC": 2,
    "55": 0,
    "assigned": 0,
    "as": 0,
    "proposed": 0,
    "Pro": 2,
    "##sal": 0,
    "Ming": 0,
    "##xia": 1,
    "##ea": 12,
    "##amo": 5,
    "##rp": 3,
    "##hic": 0,
    "##asi": 0,
    "##dio": 7,
    "Bull": 0,
    "##eri": 8,
    "##bas": 0,
    "##ium": 47,
    "clade": 0,
    "##rem": 1,
    "##ella": 9,
    "##les": 2,
    "phylogenetic": 0,
    "analysis": 0,
    "six": 0,
    "new": 1,
    "combinations": 0,
    "four": 0,
    "distinction": 0,
    "##op": 18,
    "##etic": 0,
    "property": 0,
    "resolved": 0,
    "combined": 0,
    "18": 0,
    "internal": 0,
    "trans": 0,
    "##cribed": 0,
    "space": 0,
    "IT": 0,
    "region": 0,
    "26": 1,
    "D": 14,
    "domain": 0,
    "addition": 0,
    "identified": 0,
    "among": 0,
    "ball": 0,
    "##ist": 0,
    "##oni": 2,
    "##dium": 3,
    "China": 0,
    "confirmed": 0,
    "strengthened": 0,
    "separation": 0,
    "other": 0,
    "lineage": 0,
    "var": 2,
    "##ia": 59,
    "##bil": 0,
    "##is": 21,
    "comb": 0,
    "therefore": 0,
    "accommodate": 0,
    "Six": 0,
    "formerly": 0,
    "##era": 3,
    "Four": 0,
    "plant": 0,
    "leaves": 0,
    "collected": 0,
    "Hai": 0,
    "##nan": 0,
    "province": 0,
    "southern": 0,
    "sa": 0,
    "##nya": 0,
    "##ensis": 1,
    "S": 62,
    "##Y": 10,
    "23": 0,
    "AS": 0,
    "36": 0,
    "##23": 0,
    "CBS": 5,
    "114": 0,
    "##ina": 1,
    "##nen": 0,
    "##sis": 0,
    "W": 1,
    "##Z": 4,
    "13": 0,
    "41": 0,
    "f": 0,
    "##oli": 0,
    "##ico": 0,
    "14": 0,
    "35": 0,
    "##18": 6,
    "w": 0,
    "##uz": 0,
    "##his": 0,
    "##nsis": 0,
    "29": 0,
    "##11": 2,
    "Sc": 12,
    "##ard": 4,
    "##ov": 8,
    "##iggs": 0,
    "oral": 0,
    "cavity": 0,
    "clinical": 0,
    "descriptions": 0,
    "##ta": 5,
    "##leo": 0,
    "##morphic": 0,
    "##ac": 18,
    "##ill": 0,
    "##i": 1,
    "infected": 0,
    "arm": 0,
    "wound": 0,
    "subjected": 0,
    "comprehensive": 0,
    "##ty": 0,
    "##pic": 0,
    "tests": 0,
    "found": 0,
    "comprise": 0,
    "##mogeneous": 0,
    "most": 0,
    "closely": 0,
    "CC": 7,
    "##U": 6,
    "##G": 1,
    "##29": 0,
    "94": 0,
    "9": 0,
    "##oly": 0,
    "produced": 0,
    "ace": 0,
    "la": 0,
    "##ctic": 0,
    "end": 0,
    "products": 0,
    "##er": 2,
    "##mentation": 0,
    "49": 0,
    "##ga": 2,
    "Polar": 0,
    "variety": 0,
    "unidentified": 0,
    "##ph": 8,
    "##pid": 0,
    "##og": 2,
    "No": 2,
    "respiratory": 2,
    "q": 0,
    "##ones": 0,
    "detected": 0,
    "L": 17,
    "##ys": 3,
    "##hr": 0,
    "##ine": 3,
    "partially": 0,
    "replaced": 0,
    "one": 0,
    "_": 0,
    "225": 0,
    "##47": 0,
    "580": 0,
    "##90": 0,
    "F": 35,
    "##lav": 8,
    "##ob": 8,
    "##act": 8,
    "##um": 43,
    "##ont": 0,
    "##water": 0,
    "stain": 0,
    "flag": 0,
    "##ted": 0,
    "gliding": 0,
    "yellow": 2,
    "pig": 3,
    "##mented": 0,
    "##W": 12,
    "R": 18,
    "##eo": 5,
    "##je": 0,
    "Island": 0,
    "South": 0,
    "Sea": 0,
    "Korea": 0,
    "grew": 0,
    "optimal": 0,
    "at": 0,
    "25": 0,
    "presence": 0,
    "v": 10,
    "Na": 0,
    "Ph": 9,
    "##yl": 7,
    "showed": 0,
    "belonged": 0,
    "joining": 0,
    "gel": 0,
    "##ila": 0,
    "##MG": 1,
    "214": 0,
    "boots": 0,
    "##tra": 9,
    "re": 3,
    "##sa": 12,
    "##ling": 0,
    "value": 0,
    "100": 0,
    "exhibited": 0,
    "similarities": 0,
    "91": 0,
    "95": 0,
    "members": 0,
    "profile": 0,
    "similar": 0,
    "31": 0,
    "its": 0,
    "could": 0,
    "be": 0,
    "distinguished": 0,
    "distinctive": 0,
    "several": 0,
    "On": 0,
    "basis": 0,
    "data": 0,
    "considered": 0,
    "KC": 0,
    "##TC": 4,
    "228": 0,
    "58": 0,
    "##40": 0,
    "##rma": 2,
    "##sp": 2,
    "##oro": 2,
    "com": 0,
    "##post": 0,
    "##rm": 3,
    "bacterium": 0,
    "formed": 0,
    "branched": 0,
    "ve": 0,
    "##get": 0,
    "##ative": 0,
    "my": 0,
    "##cel": 0,
    "I": 12,
    "temperatures": 0,
    "62": 0,
    "50": 0,
    "below": 0,
    "above": 0,
    "65": 0,
    "69": 0,
    "ant": 1,
    "12": 0,
    "21": 0,
    "11": 0,
    "ll": 0,
    "##no": 6,
    "##pi": 4,
    "##mel": 0,
    "##olar": 0,
    "ratio": 0,
    "consisted": 0,
    "ni": 0,
    "##nh": 0,
    "##yd": 0,
    "sugar": 2,
    "##ham": 2,
    "##nose": 0,
    "##rab": 0,
    "family": 0,
    "##card": 2,
    "##io": 4,
    "##ida": 0,
    "##ceae": 0,
    "but": 0,
    "more": 2,
    "than": 0,
    "ch": 7,
    "##em": 1,
    "##ota": 0,
    "##xon": 2,
    "differed": 0,
    "some": 0,
    "respects": 0,
    "Act": 0,
    "##pol": 0,
    "Therefore": 0,
    "##CM": 1,
    "1642": 0,
    "##y": 18,
    "##ci": 42,
    "##eus": 0,
    "forest": 0,
    "soil": 0,
    "V": 27,
    "Chang": 0,
    "##ba": 35,
    "Mountains": 0,
    "He": 13,
    "##ilon": 0,
    "##g": 2,
    "##jiang": 0,
    "Province": 0,
    "length": 0,
    "strictly": 0,
    "##ero": 0,
    "Col": 3,
    "##onies": 0,
    "##gar": 1,
    "plates": 0,
    "cream": 0,
    "smooth": 0,
    "circular": 0,
    "mm": 0,
    "20": 0,
    "##ura": 0,
    "indicated": 0,
    "##ally": 0,
    "ranging": 0,
    "values": 0,
    "do": 0,
    "##k": 9,
    "##don": 2,
    "big": 0,
    "##eum": 2,
    "1926": 0,
    "32": 0,
    "respectively": 0,
    "results": 0,
    "it": 0,
    "concluded": 0,
    "104": 0,
    "##26": 0,
    "##re": 12,
    "h": 0,
    "##bad": 1,
    "O": 26,
    "farm": 0,
    "Hyderabad": 0,
    "Andhra": 0,
    "Pradesh": 0,
    "India": 0,
    "have": 0,
    "typical": 0,
    "pact": 0,
    "134": 0,
    "##33": 0,
    "99": 0,
    "##liva": 0,
    "128": 0,
    "par": 0,
    "##vu": 4,
    "##lus": 11,
    "131": 0,
    "98": 0,
    "relatives": 0,
    "levels": 0,
    "comparison": 0,
    "It": 0,
    "AA": 0,
    "209": 0,
    "PC": 0,
    "Gordon": 6,
    "hum": 0,
    "##cter": 31,
    "123": 0,
    "##01": 3,
    "attached": 0,
    "spa": 0,
    "##wn": 0,
    "laboratory": 0,
    "grow": 0,
    "edible": 0,
    "mushroom": 0,
    "##icus": 1,
    "bra": 0,
    "##lie": 0,
    "shown": 0,
    "belong": 0,
    "##ydro": 0,
    "##phobic": 0,
    "##a": 99,
    "te": 0,
    "##rra": 0,
    "am": 0,
    "##ara": 0,
    "##qua": 0,
    "system": 0,
    "determined": 0,
    "consist": 0,
    "predominantly": 0,
    "minor": 0,
    "amounts": 0,
    "compounds": 0,
    "##let": 0,
    "##ola": 1,
    "##mine": 0,
    "moderate": 0,
    "man": 0,
    "##nos": 0,
    "##ides": 4,
    "three": 0,
    "My": 6,
    "present": 0,
    "These": 0,
    "traits": 0,
    "tube": 0,
    "##rc": 5,
    "##ulos": 0,
    "##ari": 0,
    "affiliation": 0,
    "physiological": 0,
    "bio": 0,
    "##chemical": 0,
    "allowed": 0,
    "clear": 0,
    "differentiation": 0,
    "45": 0,
    "77": 0,
    "##27": 0,
    "##ip": 7,
    "acidic": 0,
    "##eat": 0,
    "##rop": 2,
    "##mb": 0,
    "##rot": 6,
    "rain": 0,
    "fed": 0,
    "located": 0,
    "near": 0,
    "##ha": 2,
    "NY": 0,
    "USA": 0,
    "Culture": 0,
    "dim": 0,
    "##phic": 0,
    "containing": 0,
    "thin": 0,
    "irregular": 0,
    "##cci": 6,
    "CO": 0,
    "produce": 0,
    "did": 0,
    "not": 0,
    "utilize": 0,
    "##tate": 0,
    "ethanol": 0,
    "##ano": 2,
    "trim": 0,
    "##eth": 0,
    "##yla": 0,
    "Op": 0,
    "##mal": 0,
    "conditions": 0,
    "basal": 0,
    "medium": 0,
    "little": 0,
    "43": 0,
    "##hibit": 0,
    "##ed": 0,
    "completely": 0,
    "To": 2,
    "knowledge": 0,
    "lowest": 0,
    "salt": 0,
    "sensitive": 0,
    "pure": 0,
    "Ace": 0,
    "vitamin": 0,
    "extract": 0,
    "required": 0,
    "established": 0,
    "organism": 0,
    "211": 0,
    "140": 0,
    "Marino": 5,
    "coral": 0,
    "##li": 2,
    "Mu": 10,
    "##ssi": 3,
    "##sm": 3,
    "##ilia": 4,
    "his": 0,
    "405": 0,
    "reef": 0,
    "builder": 0,
    "Se": 3,
    "##tia": 1,
    "Channel": 0,
    "Paulo": 0,
    "Brazil": 0,
    "Its": 0,
    "position": 0,
    "##di": 21,
    "##mini": 0,
    "##cola": 0,
    "##rit": 3,
    "##tani": 0,
    "hybrid": 0,
    "##izations": 0,
    "less": 0,
    "70": 0,
    "supporting": 0,
    "status": 0,
    "characterization": 0,
    "able": 0,
    "42": 0,
    "differentiated": 0,
    "features": 0,
    "ability": 0,
    "d": 0,
    "br": 0,
    "##omo": 0,
    "##su": 1,
    "##nic": 0,
    "Beta": 1,
    "##xy": 0,
    "##but": 0,
    "##yric": 0,
    "k": 0,
    "##eto": 1,
    "##vale": 0,
    "##ric": 2,
    "##in": 3,
    "##ska": 0,
    "##uer": 0,
    "est": 0,
    "##ase": 0,
    "activities": 0,
    "possessed": 0,
    "sum": 0,
    "##med": 0,
    "feature": 0,
    "OH": 0,
    "22": 0,
    "254": 0,
    "##35": 0,
    "CA": 16,
    "144": 0,
    "Am": 8,
    "##gg": 0,
    "##iens": 1,
    "member": 0,
    "Micro": 3,
    "##iac": 0,
    "##eae": 0,
    "K": 15,
    "##SL": 6,
    "##51": 5,
    "##20": 5,
    "03": 0,
    "Anya": 0,
    "##ng": 4,
    "stream": 0,
    "Republic": 0,
    "characterized": 0,
    "using": 0,
    "tax": 0,
    "##ono": 0,
    "approach": 0,
    "Comparative": 0,
    "class": 7,
    "Lab": 1,
    "##ede": 9,
    "##lla": 6,
    "##wa": 0,
    "##ji": 0,
    "Le": 4,
    "##if": 3,
    "##son": 1,
    "##ins": 0,
    "##eng": 0,
    "##ged": 0,
    "##iri": 0,
    "##dar": 0,
    "##ii": 0,
    "##V": 223,
    "67": 0,
    "had": 0,
    "##nob": 0,
    "##ut": 0,
    "diagnostic": 0,
    "47": 0,
    "24": 0,
    "suggested": 0,
    "##EM": 0,
    "512": 0,
    "164": 0,
    "Mini": 3,
    "##imo": 2,
    "##nas": 2,
    "arena": 0,
    "sand": 0,
    "Y": 7,
    "studied": 0,
    "##eta": 1,
    "74": 0,
    "High": 0,
    "genera": 0,
    "Be": 7,
    "##ute": 1,
    "##nberg": 1,
    "salmon": 0,
    "Sal": 6,
    "##ana": 1,
    "multi": 0,
    "##vor": 0,
    "cavern": 0,
    "signature": 0,
    "n": 0,
    "##tide": 0,
    "evidence": 0,
    "106": 0,
    "1975": 0,
    "MB": 0,
    "##IC": 0,
    "08": 0,
    "##34": 0,
    "An": 16,
    "##ox": 4,
    "##llus": 28,
    "ten": 0,
    "##nge": 0,
    "er": 0,
    "##yuan": 0,
    "##ult": 0,
    "##kal": 2,
    "##ito": 0,
    "##ler": 0,
    "##ant": 2,
    "bacteria": 0,
    "hot": 0,
    "springs": 0,
    "Two": 0,
    "112": 0,
    "Ten": 1,
    "##ry": 2,
    "##uan": 0,
    "counties": 0,
    "Yunnan": 0,
    "south": 0,
    "west": 0,
    "occurring": 0,
    "sing": 0,
    "chains": 0,
    "75": 0,
    "while": 0,
    "contents": 0,
    "[": 1,
    "##ren": 0,
    "##oid": 0,
    "]": 0,
    "##ization": 0,
    "valid": 0,
    "published": 0,
    "names": 0,
    "AB": 0,
    "137": 0,
    "##21": 10,
    "##sser": 9,
    "wa": 0,
    "##ds": 0,
    "##worth": 1,
    "##hay": 0,
    "##egan": 0,
    "specimens": 0,
    "archive": 0,
    "##d": 4,
    "reference": 0,
    "has": 0,
    "For": 0,
    "each": 0,
    "independent": 0,
    "sources": 0,
    "Amongst": 0,
    "newly": 0,
    "organisms": 0,
    "can": 2,
    "den": 6,
    "zoo": 0,
    "##de": 3,
    "##gma": 0,
    "##tis": 1,
    "animal": 0,
    "##oris": 0,
    "##aver": 0,
    "studies": 0,
    "demonstrated": 0,
    "distinct": 0,
    "nearest": 0,
    "neighbours": 0,
    "Analysis": 0,
    "partial": 0,
    "their": 0,
    "provided": 0,
    "additional": 0,
    "support": 0,
    "designation": 0,
    "Bay": 0,
    "##esi": 0,
    "##an": 3,
    "includes": 0,
    "##iform": 0,
    "##ome": 0,
    "well": 0,
    "further": 0,
    "##15": 2,
    "##IP": 0,
    "109": 0,
    "87": 1,
    "##46": 0,
    "per": 0,
    "##fi": 1,
    "##vi": 0,
    "oxygen": 0,
    "tolerant": 0,
    "su": 0,
    "##lf": 0,
    "##ide": 0,
    "##zing": 0,
    "sulfur": 0,
    "th": 1,
    "##ios": 0,
    "##ulf": 0,
    "reducing": 0,
    "##ete": 0,
    "spring": 0,
    "organ": 0,
    "##oh": 1,
    "##eter": 0,
    "P": 90,
    "'": 0,
    "##hi": 13,
    "##ode": 0,
    "##nd": 0,
    "##ron": 0,
    "mat": 0,
    "Star": 0,
    "##aya": 0,
    "Russ": 0,
    "resort": 0,
    "Novgorod": 0,
    "Region": 0,
    "Russia": 0,
    "he": 11,
    "##lica": 0,
    "shape": 0,
    "##ze": 2,
    "elemental": 0,
    "via": 0,
    "interaction": 0,
    "deposit": 0,
    "##las": 4,
    "occurred": 0,
    "28": 0,
    "##hari": 1,
    "##des": 0,
    "carbon": 0,
    "energy": 0,
    "use": 0,
    "##eptide": 0,
    "organic": 0,
    "alcohol": 0,
    "glucose": 0,
    "##yr": 3,
    "##u": 1,
    "##vate": 0,
    "fell": 0,
    "lit": 0,
    "##oral": 0,
    "##ova": 0,
    "##ica": 7,
    "cello": 0,
    "##bio": 0,
    "then": 0,
    "89": 0,
    "physiology": 0,
    "1920": 0,
    "251": 0,
    "##por": 11,
    "##osa": 1,
    "##ao": 0,
    "##ua": 0,
    "oil": 0,
    "contaminated": 0,
    "##OL": 0,
    "##f": 0,
    "##37": 0,
    "##car": 0,
    "##bon": 0,
    "poll": 0,
    "##uted": 0,
    "surrounding": 0,
    "petroleum": 0,
    "environment": 0,
    "Tunisia": 0,
    "stained": 0,
    "structure": 0,
    "unlike": 0,
    "thick": 0,
    "##layer": 0,
    "##los": 9,
    "##tri": 4,
    "##isa": 2,
    "##au": 0,
    "##tal": 0,
    "48": 0,
    "least": 0,
    "concentrations": 0,
    "150": 0,
    "Ye": 2,
    "##ast": 2,
    "degradation": 0,
    "##uma": 1,
    "##rate": 0,
    "##ru": 2,
    "##ct": 9,
    "##ose": 0,
    "Also": 0,
    "##tero": 2,
    "##tro": 2,
    "Try": 0,
    "##ptic": 0,
    "unable": 0,
    "Casa": 1,
    "##min": 0,
    "Sul": 2,
    "##fa": 2,
    "##ite": 0,
    "##trate": 0,
    "reduced": 0,
    "##dia": 0,
    "##dial": 0,
    "various": 0,
    "highest": 0,
    "93": 0,
    "37": 0,
    "##HS": 0,
    "##60": 0,
    "##alo": 1,
    "##rre": 2,
    "CT": 0,
    "##T": 2,
    "Cal": 1,
    "##oran": 1,
    "##zor": 0,
    "MV": 12,
    "154": 0,
    "##rod": 1,
    "##uce": 0,
    "##ns": 0,
    "##tre": 0,
    "##zo": 10,
    "##here": 0,
    "tomato": 21,
    "plants": 0,
    "##N": 16,
    "00": 0,
    "grown": 0,
    "Guangzhou": 0,
    "grey": 0,
    "##ish": 1,
    "white": 6,
    "aerial": 0,
    "large": 0,
    "quantity": 0,
    "double": 0,
    "diamond": 1,
    "crystals": 0,
    "potato": 3,
    "##x": 7,
    "##lt": 0,
    "colour": 0,
    "##scopic": 0,
    "observations": 0,
    "##rt": 2,
    "cylindrical": 0,
    "##pores": 0,
    "Ch": 11,
    "Mel": 2,
    "##n": 2,
    "##ments": 0,
    "anti": 1,
    "activity": 0,
    "against": 0,
    "##scher": 34,
    "##ichi": 34,
    "##udo": 10,
    "##mona": 10,
    "##ug": 0,
    "Ba": 28,
    "sub": 2,
    "##til": 7,
    "Can": 19,
    "##da": 21,
    "inhibitor": 0,
    "Pen": 7,
    "##lli": 5,
    "##it": 0,
    "##ense": 0,
    "AT": 2,
    "1916": 0,
    "##ven": 0,
    "##du": 0,
    "##rise": 0,
    "133": 0,
    "Level": 0,
    "low": 0,
    "Furthermore": 0,
    "##R": 3,
    "##RL": 0,
    "248": 0,
    "##00": 0,
    "provides": 0,
    "unique": 0,
    "resolution": 0,
    "typing": 0,
    "##yan": 0,
    "##eria": 2,
    "characters": 0,
    "classification": 0,
    "often": 0,
    "led": 0,
    "ambiguous": 0,
    "assignment": 0,
    "In": 2,
    "past": 0,
    "decades": 0,
    "availability": 0,
    "such": 0,
    "meta": 0,
    "##gen": 0,
    "##cs": 0,
    "steadily": 0,
    "increased": 0,
    "made": 0,
    "reconstruction": 0,
    "evolutionary": 0,
    "relationships": 0,
    "##erial": 0,
    "groups": 0,
    "possible": 0,
    "improving": 0,
    "Con": 1,
    "##serve": 0,
    "##del": 0,
    "insertion": 0,
    "del": 0,
    "##ons": 0,
    "all": 0,
    "RNA": 0,
    "polymer": 0,
    "presently": 0,
    "available": 0,
    "public": 0,
    "databases": 0,
    "##b": 4,
    "involved": 0,
    "directed": 0,
    "They": 0,
    "variable": 0,
    "44": 0,
    "part": 0,
    "what": 0,
    "appears": 0,
    "longer": 0,
    "81": 0,
    "Indeed": 0,
    "number": 0,
    "turn": 0,
    "out": 0,
    "given": 0,
    "even": 0,
    "thus": 0,
    "##genus": 0,
    "level": 0,
    "useful": 0,
    "markers": 0,
    "positions": 0,
    "assess": 0,
    "biodiversity": 0,
    "time": 0,
    "natural": 0,
    "ecosystems": 0,
    "Au": 5,
    "##iba": 3,
    "i": 0,
    "##gna": 0,
    "##cca": 0,
    "ear": 0,
    "##wab": 0,
    "##titis": 14,
    "##tern": 0,
    "transfer": 0,
    "Yan": 0,
    "##iel": 7,
    "##lace": 0,
    "Li": 1,
    "et": 0,
    "2008": 0,
    "##ord": 0,
    "##nea": 0,
    "##MM": 5,
    "##IB": 5,
    "165": 0,
    "&": 0,
    "##t": 12,
    "Ana": 0,
    "algorithms": 0,
    "consistently": 0,
    "grouped": 0,
    "poses": 0,
    "##sed": 0,
    "##ure": 0,
    "variation": 0,
    "saturated": 0,
    "types": 0,
    "pre": 0,
    "##dom": 1,
    "##inating": 0,
    "included": 0,
    "59": 0,
    "We": 0,
    "transferred": 0,
    "amendments": 0,
    "57": 0,
    "##43": 0,
    "##ib": 4,
    "##uen": 0,
    "marine": 1,
    "study": 0,
    "carried": 0,
    "##44": 0,
    "crude": 0,
    "consortium": 0,
    "Gulf": 0,
    "PR": 0,
    "##rig": 0,
    "219": 0,
    "##22": 0,
    "##quence": 0,
    "dominant": 0,
    "38": 0,
    "however": 0,
    "readily": 0,
    "according": 0,
    "252": 0,
    "##28": 0,
    "Fun": 0,
    "secondary": 0,
    "##bol": 10,
    "##ites": 0,
    "strategies": 0,
    "activate": 0,
    "silent": 0,
    "clusters": 0,
    "Fi": 1,
    "fungi": 0,
    "multitude": 0,
    "weight": 0,
    "##active": 0,
    "increasing": 0,
    "genome": 0,
    "impressive": 0,
    "##sy": 0,
    "##hetic": 0,
    "potential": 0,
    "far": 0,
    "being": 0,
    "exploited": 0,
    "##hesis": 0,
    "cluster": 0,
    "Many": 0,
    "##atic": 0,
    "discovered": 0,
    "metabolism": 0,
    "Consequently": 0,
    "product": 0,
    "review": 0,
    "##mar": 0,
    "##izes": 0,
    "current": 0,
    "been": 0,
    "successfully": 0,
    "applied": 0,
    "last": 0,
    "years": 0,
    "especially": 0,
    "##per": 49,
    "##gill": 50,
    "techniques": 0,
    "advantage": 0,
    "mining": 0,
    "vary": 0,
    "simple": 0,
    "search": 0,
    "predicted": 0,
    "##hy": 10,
    "methods": 0,
    "exploit": 0,
    "probable": 0,
    "##gan": 0,
    "##isms": 0,
    "Until": 0,
    "now": 0,
    "majority": 0,
    "successful": 0,
    "approaches": 0,
    "biology": 0,
    "like": 0,
    "generation": 0,
    "##uo": 0,
    "knock": 0,
    "outs": 0,
    "promoter": 0,
    "exchange": 0,
    "over": 0,
    "##ex": 0,
    "##press": 0,
    "transcription": 0,
    "factors": 0,
    "##le": 7,
    "##iot": 0,
    "##ropic": 0,
    "regulator": 0,
    "Moreover": 0,
    "##gene": 0,
    "##tics": 0,
    "opened": 0,
    "avenue": 0,
    "el": 0,
    "##tion": 0,
    "regulation": 0,
    "will": 2,
    "certainly": 0,
    "continue": 0,
    "play": 0,
    "significant": 0,
    "cry": 0,
    "naturally": 0,
    "expressed": 0,
    "One": 0,
    "technique": 0,
    "attempt": 0,
    "si": 4,
    "##mu": 0,
    "##late": 0,
    "habitat": 0,
    "cultivation": 0,
    "ecosystem": 0,
    "already": 0,
    "activation": 0,
    "identification": 0,
    "##lan": 0,
    "simulation": 0,
    "help": 0,
    "discover": 0,
    "future": 0,
    "may": 0,
    "provide": 0,
    "fundamental": 0,
    "insights": 0,
    "into": 0,
    "communication": 0,
    "##art": 0,
    "##mental": 0,
    "traffic": 0,
    "understanding": 0,
    "processes": 0,
    "Great": 0,
    "progress": 0,
    "expression": 0,
    "Less": 0,
    "about": 0,
    "mechanisms": 0,
    "govern": 0,
    "spatial": 0,
    "distribution": 0,
    "enzymes": 0,
    "##ctors": 0,
    "substrates": 0,
    "media": 0,
    "##aly": 0,
    "##ynth": 0,
    "array": 0,
    "systems": 0,
    "analyze": 0,
    "temporal": 0,
    "##uka": 0,
    "##tes": 2,
    "example": 0,
    "##lat": 0,
    "para": 0,
    "##sitic": 0,
    "intensive": 0,
    "because": 0,
    "##cot": 0,
    "highly": 0,
    "toxic": 0,
    "##uta": 0,
    "##genic": 0,
    "car": 0,
    "##cin": 0,
    "humans": 10,
    "animals": 0,
    "Using": 0,
    "synthesis": 0,
    "illustrate": 0,
    "concepts": 0,
    "focuses": 0,
    "compartment": 0,
    "##ali": 0,
    "##zation": 0,
    "contribute": 0,
    "initiation": 0,
    "completion": 0,
    "discuss": 0,
    "recent": 0,
    "discovery": 0,
    "specialized": 0,
    "trafficking": 0,
    "##cles": 0,
    "participate": 0,
    "export": 0,
    "##xin": 0,
    "exterior": 0,
    "work": 0,
    "clearer": 0,
    "how": 0,
    "integrate": 0,
    "basic": 0,
    "machinery": 0,
    "language": 0,
    "interactions": 0,
    "cross": 0,
    "kingdom": 0,
    "hosts": 0,
    "rapidly": 0,
    "emerging": 0,
    "field": 0,
    "growing": 0,
    "chemical": 0,
    "talk": 0,
    "lies": 0,
    "yet": 0,
    "##ated": 0,
    "derived": 0,
    "##uns": 0,
    "##at": 0,
    "termed": 0,
    "End": 0,
    "roles": 0,
    "carrying": 0,
    "##lon": 2,
    "host": 0,
    "reproduce": 0,
    "While": 0,
    "functions": 0,
    "reproduction": 0,
    "they": 0,
    "recognized": 0,
    "agents": 0,
    "facilitate": 0,
    "resistance": 0,
    "attack": 0,
    "composition": 0,
    "introduce": 0,
    "suggests": 0,
    "own": 0,
    "##ir": 6,
    "##nce": 0,
    "Specifically": 0,
    "describe": 0,
    "induce": 0,
    "promote": 0,
    "##ulation": 0,
    "fungus": 0,
    "##igan": 0,
    "mimic": 0,
    "##rona": 2,
    "##tine": 0,
    "manipulate": 0,
    "defense": 0,
    "responses": 0,
    "benefit": 0,
    "implicated": 0,
    "Treatment": 0,
    "ad": 3,
    "##herence": 0,
    "teenage": 0,
    "young": 0,
    "adult": 0,
    "patients": 0,
    "cancer": 0,
    "Ad": 7,
    "##hering": 0,
    "treatment": 0,
    "issue": 0,
    "many": 0,
    "diagnosed": 0,
    "chronic": 0,
    "health": 0,
    "reported": 0,
    "greater": 1,
    "adolescent": 0,
    "However": 0,
    "increase": 0,
    "awareness": 0,
    "challenges": 0,
    "faced": 0,
    "reviewed": 0,
    "substantial": 0,
    "proportion": 0,
    "difficulties": 0,
    "reports": 0,
    "63": 0,
    "regime": 0,
    "inconsistent": 0,
    "across": 0,
    "true": 0,
    "extent": 0,
    "still": 0,
    "unclear": 0,
    "apparent": 0,
    "there": 0,
    "components": 0,
    "assessed": 0,
    "relation": 0,
    "patient": 0,
    "Factor": 0,
    "affect": 0,
    "include": 0,
    "emotional": 0,
    "functioning": 0,
    "depression": 0,
    "self": 0,
    "esteem": 0,
    "beliefs": 0,
    "perceived": 0,
    "illness": 0,
    "severity": 0,
    "vulnerability": 0,
    "parental": 0,
    "parent": 0,
    "child": 0,
    "con": 0,
    "##cor": 5,
    "##dance": 0,
    "##gies": 0,
    "foster": 0,
    "##ctor": 0,
    "targeting": 0,
    "professional": 0,
    "highlights": 0,
    "lack": 0,
    "intervention": 0,
    "addressing": 0,
    "video": 0,
    "game": 0,
    "focusing": 0,
    "behaviour": 0,
    "issues": 0,
    "care": 0,
    "Method": 0,
    "##ological": 0,
    "measuring": 0,
    "addressed": 0,
    "suggestions": 0,
    "design": 0,
    "highlighted": 0,
    "great": 2,
    "need": 0,
    "Mon": 0,
    "##lent": 0,
    "##ions": 0,
    "regulate": 0,
    "Ha": 0,
    "potassium": 0,
    "transport": 0,
    "De": 2,
    "##bar": 3,
    "##nse": 0,
    "residual": 0,
    "indicating": 0,
    "high": 0,
    "affinity": 0,
    "##ers": 1,
    "Trans": 0,
    "##cription": 0,
    "##take": 0,
    "##h": 2,
    "##TR": 0,
    "regulated": 0,
    "##HA": 0,
    "starvation": 0,
    "absence": 0,
    "affected": 0,
    "membrane": 0,
    "expressing": 0,
    "activated": 0,
    "external": 0,
    "##port": 0,
    "certain": 0,
    "mechanism": 0,
    "driving": 0,
    "influx": 0,
    "##H": 11,
    "##ak": 0,
    "Is": 0,
    "##dr": 1,
    "mutations": 0,
    "##use": 0,
    "##lio": 8,
    "##ma": 9,
    "?": 0,
    "so": 1,
    "##matic": 0,
    "ID": 0,
    "##H1": 0,
    "##blast": 0,
    "##oma": 1,
    "remarkable": 0,
    "previously": 0,
    "any": 0,
    "grade": 0,
    "II": 0,
    "III": 0,
    "##mas": 0,
    "Apart": 0,
    "acute": 0,
    "##elo": 3,
    "le": 0,
    "##emia": 0,
    "##umour": 0,
    "carry": 0,
    "##tations": 0,
    "although": 0,
    "much": 0,
    "rare": 0,
    "##53": 0,
    "19": 0,
    "##q": 1,
    "code": 0,
    "mutually": 0,
    "exclusive": 0,
    "##type": 2,
    "common": 1,
    "early": 0,
    "events": 0,
    "##gno": 0,
    "##stic": 0,
    "marker": 0,
    "overall": 0,
    "progression": 0,
    "free": 0,
    "survival": 0,
    "IV": 0,
    "##tated": 0,
    "altered": 0,
    "##alytic": 0,
    "accumulation": 0,
    "##arate": 0,
    "Molecular": 0,
    "##go": 3,
    "single": 0,
    "rarely": 0,
    "occur": 0,
    "together": 0,
    "Because": 0,
    "does": 0,
    "traditional": 0,
    "specifically": 0,
    "commonly": 0,
    "GP": 0,
    "##I": 11,
    "anchored": 0,
    "En": 2,
    "##umi": 0,
    "##gat": 0,
    "encoded": 0,
    "##NG": 0,
    "##F": 3,
    "##36": 0,
    "belongs": 0,
    "##cos": 0,
    "##lase": 0,
    "##comb": 0,
    "Pi": 9,
    "##chia": 3,
    "##pas": 1,
    "##tor": 4,
    "prefer": 0,
    "##ential": 0,
    "acts": 0,
    "soluble": 0,
    "##cans": 0,
    "Car": 2,
    "##box": 0,
    "##yme": 1,
    "##thy": 0,
    "##ur": 3,
    "##dl": 0,
    "Re": 1,
    "##rill": 0,
    "##iant": 0,
    "Blue": 0,
    "RB": 0,
    "mg": 0,
    "HP": 7,
    "##EC": 13,
    "when": 0,
    "acting": 0,
    "##gos": 0,
    "##ride": 0,
    "degree": 0,
    "##otype": 0,
    "##feng": 0,
    "mutant": 0,
    "identical": 0,
    "Me": 6,
    "##as": 4,
    "##uring": 0,
    "impact": 0,
    "Millennium": 0,
    "Development": 0,
    "Goal": 0,
    "era": 0,
    "beyond": 0,
    "scale": 0,
    "effectiveness": 0,
    "evaluation": 0,
    "Evaluation": 0,
    "programmes": 0,
    "initiatives": 0,
    "aimed": 0,
    "improvement": 0,
    "countries": 0,
    "middle": 0,
    "income": 0,
    "needs": 0,
    "Traditional": 0,
    "designs": 0,
    "compare": 0,
    "areas": 0,
    "without": 0,
    "programme": 0,
    "relevant": 0,
    "scaled": 0,
    "virtually": 0,
    "every": 0,
    "district": 0,
    "world": 0,
    "evolution": 0,
    "national": 0,
    "platform": 0,
    "uses": 0,
    "unit": 0,
    "continuous": 0,
    "monitoring": 0,
    "indicators": 0,
    "gather": 0,
    "before": 0,
    "after": 0,
    "period": 0,
    "multiple": 0,
    "analytical": 0,
    "deal": 0,
    "gaps": 0,
    "bias": 0,
    "interim": 0,
    "##mat": 0,
    "##ive": 0,
    "country": 0,
    "ownership": 0,
    "transparency": 0,
    "donor": 0,
    "coordination": 0,
    "providing": 0,
    "rigorous": 0,
    "cost": 0,
    "u": 0,
    "##rea": 0,
    "report": 0,
    "here": 0,
    "##ishes": 0,
    "suggesting": 0,
    "sole": 0,
    "specific": 0,
    "##cible": 0,
    "precursor": 0,
    "responds": 0,
    "nitrogen": 0,
    "repression": 0,
    "ne": 0,
    "##cess": 0,
    "##itating": 0,
    "Are": 0,
    "GA": 0,
    "##TA": 0,
    "factor": 0,
    "contrast": 0,
    "##mon": 0,
    "operative": 0,
    "down": 0,
    "post": 0,
    "translation": 0,
    "promoted": 0,
    "##osis": 0,
    "##logue": 0,
    "contain": 0,
    "arise": 0,
    "du": 1,
    "##plication": 0,
    "giving": 0,
    "put": 0,
    "proteins": 0,
    "acquired": 0,
    "##ho": 0,
    "##GA": 0,
    "essential": 0,
    "##ivo": 0,
    "GT": 1,
    "##ivating": 0,
    "##tein": 0,
    "investigated": 0,
    "##D": 38,
    "##42": 0,
    "intrinsic": 0,
    "stimulate": 0,
    "##lysis": 0,
    "##ases": 0,
    "sensitivity": 0,
    "##el": 3,
    "conserved": 0,
    "complement": 0,
    "##rg": 0,
    "By": 0,
    "tag": 0,
    "##ging": 0,
    "##FP": 0,
    "localized": 0,
    "tip": 0,
    "cortex": 0,
    "##oki": 0,
    "##nes": 0,
    "##pta": 0,
    "sites": 0,
    "forms": 0,
    "effect": 0,
    "##ving": 0,
    "##ele": 3,
    "lacking": 0,
    "presented": 0,
    "##m": 5,
    "tubes": 0,
    "Conversely": 0,
    "restricted": 0,
    "demonstrate": 0,
    "##ong": 0,
    "##ation": 0,
    "Surface": 0,
    "##rome": 3,
    "##ra": 4,
    "##lia": 1,
    "emission": 0,
    "scanning": 0,
    "electron": 0,
    "##sco": 0,
    "##py": 3,
    "##rida": 0,
    "Al": 2,
    "##ve": 0,
    "auto": 0,
    "##tist": 0,
    "##tony": 0,
    "possesses": 0,
    "##lor": 3,
    "##last": 4,
    "thought": 0,
    "photos": 0,
    "##om": 0,
    "##plex": 0,
    "close": 0,
    "predatory": 2,
    "##dell": 3,
    "##put": 0,
    "coated": 0,
    "gold": 0,
    "##rom": 6,
    "##ise": 0,
    "surface": 0,
    "ultra": 0,
    "##structure": 0,
    "bi": 0,
    "##lage": 0,
    "resemble": 0,
    "ed": 0,
    "##ax": 7,
    "notable": 0,
    "ventral": 0,
    "side": 0,
    "groove": 0,
    "extending": 0,
    "anterior": 0,
    "point": 0,
    "ridge": 0,
    "rising": 0,
    "towards": 0,
    "apex": 0,
    "##ell": 0,
    "shorter": 0,
    "posterior": 0,
    "small": 0,
    "curved": 0,
    "app": 0,
    "##end": 0,
    "##age": 0,
    "partly": 0,
    "enclosed": 0,
    "flap": 0,
    "approximately": 0,
    "times": 0,
    "mast": 0,
    "##igo": 0,
    "##mes": 0,
    "combination": 0,
    "coating": 0,
    "proved": 0,
    "superior": 0,
    "determine": 0,
    "fine": 0,
    "##st": 11,
    "##ructural": 0,
    "information": 0,
    "us": 0,
    "diagnosis": 0,
    "##ress": 0,
    "induced": 0,
    "pseudo": 0,
    "protection": 0,
    "solvent": 0,
    "##tham": 1,
    "##oe": 5,
    "Different": 0,
    "##iation": 0,
    "resistant": 0,
    "walled": 0,
    "##ts": 2,
    "allowing": 0,
    "##zoic": 0,
    "survive": 0,
    "lasting": 0,
    "##vour": 0,
    "##able": 0,
    "environmental": 0,
    "relatively": 0,
    "##tone": 0,
    "##MS": 0,
    "##O": 0,
    "##mpt": 0,
    "rounded": 0,
    "stage": 0,
    "envelope": 0,
    "address": 0,
    "whether": 0,
    "rapid": 0,
    "response": 0,
    "differs": 0,
    "dependent": 0,
    "monitored": 0,
    "##sta": 0,
    "##ting": 0,
    "##iating": 0,
    "layered": 0,
    "coat": 0,
    "assembled": 0,
    "treated": 0,
    "CS": 0,
    "protect": 0,
    "assemble": 0,
    "im": 0,
    "specify": 0,
    "terminal": 0,
    "##icit": 0,
    "stress": 0,
    "suggest": 0,
    "possibility": 0,
    "exists": 0,
    "##sts": 0,
    "might": 0,
    "contact": 0,
    "lens": 0,
    "solutions": 0,
    "##sin": 0,
    "##fect": 1,
    "Po": 6,
    "##ble": 0,
    "biological": 0,
    "caste": 0,
    "##llan": 0,
    "Gen": 0,
    "##pect": 0,
    "##hot": 0,
    "##ometric": 0,
    "ass": 0,
    "##ays": 0,
    "##ates": 0,
    "conditioned": 0,
    "exhibit": 0,
    "extra": 0,
    "##cellular": 0,
    "##LA": 0,
    "significantly": 0,
    "compared": 0,
    "associated": 0,
    "05": 0,
    "##nga": 1,
    "##nine": 0,
    "robust": 0,
    "##bis": 1,
    "##tat": 3,
    "##bility": 0,
    "pot": 0,
    "##ency": 0,
    "effectively": 0,
    "pu": 0,
    "##rified": 0,
    "pan": 2,
    "##cre": 2,
    "neither": 0,
    "nor": 0,
    "##oto": 0,
    "##city": 0,
    "brain": 0,
    "##vas": 0,
    "##cular": 0,
    "##oth": 1,
    "##eli": 0,
    "due": 0,
    "Unlike": 0,
    "case": 0,
    "##ste": 0,
    "##lium": 3,
    "appeared": 0,
    "##tosis": 0,
    "fluorescent": 0,
    "labelled": 0,
    "##sty": 0,
    "##rene": 0,
    "beads": 0,
    "Horse": 1,
    "##rad": 1,
    "##idas": 0,
    "trace": 0,
    "molecule": 0,
    "develop": 0,
    "pin": 0,
    "imp": 0,
    "au": 0,
    "##gment": 0,
    "nature": 0,
    "complete": 0,
    "##esis": 0,
    "infections": 0,
    "therapeutic": 0,
    "targets": 0,
    "played": 0,
    "##pop": 0,
    "##ducing": 0,
    "AI": 0,
    "mitochondrial": 0,
    "##dor": 0,
    "Ai": 0,
    "##AD": 0,
    "##bi": 7,
    "##quin": 0,
    "Far": 0,
    "##OH": 0,
    "##ster": 0,
    "##ory": 0,
    "##lation": 0,
    "##phate": 0,
    "##ab": 3,
    "##ole": 0,
    "##oids": 0,
    "proliferation": 0,
    "show": 0,
    "plays": 0,
    "function": 0,
    "Complex": 0,
    "Additionally": 0,
    "##code": 0,
    "alternative": 0,
    "When": 0,
    "exposed": 0,
    "Delta": 1,
    "##ai": 0,
    "##nde": 0,
    "##OS": 0,
    "##pen": 0,
    "##sat": 0,
    "affecting": 0,
    "differential": 0,
    "Regulation": 0,
    "##roma": 0,
    "##tin": 2,
    "codes": 0,
    "composed": 0,
    "wrapped": 0,
    "around": 0,
    "##ame": 0,
    "##tones": 0,
    "nuclei": 0,
    "Changes": 0,
    "##len": 0,
    "##cing": 0,
    "##versible": 0,
    "modifications": 0,
    "direct": 0,
    "transitions": 0,
    "Recent": 0,
    "SM": 0,
    "representing": 0,
    "upper": 0,
    "hi": 2,
    "##rch": 1,
    "##ical": 0,
    "coordinated": 0,
    "##oso": 17,
    "elements": 0,
    "##chan": 0,
    "##istic": 0,
    "explain": 0,
    "dispersed": 0,
    "regions": 0,
    "simultaneously": 0,
    "silence": 0,
    "primary": 0,
    "##ivation": 0,
    "consequently": 0,
    "##hibition": 0,
    "New": 1,
    "##ch": 8,
    "##romatic": 0,
    "marks": 0,
    "closed": 0,
    "structures": 0,
    "reversed": 0,
    "##iva": 0,
    "La": 4,
    "Despite": 0,
    "remains": 0,
    "learned": 0,
    "signal": 0,
    "onto": 0,
    "exactly": 0,
    "works": 0,
    "inside": 0,
    "remain": 0,
    "open": 0,
    "questions": 0,
    "Answer": 0,
    "would": 0,
    "signaling": 0,
    "corresponding": 0,
    "ways": 0,
    "substances": 0,
    "Conservation": 0,
    "##OP": 0,
    "Previously": 0,
    "native": 1,
    "Cy": 2,
    "##sch": 1,
    "##zon": 1,
    "##rol": 0,
    "##PO": 0,
    "whole": 0,
    "##ivity": 0,
    "##lea": 0,
    "rice": 27,
    "##delity": 0,
    "facts": 0,
    "##kon": 0,
    "gamma": 0,
    "Pol": 5,
    "##gam": 0,
    "Te": 9,
    "##men": 7,
    "contains": 0,
    "##mm": 0,
    "##uno": 0,
    "##lot": 1,
    "mit": 0,
    "##och": 0,
    "##ond": 0,
    "##ria": 6,
    "column": 0,
    "##tography": 0,
    "series": 0,
    "Sen": 0,
    "##vity": 0,
    "##phon": 2,
    "##oa": 0,
    "##TT": 0,
    "examined": 0,
    "##elles": 3,
    "Arab": 23,
    "##psis": 27,
    "rat": 2,
    "liver": 0,
    "Family": 0,
    "Finally": 0,
    "succession": 0,
    "##dent": 0,
    "##ification": 0,
    "##ht": 4,
    "##hora": 4,
    "##iana": 0,
    "Trip": 0,
    "tub": 0,
    "hairs": 0,
    "responsible": 0,
    "##versing": 0,
    "thrust": 0,
    "beat": 0,
    "##ility": 0,
    "##pit": 1,
    "experiments": 0,
    "antibodies": 0,
    "##ores": 0,
    "facilitated": 0,
    "shaft": 0,
    "Express": 0,
    "##ual": 0,
    "synthesized": 0,
    "secret": 0,
    "rich": 0,
    "domains": 0,
    "Evidence": 0,
    "##mer": 1,
    "complexes": 0,
    "likely": 0,
    "##sul": 0,
    "typically": 0,
    "algae": 0,
    "##ona": 7,
    "da": 0,
    "##nica": 0,
    "##hage": 0,
    "##ffer": 0,
    "##ens": 0,
    "##hon": 3,
    "lo": 1,
    "##aria": 0,
    "##ato": 5,
    "##ms": 0,
    "##hala": 1,
    "##ira": 1,
    "##iss": 1,
    "##ras": 1,
    "##der": 5,
    "singular": 0,
    "##phy": 0,
    "solitary": 0,
    "East": 0,
    "Pacific": 0,
    "##IO": 0,
    "##SO": 0,
    "##E": 0,
    "cruise": 0,
    "2004": 0,
    "Of": 0,
    "nine": 0,
    "colonial": 0,
    "size": 0,
    "shares": 0,
    "identity": 0,
    "recorded": 0,
    "colonies": 0,
    "smaller": 0,
    "thinner": 0,
    "second": 0,
    "covering": 0,
    "##dence": 0,
    "volumes": 0,
    "##top": 1,
    "##rica": 0,
    "fixed": 0,
    "tin": 0,
    "relationship": 0,
    "volume": 0,
    "bulk": 0,
    "samples": 0,
    "temperate": 0,
    "environments": 0,
    "river": 0,
    "##trine": 0,
    "All": 1,
    "Lu": 1,
    "##gol": 0,
    "solution": 0,
    "dependence": 0,
    "equation": 0,
    "##L": 2,
    "##VP": 0,
    "where": 0,
    "VP": 0,
    "average": 0,
    "occupied": 0,
    "##ost": 0,
    "##ulata": 0,
    "omitted": 0,
    "calculations": 0,
    "separately": 0,
    "since": 0,
    "permits": 0,
    "##cal": 8,
    "##cula": 3,
    "incomplete": 0,
    "if": 0,
    "body": 1,
    "measured": 0,
    "##llo": 3,
    "##licing": 0,
    "##ming": 0,
    "inter": 0,
    "##vening": 0,
    "translated": 0,
    "flank": 0,
    "##cise": 0,
    "functional": 0,
    "mobility": 0,
    "widespread": 0,
    "occurs": 0,
    "important": 0,
    "His": 1,
    "caps": 0,
    "##ula": 1,
    "##tum": 1,
    "Para": 13,
    "##cea": 1,
    "der": 0,
    "##iti": 0,
    "##dis": 0,
    "Em": 1,
    "##mons": 1,
    "##va": 7,
    "experimental": 0,
    "##PR": 0,
    "inactive": 0,
    "complex": 0,
    "context": 0,
    "Since": 0,
    "promising": 0,
    "target": 0,
    "drugs": 0,
    "should": 0,
    "Bar": 1,
    "##ding": 0,
    "disc": 0,
    "##rim": 0,
    "identifying": 0,
    "bar": 7,
    "recently": 0,
    "gained": 0,
    "popularity": 0,
    "tool": 0,
    "taxa": 0,
    "objective": 0,
    "research": 0,
    "explore": 0,
    "efficacy": 0,
    "first": 0,
    "##tras": 0,
    "##pecific": 0,
    "sampling": 0,
    "##ade": 0,
    "##ge": 0,
    "##wi": 0,
    "##rata": 0,
    "tropical": 0,
    "Inc": 0,
    "##reased": 0,
    "efforts": 0,
    "diver": 0,
    "##gence": 0,
    "though": 0,
    "mi": 0,
    "##side": 0,
    "##nti": 0,
    "##fied": 0,
    "##sla": 0,
    "##bel": 0,
    "##codes": 0,
    "51": 0,
    "success": 0,
    "rate": 0,
    "Thus": 0,
    "##val": 0,
    "##ologists": 0,
    "conjunction": 0,
    "##acing": 0,
    "living": 0,
    "##rum": 6,
    "##mata": 0,
    "Abe": 2,
    "##of": 2,
    "##orm": 4,
    "##vert": 0,
    "##eb": 5,
    "dig": 0,
    "##estive": 0,
    "tracts": 0,
    "und": 0,
    "##ice": 5,
    "##ll": 0,
    "##cht": 0,
    "survey": 0,
    "rib": 0,
    "represented": 0,
    "##gent": 0,
    "clone": 0,
    "light": 0,
    "life": 0,
    "cycle": 0,
    "spherical": 0,
    "##sper": 0,
    "binary": 0,
    "##ssion": 0,
    "##uddin": 0,
    "##bo": 4,
    "stages": 0,
    "Both": 0,
    "bound": 0,
    "extensions": 0,
    "embedded": 0,
    "inner": 0,
    "layers": 0,
    "walls": 0,
    "comparing": 0,
    "##pec": 0,
    "##ulate": 0,
    "ancestral": 0,
    "diverse": 0,
    "capturing": 0,
    "belonging": 0,
    "##culture": 0,
    "Does": 0,
    "climate": 0,
    "warming": 0,
    "communities": 0,
    "test": 0,
    "arc": 0,
    "##und": 0,
    "air": 0,
    "So": 4,
    "##il": 0,
    "##bla": 0,
    "##ges": 0,
    "grassland": 0,
    "area": 0,
    "Zack": 0,
    "##enberg": 0,
    "Northeast": 0,
    "Greenland": 0,
    "simulated": 0,
    "season": 0,
    "Free": 0,
    "Air": 0,
    "##mper": 0,
    "##ature": 0,
    "##rease": 0,
    "Sam": 0,
    "##ples": 0,
    "deeper": 0,
    "horizon": 0,
    "Mean": 0,
    "elevations": 0,
    "cm": 0,
    "depth": 0,
    "SD": 0,
    "differ": 0,
    "moisture": 0,
    "top": 0,
    "manipulation": 0,
    "##sities": 0,
    "empty": 0,
    "shells": 0,
    "higher": 0,
    "plots": 0,
    "layer": 0,
    "##bly": 0,
    "limited": 0,
    "enhance": 0,
    "capacity": 0,
    "favourable": 0,
    "Species": 0,
    "hand": 0,
    "Warm": 0,
    "change": 0,
    "individuals": 0,
    "sized": 0,
    "contrary": 0,
    "expectation": 0,
    "quickly": 0,
    "density": 0,
    "shell": 0,
    "##ient": 2,
    "date": 0,
    "state": 0,
    "##phe": 0,
    "whereas": 0,
    "alterations": 0,
    "sustained": 0,
    "##DA": 0,
    "transformation": 0,
    "##mology": 0,
    "searches": 0,
    "aux": 0,
    "Whereas": 0,
    "##pel": 0,
    "##ar": 10,
    "##gon": 0,
    "##thi": 4,
    "performed": 0,
    "##function": 0,
    "Such": 0,
    "numerous": 0,
    "##com": 1,
    "contributing": 0,
    "steps": 0,
    "##ime": 0,
    "##loy": 0,
    "organized": 0,
    "##ez": 0,
    "##iz": 0,
    "##con": 2,
    "classical": 0,
    "feeding": 0,
    "either": 0,
    "recovery": 0,
    "defined": 0,
    "green": 2,
    "reporter": 0,
    "efficient": 0,
    "y": 0,
    "##ination": 0,
    "##NF": 0,
    "actions": 0,
    "AM": 4,
    "source": 0,
    "##rup": 0,
    "defects": 0,
    "capsule": 0,
    "Especially": 0,
    "elevated": 0,
    "##ance": 0,
    "equivalent": 0,
    "##ype": 3,
    "needed": 0,
    "preference": 0,
    "Revelation": 0,
    "understand": 0,
    "Go": 0,
    "old": 0,
    "disease": 0,
    "approval": 0,
    "##ux": 0,
    "analogue": 0,
    "x": 0,
    "##hine": 0,
    "European": 1,
    "Medicine": 0,
    "Agency": 0,
    "US": 0,
    "Food": 0,
    "Drug": 0,
    "Administration": 0,
    "her": 0,
    "##ald": 0,
    "go": 0,
    "modified": 0,
    "##ses": 0,
    "reduce": 0,
    "serum": 0,
    "otherwise": 0,
    "##ata": 0,
    "advances": 0,
    "##nal": 1,
    "##ximal": 0,
    "inflammatory": 0,
    "translating": 0,
    "treatments": 0,
    "Review": 0,
    "focus": 0,
    "trials": 0,
    "##eg": 3,
    "pipeline": 0,
    "selective": 0,
    "##uri": 2,
    "drug": 0,
    "##DE": 0,
    "##uki": 0,
    "word": 0,
    "caution": 0,
    "At": 0,
    "##mit": 0,
    "ourselves": 0,
    "rational": 0,
    "Carr": 0,
    "effects": 0,
    "drivers": 0,
    "fitness": 0,
    "influence": 0,
    "individual": 0,
    "following": 0,
    "phenomenon": 0,
    "amount": 0,
    "tracking": 0,
    "periods": 0,
    "annual": 0,
    "designed": 0,
    "examine": 0,
    "##pot": 1,
    "##heses": 0,
    "drive": 0,
    "notably": 0,
    "mac": 0,
    "##rient": 0,
    "supply": 0,
    "highlight": 0,
    "histories": 0,
    "ecological": 0,
    "situations": 0,
    "expect": 0,
    "them": 0,
    "require": 0,
    "investigation": 0,
    "##nut": 0,
    "##nts": 0,
    "estimate": 0,
    "contributions": 0,
    "quality": 0,
    "breeding": 0,
    "allow": 0,
    "accurate": 0,
    "##imation": 0,
    "magnitude": 0,
    "proven": 0,
    "immensely": 0,
    "difficult": 0,
    "hope": 0,
    "framework": 0,
    "vital": 0,
    "advancing": 0,
    "modelling": 0,
    "investigating": 0,
    "calculate": 0,
    "rates": 0,
    "acquisition": 0,
    "resources": 0,
    "course": 0,
    "allows": 0,
    "strength": 0,
    "alter": 0,
    "##yne": 4,
    "ago": 0,
    "##nist": 0,
    "fashion": 0,
    "conclusion": 0,
    "currently": 0,
    "driven": 0,
    "reason": 0,
    "##eas": 0,
    "##ibly": 0,
    "performance": 0,
    "warrant": 0,
    "wealth": 0,
    "##pose": 0,
    "attributes": 0,
    "seasons": 0,
    "General": 0,
    "structured": 0,
    "##film": 0,
    "lifestyle": 0,
    "wild": 0,
    "striking": 0,
    "possessing": 0,
    "enabling": 0,
    "better": 0,
    "hostile": 0,
    "sets": 0,
    "differently": 0,
    "flu": 0,
    "##ffy": 0,
    "semi": 0,
    "ancestors": 0,
    "backgrounds": 0,
    "settings": 0,
    "BR": 0,
    "88": 0,
    "103": 0,
    "specified": 0,
    "preferred": 0,
    "abundant": 0,
    "matrix": 0,
    "EC": 0,
    "influences": 0,
    "colony": 0,
    "architecture": 0,
    "capability": 0,
    "retain": 0,
    "water": 0,
    "fold": 0,
    "surplus": 0,
    "wet": 0,
    "##mass": 1,
    "depending": 0,
    "particular": 0,
    "background": 0,
    "##Q": 0,
    "FL": 0,
    "##hes": 0,
    "##hesion": 0,
    "contributes": 0,
    "##iability": 0,
    "surprisingly": 0,
    "pattern": 0,
    "directly": 0,
    "dimensional": 0,
    "##lle": 0,
    "##fen": 0,
    "##az": 0,
    "##itrus": 2,
    "Pan": 2,
    "##ony": 2,
    "##chus": 5,
    "##ri": 1,
    "##ife": 0,
    "##na": 1,
    "##za": 5,
    "developed": 0,
    "##icide": 0,
    "mainly": 0,
    "spider": 0,
    "crops": 0,
    "##uro": 0,
    "##ny": 2,
    "mode": 0,
    "action": 0,
    "Q": 5,
    "pocket": 0,
    "reveal": 0,
    "maternal": 0,
    "inherited": 0,
    "##fer": 0,
    "linked": 0,
    "trait": 0,
    "##rro": 0,
    "##bor": 0,
    "again": 0,
    "taken": 0,
    "employing": 0,
    "crop": 0,
    "Wildlife": 0,
    "diseases": 0,
    "wildlife": 0,
    "infectious": 3,
    "highlighting": 0,
    "conceptual": 0,
    "thinking": 0,
    "lacks": 0,
    "##rification": 0,
    "discussing": 0,
    "offering": 0,
    "directions": 0,
    "hold": 0,
    "parasite": 0,
    "immune": 0,
    "makes": 0,
    "##nological": 0,
    "parameters": 0,
    "viable": 0,
    "measures": 0,
    "exposure": 0,
    "tools": 0,
    "ca": 7,
    "##usal": 0,
    "Studies": 0,
    "transmission": 0,
    "dynamics": 0,
    "##ity": 0,
    "operating": 0,
    "scales": 0,
    "challenge": 0,
    "maintaining": 0,
    "##sistence": 0,
    "populations": 0,
    "too": 0,
    "consider": 0,
    "isolation": 0,
    "seek": 0,
    "unified": 0,
    "rules": 0,
    "determining": 0,
    "population": 0,
    "impacts": 0,
    "Good": 0,
    "shows": 0,
    "indirect": 0,
    "frequently": 0,
    "invasive": 0,
    "recipient": 0,
    "wider": 0,
    "exploration": 0,
    "circumstances": 0,
    "flux": 0,
    "indeed": 0,
    "There": 0,
    "general": 0,
    "empirical": 0,
    "testing": 0,
    "predictions": 0,
    "subsequent": 0,
    "theory": 0,
    "classic": 0,
    "Experimental": 0,
    "collection": 0,
    "term": 0,
    "##stra": 0,
    "##ined": 0,
    "beginning": 0,
    "##tism": 0,
    "offer": 0,
    "bigger": 0,
    "picture": 0,
    "regulatory": 0,
    "cause": 0,
    "extinction": 0,
    "##dicative": 0,
    "##lient": 0,
    "predict": 0,
    "quantitative": 0,
    "food": 0,
    "web": 0,
    "##hare": 0,
    "enemies": 0,
    "link": 0,
    "prey": 0,
    "Recently": 0,
    "herb": 0,
    "##rous": 0,
    "insect": 0,
    "attacked": 0,
    "negatively": 0,
    "competition": 0,
    "Nonetheless": 0,
    "theoretical": 0,
    "outcomes": 0,
    "paper": 0,
    "patterns": 0,
    "realized": 0,
    "First": 0,
    "construct": 0,
    "leaf": 0,
    "mine": 0,
    "oak": 1,
    "Que": 2,
    "measure": 0,
    "short": 0,
    "trees": 0,
    "##mani": 0,
    "##pu": 0,
    "##lated": 0,
    "share": 0,
    "minimum": 0,
    "fraction": 0,
    "pool": 0,
    "##ische": 1,
    "##ke": 0,
    "overlap": 0,
    "substantially": 0,
    "strong": 0,
    "main": 0,
    "find": 0,
    "##sist": 0,
    "##ec": 2,
    "##ific": 0,
    "previous": 0,
    "Among": 0,
    "sharing": 0,
    "rather": 0,
    "Overall": 0,
    "##res": 0,
    "overlapping": 0,
    "mutual": 0,
    "##ism": 0,
    "Hence": 0,
    "proves": 0,
    "versatile": 0,
    "verified": 0,
    "caused": 0,
    "##adi": 0,
    "Under": 0,
    "##tive": 0,
    "sodium": 0,
    "##fit": 0,
    "##arra": 0,
    "global": 0,
    "flip": 0,
    "fl": 0,
    "##NA": 0,
    "label": 0,
    "coincidence": 0,
    "coefficients": 0,
    "alternating": 0,
    "consequence": 0,
    "##uating": 0,
    "Sur": 0,
    "##rising": 0,
    "pathways": 0,
    "##pressed": 0,
    "##ita": 2,
    "##ntly": 0,
    "folding": 0,
    "##aper": 0,
    "##oxide": 0,
    "##fying": 0,
    "##ired": 0,
    "##ior": 0,
    "##red": 0,
    "##av": 0,
    "##rote": 1,
    "became": 0,
    "eliminate": 0,
    "damaged": 0,
    "flowering": 0,
    "##ology": 0,
    "alien": 0,
    "distributions": 0,
    "*": 0,
    "Plant": 0,
    "particularly": 0,
    "indicator": 0,
    "Global": 0,
    "dates": 0,
    "FF": 0,
    "##Ds": 0,
    "advanced": 0,
    "days": 0,
    "decade": 0,
    "earlier": 0,
    "responded": 0,
    "changed": 0,
    "British": 0,
    "Isles": 0,
    "Native": 0,
    "whose": 0,
    "track": 0,
    "declined": 0,
    "stronger": 0,
    "marked": 0,
    "trends": 0,
    "local": 0,
    "abundance": 0,
    "Britain": 0,
    "##spective": 0,
    "##up": 1,
    "##led": 0,
    "root": 1,
    "Water": 0,
    "orders": 0,
    "Knowledge": 0,
    "scan": 0,
    "monitor": 0,
    "mini": 0,
    "##zed": 0,
    "chambers": 0,
    "year": 0,
    "vol": 1,
    "##ka": 1,
    "anal": 0,
    "respect": 0,
    "eight": 0,
    "broad": 0,
    "tissue": 0,
    "SR": 0,
    "clearly": 0,
    "distinguish": 0,
    "Thirty": 0,
    "cent": 0,
    "branch": 0,
    "SA": 3,
    "fifth": 0,
    "accounted": 0,
    "##mina": 0,
    "roots": 0,
    "third": 0,
    "fourth": 0,
    "excess": 0,
    "occurrence": 0,
    "hydraulic": 0,
    "result": 0,
    "##smo": 0,
    "prevent": 0,
    "coarse": 0,
    "des": 0,
    "##cation": 0,
    "nut": 0,
    "miniature": 0,
    "##ple": 0,
    "chamber": 0,
    "method": 0,
    "enabled": 0,
    "measurement": 0,
    "drives": 0,
    "##ath": 0,
    "##ione": 0,
    "##SS": 1,
    "buffer": 0,
    "potentially": 0,
    "pools": 0,
    "question": 0,
    "sit": 0,
    "##ulating": 0,
    "##iman": 0,
    "MC": 6,
    "##cu": 1,
    "##bation": 0,
    "remained": 0,
    "##ible": 0,
    "liquid": 0,
    "##LC": 0,
    "correlated": 0,
    "pointing": 0,
    "unavailable": 0,
    "##gold": 0,
    "sections": 0,
    "accumulated": 0,
    "##lar": 3,
    "implications": 0,
    "home": 0,
    "##asis": 0,
    "signalling": 0,
    "discussed": 0,
    "##od": 1,
    "##ulator": 0,
    "insects": 0,
    "art": 0,
    "##ods": 0,
    "##gi": 0,
    "history": 0,
    "antagonist": 0,
    "serve": 0,
    "##raze": 0,
    "##rs": 0,
    "compete": 0,
    "crucial": 0,
    "##ring": 0,
    "resisting": 0,
    "##ved": 0,
    "puzzle": 0,
    "tight": 0,
    "evolved": 0,
    "favored": 0,
    "pressure": 0,
    "Given": 0,
    "aspects": 0,
    "volatile": 0,
    "##pher": 0,
    "##ies": 0,
    "perspective": 0,
    "##lim": 0,
    "forcing": 0,
    "prevailing": 0,
    "concerns": 0,
    "evaluating": 0,
    "consequences": 0,
    "become": 0,
    "Historical": 0,
    "extensively": 0,
    "weather": 0,
    "variables": 0,
    "confined": 0,
    "models": 0,
    "##uations": 0,
    "depend": 0,
    "upon": 0,
    "feedback": 0,
    "combine": 0,
    "formulation": 0,
    "extend": 0,
    "scope": 0,
    "moth": 0,
    "##tera": 1,
    "community": 0,
    "Roth": 0,
    "##ams": 0,
    "##sect": 0,
    "Survey": 0,
    "network": 0,
    "UK": 0,
    "winter": 0,
    "rainfall": 0,
    "##var": 0,
    "##iate": 0,
    "jointly": 0,
    "explained": 0,
    "total": 0,
    "90": 0,
    "##iance": 0,
    "contribution": 0,
    "weak": 0,
    "Cross": 0,
    "controls": 0,
    "Light": 0,
    "stimulus": 0,
    "trigger": 0,
    "adaptation": 0,
    "enhancing": 0,
    "affects": 0,
    "causes": 0,
    "leading": 0,
    "##igma": 0,
    "ST": 3,
    "depends": 0,
    "concentration": 0,
    "lower": 0,
    "dark": 0,
    "coincided": 0,
    "damage": 0,
    "loss": 0,
    "enhanced": 0,
    "velvet": 0,
    "necessary": 0,
    "normal": 0,
    "blue": 4,
    "sensing": 0,
    "WC": 0,
    "##th": 1,
    "##olo": 0,
    "##gs": 0,
    "##biotic": 0,
    "pen": 0,
    "##llin": 0,
    "Several": 0,
    "upstream": 0,
    "##tors": 0,
    "called": 0,
    "201": 0,
    "somewhat": 0,
    "##utive": 0,
    "##cycle": 0,
    "delayed": 0,
    "submerged": 0,
    "null": 0,
    "mutation": 0,
    "fully": 0,
    "##ser": 0,
    "##van": 0,
    "##cious": 0,
    "death": 0,
    "balanced": 0,
    "Important": 0,
    "portion": 0,
    "exhibits": 0,
    "half": 0,
    "Site": 0,
    "##genesis": 0,
    "restore": 0,
    "generally": 0,
    "Dino": 0,
    "freshwater": 0,
    "##nges": 0,
    "ancient": 0,
    "lake": 0,
    "din": 0,
    "diversity": 0,
    "Lake": 0,
    "Bai": 2,
    "analyzing": 0,
    "extracted": 0,
    "endemic": 0,
    "##ian": 6,
    "##media": 0,
    "##mir": 1,
    "##ski": 1,
    "##rust": 0,
    "extensive": 0,
    "Sue": 0,
    "##ales": 0,
    "##ebrates": 0,
    "regarded": 0,
    "##lve": 0,
    "representatives": 0,
    "##din": 4,
    "##fies": 0,
    "few": 0,
    "definite": 0,
    "pronounced": 0,
    "difference": 0,
    "except": 0,
    "##ood": 0,
    "best": 0,
    "systematic": 0,
    "finding": 0,
    "##UM": 0,
    "##FT": 0,
    "F1": 0,
    "wing": 0,
    "cut": 0,
    "##icle": 0,
    "##WC": 0,
    "silk": 6,
    "##worm": 7,
    "Bomb": 14,
    "##yx": 10,
    "##ori": 0,
    "##mis": 6,
    "onset": 0,
    "##pation": 0,
    "##pal": 0,
    "##rva": 0,
    "##mor": 0,
    "consists": 0,
    "intro": 0,
    "copy": 0,
    "suppressed": 0,
    "juvenile": 0,
    "hormone": 0,
    "induction": 0,
    "CR": 3,
    "##Es": 0,
    "electro": 0,
    "shift": 0,
    "##ay": 0,
    "line": 0,
    "explicitly": 0,
    "initially": 0,
    "followed": 0,
    "Dr": 16,
    "##ought": 0,
    "limitation": 0,
    "##and": 0,
    "##grass": 0,
    "experiment": 0,
    "grasses": 0,
    "occupy": 0,
    "##rier": 0,
    "habitats": 0,
    "advantages": 0,
    "lost": 0,
    "drought": 0,
    "tested": 0,
    "##dox": 0,
    "grass": 0,
    "mortality": 0,
    "##ilation": 0,
    "##tom": 0,
    "conduct": 0,
    "dramatically": 0,
    "efficiency": 0,
    "held": 0,
    "diminished": 0,
    "Leaf": 0,
    "slightly": 0,
    "condition": 0,
    "reduction": 0,
    "##RA": 0,
    "cold": 0,
    "tolerance": 0,
    "promoting": 0,
    "##nu": 0,
    "##cle": 0,
    "##ulin": 0,
    "With": 0,
    "abnormal": 0,
    "mean": 0,
    "##otic": 0,
    "index": 0,
    "##nock": 0,
    "##down": 0,
    "lines": 0,
    "##ber": 11,
    "##rant": 0,
    "organization": 0,
    "spin": 0,
    "##dles": 0,
    "stunt": 0,
    "Over": 0,
    "##pressing": 0,
    "maintained": 0,
    "decreased": 0,
    "regulating": 0,
    "insight": 0,
    "improve": 0,
    "increases": 0,
    "freezing": 0,
    "##yle": 0,
    "##nta": 0,
    "limit": 0,
    "desert": 0,
    "##ors": 0,
    "poorly": 0,
    "understood": 0,
    "decreasing": 0,
    "creating": 0,
    "##sma": 0,
    "##tch": 0,
    "demand": 0,
    "hypothesis": 0,
    "greenhouse": 1,
    "retention": 0,
    "gas": 0,
    "decreases": 0,
    "conferred": 0,
    "experienced": 0,
    "documenting": 0,
    "shifts": 0,
    "face": 0,
    "changing": 0,
    "precipitation": 0,
    "Ni": 4,
    "interact": 0,
    "hair": 0,
    "Root": 0,
    "manner": 0,
    "active": 0,
    "RA": 0,
    "swelling": 0,
    "reactive": 0,
    "##cilla": 0,
    "##tions": 0,
    "accompany": 0,
    "##cence": 0,
    "imaging": 0,
    "NH": 0,
    "amplitude": 0,
    "decrease": 0,
    "parallel": 0,
    "loop": 0,
    "Green": 0,
    "colored": 0,
    "core": 0,
    "origin": 0,
    "Most": 0,
    "possess": 0,
    "##ls": 3,
    "bearing": 0,
    "canonical": 0,
    "According": 0,
    "pioneering": 0,
    "alignment": 0,
    "comprised": 0,
    "Ta": 0,
    "##kis": 0,
    "##hita": 0,
    "Gene": 0,
    "410": 0,
    "insufficient": 0,
    "##ify": 0,
    "reasons": 0,
    "lacked": 0,
    "sufficient": 0,
    "resolve": 0,
    "precise": 0,
    "Second": 0,
    "Part": 0,
    "##icular": 0,
    "sampled": 0,
    "##hor": 4,
    "ul": 0,
    "##vo": 0,
    "##quencing": 0,
    "prepare": 0,
    "appropriately": 0,
    "cover": 0,
    "set": 0,
    "##lore": 2,
    "expansion": 0,
    "##rist": 0,
    "sun": 3,
    "##flower": 3,
    "cap": 0,
    "##ulum": 0,
    "deficit": 0,
    "ordination": 0,
    "##uant": 0,
    "##ified": 0,
    "##lian": 3,
    "##thus": 3,
    "shortages": 0,
    "until": 0,
    "final": 0,
    "duration": 0,
    "Use": 0,
    "numbers": 0,
    "strongly": 0,
    "##dina": 0,
    "depended": 0,
    "unlimited": 0,
    "favoured": 0,
    "reproductive": 0,
    "accounting": 0,
    "constitute": 0,
    "##ping": 0,
    "explanation": 0,
    "shrink": 0,
    "sector": 0,
    "attention": 0,
    "paid": 0,
    "controlling": 0,
    "why": 0,
    "modular": 0,
    "independence": 0,
    "modules": 0,
    "##ture": 0,
    "connectivity": 0,
    "comprising": 0,
    "adults": 0,
    "arid": 0,
    "##land": 0,
    "##ama": 0,
    "##ep": 0,
    "##ava": 1,
    "Bo": 1,
    "##rag": 0,
    "motivated": 0,
    "observation": 0,
    "rose": 0,
    "##tte": 0,
    "aggregate": 0,
    "explored": 0,
    "##ilt": 0,
    "clip": 0,
    "lateral": 0,
    "tracked": 0,
    "dye": 0,
    "integration": 0,
    "attribute": 0,
    "distances": 0,
    "bundle": 0,
    "larger": 0,
    "##ume": 1,
    "heart": 0,
    "##wood": 0,
    "age": 0,
    "portions": 0,
    "resulting": 0,
    "Bird": 0,
    "special": 0,
    "bird": 0,
    "conservation": 0,
    "disturbance": 0,
    "##fires": 0,
    "niche": 0,
    "favour": 0,
    "sparse": 0,
    "Mediterranean": 0,
    "500": 0,
    "km": 0,
    "squares": 0,
    "gradient": 0,
    "running": 0,
    "burnt": 0,
    "estimated": 0,
    "means": 0,
    "complementary": 0,
    "##dices": 0,
    "calculated": 0,
    "landscape": 0,
    "averaged": 0,
    "##arity": 0,
    "preferences": 0,
    "along": 0,
    "##imator": 0,
    "varied": 0,
    "contrasting": 0,
    "##fire": 0,
    "conclude": 0,
    "justified": 0,
    "sharp": 0,
    "variations": 0,
    "brought": 0,
    "Burn": 0,
    "tended": 0,
    "urban": 0,
    "avoid": 0,
    "##burn": 0,
    "forests": 0,
    "proportions": 0,
    "specialist": 0,
    "extreme": 0,
    "##gli": 0,
    "##gible": 0,
    "Wild": 0,
    "seem": 0,
    "maintenance": 0,
    "landscapes": 0,
    "cannot": 0,
    "##am": 0,
    "##guous": 0,
    "fire": 3,
    "fires": 0,
    "greatly": 0,
    "simplified": 0,
    "dominated": 0,
    "coupling": 0,
    "predators": 0,
    "##pe": 0,
    "assumed": 0,
    "diet": 0,
    "##ary": 0,
    "##ists": 0,
    "couple": 0,
    "discrete": 0,
    "But": 0,
    "##sca": 6,
    "shark": 0,
    "tissues": 0,
    "turnover": 0,
    "sharks": 0,
    "bull": 3,
    "##hin": 2,
    "##uca": 0,
    "tiger": 4,
    "Gale": 1,
    "##erd": 1,
    "cu": 9,
    "##vier": 0,
    "bread": 2,
    "##ths": 0,
    "mostly": 0,
    "stable": 0,
    "##lative": 0,
    "resource": 0,
    "##dation": 0,
    "risk": 0,
    "trade": 0,
    "##offs": 0,
    "Individual": 0,
    "mobile": 0,
    "mapping": 0,
    "##vir": 3,
    "EU": 0,
    "163": 0,
    "##uria": 1,
    "##lis": 0,
    "Du": 1,
    "##rable": 0,
    "apple": 3,
    "Win": 0,
    "##loc": 1,
    "Fr": 0,
    "goals": 0,
    "Mal": 1,
    "programs": 0,
    "heavily": 0,
    "good": 0,
    "strategy": 0,
    "race": 0,
    "generate": 0,
    "map": 0,
    "##elli": 0,
    "AFL": 0,
    "inheritance": 0,
    "accession": 0,
    "crosses": 0,
    "Geneva": 0,
    "Do": 0,
    "##cat": 0,
    "jack": 0,
    "Anton": 0,
    "##ig": 0,
    "##ree": 0,
    "latter": 0,
    "appear": 0,
    "narrow": 0,
    "spectrum": 0,
    "segregation": 0,
    "five": 0,
    "consisting": 0,
    "spanning": 0,
    "generated": 0,
    "aid": 0,
    "156": 0,
    "mapped": 0,
    "separate": 0,
    "##j": 0,
    "##rd": 0,
    "##Vs": 0,
    "genetically": 0,
    "segregated": 0,
    "ratios": 0,
    "##ulent": 0,
    "independently": 0,
    "##gating": 0,
    "##ference": 0,
    "SSR": 0,
    "reflecting": 0,
    "##osy": 0,
    "arms": 0,
    "seems": 0,
    "apply": 0,
    "imply": 0,
    "##ctional": 0,
    "##alia": 0,
    "reveals": 0,
    "IP": 0,
    "##MD": 0,
    "toward": 0,
    "pivotal": 0,
    "Single": 0,
    "##ern": 0,
    "##pm": 0,
    "##dh": 0,
    "lethal": 1,
    "male": 0,
    "female": 0,
    "pollen": 0,
    "grains": 0,
    "arrested": 0,
    "slowed": 0,
    "ins": 0,
    "##uff": 0,
    "##iciency": 0,
    "triple": 0,
    "profiles": 0,
    "primarily": 0,
    "##MA": 0,
    "ATP": 0,
    "shoot": 0,
    "##mium": 1,
    "##location": 0,
    "##lux": 0,
    "Or": 9,
    "sat": 0,
    "Cho": 0,
    "Ko": 0,
    "##ku": 2,
    "heavy": 0,
    "metal": 0,
    "transporting": 0,
    "##fers": 0,
    "fused": 0,
    "##cum": 2,
    "loading": 0,
    "transportation": 0,
    "shoots": 0,
    "##quest": 0,
    "##ration": 0,
    "Spa": 2,
    "##tial": 0,
    "##rsen": 0,
    "gain": 0,
    "intact": 0,
    "##loading": 0,
    "grain": 0,
    "##duct": 0,
    "##ively": 0,
    "coupled": 0,
    "plasma": 0,
    "mass": 0,
    "##ros": 0,
    "##copy": 0,
    "##CP": 0,
    "MS": 0,
    "##ync": 0,
    "X": 4,
    "ray": 0,
    "##X": 4,
    "investigate": 0,
    "node": 0,
    "Total": 0,
    "progressively": 0,
    "neighboring": 0,
    "center": 0,
    "vascular": 0,
    "indicate": 0,
    "transported": 0,
    "filling": 0,
    "nodes": 0,
    "check": 0,
    "Red": 1,
    "predator": 0,
    "gig": 0,
    "##anti": 0,
    "frog": 0,
    "Zhou": 0,
    "##shan": 3,
    "Archipelago": 0,
    "Shi": 3,
    "##fts": 0,
    "##rte": 0,
    "##bra": 0,
    "interesting": 0,
    "theme": 0,
    "pressures": 0,
    "immigrant": 0,
    "selection": 0,
    "trend": 0,
    "Life": 0,
    "aged": 0,
    "positively": 0,
    "argues": 0,
    "expected": 0,
    "exist": 0,
    "varies": 0,
    "competitors": 0,
    "distance": 0,
    "mainland": 0,
    "frogs": 0,
    "Rana": 1,
    "##ris": 0,
    "islands": 0,
    "nearby": 0,
    "snout": 0,
    "vent": 0,
    "ages": 0,
    "linear": 0,
    "corrected": 0,
    "##kai": 0,
    "Information": 0,
    "##rite": 0,
    "##rion": 1,
    "demographic": 0,
    "facing": 0,
    "Southern": 0,
    "##birds": 0,
    "projected": 0,
    "challenging": 0,
    "very": 0,
    "attempts": 0,
    "ice": 0,
    "warm": 0,
    "atmospheric": 0,
    "gases": 0,
    "ocean": 0,
    "##ographic": 0,
    "##bird": 0,
    "Antarctic": 0,
    "next": 0,
    "##sets": 0,
    "projections": 0,
    "scenarios": 0,
    "A1": 0,
    "A2": 0,
    "circulation": 0,
    "Earth": 0,
    "probability": 0,
    "breed": 0,
    "Interest": 0,
    "##ingly": 0,
    "frequent": 0,
    "##linear": 0,
    "Models": 0,
    "forced": 0,
    "contrasted": 0,
    "northernmost": 0,
    "distributed": 0,
    "steep": 0,
    "decline": 0,
    "##erly": 0,
    "damaging": 0,
    "feasible": 0,
    "neglected": 0,
    "settlement": 0,
    "relations": 0,
    "Pre": 0,
    "##diction": 0,
    "merging": 0,
    "##bs": 4,
    "##cis": 0,
    "Herb": 0,
    "systemic": 0,
    "adaptive": 0,
    "triggered": 0,
    "Z": 5,
    "##fest": 0,
    "suffered": 0,
    "##ground": 0,
    "##do": 4,
    "##ptera": 5,
    "##alis": 0,
    "cater": 0,
    "##llars": 0,
    "j": 0,
    "ABA": 0,
    "itself": 0,
    "defenses": 0,
    "chewing": 0,
    "calls": 0,
    "vessel": 0,
    "pit": 0,
    "account": 0,
    "ion": 0,
    "##gio": 0,
    "##ves": 0,
    "##sel": 0,
    "dimensions": 0,
    "families": 0,
    "Laura": 0,
    "correlation": 0,
    "grouping": 0,
    "neighbouring": 0,
    "vessels": 0,
    ">": 0,
    "pits": 0,
    "thickness": 0,
    "##itative": 0,
    "industrial": 0,
    "compound": 0,
    "widely": 0,
    "industry": 0,
    "converted": 0,
    "perhaps": 0,
    "conversion": 0,
    "pairs": 0,
    "ranked": 0,
    "parameter": 0,
    "After": 0,
    "disruption": 0,
    "candidate": 0,
    "selected": 0,
    "list": 0,
    "having": 0,
    "motif": 0,
    "showing": 0,
    "structural": 0,
    "mud": 2,
    "crab": 0,
    "##cist": 0,
    "##rov": 0,
    "stranded": 0,
    "virus": 1,
    "serious": 0,
    "economic": 0,
    "losses": 0,
    "separated": 0,
    "PA": 0,
    "##GE": 0,
    "aligned": 0,
    "named": 0,
    "MA": 0,
    "prepared": 0,
    "Western": 0,
    "recognised": 0,
    "##ope": 0,
    "outer": 0,
    "studying": 0,
    "infection": 0,
    "##inga": 0,
    "DC": 0,
    "##30": 0,
    "economically": 0,
    "produces": 0,
    "symptoms": 0,
    "lesions": 0,
    "surrounded": 0,
    "attributed": 0,
    "underlying": 0,
    "les": 0,
    "took": 0,
    "Nico": 4,
    "##tian": 6,
    "bent": 0,
    "VI": 0,
    "##GS": 1,
    "reverse": 0,
    "screening": 0,
    "suppress": 0,
    "Si": 2,
    "resulted": 0,
    "connection": 0,
    "soaked": 0,
    "Not": 3,
    "##ably": 0,
    "Take": 0,
    "component": 0,
    "##duction": 0,
    "escape": 0,
    "convergence": 0,
    "stresses": 0,
    "Plants": 0,
    "syndrome": 0,
    "Full": 0,
    "threat": 0,
    "terrestrial": 0,
    "cuts": 0,
    "off": 0,
    "access": 0,
    "##mate": 1,
    "neighbors": 0,
    "away": 0,
    "shade": 0,
    "escaped": 0,
    "kinetic": 0,
    "pet": 0,
    "##iol": 1,
    "flood": 0,
    "##ust": 0,
    "involving": 0,
    "signals": 0,
    "##ene": 0,
    "downstream": 0,
    "##pan": 0,
    "loose": 0,
    "interference": 0,
    "##est": 0,
    "management": 0,
    "##ests": 0,
    "billion": 0,
    "dollars": 0,
    "agricultural": 0,
    "kill": 0,
    "threats": 0,
    "pollution": 0,
    "destruction": 0,
    "##fra": 0,
    "rely": 0,
    "##action": 0,
    "seven": 0,
    "##rane": 0,
    "odor": 0,
    "receptor": 0,
    "##reta": 1,
    "devastating": 0,
    "beetle": 0,
    "worldwide": 0,
    "remarkably": 0,
    "##gues": 0,
    "##oga": 0,
    "conventional": 0,
    "generalized": 0,
    "measurements": 0,
    "beetles": 0,
    "sense": 0,
    "attract": 0,
    "##jection": 0,
    "Rev": 0,
    "##erse": 0,
    "##cript": 0,
    "impaired": 0,
    "vegetables": 0,
    "effective": 0,
    "blocking": 0,
    "seeking": 0,
    "##ige": 0,
    "##nous": 0,
    "##ther": 2,
    "influenced": 0,
    "choice": 0,
    "reared": 0,
    "north": 0,
    "east": 0,
    "##coon": 0,
    "try": 0,
    "##ps": 2,
    "larvae": 0,
    "Per": 6,
    "##sea": 1,
    "bomb": 0,
    "z": 0,
    "##ogram": 0,
    "restriction": 0,
    "real": 0,
    "Eight": 0,
    "##lice": 0,
    "##12": 0,
    "##19": 0,
    "Mid": 0,
    "##cripts": 0,
    "reflect": 0,
    "feed": 0,
    "##bach": 0,
    "##pa": 14,
    "thereby": 0,
    "invasion": 0,
    "hind": 0,
    "##ered": 0,
    "##vent": 0,
    "problem": 0,
    "evaluate": 0,
    "failed": 0,
    "gut": 0,
    "##86": 0,
    "##ick": 2,
    "##hip": 3,
    "##tus": 3,
    "documented": 0,
    "Art": 0,
    "##oda": 2,
    "exceptionally": 0,
    "Ra": 0,
    "commercial": 0,
    "vaccine": 0,
    "80": 0,
    "##icks": 0,
    "##lification": 0,
    "variants": 0,
    "Det": 0,
    "##itation": 0,
    "##virus": 11,
    "Human": 7,
    "##eca": 0,
    "urine": 0,
    "contamination": 0,
    "Mad": 0,
    "plaque": 0,
    "dose": 0,
    "##PC": 0,
    "detection": 0,
    "viruses": 0,
    "obtaining": 0,
    "UV": 0,
    "heat": 0,
    "inactivated": 0,
    "analyzed": 0,
    "viral": 0,
    "particles": 0,
    "log": 0,
    "evaluated": 0,
    "River": 0,
    "spike": 0,
    "raw": 0,
    "sewage": 0,
    "copies": 0,
    "fast": 0,
    "##iza": 0,
    "OR": 7,
    "duck": 4,
    "application": 0,
    "##ogical": 0,
    "Duck": 1,
    "##As": 5,
    "causing": 0,
    "##tag": 0,
    "##ious": 1,
    "fatal": 0,
    "##lings": 0,
    "terminus": 0,
    "developing": 0,
    "##bent": 0,
    "##IS": 0,
    "reactions": 0,
    "plague": 0,
    "##pes": 0,
    "Newcastle": 7,
    "##ie": 1,
    "##mere": 1,
    "##ati": 0,
    "flock": 0,
    "ducks": 0,
    "survived": 0,
    "farms": 0,
    "##lini": 0,
    "##logical": 0,
    "##cologist": 0,
    "manage": 0,
    "another": 0,
    "competing": 0,
    "answer": 0,
    "meadows": 0,
    "experience": 0,
    "seasonal": 0,
    "##uration": 0,
    "##yn": 0,
    "##bos": 0,
    "Cape": 0,
    "Africa": 0,
    "lowland": 0,
    "meadow": 0,
    "##che": 0,
    "##puted": 0,
    "##eration": 0,
    "drying": 0,
    "confirms": 0,
    "emphasizes": 0,
    "##truct": 0,
    "##logy": 0,
    "abstract": 0,
    "Role": 0,
    "##upe": 0,
    "Lotus": 2,
    "##apon": 0,
    "nod": 0,
    "Tri": 14,
    "##dos": 0,
    "##lene": 0,
    "OS": 0,
    "##Cs": 0,
    "##ules": 0,
    "leg": 0,
    "##fected": 0,
    "##sor": 2,
    "lot": 0,
    "##OD": 0,
    "Silence": 0,
    "Ex": 0,
    "solely": 0,
    "childhood": 0,
    "Children": 0,
    "increasingly": 0,
    "supportive": 0,
    "improvements": 0,
    "emergence": 0,
    "harmful": 0,
    "providers": 0,
    "cautious": 0,
    "combining": 0,
    "##uti": 0,
    "##ants": 0,
    "##etics": 0,
    "lowering": 0,
    "pain": 0,
    "medications": 0,
    "##tric": 0,
    "##otherapy": 0,
    "supplement": 0,
    "recommendations": 0,
    "unwanted": 0,
    "children": 0,
    "constant": 0,
    "release": 0,
    "references": 0,
    "making": 0,
    "##tation": 0,
    "##lix": 0,
    "##AM": 4,
    "##par": 0,
    "##ceptor": 0,
    "ta": 0,
    "inward": 0,
    "piston": 0,
    "displacement": 0,
    "transmitted": 0,
    "kinase": 0,
    "module": 0,
    "Within": 0,
    "##pathic": 0,
    "connected": 0,
    "flexible": 0,
    "magnetic": 0,
    "resonance": 0,
    "residues": 0,
    "##LL": 0,
    "extension": 0,
    "behave": 0,
    "inserted": 0,
    "218": 0,
    "Third": 0,
    "shortened": 0,
    "extended": 0,
    "compatible": 0,
    "receptors": 0,
    "taxi": 0,
    "output": 0,
    "interpret": 0,
    "permanent": 0,
    "##ction": 0,
    "##isi": 0,
    "##nin": 0,
    "Artemis": 2,
    "##qui": 0,
    "##cton": 1,
    "potent": 0,
    "strict": 0,
    "cues": 0,
    "hormones": 0,
    "targeted": 0,
    "##plified": 0,
    "fragment": 0,
    "##phism": 0,
    "aspect": 0,
    "Only": 0,
    "ultimately": 0,
    "branches": 0,
    "##FA": 0,
    "##rrel": 0,
    "wax": 0,
    "flowers": 0,
    "##ulated": 0,
    "##lons": 0,
    "clues": 0,
    "concert": 0,
    "Climate": 0,
    "throat": 0,
    "profound": 0,
    "1978": 0,
    "Norway": 2,
    "Multiple": 0,
    "##gression": 0,
    "Population": 0,
    "North": 0,
    "Atlantic": 3,
    "timing": 0,
    "autumn": 0,
    "84": 0,
    "Local": 0,
    "prominent": 0,
    "explaining": 0,
    "plausible": 0,
    "##aging": 0,
    "winters": 0,
    "harsh": 0,
    "rivers": 0,
    "lakes": 0,
    "freeze": 0,
    "severely": 0,
    "reached": 0,
    "territories": 0,
    "mild": 0,
    "decided": 0,
    "66": 0,
    "If": 0,
    "continues": 0,
    "hence": 0,
    "probably": 0,
    "Inter": 0,
    "tailed": 0,
    "fin": 0,
    "##ches": 0,
    "endangered": 0,
    "Gould": 5,
    "nest": 0,
    "nesting": 0,
    "birds": 0,
    "##uld": 0,
    "Poe": 1,
    "##cut": 0,
    "##uda": 3,
    "captive": 0,
    "competitive": 0,
    "frequency": 0,
    "inverse": 0,
    "fled": 0,
    "offspring": 0,
    "Capt": 0,
    "demonstrating": 0,
    "costs": 0,
    "standardized": 0,
    "recruitment": 0,
    "##ering": 0,
    "remaining": 0,
    "rainbow": 1,
    "##fish": 1,
    "##enia": 2,
    "fishes": 0,
    "intensity": 0,
    "##sent": 0,
    "##ang": 0,
    "western": 4,
    "females": 0,
    "plain": 0,
    "slender": 0,
    "males": 0,
    "color": 0,
    "Male": 0,
    "literature": 0,
    "describes": 0,
    "geographic": 0,
    "describing": 0,
    "photography": 0,
    "##try": 1,
    "geometric": 0,
    "spectral": 0,
    "statistics": 0,
    "partition": 0,
    "variance": 0,
    "Downs": 0,
    "posed": 0,
    "cheek": 0,
    "spots": 0,
    "fewer": 0,
    "coloured": 0,
    "stripes": 0,
    "Environmental": 0,
    "Further": 0,
    "existing": 0,
    "Understanding": 0,
    "##quisite": 0,
    "Adult": 0,
    "Group": 0,
    "##atory": 0,
    "benefits": 0,
    "##regation": 0,
    "tendencies": 0,
    "heightened": 0,
    "socially": 0,
    "conflicts": 0,
    "safety": 0,
    "tend": 0,
    "##gra": 0,
    "involves": 0,
    "balance": 0,
    "conflict": 0,
    "social": 0,
    "##cial": 0,
    "##are": 0,
    "##ntal": 0,
    "##ider": 0,
    "##oll": 0,
    "##ima": 0,
    "Linnaeus": 0,
    "Females": 0,
    "##lit": 0,
    "##arily": 0,
    "decisions": 0,
    "caring": 0,
    "modify": 0,
    "bidding": 0,
    "width": 0,
    "window": 0,
    "selfish": 0,
    "##its": 0,
    "cooperation": 0,
    "rear": 0,
    "coalition": 0,
    "frequencies": 0,
    "versus": 0,
    "cooperative": 0,
    "modes": 0,
    "##lution": 0,
    "widen": 0,
    "yielding": 0,
    "becomes": 0,
    "prevalent": 0,
    "##verse": 0,
    "ii": 0,
    "sizes": 0,
    "##found": 0,
    "##bat": 0,
    "later": 0,
    "capita": 0,
    "productivity": 0,
    "##rb": 0,
    "##zal": 0,
    "origins": 0,
    "considerable": 0,
    "closer": 0,
    "distant": 0,
    "chose": 0,
    "originated": 0,
    "Each": 0,
    "association": 0,
    "thermal": 0,
    "originating": 0,
    "linking": 0,
    "##ap": 0,
    "##our": 0,
    "humidity": 0,
    "create": 0,
    "assumes": 0,
    "guard": 0,
    "steady": 0,
    "equilibrium": 0,
    "bottom": 0,
    "movements": 0,
    "mathematical": 0,
    "idea": 0,
    "fit": 0,
    "flow": 0,
    "realm": 0,
    "validity": 0,
    "##ad": 0,
    "##yper": 0,
    "##hl": 2,
    "##cens": 0,
    "store": 0,
    "metals": 0,
    "storage": 0,
    "##bate": 0,
    "Gang": 0,
    "##scope": 0,
    "physical": 0,
    "Few": 0,
    "minutes": 0,
    "limiting": 0,
    "step": 0,
    "passive": 0,
    "##piration": 0,
    "##ining": 0,
    "ton": 0,
    "forces": 0,
    "behind": 0,
    "maize": 15,
    "Gap": 0,
    "tobacco": 9,
    "Flood": 0,
    "accompanied": 0,
    "respond": 0,
    "Strong": 0,
    "##eh": 0,
    "phosphate": 0,
    "##AT": 0,
    "box": 0,
    "El": 1,
    "harbour": 0,
    "bind": 0,
    "Database": 0,
    "assisted": 0,
    "AP": 0,
    "ER": 0,
    "##lina": 1,
    "altitude": 0,
    "central": 0,
    "goal": 0,
    "ecology": 0,
    "enables": 0,
    "merge": 0,
    "disciplines": 0,
    "##tu": 4,
    "Seven": 0,
    "##teen": 0,
    "referenced": 0,
    "eastern": 0,
    "Spain": 0,
    "maximum": 0,
    "hundred": 0,
    "eighty": 0,
    "uniform": 0,
    "Variations": 0,
    "allocation": 0,
    "Above": 0,
    "ground": 0,
    "bolt": 0,
    "seed": 0,
    "site": 0,
    "seeds": 0,
    "adaptations": 0,
    "Recovery": 0,
    "##ifer": 0,
    "Trees": 0,
    "additions": 0,
    "##zas": 0,
    "termination": 0,
    "##nus": 2,
    "tree": 0,
    "needles": 0,
    "##mark": 0,
    "Need": 0,
    "loaded": 0,
    "discrimination": 0,
    "Meanwhile": 0,
    "depleted": 0,
    "terminated": 0,
    "delta": 0,
    "approached": 0,
    "##lly": 1,
    "##ink": 2,
    "significance": 0,
    "borne": 0,
    "##tically": 0,
    "Short": 0,
    "compact": 0,
    "minimal": 0,
    "##dal": 0,
    "supplied": 0,
    "mature": 0,
    "Long": 0,
    "canopy": 0,
    "expanding": 0,
    "receive": 0,
    "Mo": 1,
    "##hol": 2,
    "##ogy": 0,
    "Hu": 0,
    "vein": 0,
    "sheath": 0,
    "maturity": 0,
    "correspond": 0,
    "##ul": 0,
    "##urs": 0,
    "##he": 0,
    "##mi": 0,
    "Subsequently": 0,
    "##ested": 0,
    "fusion": 0,
    "Then": 0,
    "Results": 0,
    "##generate": 0,
    "appearance": 0,
    "##lora": 0,
    "maintain": 0,
    "##lastic": 0,
    "Rapid": 0,
    "hem": 0,
    "##iet": 0,
    "##rosis": 0,
    "##stick": 0,
    "shrimp": 0,
    "run": 0,
    "def": 0,
    "##DS": 0,
    "van": 0,
    "##name": 0,
    "Loop": 0,
    "LA": 5,
    "##MP": 0,
    "##graphic": 0,
    "visual": 0,
    "protocol": 0,
    "min": 2,
    "##IT": 0,
    "labeled": 0,
    "probe": 0,
    "trapped": 0,
    "extraction": 0,
    "comparable": 0,
    "confirmation": 0,
    "elimination": 0,
    "Fu": 9,
    "##sar": 11,
    "destructive": 0,
    "FM": 5,
    "##orum": 0,
    "gram": 0,
    "##aru": 1,
    "corn": 8,
    "kernel": 0,
    "stalk": 0,
    "rot": 0,
    "introducing": 0,
    "historical": 0,
    "##ography": 0,
    "Cretaceous": 0,
    "continental": 0,
    "provincial": 0,
    "Ho": 2,
    "True": 0,
    "arguably": 0,
    "prize": 0,
    "million": 0,
    "inhabit": 0,
    "planet": 0,
    "Field": 0,
    "guides": 0,
    "epic": 0,
    "##smopolitan": 0,
    "##bes": 0,
    "constructed": 0,
    "##set": 0,
    "177": 0,
    "divers": 0,
    "##vers": 0,
    "estimates": 0,
    "##ass": 0,
    "243": 0,
    "interval": 0,
    "169": 0,
    "129": 0,
    "61": 0,
    "173": 0,
    "America": 0,
    "##uf": 0,
    "##run": 1,
    "sister": 0,
    "black": 5,
    "##lade": 0,
    "##cule": 0,
    "##sian": 0,
    "collections": 0,
    "American": 2,
    "Eurasian": 1,
    "bodies": 0,
    "thousands": 0,
    "explosive": 0,
    "discharged": 0,
    "suited": 0,
    "adapted": 0,
    "invading": 0,
    "More": 1,
    "retained": 0,
    "plan": 0,
    "static": 0,
    "que": 0,
    "agent": 0,
    "pine": 0,
    "susceptible": 0,
    "crossing": 0,
    "SC": 0,
    "NC": 0,
    "selecting": 0,
    "permitted": 0,
    "##gant": 0,
    "placed": 0,
    "Universal": 0,
    "prime": 0,
    "##avi": 0,
    "##rus": 2,
    "encompassing": 0,
    "fertility": 0,
    "120": 0,
    "190": 0,
    "fly": 0,
    "##loss": 3,
    "##pp": 0,
    "na": 1,
    "bulb": 0,
    "house": 6,
    "domestic": 0,
    "reflection": 0,
    "flies": 0,
    "fact": 0,
    "##inia": 2,
    "##all": 0,
    "methodology": 0,
    "detect": 0,
    "##IF": 0,
    "pair": 0,
    "template": 0,
    "##lta": 0,
    "##ssa": 7,
    "brown": 18,
    "streak": 0,
    "mixed": 0,
    "Man": 3,
    "##ih": 3,
    "##zio": 0,
    "epidemic": 0,
    "##idae": 0,
    "namely": 0,
    "Cass": 1,
    "Uganda": 1,
    "UC": 5,
    "##BS": 11,
    "simultaneous": 0,
    "highlands": 0,
    "1000": 0,
    "Victoria": 0,
    "zone": 0,
    "Tanzania": 0,
    "costa": 0,
    "accordance": 0,
    "Mixed": 0,
    "surveyed": 0,
    "perennial": 0,
    "reservoir": 0,
    "applications": 0,
    "##iology": 0,
    "neutral": 0,
    "##body": 0,
    "Ma": 1,
    "detector": 0,
    "longitudinal": 0,
    "weeks": 0,
    "##version": 0,
    "pigs": 1,
    "73": 0,
    "demonstrates": 0,
    "convenient": 0,
    "surveys": 0,
    "##ean": 0,
    "54": 0,
    "beach": 0,
    "Italy": 0,
    "transforms": 0,
    "round": 2,
    "oval": 0,
    "grows": 0,
    "SS": 0,
    "places": 0,
    "##ach": 1,
    "##yam": 1,
    "##50": 0,
    "##32": 0,
    "sample": 0,
    "##hia": 1,
    "Like": 0,
    "sandwich": 0,
    "##cap": 0,
    "rings": 0,
    "##SV": 13,
    "commercially": 0,
    "orchid": 0,
    "CP": 0,
    "##ET": 0,
    "vector": 0,
    "Five": 0,
    "reacted": 0,
    "240": 0,
    "92": 0,
    "##dae": 0,
    "##ER": 0,
    "melting": 0,
    "curve": 0,
    "suit": 0,
    "##ability": 0,
    "##be": 2,
    "dwarf": 0,
    "Bean": 1,
    "##roll": 0,
    "##LR": 4,
    "Bee": 3,
    "BC": 2,
    "Ce": 1,
    "##real": 1,
    "##bit": 1,
    "Turn": 2,
    "Tu": 14,
    "peak": 0,
    "68": 0,
    "148": 0,
    "peaks": 0,
    "Due": 0,
    "Nevertheless": 0,
    "achieved": 0,
    "faster": 0,
    "##inator": 0,
    "##BE": 10,
    "nervous": 0,
    "Europe": 0,
    "Asia": 6,
    "raising": 0,
    "spreading": 0,
    "Currently": 0,
    "Even": 0,
    "purposes": 0,
    "summary": 0,
    "easy": 0,
    "handle": 0,
    "Ada": 0,
    "Dar": 0,
    "##by": 0,
    "kidney": 0,
    "suspension": 0,
    "##vian": 0,
    "##fluenza": 6,
    "MD": 4,
    "manufacturing": 0,
    "draw": 0,
    "##back": 1,
    "anchor": 0,
    "##plicate": 0,
    "SF": 0,
    "efficiently": 0,
    "applicable": 0,
    "yielded": 0,
    "##ag": 1,
    "Sino": 3,
    "canal": 0,
    "##sia": 0,
    "Photo": 0,
    "serial": 0,
    "undergoing": 0,
    "##cini": 10,
    "##BL": 0,
    "mice": 22,
    "mouse": 15,
    "knockout": 0,
    "##VD": 1,
    "##bed": 0,
    "Let": 0,
    "##hal": 0,
    "routinely": 0,
    "##minate": 0,
    "lung": 0,
    "##pate": 0,
    "Host": 0,
    "##llum": 0,
    "##GP": 0,
    "fix": 0,
    "cult": 0,
    "##olic": 0,
    "##MR": 0,
    "See": 0,
    "##lator": 0,
    "##31": 0,
    "ben": 0,
    "##xa": 0,
    "##zin": 0,
    "##lant": 0,
    "##zine": 0,
    "derivatives": 0,
    "establishment": 0,
    "##CA": 0,
    "slow": 0,
    "nutrition": 0,
    "elevation": 0,
    "##olis": 0,
    "##tar": 0,
    "detailed": 0,
    "##lect": 0,
    "##ryl": 2,
    "mob": 0,
    "##ilization": 0,
    "metabolic": 0,
    "##ten": 0,
    "boost": 0,
    "contributor": 0,
    "##her": 0,
    "##ud": 0,
    "##ires": 0,
    "##OR": 0,
    "conducted": 0,
    "##pus": 1,
    "##ocytes": 0,
    "tuned": 0,
    "##13": 0,
    "##16": 9,
    "antenna": 0,
    "reception": 0,
    "assign": 0,
    "##bet": 0,
    "##aine": 0,
    "protects": 0,
    "##tech": 0,
    "Various": 0,
    "enable": 0,
    "tolerate": 0,
    "GB": 0,
    "Early": 0,
    "focused": 0,
    "Subsequent": 0,
    "engineered": 0,
    "enlarged": 0,
    "fruits": 0,
    "mill": 0,
    "necessarily": 0,
    "##ously": 0,
    "##venge": 0,
    "##bul": 0,
    "capture": 0,
    "##gue": 6,
    "relying": 0,
    "fields": 0,
    "urgent": 0,
    "assist": 0,
    "panel": 0,
    "retrospective": 0,
    "Bel": 0,
    "2002": 0,
    "2009": 2,
    "MAC": 0,
    "stability": 0,
    "##ibility": 0,
    "terms": 0,
    "additionally": 0,
    "easily": 0,
    "expensive": 0,
    "formats": 0,
    "completed": 0,
    "hours": 0,
    "##nated": 0,
    "chicken": 5,
    "eggs": 0,
    "##ou": 1,
    "##ltry": 1,
    "globally": 0,
    "differentiate": 0,
    "##rta": 2,
    "spread": 0,
    "employed": 0,
    "suffer": 0,
    "disadvantage": 0,
    "failure": 0,
    "##inate": 0,
    "outbreak": 0,
    "confirm": 0,
    "considerably": 0,
    "##RT": 0,
    "day": 0,
    "##fold": 0,
    "threshold": 0,
    "base": 0,
    "live": 0,
    "doses": 0,
    "##ID": 0,
    "earliest": 0,
    "##robe": 0,
    "##iro": 0,
    "stone": 0,
    "dot": 0,
    "##quential": 0,
    "##ear": 0,
    "##each": 4,
    "geographically": 0,
    "offers": 0,
    "reliable": 0,
    "routine": 0,
    "certification": 0,
    "##bank": 0,
    "##idal": 0,
    "foot": 2,
    "mouth": 0,
    "##FI": 0,
    "Anti": 0,
    "##dies": 0,
    "rabbits": 2,
    "CH": 7,
    "suck": 0,
    "kit": 0,
    "strips": 0,
    "##hel": 7,
    "39": 0,
    "National": 0,
    "Foot": 0,
    "Mouth": 0,
    "Disease": 0,
    "Reference": 0,
    "Laboratory": 0,
    "##nz": 0,
    "##hou": 0,
    "Veterinary": 0,
    "Research": 0,
    "Institute": 0,
    "healthy": 0,
    "##mple": 0,
    "##dication": 0,
    "campaign": 0,
    "##eu": 2,
    "progressive": 0,
    "Denmark": 0,
    "##ifiable": 0,
    "official": 0,
    "northern": 2,
    "introduction": 0,
    "verify": 0,
    "##lify": 0,
    "counter": 0,
    "##IE": 0,
    "Min": 1,
    "organs": 0,
    "2010": 0,
    "read": 0,
    "Resolution": 0,
    "##ema": 0,
    "segments": 0,
    "Sol": 5,
    "##anu": 1,
    "##cope": 0,
    "Tom": 3,
    "Ram": 0,
    "##elle": 0,
    "irrigation": 0,
    "processing": 0,
    "divided": 0,
    "stressed": 0,
    "Access": 0,
    "yield": 0,
    "displayed": 0,
    "##ubi": 0,
    "existence": 0,
    "##ultural": 0,
    "filter": 0,
    "accurately": 0,
    "solar": 0,
    "lamps": 0,
    "photo": 0,
    "stab": 0,
    "##vio": 0,
    "280": 0,
    "315": 0,
    "nm": 0,
    "replica": 0,
    "yields": 0,
    "nearly": 0,
    "##ui": 0,
    "##sha": 0,
    "filtering": 0,
    "emissions": 0,
    "weighed": 0,
    "radiation": 0,
    "filtered": 0,
    "##quito": 0,
    "realistic": 0,
    "visible": 0,
    "agreement": 0,
    "filters": 0,
    "##gated": 0,
    "##ela": 2,
    "##rgon": 2,
    "accepted": 0,
    "##spiration": 0,
    "illumination": 0,
    "matter": 0,
    "##rose": 0,
    "uncertainty": 0,
    "equations": 0,
    "taking": 0,
    "##gation": 0,
    "Day": 0,
    "molecules": 0,
    "came": 0,
    "atoms": 0,
    "usual": 0,
    "definition": 0,
    "net": 0,
    "##ley": 6,
    "injury": 0,
    "##UC": 0,
    "reduces": 0,
    "##hers": 0,
    "panic": 0,
    "Following": 0,
    "suppression": 0,
    "##ities": 0,
    "##vel": 2,
    "Comprehensive": 0,
    "##wise": 0,
    "mentioned": 0,
    "former": 0,
    "compromised": 0,
    "##AA": 0,
    "arrest": 0,
    "relates": 0,
    "##erative": 0,
    "##vitation": 0,
    "##urn": 0,
    "##UE": 0,
    "dry": 0,
    "Lo": 2,
    "##enne": 0,
    "##holding": 0,
    "observe": 0,
    "ps": 0,
    "MP": 3,
    "closure": 0,
    "##stant": 0,
    "##aneous": 0,
    "Post": 0,
    "incurred": 0,
    "exceeded": 0,
    "night": 0,
    "cumulative": 0,
    "instead": 0,
    "recovered": 0,
    "improved": 0,
    "Novel": 0,
    "##iga": 1,
    "coding": 0,
    "requirement": 0,
    "substitution": 0,
    "##lani": 0,
    "##stein": 0,
    "frames": 0,
    "##ft": 0,
    "parts": 0,
    "dem": 0,
    "Target": 0,
    "none": 0,
    "##MI": 0,
    "##cid": 0,
    "restored": 0,
    "mixture": 0,
    "##riad": 0,
    "##fo": 1,
    "##bu": 0,
    "##cona": 0,
    "##YP": 0,
    "wheat": 6,
    "powder": 0,
    "##ew": 0,
    "Blu": 1,
    "##ritic": 0,
    "##rde": 1,
    "respective": 0,
    "cereal": 0,
    "##ews": 0,
    "27": 0,
    "BA": 0,
    "##sable": 0,
    "possibly": 0,
    "stocks": 0,
    "##aring": 0,
    "plantation": 0,
    "Link": 0,
    "motivation": 0,
    "plantations": 0,
    "Panama": 0,
    "dominance": 0,
    "ranking": 0,
    "wood": 0,
    "height": 0,
    "absolute": 0,
    "Manager": 0,
    "applying": 0,
    "Profile": 0,
    "mosaic": 0,
    "element": 0,
    "BT": 0,
    "##umble": 0,
    "bee": 0,
    "repeats": 0,
    "repeat": 0,
    "##sons": 0,
    "##spersed": 0,
    "chromosome": 0,
    "inverted": 0,
    "ends": 0,
    "ensured": 0,
    "cardinal": 0,
    "##pton": 0,
    "##bia": 0,
    "##uad": 0,
    "##rima": 0,
    "messenger": 0,
    "Large": 0,
    "master": 0,
    "mating": 0,
    "HM": 0,
    "##thal": 0,
    "screen": 0,
    "##ruff": 3,
    "finally": 0,
    "Mat": 0,
    "definitive": 0,
    "similarly": 0,
    "optimization": 0,
    "Updated": 0,
    "##got": 0,
    "##ili": 0,
    "##bid": 1,
    "Xu": 0,
    "##trom": 0,
    "##bert": 0,
    "Omega": 1,
    "##strom": 1,
    "##ton": 1,
    "##itated": 0,
    "revision": 0,
    "split": 0,
    "establishing": 0,
    "horizontal": 0,
    "##dle": 0,
    "kin": 0,
    "##ety": 0,
    "##tr": 0,
    "attachment": 0,
    "margin": 0,
    "##ois": 0,
    "##sner": 0,
    "distinctly": 0,
    "apart": 0,
    "##ver": 2,
    "Novi": 0,
    "##tral": 0,
    "spiral": 0,
    "tail": 0,
    "##less": 0,
    "gave": 0,
    "rise": 0,
    "HC": 33,
    "initiate": 0,
    "particle": 0,
    "escaping": 0,
    "humor": 0,
    "Chi": 2,
    "entry": 0,
    "CD": 0,
    "junction": 0,
    "##lau": 0,
    "route": 0,
    "##un": 2,
    "##ya": 3,
    "inn": 0,
    "shut": 0,
    "##off": 0,
    "danger": 0,
    "know": 0,
    "mind": 0,
    "##bro": 0,
    "demons": 0,
    "beta": 0,
    "IF": 0,
    "way": 0,
    "adapt": 0,
    "blocked": 0,
    "sensor": 0,
    "##ution": 0,
    "Blood": 0,
    "##itic": 0,
    "HIV": 58,
    "display": 0,
    "##ire": 0,
    "##mia": 0,
    "##tory": 1,
    "subset": 0,
    "##DC": 0,
    "peripheral": 0,
    "blood": 0,
    "throughout": 0,
    "##ymph": 0,
    "donors": 0,
    "receiving": 0,
    "##ret": 0,
    "therapy": 0,
    "AR": 0,
    "load": 0,
    "matched": 0,
    "counterparts": 0,
    "subjects": 0,
    "setting": 0,
    "##gum": 0,
    "stud": 0,
    "##ded": 0,
    "Assembly": 0,
    "involve": 0,
    "sought": 0,
    "##fication": 0,
    "##wine": 4,
    "##ort": 1,
    "##uated": 0,
    "June": 0,
    "World": 0,
    "Health": 0,
    "Organization": 0,
    "WHO": 0,
    "declared": 0,
    "crossed": 0,
    "barriers": 0,
    "turkey": 0,
    "backbone": 0,
    "chickens": 3,
    "313": 0,
    "04": 0,
    "candidates": 0,
    "signs": 0,
    "tract": 0,
    "importantly": 0,
    "immunity": 0,
    "aggressive": 0,
    "livestock": 0,
    "##41": 0,
    "prove": 0,
    "##II": 0,
    "construction": 0,
    "Application": 0,
    "241": 0,
    "Korean": 0,
    "52": 0,
    "##lating": 0,
    "##lin": 0,
    "twice": 0,
    "##oan": 0,
    "plus": 0,
    "strand": 0,
    "##agon": 0,
    "SH": 0,
    "disrupted": 0,
    "organizing": 0,
    "##old": 2,
    "##rn": 0,
    "dead": 0,
    "underwent": 0,
    "accelerated": 0,
    "Ed": 0,
    "##af": 0,
    "##olio": 3,
    "lungs": 0,
    "licensed": 0,
    "updated": 0,
    "protective": 0,
    "Little": 0,
    "rescued": 0,
    "genetics": 0,
    "pulmonary": 0,
    "memory": 0,
    "##iter": 0,
    "requirements": 0,
    "vectors": 0,
    "##ef": 1,
    "Previous": 0,
    "assessing": 0,
    "presenting": 0,
    "systematically": 0,
    "##mus": 0,
    "##yte": 0,
    "##RI": 0,
    "IL": 0,
    "engage": 0,
    "individually": 0,
    "integrated": 0,
    "harness": 0,
    "##ju": 0,
    "##vant": 0,
    "Mare": 2,
    "##mad": 0,
    "transforming": 0,
    "##uses": 0,
    "attempted": 0,
    "solid": 0,
    "tumors": 0,
    "beneficial": 0,
    "##ncy": 0,
    "practical": 0,
    "##pies": 0,
    "treating": 0,
    "Mac": 0,
    "##aque": 0,
    "##rog": 0,
    "resist": 0,
    "super": 0,
    "##mian": 4,
    "##ficiency": 0,
    "Individuals": 0,
    "who": 0,
    "initial": 0,
    "##NP": 1,
    "express": 0,
    "##HC": 0,
    "AIDS": 0,
    "repertoire": 0,
    "almost": 0,
    "entirely": 0,
    "None": 0,
    "breakthrough": 0,
    "naive": 0,
    "examination": 0,
    "##rone": 0,
    "infants": 0,
    "cotton": 3,
    "rats": 0,
    "stimulation": 0,
    "provision": 0,
    "##rip": 2,
    "##ote": 0,
    "stem": 0,
    "killer": 0,
    "utilizing": 0,
    "##rap": 2,
    "gaining": 0,
    "interest": 0,
    "Natural": 0,
    "tumor": 0,
    "##ES": 0,
    "##PS": 0,
    "NL": 0,
    "CE": 0,
    "Additional": 0,
    "illustrated": 0,
    "killing": 0,
    "##not": 1,
    "exclusively": 0,
    "dense": 0,
    "mask": 0,
    "##vade": 0,
    "broadly": 0,
    "binds": 0,
    "shield": 0,
    "expresses": 0,
    "fail": 0,
    "disco": 0,
    "##rda": 2,
    "##ffin": 0,
    "columns": 0,
    "ads": 0,
    "##omer": 0,
    "##eric": 0,
    "##une": 0,
    "force": 0,
    "abilities": 0,
    "Combined": 0,
    "implies": 0,
    "recognize": 0,
    "MR": 0,
    "##vage": 0,
    "participation": 0,
    "bush": 0,
    "NME": 0,
    "Alto": 0,
    "AL": 0,
    "##IX": 0,
    "motifs": 0,
    "recruit": 0,
    "##SC": 0,
    "consensus": 0,
    "##KE": 0,
    "##TE": 0,
    "##HL": 0,
    "##NS": 0,
    "##LF": 0,
    "##DP": 0,
    "##AR": 0,
    "Crystal": 0,
    "##ines": 0,
    "##face": 0,
    "##lined": 0,
    "revealing": 0,
    "lent": 0,
    "##iv": 0,
    "employ": 0,
    "##ario": 1,
    "monkey": 2,
    "##pox": 4,
    "enters": 0,
    "##mmal": 1,
    "move": 0,
    "filled": 0,
    "##rano": 0,
    "##trusion": 0,
    "tails": 0,
    "Sr": 0,
    "##lee": 0,
    "##uke": 0,
    "delivered": 0,
    "##actic": 0,
    "restrict": 0,
    "das": 0,
    "##48": 0,
    "##25": 1,
    "##pressive": 0,
    "##lude": 0,
    "##ives": 0,
    "Together": 0,
    "utility": 0,
    "complications": 0,
    "Rep": 0,
    "coin": 0,
    "HD": 16,
    "##play": 0,
    "examining": 0,
    "##oi": 0,
    "##valent": 0,
    "cc": 0,
    "Besides": 0,
    "cases": 0,
    "median": 0,
    "relaxed": 0,
    "##core": 0,
    "##ert": 1,
    "Dynamics": 0,
    "injection": 0,
    "users": 0,
    "Stockholm": 0,
    "Sweden": 0,
    "Helsinki": 0,
    "Finland": 0,
    "##ailed": 0,
    "2006": 0,
    "Swedish": 0,
    "2007": 0,
    "variant": 0,
    "imported": 0,
    "2003": 0,
    "##cent": 0,
    "started": 0,
    "continued": 0,
    "rooted": 0,
    "reflected": 0,
    "temporary": 0,
    "incidence": 0,
    "arguing": 0,
    "Similarly": 0,
    "Instead": 0,
    "standing": 0,
    "creates": 0,
    "powerful": 0,
    "surveillance": 0,
    "prevention": 0,
    "##rmal": 0,
    "contingent": 0,
    "plastic": 0,
    "Neo": 1,
    "##tropical": 0,
    "##pole": 0,
    "##viour": 0,
    "Theory": 0,
    "defences": 0,
    "Den": 1,
    "##ops": 1,
    "##hus": 1,
    "cool": 0,
    "points": 0,
    "##ues": 0,
    "Tad": 0,
    "alone": 0,
    "seemingly": 0,
    "##ki": 0,
    "associate": 0,
    "##evo": 0,
    "topic": 0,
    "never": 0,
    "leaving": 0,
    "gap": 0,
    "##ising": 0,
    "garden": 0,
    "random": 0,
    "##ised": 0,
    "exclude": 0,
    "##onomy": 0,
    "fauna": 0,
    "characteristic": 0,
    "subgroup": 0,
    "##more": 0,
    "directional": 0,
    "drastically": 0,
    "conception": 0,
    "##sity": 0,
    "spat": 0,
    "Resources": 0,
    "patches": 0,
    "##uchi": 0,
    "Call": 1,
    "Mathematical": 0,
    "fitted": 0,
    "likelihood": 0,
    "birth": 0,
    "emigration": 0,
    "immigration": 0,
    "incorporated": 0,
    "drawn": 0,
    "avail": 0,
    "##abi": 0,
    "##lities": 0,
    "greatest": 0,
    "patch": 0,
    "largest": 0,
    "strongest": 0,
    "Associated": 0,
    "adequately": 0,
    "varying": 0,
    "degrees": 0,
    "week": 0,
    "neighbourhood": 0,
    "explicit": 0,
    "nursery": 0,
    "opposite": 0,
    "artificial": 0,
    "##Ms": 0,
    "Simple": 0,
    "finger": 0,
    "##print": 0,
    "months": 0,
    "always": 0,
    "tips": 0,
    "propagation": 0,
    "Da": 1,
    "##dic": 2,
    "##ago": 9,
    "oxide": 0,
    "##OC": 0,
    "committed": 0,
    "##culate": 0,
    "mechanical": 0,
    "composite": 0,
    "Mt": 0,
    "Neither": 0,
    "Distribution": 0,
    "##igor": 2,
    "##itt": 0,
    "debated": 0,
    "appropriate": 0,
    "organisation": 0,
    "popular": 0,
    "425": 0,
    "135": 0,
    "randomly": 0,
    "139": 0,
    "France": 0,
    "124": 0,
    "thirty": 0,
    "uncovered": 0,
    "Line": 0,
    "une": 0,
    "##voc": 0,
    "Cox": 2,
    "##cki": 3,
    "##ev": 3,
    "##nosis": 0,
    "relies": 0,
    "equipment": 0,
    "trained": 0,
    "personnel": 0,
    "unlikely": 0,
    "1970": 0,
    "306": 0,
    "##FM": 0,
    "152": 0,
    "continuously": 0,
    "enter": 0,
    "Des": 0,
    "198": 0,
    "redundant": 0,
    "##gne": 0,
    "Nine": 0,
    "concept": 0,
    "traditionally": 0,
    "relied": 0,
    "dramatic": 0,
    "practised": 0,
    "comparisons": 0,
    "Double": 0,
    "##entation": 0,
    "deleted": 0,
    "Regardless": 0,
    "full": 0,
    "Us": 7,
    "##occo": 0,
    "##kan": 2,
    "import": 0,
    "render": 0,
    "draft": 0,
    "##NT": 0,
    "AD": 0,
    "trip": 0,
    "##CT": 0,
    "Taking": 0,
    "employs": 0,
    "tap": 0,
    "##sight": 0,
    "##hom": 2,
    "camp": 0,
    "{": 0,
    "}": 0,
    "ever": 0,
    "stationary": 0,
    "##tur": 0,
    "##bing": 0,
    "technology": 0,
    "define": 0,
    "classes": 0,
    "shock": 0,
    "##AC": 0,
    "start": 0,
    "Rs": 0,
    "dedicated": 0,
    "Set": 0,
    "##met": 1,
    "##zable": 0,
    "prompting": 0,
    "motive": 0,
    "pump": 0,
    "capable": 0,
    "analog": 0,
    "removal": 0,
    "Map": 0,
    "relevance": 0,
    "coil": 0,
    "colonization": 0,
    "##roup": 0,
    "Structure": 0,
    "prediction": 0,
    "intermediate": 0,
    "elongated": 0,
    "##tron": 0,
    "##pical": 0,
    "##bula": 0,
    "rabbit": 2,
    "fragments": 0,
    "head": 0,
    "raises": 0,
    "interfering": 0,
    "reinforce": 0,
    "##kh": 2,
    "##cia": 0,
    "##uni": 0,
    "##IR": 0,
    "000": 0,
    "zinc": 0,
    "adjacent": 0,
    "##eron": 0,
    "identifies": 0,
    "tuberculosis": 0,
    "##den": 0,
    "distinguishing": 0,
    "possession": 0,
    "derivative": 0,
    "retains": 0,
    "presumably": 0,
    "confirming": 0,
    "functionality": 0,
    "served": 0,
    "##17": 0,
    "##que": 0,
    "##cie": 0,
    "TO": 0,
    "##mulating": 0,
    "modification": 0,
    "bears": 0,
    "335": 0,
    "displays": 0,
    "covers": 0,
    "incorporation": 0,
    "derive": 0,
    "Mi": 1,
    "repair": 0,
    "##vid": 0,
    "##55": 0,
    "Essential": 0,
    "star": 0,
    "disturbing": 0,
    "##tage": 0,
    "promotes": 0,
    "Tau": 1,
    "Testing": 0,
    "recognition": 0,
    "recognizes": 0,
    "##ky": 0,
    "##onic": 0,
    "substituted": 0,
    "##ben": 0,
    "##zen": 0,
    "##hra": 1,
    "##ytic": 0,
    "loses": 0,
    "##graded": 0,
    "event": 0,
    "normally": 0,
    "enough": 0,
    "vulnerable": 0,
    "##riz": 0,
    "optical": 0,
    "##lub": 0,
    "generates": 0,
    "Study": 0,
    "limitations": 0,
    "##idated": 0,
    "premature": 0,
    "##tam": 0,
    "##sing": 0,
    "##usa": 0,
    "soils": 0,
    "##ace": 0,
    "aggressively": 0,
    "screened": 0,
    "hop": 0,
    "injected": 0,
    "competence": 0,
    "##sen": 0,
    "##sitive": 0,
    "##ival": 0,
    "exported": 0,
    "##75": 0,
    "fluid": 0,
    "residue": 0,
    "Effects": 0,
    "deficiency": 0,
    "680": 0,
    "orchestrated": 0,
    "replacement": 0,
    "principal": 0,
    "##BC": 0,
    "mix": 0,
    "rhythm": 0,
    "locked": 0,
    "slowly": 0,
    "orange": 0,
    "categorized": 0,
    "rescue": 0,
    "procedures": 0,
    "consuming": 0,
    "##ficient": 0,
    "##usion": 0,
    "##ced": 0,
    "##lone": 1,
    "straightforward": 0,
    "##icorn": 0,
    "protocols": 0,
    "MIT": 0,
    "hit": 0,
    "##king": 0,
    "movement": 0,
    "##ifies": 0,
    "MI": 0,
    "##NE": 0,
    "##SD": 1,
    "AG": 0,
    "AC": 0,
    "##AG": 0,
    "amongst": 0,
    "##position": 0,
    "##rang": 0,
    "##ement": 0,
    "sex": 0,
    "##idy": 0,
    "determination": 0,
    "Depending": 0,
    "queen": 0,
    "workers": 0,
    "kinds": 0,
    "##tars": 1,
    "sexes": 0,
    "kind": 0,
    "ka": 0,
    "##ppa": 0,
    "inflammation": 0,
    "stimuli": 0,
    "disrupt": 0,
    "interfere": 0,
    "existed": 0,
    "missing": 0,
    "reading": 0,
    "nucleus": 0,
    "Copenhagen": 0,
    "##VC": 1,
    "Sign": 0,
    "##ificant": 0,
    "##tos": 0,
    "##tite": 0,
    "##cognition": 0,
    "pull": 0,
    "##lover": 0,
    "RC": 9,
    "##RE": 0,
    "480": 0,
    "recruited": 0,
    "released": 0,
    "symmetry": 0,
    "axis": 0,
    "recognizing": 0,
    "##oped": 0,
    "faces": 0,
    "##locating": 0,
    "##tan": 0,
    "##gle": 0,
    "must": 0,
    "exit": 0,
    "60": 0,
    "location": 0,
    "controversial": 0,
    "##graphy": 0,
    "conform": 0,
    "##ational": 0,
    "##ah": 0,
    "##ral": 0,
    "symmetric": 0,
    "seen": 0,
    "outside": 0,
    "caught": 0,
    "exiting": 0,
    "##trar": 0,
    "slot": 0,
    "extends": 0,
    "##illo": 0,
    "skin": 0,
    "##lasia": 0,
    "##rr": 0,
    "opposing": 0,
    "##pra": 1,
    "##tino": 2,
    "prevailed": 0,
    "weakly": 0,
    "autonomous": 0,
    "attractive": 0,
    "mammals": 0,
    "persistent": 0,
    "glands": 0,
    "strands": 0,
    "locations": 0,
    "orientation": 0,
    "Similar": 0,
    "examples": 0,
    "Aden": 2,
    "penetration": 0,
    "##RP": 0,
    "penetrate": 0,
    "##HP": 0,
    "##GB": 0,
    "defines": 0,
    "JP": 0,
    "generating": 0,
    "##JP": 0,
    "Success": 0,
    "##ful": 0,
    "##warm": 0,
    "reservoirs": 0,
    "prior": 0,
    "identities": 0,
    "situation": 0,
    "##RS": 3,
    "##erging": 0,
    "notorious": 0,
    "platforms": 0,
    "From": 0,
    "Venezuelan": 1,
    "##EE": 2,
    "##cies": 0,
    "301": 0,
    "3000": 0,
    "Age": 0,
    "protected": 0,
    "Exploration": 0,
    "##ately": 0,
    "elderly": 0,
    "West": 1,
    "Nile": 0,
    "##ically": 0,
    "##ator": 0,
    "abolished": 0,
    "##IA": 0,
    "##cas": 0,
    "ME": 0,
    "RS": 12,
    "##LP": 0,
    "inadequate": 0,
    "preparation": 0,
    "##gens": 0,
    "Upon": 0,
    "formal": 0,
    "Domain": 0,
    "Las": 6,
    "200": 0,
    "##formatics": 0,
    "##ain": 0,
    "challenged": 0,
    "##39": 0,
    "##buted": 0,
    "Jun": 1,
    "Arena": 0,
    "rode": 0,
    "##UN": 5,
    "effort": 0,
    "stock": 0,
    "correct": 0,
    "switching": 0,
    "shed": 0,
    "utilizes": 0,
    "lifelong": 0,
    "##ulatory": 0,
    "perspectives": 0,
    "Up": 0,
    "##CL": 0,
    "dorsal": 0,
    "gang": 0,
    "##cell": 0,
    "react": 0,
    "##lion": 0,
    "DR": 0,
    "##CR": 0,
    "immediately": 0,
    "neurons": 0,
    "driver": 0,
    "Friend": 2,
    "##icient": 0,
    "##FF": 0,
    "argue": 0,
    "strengthen": 0,
    "SL": 0,
    "##VA": 0,
    "##TL": 0,
    "##VS": 0,
    "Urban": 0,
    "Miss": 0,
    "##ale": 0,
    "Bert": 0,
    "##tti": 0,
    "Ferrari": 0,
    "2005": 0,
    "asked": 0,
    "dual": 0,
    "usually": 0,
    "##racy": 0,
    "##path": 0,
    "drift": 0,
    "phenomena": 0,
    "21st": 0,
    "century": 0,
    "raised": 0,
    "circulating": 0,
    "1930": 0,
    "view": 0,
    "##chal": 0,
    "09": 0,
    "##bt": 0,
    "##scent": 0,
    "contributed": 0,
    "##stal": 0,
    "protecting": 0,
    "Association": 0,
    "Type": 0,
    "select": 0,
    "##orms": 0,
    "##BM": 0,
    "participants": 0,
    "persons": 0,
    "01": 0,
    "counts": 0,
    "02": 0,
    "Ju": 0,
    "##rka": 0,
    "Collective": 0,
    "##omb": 0,
    "windows": 0,
    "180": 0,
    "functioned": 0,
    "Integration": 0,
    "synthetic": 0,
    "##lane": 0,
    "##lates": 0,
    "Brass": 0,
    "misleading": 0,
    "assessment": 0,
    "DB": 3,
    "Their": 0,
    "perception": 0,
    "conclusions": 0,
    "actually": 0,
    "despite": 0,
    "##rent": 0,
    "removed": 0,
    "##sol": 0,
    "conflicting": 0,
    "##roved": 0,
    "##olia": 2,
    "supplies": 0,
    "player": 0,
    "deserves": 0,
    "##fort": 0,
    "##ynamic": 0,
    "diffusion": 0,
    "flower": 0,
    "stands": 0,
    "##CO": 0,
    "stand": 0,
    "##cher": 0,
    "##z": 0,
    "Without": 0,
    "900": 0,
    "approx": 0,
    "400": 0,
    "##lved": 0,
    "##rmon": 0,
    "Broad": 0,
    "##45": 0,
    "Schneider": 0,
    "lengths": 0,
    "330": 0,
    "Put": 0,
    "Three": 0,
    "170": 0,
    "suspected": 0,
    "Chu": 0,
    "Xi": 0,
    "##det": 0,
    "donated": 0,
    "246": 0,
    "630": 0,
    "Hui": 0,
    "Shen": 0,
    "##yang": 0,
    "Beijing": 0,
    "approved": 0,
    "State": 0,
    "give": 0,
    "false": 0,
    "##70": 3,
    "224": 0,
    "304": 0,
    "395": 0,
    "##TY": 0,
    "##ST": 0,
    "Swiss": 0,
    "##chemistry": 0,
    "spot": 0,
    "##hed": 0,
    "##ties": 0,
    "intense": 0,
    "muscles": 0,
    "connect": 0,
    "Real": 0,
    "Cap": 0,
    "comprises": 0,
    "sheep": 4,
    "SP": 1,
    "goat": 2,
    "lump": 1,
    "goats": 2,
    "cattle": 2,
    "opinions": 0,
    "regarding": 0,
    "presents": 0,
    "make": 0,
    "VII": 0,
    "dominate": 0,
    "planning": 0,
    "implementation": 0,
    "policy": 0,
    "dominating": 0,
    "Twenty": 0,
    "exception": 0,
    "Forty": 0,
    "ring": 0,
    "Prime": 0,
    "kits": 0,
    "border": 0,
    "agencies": 0,
    "examines": 0,
    "bait": 0,
    "preparations": 0,
    "swap": 0,
    "matching": 0,
    "Final": 0,
    "quasi": 0,
    "Cat": 0,
    "sang": 0,
    "##dra": 0,
    "Rose": 0,
    "Oregon": 0,
    "oxidation": 0,
    "##nio": 0,
    "##gus": 1,
    "##grad": 0,
    "calcium": 0,
    "##80": 0,
    "##uction": 0,
    "pulses": 0,
    "##tem": 0,
    "##yclic": 0,
    "##hesive": 0,
    "tandem": 0,
    "##eni": 0,
    "neon": 0,
    "Cha": 1,
    "passenger": 0,
    "harbor": 0,
    "Ya": 0,
    "neck": 0,
    "gradually": 0,
    "##ulates": 0,
    "fibers": 0,
    "404": 0,
    "expand": 0,
    "fiber": 0,
    "contraction": 0,
    "balancing": 0,
    "attach": 0,
    "Complete": 0,
    "Pa": 4,
    "##ude": 0,
    "Alpha": 0,
    "seventh": 0,
    "##rga": 0,
    "##sso": 0,
    "Cory": 4,
    "cow": 2,
    "Israel": 0,
    "##itis": 0,
    "Israeli": 0,
    "dairy": 0,
    "assembly": 0,
    "mate": 0,
    "paired": 0,
    "reads": 0,
    "automatic": 0,
    "manual": 0,
    "##ations": 0,
    "attained": 0,
    "competitor": 0,
    "crystal": 0,
    "bond": 0,
    "##mity": 0,
    "involvement": 0,
    "breast": 0,
    "infant": 0,
    "##test": 0,
    "##inal": 0,
    "Mari": 1,
    "waters": 0,
    "coast": 0,
    "finished": 0,
    "##oor": 0,
    "##gano": 0,
    "##OT": 0,
    "##cision": 0,
    "##cline": 0,
    "Accordingly": 0,
    "Rob": 0,
    "##etta": 0,
    "winged": 0,
    "##say": 0,
    "174": 0,
    "175": 0,
    "178": 0,
    "184": 0,
    "Draft": 0,
    "subsp": 0,
    "##aut": 0,
    "dioxide": 0,
    "##uctive": 0,
    "harvesting": 0,
    "apparatus": 0,
    "Impact": 0,
    "##gratory": 0,
    "pass": 0,
    "##uate": 0,
    "complicated": 0,
    "subject": 0,
    "acknowledged": 0,
    "wrong": 0,
    "Central": 0,
    "backed": 0,
    "##ike": 0,
    "##nius": 1,
    "presumed": 0,
    "operate": 0,
    "grounds": 0,
    "stop": 0,
    "##over": 0,
    "fall": 0,
    "##tz": 0,
    "Across": 0,
    "African": 1,
    "staging": 0,
    "##ncing": 0,
    "##hof": 2,
    "##agu": 2,
    "Chile": 0,
    "differing": 0,
    "coefficient": 0,
    "##fference": 0,
    "##rai": 0,
    "##ied": 0,
    "System": 0,
    "##scence": 0,
    "actively": 0,
    "massive": 0,
    "##ditions": 0,
    "##out": 0,
    "proof": 0,
    "principle": 0,
    "compatibility": 0,
    "roll": 0,
    "##nate": 0,
    "##amine": 0,
    "##gro": 5,
    "2D": 0,
    "favorable": 0,
    "valuable": 0,
    "varieties": 0,
    "##nation": 0,
    "attraction": 0,
    "Pig": 0,
    "veins": 0,
    "Poll": 0,
    "##ena": 0,
    "pale": 0,
    "once": 0,
    "evolve": 0,
    "floral": 0,
    "##unda": 0,
    "##cane": 2,
    "Modern": 0,
    "vertical": 0,
    "##nar": 0,
    "##pont": 0,
    "##ane": 0,
    "evolving": 0,
    "segment": 0,
    "undergone": 0,
    "dynamic": 0,
    "##hum": 0,
    "And": 0,
    "##ogo": 0,
    "tribe": 0,
    "##nch": 0,
    "promotion": 0,
    "Gas": 0,
    "spaces": 0,
    "stems": 0,
    "##pine": 0,
    "##zi": 1,
    "##dine": 0,
    "##w": 0,
    "absent": 0,
    "albeit": 0,
    "lesser": 0,
    "older": 0,
    "Sub": 0,
    "releasing": 0,
    "##chy": 0,
    "##the": 0,
    "participates": 0,
    "##ngo": 0,
    "##lling": 0,
    "permit": 0,
    "NO": 0,
    "##arma": 0,
    "##cological": 0,
    "chill": 0,
    "##nia": 1,
    "##bin": 0,
    "Cold": 0,
    "iron": 0,
    "##ss": 1,
    "advent": 0,
    "##SP": 3,
    "Arm": 0,
    "manga": 0,
    "##nese": 0,
    "Primary": 0,
    "retrieved": 0,
    "catalogue": 0,
    "##rator": 0,
    "##rel": 0,
    "##ease": 0,
    "solving": 0,
    "agrees": 0,
    "##tien": 0,
    "concurrent": 0,
    "quantum": 0,
    "engagement": 0,
    "Su": 0,
    "##ression": 0,
    "governed": 0,
    "Key": 0,
    "die": 0,
    "friend": 0,
    "##orf": 0,
    "toxicity": 0,
    "PP": 0,
    "blade": 0,
    "propeller": 0,
    "blades": 0,
    "proximity": 0,
    "Step": 0,
    "organize": 0,
    "##some": 0,
    "##VI": 0,
    "##ditional": 0,
    "insert": 0,
    "oversized": 0,
    "##mble": 0,
    "devoid": 0,
    "##MB": 0,
    "blocks": 0,
    "authentic": 0,
    "##coat": 0,
    "program": 0,
    "elephants": 0,
    "focal": 0,
    "##rug": 0,
    "Park": 0,
    "inclusion": 0,
    "##mized": 0,
    "vegetation": 0,
    "considering": 0,
    "hunting": 0,
    "add": 0,
    "##itive": 0,
    "harvest": 0,
    "##ow": 2,
    "Management": 0,
    "units": 0,
    "Season": 0,
    "quota": 0,
    "Survival": 0,
    "hazard": 0,
    "radio": 0,
    "risks": 0,
    "SE": 0,
    "06": 0,
    "Harvest": 0,
    "moved": 0,
    "##dit": 0,
    "rap": 0,
    "compensation": 0,
    "Peak": 0,
    "Low": 0,
    "snow": 0,
    "territorial": 0,
    "##ustic": 0,
    "Mortal": 0,
    "departed": 0,
    "coastal": 0,
    "summer": 0,
    "attending": 0,
    "nests": 0,
    "proportional": 0,
    "<": 0,
    "August": 0,
    "regional": 0,
    "plans": 0,
    "sustainable": 0,
    "minimize": 0,
    "closing": 0,
    "November": 0,
    "##OW": 0,
    "Leave": 1,
    "##rass": 1,
    "##edic": 0,
    "##els": 0,
    "##FL": 0,
    "##TF": 0,
    "introduced": 0,
    "##ub": 0,
    "manifest": 0,
    "regards": 0,
    "petals": 0,
    "noted": 0,
    "instance": 0,
    "architectural": 0,
    "##pruce": 0,
    "##tract": 0,
    "##ess": 0,
    "Close": 0,
    "1400": 0,
    "libraries": 0,
    "##CH": 0,
    "##IN": 1,
    "##ING": 0,
    "##BF": 0,
    "##EP": 0,
    "##EA": 0,
    "##DI": 0,
    "FA": 0,
    "rhythmic": 0,
    "CB": 0,
    "Multi": 0,
    "brass": 0,
    "Whether": 0,
    "defence": 0,
    "laser": 0,
    "##ssin": 0,
    "##aven": 0,
    "transparent": 0,
    "##tional": 0,
    "##formation": 0,
    "holds": 0,
    "pneumonia": 0,
    "fixing": 0,
    "##air": 0,
    "##64": 0,
    "charge": 0,
    "EP": 0,
    "invade": 0,
    "concerning": 0,
    "entrance": 0,
    "Sin": 1,
    "##resses": 0,
    "concurrently": 0,
    "##eva": 0,
    "preserves": 0,
    "##kt": 0,
    "properly": 0,
    "coordinates": 0,
    "behaviors": 0,
    "intended": 0,
    "precisely": 0,
    "behavior": 0,
    "Gala": 1,
    "##fe": 0,
    "##gel": 3,
    "boy": 0,
    "##zes": 0,
    "repeating": 0,
    "LP": 0,
    "##hea": 0,
    "##AB": 0,
    "gal": 7,
    "accept": 0,
    "ions": 0,
    "charged": 0,
    "##sio": 0,
    "lifetime": 0,
    "burst": 0,
    "##ifying": 0,
    "channel": 0,
    "##PI": 0,
    "##ings": 0,
    "Guard": 0,
    "##TI": 0,
    "Effect": 0,
    "avoided": 0,
    "adverse": 0,
    "Roots": 0,
    "claim": 0,
    "controversy": 0,
    "debate": 0,
    "scientific": 0,
    "ng": 0,
    "added": 0,
    "ET": 0,
    "##poradic": 0,
    "associations": 0,
    "develops": 0,
    "##int": 0,
    "##eur": 16,
    "circa": 0,
    "##dian": 0,
    "clock": 0,
    "##bino": 0,
    "##acy": 0,
    "##olin": 0,
    "##ened": 0,
    "##oz": 0,
    "##hn": 0,
    "##lum": 3,
    "##ix": 1,
    "##rina": 0,
    "Pauline": 1,
    "vertically": 0,
    "passage": 0,
    "Saharan": 0,
    "arrival": 0,
    "1993": 0,
    "departure": 0,
    "zones": 0,
    "migrants": 0,
    "##grating": 0,
    "##win": 0,
    "##tering": 0,
    "quarters": 0,
    "fringe": 0,
    "arriving": 0,
    "horn": 0,
    "lived": 0,
    "poor": 0,
    "delay": 0,
    "record": 0,
    "Horn": 0,
    "criterion": 0,
    "hunters": 0,
    "Alps": 0,
    "hunter": 0,
    "##ating": 0,
    "Mode": 0,
    "sport": 0,
    "##ego": 0,
    "assigns": 0,
    "performs": 0,
    "GO": 0,
    "##EG": 0,
    "detail": 0,
    "accessible": 0,
    "programming": 0,
    "skills": 0,
    "overview": 0,
    "freely": 0,
    "https": 0,
    "www": 0,
    "bonds": 0,
    "Um": 0,
    "##nn": 0,
    "subfamily": 0,
    "fuck": 0,
    "Medical": 0,
    "schools": 0,
    "Small": 0,
    "graduates": 0,
    "medical": 0,
    "physician": 0,
    "School": 0,
    "innovations": 0,
    "education": 0,
    "168": 0,
    "146": 0,
    "Finding": 0,
    "strengthening": 0,
    "##medical": 0,
    "team": 0,
    "creative": 0,
    "scarce": 0,
    "drew": 0,
    "faculty": 0,
    "sciences": 0,
    "infrastructure": 0,
    "accreditation": 0,
    "Pat": 0,
    "private": 0,
    "international": 0,
    "partnerships": 0,
    "guidance": 0,
    "##versity": 0,
    "Test": 0,
    "1900": 0,
    "subspecies": 0,
    "classified": 0,
    "##lose": 0,
    "##ind": 2,
    "scientists": 0,
    "Translation": 0,
    "PT": 0,
    "relieved": 0,
    "AU": 0,
    "determines": 0,
    "foreign": 0,
    "unusual": 0,
    "##udi": 1,
    "frame": 0,
    "created": 0,
    "returned": 0,
    "##iliated": 0,
    "##tas": 0,
    "##CD": 0,
    "##ilo": 0,
    "##base": 0,
    "island": 0,
    "##nor": 0,
    "##hoe": 0,
    "##GI": 0,
    "flanked": 0,
    "##inas": 0,
    "circle": 0,
    "Salmon": 2,
    "Ty": 0,
    "##rium": 0,
    "##odies": 0,
    "##roduced": 0,
    "harassment": 0,
    "Zealand": 0,
    "##gling": 0,
    "obtain": 0,
    "confidence": 0,
    "credible": 0,
    "intervals": 0,
    "##gic": 0,
    "fever": 0,
    "Rest": 1,
    "Philippines": 0,
    "constitutes": 0,
    "fear": 0,
    "##suse": 0,
    "terrorism": 0,
    "Case": 0,
    "characterised": 0,
    "resembling": 0,
    "Current": 0,
    "##nity": 0,
    "chiefly": 0,
    "emphasis": 0,
    "Madagascar": 0,
    "Borneo": 0,
    "geographical": 0,
    "regardless": 0,
    "##tel": 0,
    "Born": 0,
    "shaping": 0,
    "recommend": 0,
    "##valence": 0,
    "##date": 0,
    "##nso": 0,
    "Through": 0,
    "library": 0,
    "##uid": 0,
    "interacting": 0,
    "demonstration": 0,
    "prisoners": 0,
    "people": 0,
    "incarcerated": 0,
    "Mental": 0,
    "disorders": 0,
    "suicide": 0,
    "prison": 0,
    "prisons": 0,
    "##coming": 0,
    "##care": 0,
    "women": 0,
    "burden": 0,
    "violence": 0,
    "##ending": 0,
    "inventory": 0,
    "##chel": 0,
    "mineral": 0,
    "Building": 0,
    "101": 0,
    "subdivided": 0,
    "##MT": 0,
    "afford": 0,
    "Metal": 3,
    "Aero": 3,
    "##cked": 0,
    "3D": 0,
    "entire": 0,
    "owning": 0,
    "cop": 0,
    "recycling": 0,
    "##bus": 1,
    "##rily": 0,
    "##J": 0,
    "string": 0,
    "MG": 0,
    "pp": 0,
    "##ently": 0,
    "restart": 0,
    "serving": 0,
    "analogous": 0,
    "Alternatively": 0,
    "mother": 0,
    "fore": 0,
    "interface": 0,
    "reside": 0,
    "integral": 0,
    "positioned": 0,
    "##ltration": 0,
    "cue": 0,
    "governing": 0,
    "##lay": 0,
    "Ki": 0,
    "masked": 0,
    "categories": 0,
    "principally": 0,
    "younger": 0,
    "##tribution": 0,
    "indirectly": 0,
    "apparently": 0,
    "##liga": 0,
    "##nded": 0,
    "anywhere": 0,
    "evenly": 0,
    "poles": 0,
    "equal": 0,
    "##lm": 0,
    "think": 0,
    "Alt": 0,
    "networks": 0,
    "flexibility": 0,
    "generations": 0,
    "##hetical": 0,
    "Iron": 0,
    "Side": 0,
    "##hore": 0,
    "##ilize": 0,
    "stored": 0,
    "nickel": 0,
    "##aldo": 1,
    "##anna": 0,
    "##uto": 0,
    "doubling": 0,
    "compilation": 0,
    "##ury": 0,
    "##rena": 0,
    "##eal": 0,
    "kingdoms": 0,
    "drops": 0,
    "zero": 0,
    "Muller": 0,
    "##chet": 0,
    "Making": 0,
    "velocity": 0,
    "topology": 0,
    "##pathy": 0,
    "actual": 0,
    "coordinate": 0,
    "##mos": 0,
    "orphan": 0,
    "##cano": 0,
    "circuit": 0,
    "sufficiently": 0,
    "believed": 0,
    "loosely": 0,
    "whereby": 0,
    "##cting": 0,
    "##quid": 0,
    "screens": 0,
    "senses": 0,
    "radical": 0,
    "##onal": 0,
    "incorporating": 0,
    "lattice": 0,
    "##ja": 0,
    "##eim": 0,
    "##gas": 0,
    "prevalence": 0,
    "update": 0,
    "latest": 0,
    "guidelines": 0,
    "##copic": 0,
    "surgical": 0,
    "##enter": 0,
    "surgeon": 0,
    "##logists": 0,
    "administer": 0,
    "##rk": 3,
    "DJ": 0,
    "##ME": 0,
    "TX": 0,
    "Slim": 0,
    "mold": 0,
    "slim": 0,
    "##group": 0,
    "habit": 0,
    "Hart": 2,
    "##mann": 2,
    "##bri": 0,
    "##gie": 0,
    "##ese": 0,
    "##bidae": 0,
    "Chaos": 0,
    "##naming": 0,
    "Future": 0,
    "see": 0,
    "accuracy": 0,
    "##rading": 0,
    "cage": 0,
    "revised": 0,
    "Australian": 0,
    "##LE": 0,
    "chip": 0,
    "##rio": 5,
    "##rae": 0,
    "##grade": 0,
    "##egro": 0,
    "##yra": 0,
    "likewise": 0,
    "accounts": 0,
    "prevented": 0,
    "##gnate": 0,
    "Der": 1,
    "posts": 0,
    "ensuring": 0,
    "constraints": 0,
    "interested": 0,
    "ranges": 0,
    "United": 0,
    "States": 0,
    "Canadian": 0,
    "provinces": 0,
    "##ancy": 0,
    "##bilities": 0,
    "83": 0,
    "energetic": 0,
    "visiting": 0,
    "feeder": 0,
    "station": 0,
    "regularly": 0,
    "visit": 0,
    "warmer": 0,
    "##ora": 4,
    "##apa": 1,
    "##TH": 0,
    "destined": 0,
    "adulthood": 0,
    "meal": 0,
    "Cup": 0,
    "nerve": 0,
    "knot": 0,
    "daily": 0,
    "cycling": 0,
    "##has": 0,
    "persisted": 0,
    "##using": 0,
    "month": 0,
    "dropped": 0,
    "denied": 0,
    "offered": 0,
    "ejected": 0,
    "meals": 0,
    "Yet": 0,
    "Bud": 0,
    "Moe": 0,
    "##oss": 0,
    "##formed": 0,
    "##luster": 0,
    "implied": 0,
    "coincide": 0,
    "##uds": 0,
    "108": 0,
    "road": 0,
    "##had": 0,
    "anatomy": 0,
    "pop": 0,
    "Pop": 2,
    "##ulus": 3,
    "##uli": 0,
    "##pling": 0,
    "chemistry": 0,
    "##mission": 0,
    "##graphs": 0,
    "lame": 0,
    "##bell": 0,
    "##uron": 0,
    "Dry": 0,
    "gradual": 0,
    "##rated": 0,
    "##ann": 0,
    "##imated": 0,
    "##fill": 0,
    "Past": 0,
    "switched": 0,
    "purely": 0,
    "sensors": 0,
    "chloride": 0,
    "##vanna": 0,
    "signatures": 0,
    "##stan": 0,
    "bank": 0,
    "##rest": 0,
    "##nife": 0,
    "preserve": 0,
    "eat": 0,
    "stay": 0,
    "\"": 0,
    "marginal": 0,
    "Haynes": 0,
    "grazing": 0,
    "husband": 0,
    "102": 0,
    "performing": 0,
    "others": 0,
    "Lam": 0,
    "damages": 0,
    "accordingly": 0,
    "Unfortunately": 0,
    "disabled": 0,
    "perceive": 0,
    "##bal": 0,
    "##TS": 0,
    "##ject": 0,
    "##rl": 0,
    "sin": 0,
    "competent": 0,
    "sip": 0,
    "Assessment": 0,
    "##nat": 0,
    "accepting": 0,
    "sensory": 0,
    "helped": 0,
    "outstanding": 0,
    "receives": 0,
    "input": 0,
    "##Ps": 0,
    "##ening": 0,
    "spontaneous": 0,
    "participating": 0,
    "break": 0,
    "##aph": 4,
    "##reus": 0,
    "##man": 1,
    "Newman": 6,
    "repaired": 0,
    "correction": 0,
    "##nson": 0,
    "surfaces": 0,
    "##ld": 0,
    "motor": 0,
    "glass": 0,
    "mounts": 0,
    "propelled": 0,
    "##ith": 0,
    "fertile": 0,
    "excellent": 0,
    "Fund": 0,
    "##ament": 0,
    "##ien": 0,
    "##die": 0,
    "supplemented": 0,
    "transform": 0,
    "##oter": 0,
    "bypass": 0,
    "64": 0,
    "##ence": 0,
    "##static": 0,
    "locally": 0,
    "##current": 0,
    "ACC": 0,
    "arising": 0,
    "Once": 0,
    "reserved": 0,
    "surgery": 0,
    "Prospect": 0,
    "aim": 0,
    "Cancer": 0,
    "Working": 0,
    "Party": 0,
    "scoring": 0,
    "##points": 0,
    "considerations": 0,
    "cognitive": 0,
    "Alzheimer": 0,
    "##erve": 0,
    "##uit": 0,
    "##yna": 0,
    "##citation": 0,
    "prolonged": 0,
    "diabetes": 0,
    "interventions": 0,
    "preliminary": 0,
    "front": 0,
    "##mpo": 0,
    "##ients": 0,
    "personality": 0,
    "##person": 0,
    "##gration": 0,
    "neural": 0,
    "circuits": 0,
    "##gnition": 0,
    "emotion": 0,
    "decision": 0,
    "becoming": 0,
    "collectively": 0,
    "criteria": 0,
    "certainty": 0,
    "##psy": 0,
    "Brain": 0,
    "instrument": 0,
    "promise": 0,
    "##oration": 0,
    "Care": 0,
    "##mount": 0,
    "##ovo": 0,
    "Mr": 0,
    "tea": 0,
    "twisted": 0,
    "periphery": 0,
    "bordered": 0,
    "edges": 0,
    "intimate": 0,
    "arrangement": 0,
    "##curate": 0,
    "ABC": 0,
    "dental": 0,
    "Mar": 0,
    "Likewise": 0,
    "vice": 0,
    "versa": 0,
    "suggestion": 0,
    "transfers": 0,
    "##hu": 0,
    "barrel": 0,
    "es": 0,
    "##CE": 0,
    "referred": 0,
    "##tain": 2,
    "##EF": 0,
    "##ilized": 0,
    "##missible": 0,
    "##hem": 0,
    "assists": 0,
    "stomach": 0,
    "amber": 0,
    "205": 0,
    "Experiment": 0,
    "##38": 0,
    "ideal": 0,
    "situated": 0,
    "111": 0,
    "power": 0,
    "brush": 0,
    "##tail": 0,
    "##ums": 0,
    "##ulp": 0,
    "mothers": 0,
    "positioning": 0,
    "collar": 0,
    "convex": 0,
    "Home": 0,
    "survivors": 0,
    "Tim": 0,
    "hatch": 0,
    "Bree": 0,
    "match": 0,
    "##erated": 0,
    "emerged": 0,
    "impose": 0,
    "discharge": 0,
    "79": 0,
    "perform": 0,
    "vs": 0,
    "Where": 0,
    "wait": 0,
    "pursue": 0,
    "##hop": 0,
    "##pers": 0,
    "spiders": 0,
    "bugs": 0,
    "Consider": 0,
    "Clinical": 0,
    "investigations": 0,
    "entered": 0,
    "mainstream": 0,
    "progresses": 0,
    "##ych": 3,
    "seizure": 0,
    "##aton": 0,
    "breathing": 0,
    "instability": 0,
    "disorder": 0,
    "##lap": 3,
    "##rato": 0,
    "ethnicity": 0,
    "##section": 0,
    "##link": 0,
    "##isation": 0,
    "##cute": 0,
    "##athy": 0,
    "##pile": 0,
    "Fever": 0,
    "school": 0,
    "id": 0,
    "##leg": 0,
    "begins": 0,
    "infancy": 0,
    "##teral": 0,
    "vicious": 0,
    "encouraging": 0,
    "##bine": 0,
    "outcome": 0,
    "##tinent": 0,
    "##AF": 0,
    "##EN": 0,
    "seminal": 0,
    "Drugs": 0,
    "AK": 0,
    "RAF": 0,
    "progressed": 0,
    "problematic": 0,
    "blow": 0,
    "##fly": 3,
    "Luc": 2,
    "Compared": 0,
    "unexpected": 0,
    "pole": 0,
    "blast": 0,
    "##flies": 0,
    "##biotics": 0,
    "Legion": 2,
    "programmed": 0,
    "##usive": 0,
    "Sun": 0,
    "##light": 0,
    "emitted": 0,
    "exchanges": 0,
    "##sexual": 0,
    "acquire": 0,
    "##aga": 0,
    "cycles": 0,
    "##gni": 1,
    "hospital": 0,
    "intriguing": 0,
    "right": 0,
    "quite": 0,
    "interpretation": 0,
    "questionable": 0,
    "Un": 0,
    "##ilis": 0,
    "links": 0,
    "Members": 0,
    "nevertheless": 0,
    "RAM": 0,
    "broader": 0,
    "appreciated": 0,
    "fairly": 0,
    "Il": 0,
    "ties": 0,
    "deserve": 0,
    "ongoing": 0,
    "Label": 0,
    "routes": 0,
    "operation": 0,
    "building": 0,
    "##ilated": 0,
    "Rather": 0,
    "connecting": 0,
    "burn": 0,
    "victims": 0,
    "exhibiting": 0,
    "pm": 0,
    "##ket": 0,
    "##ger": 0,
    "nap": 0,
    "cache": 0,
    "hampered": 0,
    "##KS": 0,
    "daughter": 0,
    "##OE": 0,
    "Joint": 0,
    "Drivers": 0,
    "hidden": 0,
    "investment": 0,
    "states": 0,
    "##rail": 0,
    "legged": 0,
    "##raj": 0,
    "##ector": 0,
    "immediate": 0,
    "recruits": 0,
    "attempting": 0,
    "clutch": 0,
    "##non": 0,
    "cum": 0,
    "Last": 0,
    "##arte": 2,
    "snake": 0,
    "assumption": 0,
    "snakes": 0,
    "pace": 0,
    "alternatives": 0,
    "Snake": 0,
    "born": 0,
    "simpler": 0,
    "disguise": 0,
    "Competition": 0,
    "combines": 0,
    "transformed": 0,
    "critically": 0,
    "original": 0,
    "Trade": 0,
    "offs": 0,
    "deer": 0,
    "Isle": 0,
    "mark": 0,
    "reproduced": 0,
    "consecutive": 0,
    "Older": 0,
    "spite": 0,
    "slight": 0,
    "Some": 0,
    "Typically": 0,
    "##pis": 4,
    "executive": 0,
    "presentations": 0,
    "seldom": 0,
    "##AP": 0,
    "medial": 0,
    "##posed": 0,
    "cerebral": 0,
    "lobes": 0,
    "##reath": 0,
    "vacuum": 0,
    "Hara": 0,
    "##wo": 0,
    "2011": 0,
    "trapping": 0,
    "moths": 0,
    "ill": 0,
    "##rating": 0,
    "##encies": 0,
    "##lana": 0,
    "inform": 0,
    "##ante": 0,
    "carrier": 0,
    "Border": 0,
    "society": 0,
    "Data": 0,
    "problems": 0,
    "##biology": 0,
    "territory": 0,
    "war": 0,
    "##bler": 0,
    "lives": 0,
    "scar": 0,
    "weakening": 0,
    "##quent": 0,
    "##dant": 0,
    "owing": 0,
    "wind": 0,
    "direction": 0,
    "spray": 0,
    "ROM": 0,
    "implying": 0,
    "Ice": 0,
    "fish": 0,
    "received": 0,
    "ambient": 0,
    "trout": 6,
    "##tta": 0,
    "Arctic": 9,
    "##inus": 2,
    "resting": 0,
    "darkness": 0,
    "daylight": 0,
    "intake": 0,
    "tank": 0,
    "Norwegian": 0,
    "covered": 0,
    "breakup": 0,
    "Northern": 0,
    "aquatic": 0,
    "##dict": 0,
    "Dev": 0,
    "moving": 0,
    "##hab": 1,
    "occupation": 0,
    "corner": 0,
    "emerge": 0,
    "##row": 0,
    "ambush": 0,
    "##orax": 0,
    "abdominal": 0,
    "scores": 0,
    "That": 0,
    "said": 0,
    "##fine": 0,
    "tags": 0,
    "Mai": 2,
    "maid": 0,
    "transmit": 0,
    "serves": 0,
    "barrier": 0,
    "##ilitating": 0,
    "responding": 0,
    "1860": 0,
    "##tons": 0,
    "##vat": 3,
    "##ugen": 0,
    "202": 0,
    "##nk": 0,
    "Center": 0,
    "##ech": 0,
    "##nology": 0,
    "database": 0,
    "##GR": 0,
    "##rth": 2,
    "guts": 0,
    "##lies": 0,
    "cassette": 0,
    "##icides": 0,
    "capacities": 0,
    "Koch": 0,
    "##jima": 0,
    "McDonald": 0,
    "neutrality": 0,
    "Dec": 0,
    "bubbles": 0,
    "cardiac": 0,
    "##hun": 0,
    "sickness": 0,
    "bubble": 0,
    "dissolved": 0,
    "compressed": 0,
    "##viator": 0,
    "astronaut": 0,
    "arises": 0,
    "##rogen": 0,
    "unrelated": 0,
    "Risk": 0,
    "##mers": 0,
    "exercise": 0,
    "##ching": 0,
    "collapse": 0,
    "##junct": 0,
    "administration": 0,
    "##boe": 0,
    "##mbo": 0,
    "recommended": 0,
    "##ON": 0,
    "Certain": 0,
    "Production": 0,
    "##lde": 0,
    "##sui": 0,
    "##table": 0,
    "limits": 0,
    "Song": 2,
    "Wren": 0,
    "Caribbean": 0,
    "slope": 0,
    "##ries": 0,
    "searched": 0,
    "packed": 0,
    "nets": 0,
    "playback": 0,
    "song": 0,
    "edge": 0,
    "Basel": 0,
    "Maximum": 0,
    "restraint": 0,
    "Birds": 0,
    "fastest": 0,
    "##forcing": 0,
    "##sto": 0,
    "##VO": 0,
    "adjust": 0,
    "adjustment": 0,
    "##ffe": 0,
    "adjusting": 0,
    "##ronic": 0,
    "injuries": 0,
    "card": 0,
    "##iovascular": 0,
    "mental": 0,
    "disability": 0,
    "project": 0,
    "equally": 0,
    "rural": 0,
    "coverage": 0,
    "Much": 0,
    "sectors": 0,
    "advocate": 0,
    "taxation": 0,
    "bid": 0,
    "rolled": 0,
    "cigarettes": 0,
    "smoke": 0,
    "agenda": 0,
    "passed": 0,
    "implemented": 0,
    "political": 0,
    "priority": 0,
    "consciousness": 0,
    "universal": 0,
    "equity": 0,
    "socio": 0,
    "##economic": 0,
    "geography": 0,
    "gender": 0,
    "expenditure": 0,
    "financial": 0,
    "households": 0,
    "poverty": 0,
    "falling": 0,
    "achievement": 0,
    "service": 0,
    "financing": 0,
    "services": 0,
    "inflation": 0,
    "spending": 0,
    "metric": 0,
    "strategic": 0,
    "refined": 0,
    "##iber": 0,
    "reform": 0,
    "responsibilities": 0,
    "actors": 0,
    "achieve": 0,
    "principles": 0,
    "meeting": 0,
    "citizens": 0,
    "##ead": 0,
    "mortal": 0,
    "falls": 0,
    "explanations": 0,
    "##quities": 0,
    "embarked": 0,
    "Rural": 0,
    "Mission": 0,
    "extraordinary": 0,
    "##ception": 0,
    "##ncies": 0,
    "safe": 0,
    "abortion": 0,
    "deliver": 0,
    "institutions": 0,
    "##fant": 0,
    "get": 0,
    "governance": 0,
    "stew": 0,
    "##ards": 0,
    "decent": 0,
    "districts": 0,
    "reasoned": 0,
    "commitment": 0,
    "shortage": 0,
    "qualified": 0,
    "workforce": 0,
    "concentrated": 0,
    "Bring": 0,
    "remote": 0,
    "Indians": 0,
    "##qualified": 0,
    "doctors": 0,
    "nurses": 0,
    "Nurse": 0,
    "authority": 0,
    "say": 0,
    "train": 0,
    "nursing": 0,
    "##tment": 0,
    "government": 0,
    "##esign": 0,
    "packages": 0,
    "monetary": 0,
    "incentives": 0,
    "encourage": 0,
    "task": 0,
    "shifting": 0,
    "practitioners": 0,
    "practice": 0,
    "medicine": 0,
    "##yu": 0,
    "##rve": 0,
    "yoga": 0,
    "##dd": 0,
    "adopting": 0,
    "innovative": 0,
    "investments": 0,
    "##iling": 0,
    "hides": 0,
    "novelty": 0,
    "representation": 0,
    "##haus": 0,
    "wounded": 0,
    "Shoot": 0,
    "##PD": 0,
    "radial": 0,
    "predictable": 0,
    "resembles": 0,
    "acted": 0,
    "Darkness": 0,
    "let": 4,
    "nutrients": 0,
    "room": 0,
    "##SF": 0,
    "##SR": 0,
    "How": 0,
    "##ially": 0,
    "##wei": 0,
    "##gh": 0,
    "hunted": 0,
    "##rrow": 2,
    "##hawks": 0,
    "##sus": 0,
    "##ratic": 0,
    "##hawk": 2,
    "peaked": 0,
    "##ks": 2,
    "Reds": 1,
    "##vide": 0,
    "compensate": 0,
    "engineering": 0,
    "engineers": 0,
    "rub": 0,
    "##ius": 1,
    "Colony": 0,
    "manipulated": 0,
    "Generally": 0,
    "Spider": 0,
    "ants": 0,
    "##dified": 0,
    "Why": 0,
    "suitable": 0,
    "vivid": 0,
    "lay": 0,
    "ones": 0,
    "##pts": 0,
    "ignoring": 0,
    "##rush": 0,
    "extremely": 0,
    "##tized": 0,
    "##ck": 7,
    "##oos": 1,
    "conspicuous": 0,
    "##oo": 6,
    "egg": 0,
    "121": 0,
    "laying": 0,
    "disclosed": 0,
    "cup": 0,
    "chick": 0,
    "reluctant": 0,
    "lone": 0,
    "stroke": 0,
    "##lication": 0,
    "guide": 0,
    "lizard": 0,
    "proposes": 0,
    "extinct": 0,
    "Buckley": 0,
    "Jet": 0,
    "Journal": 0,
    "Animal": 0,
    "##cology": 0,
    "365": 0,
    "evidenced": 0,
    "Australia": 0,
    "note": 0,
    "contention": 0,
    "portfolio": 0,
    "##yi": 0,
    "##eld": 0,
    "##gate": 0,
    "##roa": 0,
    "##zer": 0,
    "##izer": 0,
    "entering": 0,
    "struggle": 0,
    "indication": 0,
    "settlers": 0,
    "interactive": 0,
    "##actions": 0,
    "numerical": 0,
    "voltage": 0,
    "##lamp": 0,
    "Gateway": 0,
    "gives": 0,
    "marking": 0,
    "promises": 0,
    "abandon": 0,
    "algorithm": 0,
    "ratings": 0,
    "Deep": 0,
    "##roi": 0,
    "##nter": 0,
    "done": 0,
    "uncertain": 0,
    "Better": 0,
    "Prevention": 0,
    "trauma": 0,
    "Questions": 0,
    "consideration": 0,
    "impossible": 0,
    "mission": 0,
    "ornamental": 0,
    "yo": 0,
    "##lk": 0,
    "striped": 2,
    "plateau": 0,
    "deposition": 0,
    "Female": 0,
    "##ntation": 0,
    "Egg": 0,
    "Fe": 0,
    "ornaments": 0,
    "##nted": 0,
    "eliminated": 0,
    "reptiles": 0,
    "southeast": 0,
    "##ffed": 0,
    "training": 0,
    "facilities": 0,
    "employment": 0,
    "Regional": 0,
    "experiences": 0,
    "elsewhere": 0,
    "Singapore": 0,
    "Malaysia": 0,
    "meet": 0,
    "Thailand": 0,
    "attracts": 0,
    "drain": 0,
    "specialised": 0,
    "staff": 0,
    "hospitals": 0,
    "Indonesia": 0,
    "Agreement": 0,
    "qualifications": 0,
    "Southeast": 0,
    "Asian": 2,
    "Nations": 0,
    "Framework": 0,
    "Services": 0,
    "dialogue": 0,
    "opportunities": 0,
    "exact": 0,
    "toll": 0,
    "##vere": 0,
    "##mated": 0,
    "tourist": 0,
    "technological": 0,
    "##nect": 0,
    "agriculture": 0,
    "land": 0,
    "sanitation": 0,
    "600": 0,
    "residing": 0,
    "city": 0,
    "GDP": 0,
    "$": 0,
    "Laos": 0,
    "overwhelming": 0,
    "economy": 0,
    "formidable": 0,
    "purpose": 0,
    "reforms": 0,
    "achieving": 0,
    "sixth": 0,
    "Series": 0,
    "payments": 0,
    "finance": 0,
    "Cambodia": 0,
    "funds": 0,
    "reach": 0,
    "funding": 0,
    "eligible": 0,
    "nationwide": 0,
    "Vietnam": 0,
    "insurance": 0,
    "financed": 0,
    "pay": 0,
    "employees": 0,
    "excluding": 0,
    "Alternative": 0,
    "payment": 0,
    "provider": 0,
    "arrangements": 0,
    "schemes": 0,
    "adequate": 0,
    "institutional": 0,
    "enormous": 0,
    "goods": 0,
    "accent": 0,
    "##tised": 0,
    "owned": 0,
    "corporate": 0,
    "lessons": 0,
    "tourism": 0,
    "giant": 0,
    "economies": 0,
    "forge": 0,
    "acceptable": 0,
    "Lance": 0,
    "collaboration": 0,
    "##iting": 0,
    "briefly": 0,
    "Form": 1,
    "hierarchy": 0,
    "##fall": 0,
    "traps": 0,
    "Campo": 1,
    "##anus": 0,
    "repeated": 0,
    "##cedural": 0,
    "##rative": 0,
    "possibilities": 0,
    "bore": 0,
    "Out": 0,
    "##break": 0,
    "reporting": 0,
    "carriage": 0,
    "graded": 0,
    "Scottish": 0,
    "##collegiate": 0,
    "Guide": 0,
    "##lines": 0,
    "Network": 0,
    "contacts": 0,
    "##amp": 0,
    "working": 0,
    "UN": 0,
    "Expo": 0,
    "travel": 0,
    "cities": 0,
    "hub": 0,
    "Physicians": 0,
    "aware": 0,
    "town": 0,
    "##gnant": 0,
    "##chin": 0,
    "transplant": 0,
    "uncommon": 0,
    "Hansen": 0,
    "sheer": 0,
    "piece": 0,
    "fossil": 0,
    "French": 0,
    "##iferous": 0,
    "surprising": 0,
    "preserved": 0,
    "millions": 0,
    "Germany": 0,
    "Lebanon": 0,
    "##iary": 0,
    "modern": 0,
    "fossils": 0,
    "##eiro": 0,
    "avoiding": 0,
    "threatening": 0,
    "historically": 0,
    "##tology": 0,
    "Clear": 0,
    "##BB": 0,
    "adoption": 0,
    "tailored": 0,
    "paradigm": 0,
    "curves": 0,
    "correctly": 0,
    "norms": 0,
    "calculating": 0,
    "hall": 0,
    "##yke": 0,
    "Non": 0,
    "##aw": 0,
    "olive": 0,
    "##lass": 0,
    "##smos": 0,
    "##rne": 0,
    "PBS": 0,
    "sibling": 0,
    "Poland": 0,
    "LSU": 0,
    "##rak": 0,
    "##ko": 0,
    "pond": 0,
    "Jordan": 0,
    "clown": 0,
    "subordinate": 0,
    "##bre": 0,
    "societies": 0,
    "answered": 0,
    "##emon": 0,
    "##fica": 0,
    "statistical": 0,
    "learning": 0,
    "silver": 0,
    "spoon": 0,
    "Note": 0,
    "##ily": 0,
    "##mize": 0,
    "adopt": 0,
    "tactic": 0,
    "branching": 0,
    "##ister": 1,
    "##rini": 3,
    "##cker": 0,
    "##hog": 0,
    "##git": 0,
    "glider": 0,
    "eating": 0,
    "Metro": 0,
    "deeply": 0,
    "sisters": 0,
    "##avia": 0,
    "##rson": 0,
    "##rdi": 0,
    "##vise": 0,
    "rigid": 0,
    "##itting": 0,
    "Scale": 0,
    "##cate": 0,
    "Internal": 0,
    "hollow": 0,
    "skeleton": 0,
    "replaces": 0,
    "preoccupied": 0,
    "Amy": 2,
    "Semi": 0,
    "painfully": 0,
    "answering": 0,
    "heading": 0,
    "##evity": 0,
    "undertaking": 0,
    "compiling": 0,
    "##gis": 0,
    "##tries": 0,
    "Rene": 0,
    "##wed": 0,
    "dormant": 0,
    "Prior": 0,
    "dorm": 0,
    "Sex": 0,
    "bisexual": 0,
    "revelation": 0,
    "style": 0,
    "unconventional": 0,
    "Patch": 0,
    "bed": 0,
    "concern": 0,
    "##iness": 0,
    "disturbed": 0,
    "floods": 0,
    "prone": 0,
    "Electric": 0,
    "excluded": 0,
    "fill": 0,
    "Ben": 0,
    "repeatedly": 0,
    "##ban": 0,
    "Average": 0,
    "exclusion": 0,
    "Active": 0,
    "rewards": 0,
    "##aries": 0,
    "adds": 0,
    "Shri": 0,
    "##nking": 0,
    "pressing": 0,
    "82": 0,
    "contexts": 0,
    "inspiring": 0,
    "news": 0,
    "##ich": 3,
    "##illa": 0,
    "dividing": 0,
    "bear": 0,
    "oriented": 0,
    "transverse": 0,
    "##TO": 0,
    "##bred": 0,
    "##eding": 0,
    "1980s": 0,
    "Florida": 1,
    "##color": 0,
    "1995": 0,
    "Texas": 0,
    "intentional": 0,
    "1981": 0,
    "##et": 0,
    "ancestry": 0,
    "##xed": 0,
    "Project": 0,
    "elastic": 0,
    "##etti": 0,
    "dragon": 0,
    "shortest": 0,
    "flight": 0,
    "##rilla": 0,
    "stiff": 0,
    "##ediatric": 0,
    "##rrence": 0,
    "relating": 0,
    "encountered": 0,
    "Men": 0,
    "pharmaceutical": 0,
    "sir": 0,
    "Advances": 0,
    "imposing": 0,
    "incentive": 0,
    "DE": 0,
    "##VE": 0,
    "NE": 0,
    "##XT": 0,
    "Ultimately": 0,
    "##ital": 0,
    "encompasses": 0,
    "Present": 0,
    "expertise": 0,
    "##rya": 3,
    "tide": 0,
    "accomplish": 0,
    "##mot": 0,
    "##hall": 0,
    "spines": 0,
    "speed": 0,
    "options": 0,
    "superficial": 0,
    "##igi": 0,
    "Major": 0,
    "notion": 0,
    "Val": 0,
    "rendering": 0,
    "prospective": 0,
    "##horn": 1,
    "##ars": 0,
    "Upper": 0,
    "##plain": 0,
    "mug": 0,
    "correspondence": 0,
    "expectations": 0,
    "International": 0,
    "Task": 0,
    "Force": 0,
    "harm": 0,
    "ICC": 0,
    "defining": 0,
    "flat": 0,
    "sorting": 0,
    "Top": 0,
    "consumption": 0,
    "contrasts": 0,
    "complexity": 0,
    "rendered": 0,
    "remnants": 0,
    "##kor": 0,
    "Fusion": 0,
    "drastic": 0,
    "ready": 0,
    "Construction": 0,
    "flanks": 0,
    "BP": 0,
    "accomplished": 0,
    "just": 0,
    "2d": 0,
    "walks": 0,
    "Random": 0,
    "Tiger": 0,
    "##esh": 0,
    "##resh": 1,
    "Black": 1,
    "##tip": 1,
    "walk": 0,
    "Sharks": 0,
    "##bies": 0,
    "##ooby": 0,
    "Milne": 0,
    "Edwards": 0,
    "Index": 0,
    "meant": 0,
    "##gged": 0,
    "evident": 0,
    "ascent": 0,
    "descent": 0,
    "choose": 0,
    "resident": 0,
    "migrant": 0,
    "opportunity": 0,
    "##lank": 0,
    "Core": 0,
    "##aco": 0,
    "2000": 0,
    "March": 0,
    "December": 0,
    "Zoo": 0,
    "##net": 0,
    "##poli": 0,
    "Fish": 0,
    "##raw": 0,
    "residents": 0,
    "##cend": 0,
    "dusk": 0,
    "daytime": 0,
    "gains": 0,
    "migrate": 0,
    "guiding": 0,
    "1500": 0,
    "##dote": 0,
    "##wer": 0,
    "managing": 0,
    "soon": 0,
    "##vable": 0,
    "Beyond": 0,
    "delivery": 0,
    "1980": 0,
    "strengths": 0,
    "weaknesses": 0,
    "papers": 0,
    "articles": 0,
    "##patient": 0,
    "visits": 0,
    "admitted": 0,
    "admission": 0,
    "representative": 0,
    "malaria": 0,
    "##ln": 0,
    "##utrition": 0,
    "disappearance": 0,
    "discontinued": 0,
    "generic": 0,
    "##mise": 0,
    "translate": 0,
    "Thor": 0,
    "Society": 0,
    "category": 0,
    "whom": 0,
    "inherent": 0,
    "##mined": 0,
    "credibility": 0,
    "inability": 0,
    "unstable": 0,
    "unnecessary": 0,
    "Control": 0,
    "broken": 0,
    "reflex": 0,
    "alleviate": 0,
    "forward": 0,
    "kn": 0,
    "##zu": 0,
    "Examination": 0,
    "Design": 0,
    "execution": 0,
    "continuation": 0,
    "##ntin": 0,
    "##uation": 0,
    "you": 0,
    "fits": 0,
    "##MC": 0,
    "begin": 0,
    "raise": 0,
    "##pable": 0,
    "Towards": 0,
    "##bound": 0,
    "##rgen": 0,
    "beings": 0,
    "coherent": 0,
    "makers": 0,
    "scattered": 0,
    "routing": 0,
    "ancestor": 0,
    "Response": 0,
    "Serra": 1,
    "Whole": 0,
    "##eran": 0,
    "##ored": 0,
    "195": 0,
    "worker": 1,
    "honey": 6,
    "##bee": 1,
    "##span": 0,
    "litter": 0,
    "raiding": 0,
    "army": 0,
    "ski": 0,
    "bottle": 0,
    "catastrophic": 0,
    "raid": 0,
    "iconic": 0,
    "Ecuador": 0,
    "Costa": 0,
    "Rica": 0,
    "Venezuela": 0,
    "floor": 0,
    "raids": 0,
    "decomposition": 0,
    "image": 0,
    "specializes": 0,
    "feeds": 0,
    "profit": 0,
    "Community": 0,
    "##uild": 0,
    "obscure": 0,
    "impression": 0,
    "Must": 0,
    "Near": 0,
    "agreed": 0,
    "cast": 2,
    "doubt": 0,
    "ideas": 0,
    "##lad": 2,
    "##erson": 0,
    "hp": 0,
    "##fs": 0,
    "##rid": 0,
    "duct": 0,
    "occupational": 0,
    "chemicals": 0,
    "hereditary": 0,
    "Pain": 0,
    "attacks": 0,
    "##bling": 0,
    "##ics": 0,
    "drainage": 0,
    "Arc": 0,
    "Brazilian": 0,
    "##rado": 0,
    "Flags": 0,
    "##ologies": 0,
    "records": 0,
    "flagship": 0,
    "aperture": 0,
    "ponds": 0,
    "Southwest": 0,
    "brief": 0,
    "developments": 0,
    "descriptive": 0,
    "solve": 0,
    "takes": 0,
    "incorporates": 0,
    "error": 0,
    "Hull": 0,
    "call": 0,
    "computational": 0,
    "download": 0,
    "package": 0,
    "Classical": 0,
    "##lume": 0,
    "dimension": 0,
    "ordered": 0,
    "compares": 0,
    "explains": 0,
    "ordering": 0,
    "helps": 0,
    "aims": 0,
    "intimidating": 0,
    "##logist": 0,
    "Which": 0,
    "sophisticated": 0,
    "researchers": 0,
    "chosen": 0,
    "meaningful": 0,
    "assessments": 0,
    "instrumental": 0,
    "flights": 0,
    "##vary": 0,
    "bees": 0,
    "tactics": 0,
    "##ages": 0,
    "keep": 0,
    "acoustic": 0,
    "##lem": 0,
    "miss": 0,
    "##pie": 0,
    "subtropical": 0,
    "estuary": 0,
    "adopted": 0,
    "Fifty": 0,
    "travelled": 0,
    "exceed": 0,
    "regular": 0,
    "trips": 0,
    "expense": 0,
    "marshes": 0,
    "Ever": 0,
    "##lades": 0,
    "inputs": 0,
    "lend": 0,
    "bodied": 0,
    "scenario": 0,
    "conditional": 0,
    "##oaming": 0,
    "##oam": 0,
    "##gy": 0,
    "##lump": 0,
    "searching": 0,
    "##ram": 0,
    "##ils": 0,
    "forecast": 0,
    "science": 0,
    "##vasive": 0,
    "consumers": 0,
    "instances": 0,
    "article": 0,
    "Plan": 0,
    "##cluded": 0,
    "##logies": 0,
    "computer": 0,
    "etc": 0,
    "stacked": 0,
    "associates": 0,
    "runs": 0,
    "ribbon": 0,
    "flare": 0,
    "originates": 0,
    "splitting": 0,
    "left": 0,
    "##enan": 0,
    "Ang": 0,
    "comparatively": 0,
    "##rith": 4,
    "dean": 0,
    "##zai": 0,
    "##rcle": 0,
    "##rue": 0,
    "spill": 0,
    "sinks": 0,
    "##head": 2,
    "##ias": 7,
    "sink": 0,
    "altering": 0,
    "Fitness": 0,
    "##site": 0,
    "##state": 0,
    "311": 0,
    "##fle": 0,
    "adding": 0,
    "##idian": 0,
    "Lesser": 0,
    "##lles": 0,
    "##graphical": 0,
    "##iar": 2,
    "##ave": 0,
    "Chao": 0,
    "##long": 0,
    "flattened": 0,
    "##rani": 0,
    "destroys": 0,
    "costly": 0,
    "Below": 0,
    "roughly": 0,
    "##linity": 0,
    "##cribing": 0,
    "##iable": 0,
    "clinic": 0,
    "##ians": 0,
    "anticipated": 0,
    "##around": 0,
    "Laboratories": 0,
    "doing": 0,
    "assurance": 0,
    "##aus": 0,
    "bean": 2,
    "bug": 0,
    "##RO": 0,
    "rhythms": 0,
    "revolution": 0,
    "uniquely": 0,
    "mystery": 0,
    "exciting": 0,
    "reinstated": 0,
    "expanded": 0,
    "swiftly": 0,
    "About": 0,
    "##hino": 0,
    "Dual": 0,
    "obvious": 0,
    "##als": 0,
    "statement": 0,
    "experts": 0,
    "##vention": 0,
    "inappropriate": 0,
    "newer": 0,
    "las": 0,
    "##rz": 0,
    "eagerly": 0,
    "awaited": 0,
    "phases": 0,
    "##ater": 0,
    "cheaper": 0,
    "Tel": 0,
    "##phs": 0,
    "eleven": 0,
    "##gram": 2,
    "alternate": 0,
    "contemporary": 0,
    "recipients": 0,
    "Growing": 0,
    "##ygiene": 0,
    "hopes": 0,
    "preventing": 0,
    "##wash": 0,
    "stool": 0,
    "disposal": 0,
    "fresh": 0,
    "figure": 0,
    "practices": 0,
    "matters": 0,
    "getting": 0,
    "homes": 0,
    "bring": 0,
    "##continent": 0,
    "implement": 0,
    "villages": 0,
    "centres": 0,
    "angle": 0,
    "bilateral": 0,
    "blind": 0,
    "Vision": 0,
    "eye": 0,
    "drop": 0,
    "##ctive": 0,
    "Heat": 0,
    "ignore": 0,
    "Hell": 0,
    "colleagues": 0,
    "alpine": 0,
    "##fy": 0,
    "attracted": 0,
    "continents": 0,
    "judge": 0,
    "colours": 0,
    "##point": 0,
    "brings": 0,
    "salvage": 0,
    "##bei": 0,
    "##lov": 1,
    "##lya": 0,
    "##ulo": 3,
    "##cite": 0,
    "horizontally": 0,
    "Plus": 0,
    "##nae": 0,
    "subsidies": 0,
    "##ators": 0,
    "northward": 0,
    "fox": 0,
    "Resource": 0,
    "inland": 0,
    "##aran": 0,
    "Peninsula": 0,
    "##eer": 2,
    "##mming": 0,
    "item": 0,
    "paved": 0,
    "Model": 0,
    "trial": 0,
    "ethical": 0,
    "assumptions": 0,
    "rig": 0,
    "judgment": 0,
    "temper": 0,
    "immigrants": 0,
    "parents": 0,
    "SV": 0,
    "congregation": 0,
    "Common": 0,
    "##yre": 0,
    "##roid": 0,
    "Sit": 3,
    "gate": 0,
    "DD": 0,
    "unusually": 0,
    "informing": 0,
    "Still": 0,
    "##birth": 0,
    "1940": 0,
    "stalled": 0,
    "educational": 0,
    "Place": 0,
    "##weight": 0,
    "##besity": 0,
    "smoking": 0,
    "##tens": 0,
    "Cultural": 0,
    "audit": 0,
    "thorough": 0,
    "organisations": 0,
    "count": 0,
    "invisible": 0,
    "counted": 0,
    "Goals": 0,
    "##esta": 0,
    "births": 0,
    "Nigeria": 0,
    "Pakistan": 0,
    "Worldwide": 0,
    "skilled": 0,
    "attendance": 0,
    "yearly": 0,
    "##etal": 0,
    "##mme": 0,
    "household": 0,
    "facility": 0,
    "registration": 0,
    "certificates": 0,
    "Classification": 0,
    "verbal": 0,
    "deaths": 0,
    "vision": 0,
    "2020": 0,
    "pregnancy": 0,
    "##ester": 0,
    "practically": 0,
    "ask": 0,
    "join": 0,
    "advocates": 0,
    "united": 0,
    "reality": 0,
    "##hood": 0,
    "##born": 0,
    "baby": 0,
    "Million": 0,
    "adjusted": 0,
    "grief": 0,
    "##vated": 0,
    "blame": 0,
    "babies": 0,
    "disposed": 0,
    "ritual": 0,
    "naming": 0,
    "funeral": 0,
    "rites": 0,
    "holding": 0,
    "dressing": 0,
    "##ief": 0,
    "sins": 0,
    "evil": 0,
    "spirits": 0,
    "professionals": 0,
    "priorities": 0,
    "What": 0,
    "happens": 0,
    "survives": 0,
    "turning": 0,
    "recognise": 0,
    "##cture": 0,
    "##zar": 0,
    "club": 0,
    "##root": 0,
    "Hon": 0,
    "##shu": 0,
    "Japan": 0,
    "Tax": 0,
    "##liptic": 0,
    "##lock": 1,
    "##room": 0,
    "Organ": 0,
    "##arm": 0,
    "Down": 0,
    "Danish": 0,
    "physicist": 0,
    "Personal": 0,
    "View": 0,
    "supports": 0,
    "Parkinson": 0,
    "##chi": 0,
    "##zophrenia": 0,
    "##vos": 0,
    "##guin": 0,
    "connections": 0,
    "Miles": 0,
    "Numerous": 0,
    "helpful": 0,
    "careful": 0,
    "option": 0,
    "prescribed": 0,
    "armament": 0,
    "##arium": 0,
    "##roke": 0,
    "tremendous": 0,
    "technologies": 0,
    "underway": 0,
    "hopefully": 0,
    "##sation": 0,
    "presentation": 0,
    "declining": 0,
    "Sexual": 0,
    "requiring": 0,
    "partners": 0,
    "partner": 0,
    "sexually": 0,
    "##utt": 0,
    "##relli": 0,
    "##stro": 0,
    "##phus": 0,
    "converts": 0,
    "##cross": 0,
    "argument": 0,
    "Rate": 0,
    "turtles": 0,
    "separating": 0,
    "successive": 0,
    "##iously": 0,
    "accelerate": 0,
    "Trial": 5,
    "##odes": 5,
    "vapor": 0,
    "##dius": 0,
    "Westwood": 0,
    "##ey": 0,
    "vegetable": 0,
    "invaded": 0,
    "replace": 0,
    "cab": 1,
    "##bage": 1,
    "aids": 0,
    "Leicester": 0,
    "buffalo": 1,
    "localities": 0,
    "tentatively": 0,
    "Nan": 0,
    "Rat": 0,
    "##bur": 0,
    "Ka": 0,
    "Chiang": 0,
    "Than": 0,
    "##than": 0,
    "Crossing": 0,
    "Silk": 1,
    "assume": 0,
    "breeds": 0,
    "4000": 0,
    "merits": 0,
    "##ional": 0,
    "##anne": 0,
    "##llar": 0,
    "##pair": 0,
    "##nel": 0,
    "##nex": 0,
    "##lanted": 0,
    "Noctuidae": 0,
    "Select": 0,
    "minority": 0,
    "##rice": 0,
    "##ier": 0,
    "##eck": 0,
    "reins": 0,
    "##ressed": 0,
    "observing": 0,
    "Though": 0,
    "inferior": 0,
    "lighter": 0,
    "Eva": 0,
    "membership": 0,
    "Uh": 0,
    "Mark": 0,
    "nights": 0,
    "interpreted": 0,
    "Salt": 0,
    "Mexico": 0,
    "Cole": 0,
    "171": 0,
    "hosted": 0,
    "Beau": 1,
    "bass": 0,
    "##uil": 0,
    "##rdy": 0,
    "##aceae": 0,
    "Mets": 0,
    "##nik": 0,
    "##rok": 0,
    "Cuban": 1,
    "##iko": 0,
    "##zel": 0,
    "##immer": 0,
    "##san": 0,
    "##sive": 0,
    "integrating": 0,
    "Rivers": 0,
    "channels": 0,
    "reflects": 0,
    "##dan": 0,
    "streams": 0,
    "##iff": 0,
    "erase": 0,
    "masses": 0,
    "##ift": 0,
    "allegedly": 0,
    "incorrect": 0,
    "settling": 0,
    "##gement": 0,
    "149": 0,
    "spent": 0,
    "prospect": 0,
    "##rade": 0,
    "2001": 0,
    "museum": 0,
    "##att": 0,
    "Minas": 0,
    "excavated": 0,
    "meters": 0,
    "##ivate": 0,
    "##fines": 0,
    "dated": 0,
    "extant": 0,
    "Forest": 0,
    "Fifteen": 0,
    "landmarks": 0,
    "abdomen": 0,
    "goes": 0,
    "##ricted": 0,
    "##cturnal": 0,
    "Mir": 0,
    "indigenous": 0,
    "enemy": 0,
    "Japanese": 0,
    "217": 0,
    "Islands": 0,
    "##nto": 0,
    "##rik": 0,
    "locality": 0,
    "Fire": 0,
    "1994": 0,
    "##eon": 3,
    "southeastern": 0,
    "##vic": 0,
    "##uren": 0,
    "suite": 0,
    "cooperate": 0,
    "sustaining": 0,
    "##mei": 0,
    "unpublished": 0,
    "compiled": 0,
    "Doc": 0,
    "2012": 0,
    "2013": 0,
    "Strategic": 0,
    "releases": 0,
    "screw": 0,
    "worm": 0,
    "Rio": 0,
    "Janeiro": 0,
    "July": 0,
    "##quer": 0,
    "vase": 0,
    "sent": 0,
    "Instituto": 0,
    "Oswald": 0,
    "Cruz": 0,
    "71": 0,
    "Ethnic": 0,
    "Open": 0,
    "wounds": 0,
    "personal": 0,
    "Oriental": 1,
    "borders": 0,
    "##tt": 0,
    "Establishment": 0,
    "shrub": 0,
    "foliage": 0,
    "planted": 0,
    "amidst": 0,
    "Viola": 0,
    "##chard": 0,
    "##nis": 0,
    "encouragement": 0,
    "incorporate": 0,
    "trap": 0,
    "opposed": 0,
    "Winkler": 0,
    "##rle": 0,
    "dwelling": 0,
    "montane": 0,
    "cloud": 0,
    "##lusion": 0,
    "float": 0,
    "Pit": 0,
    "Ara": 0,
    "##ager": 0,
    "strokes": 0,
    "labor": 0,
    "Territory": 0,
    "emphasize": 0,
    "bringing": 0,
    "back": 0,
    "##iled": 0,
    "scouts": 0,
    "retrieve": 0,
    "finds": 0,
    "openings": 0,
    "tunnels": 0,
    "thirds": 0,
    "##ruit": 0,
    "waiting": 0,
    "section": 0,
    "keeping": 0,
    "bleeding": 0,
    "recaptured": 0,
    "passion": 0,
    "butterfly": 0,
    "butterflies": 0,
    "behavioral": 0,
    "locate": 0,
    "visitors": 0,
    "learn": 0,
    "##ienced": 0,
    "##vior": 0,
    "##ures": 0,
    "Roger": 0,
    "May": 0,
    "##bles": 0,
    "lab": 0,
    "##yster": 0,
    "##iidae": 0,
    "Qing": 0,
    "##ody": 0,
    "outline": 0,
    "spine": 0,
    "##most": 0,
    "frontal": 0,
    "pod": 0,
    "contract": 0,
    "##rons": 0,
    "##oux": 0,
    "##ict": 0,
    "Kent": 2,
    "##ossa": 0,
    "##kin": 0,
    "spaced": 0,
    "1951": 0,
    "Rai": 0,
    "##kov": 0,
    "1968": 0,
    "row": 0,
    "rows": 0,
    "1963": 0,
    "##lid": 0,
    "fan": 0,
    "##iger": 0,
    "1928": 0,
    "##ove": 0,
    "hook": 0,
    "occupying": 0,
    "projecting": 0,
    "Ultra": 0,
    "##orn": 0,
    "peculiar": 0,
    "nothing": 0,
    "##lins": 0,
    "##aft": 0,
    "sides": 0,
    "##lug": 0,
    "##cam": 0,
    "Liu": 0,
    "Reservoir": 0,
    "retreat": 0,
    "rest": 0,
    "Path": 0,
    "##ways": 0,
    "##tista": 0,
    "##bina": 0,
    "Chinese": 0,
    "smallest": 0,
    "floating": 0,
    "debris": 0,
    "teeth": 0,
    "crown": 0,
    "##rks": 0,
    "leverage": 0,
    "opening": 0,
    "cope": 0,
    "occasionally": 0,
    "ing": 0,
    "##KA": 0,
    "horse": 0,
    "1758": 0,
    "horses": 1,
    "vicinity": 0,
    "Turkey": 0,
    "constantly": 0,
    "Did": 0,
    "##oria": 0,
    "##rave": 0,
    "clad": 0,
    "carries": 0,
    "##cating": 0,
    "##ots": 0,
    "##ue": 0,
    "GM": 0,
    "shake": 0,
    "##lal": 0,
    "Crambidae": 0,
    "##sh": 0,
    "161": 0,
    "160": 0,
    "141": 0,
    "##EL": 0,
    "foundation": 0,
    "virgin": 0,
    "Fourteen": 0,
    "thirteen": 0,
    "Phi": 0,
    "dock": 0,
    "Dock": 0,
    "House": 0,
    "##dn": 0,
    "exchanged": 0,
    "##wind": 0,
    "cricket": 0,
    "##mentary": 0,
    "convert": 0,
    "##TP": 0,
    "Irish": 0,
    "waste": 0,
    "Dublin": 0,
    "operational": 0,
    "##NR": 0,
    "##lag": 0,
    "settle": 0,
    "##monia": 0,
    "rating": 0,
    "procedure": 0,
    "118": 0,
    "descended": 0,
    "fat": 0,
    "##ctions": 0,
    "projection": 0,
    "insulin": 0,
    "labour": 0,
    "Limited": 0,
    "##hara": 0,
    "##nado": 0,
    "PM": 0,
    "reportedly": 0,
    "##ited": 0,
    "pose": 0,
    "transitional": 0,
    "breaks": 0,
    "dying": 0,
    "dos": 0,
    "Lim": 0,
    "##una": 0,
    "##BI": 0,
    "municipal": 0,
    "periodic": 0,
    "tanks": 0,
    "suspended": 0,
    "domination": 0,
    "crawling": 0,
    "##fusion": 0,
    "Bergen": 0,
    "Morris": 0,
    "1983": 0,
    "follows": 0,
    "spinning": 0,
    "disk": 0,
    "##vering": 0,
    "##rophe": 0,
    "##lier": 0,
    "##mond": 0,
    "couples": 0,
    "firm": 0,
    "CF": 0,
    "technical": 0,
    "advance": 0,
    "precious": 0,
    "exploring": 0,
    "pink": 1,
    "##ssy": 0,
    "##tails": 0,
    "Abu": 0,
    "##nda": 0,
    "Hill": 0,
    "Nor": 0,
    "##volved": 0,
    "##uous": 0,
    "unless": 0,
    "copper": 0,
    "##NC": 0,
    "##nc": 0,
    "Transport": 0,
    "transports": 0,
    "##balt": 0,
    "establishes": 0,
    "checked": 0,
    "##tible": 0,
    "##rief": 0,
    "##cribe": 0,
    "administered": 0,
    "~": 0,
    "##alle": 2,
    "##llon": 0,
    "##minated": 0,
    "killed": 0,
    "1998": 0,
    "Netherlands": 0,
    "loops": 0,
    "narrowing": 0,
    "relocation": 0,
    "107": 0,
    "##0s": 0,
    "tentative": 0,
    "projects": 0,
    "PS": 0,
    "##utz": 0,
    "##rca": 0,
    "switch": 0,
    "##lants": 0,
    "besides": 0,
    "cultivated": 0,
    "Mei": 0,
    "Sad": 0,
    "barren": 0,
    "switches": 0,
    "##hh": 0,
    "Ke": 0,
    "##vation": 0,
    "##iche": 0,
    "##chen": 0,
    "##zure": 0,
    "##rat": 0,
    "capabilities": 0,
    "Greater": 0,
    "lady": 0,
    "##nell": 1,
    "##tata": 0,
    "Hip": 1,
    "##dam": 1,
    "##eville": 0,
    "##atus": 0,
    "Say": 0,
    "consumed": 0,
    "inspection": 0,
    "ate": 0,
    "##lind": 0,
    "##urus": 0,
    "##onte": 0,
    "Plains": 0,
    "southwestern": 0,
    "147": 0,
    "constituted": 0,
    "longitude": 0,
    "latitude": 0,
    "attacking": 0,
    "Between": 0,
    "Extra": 0,
    "Biological": 0,
    "mole": 0,
    "Tor": 0,
    "Rosa": 0,
    "Bat": 0,
    "Bus": 0,
    "Love": 0,
    "orchards": 0,
    "Riley": 0,
    "Formula": 0,
    "Applications": 0,
    "Cage": 0,
    "establishments": 0,
    "##sible": 0,
    "houses": 0,
    "ranged": 0,
    "kg": 0,
    "liter": 0,
    "Point": 0,
    "Source": 0,
    "Release": 0,
    "tray": 0,
    "axes": 0,
    "census": 0,
    "hard": 0,
    "overcome": 0,
    "harmonic": 0,
    "radar": 0,
    "##gled": 0,
    "trailing": 0,
    "electronic": 0,
    "walking": 0,
    "Colorado": 2,
    "##lidae": 0,
    "bare": 0,
    "grassy": 0,
    "Trail": 0,
    "paths": 0,
    "##sance": 0,
    "Stick": 0,
    "Color": 0,
    "Height": 0,
    "Ground": 0,
    "##bie": 0,
    "Plantation": 0,
    "sticky": 0,
    "Walker": 0,
    "Trials": 0,
    "colors": 0,
    "##traction": 0,
    "artifact": 0,
    "Vol": 0,
    "Location": 0,
    "Mega": 0,
    "##mbe": 0,
    "##ille": 0,
    "armed": 0,
    "##ometer": 0,
    "##actor": 0,
    "Hard": 0,
    "Shock": 0,
    "sweet": 1,
    "##free": 0,
    "hardened": 0,
    "deposited": 0,
    "##hard": 0,
    "displaced": 0
  },
  "I": {
    "Met": 0,
    "##han": 0,
    "##ore": 1,
    "##gu": 0,
    "##la": 9,
    "form": 2,
    "##ici": 18,
    "##ca": 10,
    "s": 80,
    "##p": 39,
    ".": 602,
    "no": 33,
    "##v": 38,
    ",": 14,
    "a": 39,
    "met": 1,
    "##hane": 0,
    "-": 150,
    "producing": 0,
    "arch": 3,
    "##ae": 13,
    "##on": 1,
    "isolated": 0,
    "from": 0,
    "##ogenic": 0,
    "##lu": 0,
    "##dge": 0,
    "A": 18,
    "novel": 0,
    "strain": 17,
    "SMS": 0,
    "##P": 3,
    "(": 68,
    "T": 39,
    ")": 67,
    "was": 0,
    "an": 17,
    "##ro": 2,
    "##bic": 23,
    "prop": 0,
    "##ion": 0,
    "##ate": 0,
    "de": 2,
    "##grading": 0,
    "en": 3,
    "##rich": 5,
    "##ment": 1,
    "culture": 0,
    "that": 0,
    "originally": 0,
    "obtained": 0,
    "g": 59,
    "##ran": 0,
    "##ular": 0,
    "in": 20,
    "me": 45,
    "##so": 2,
    "##phi": 7,
    "##lic": 2,
    "up": 0,
    "##flow": 0,
    "blanket": 0,
    "U": 0,
    "##AS": 0,
    "##B": 5,
    "reactor": 0,
    "used": 0,
    "to": 1,
    "treat": 0,
    "beer": 0,
    "brewery": 0,
    "e": 8,
    "##ff": 10,
    "##lue": 0,
    "##nt": 2,
    "Cell": 0,
    "##s": 83,
    "were": 0,
    "non": 0,
    "m": 17,
    "##ot": 1,
    "##ile": 0,
    "blunt": 0,
    "ended": 0,
    "straight": 0,
    "rods": 0,
    "1": 47,
    "0": 0,
    "2": 3,
    "6": 4,
    "mum": 0,
    "long": 1,
    "by": 0,
    "5": 1,
    "wide": 0,
    ";": 0,
    "cells": 0,
    "sometimes": 0,
    "7": 0,
    "As": 0,
    "##ym": 5,
    "##metric": 0,
    "##al": 10,
    "cell": 0,
    "division": 0,
    "observed": 0,
    "rod": 0,
    "shaped": 0,
    "Co": 3,
    "##cco": 0,
    "##id": 9,
    "diameter": 0,
    "also": 0,
    "mid": 2,
    "late": 0,
    "ex": 1,
    "##po": 4,
    "##nent": 0,
    "##ial": 3,
    "phase": 0,
    "cultures": 0,
    "Growth": 0,
    "between": 0,
    "10": 1,
    "and": 6,
    "40": 6,
    "^": 0,
    "##C": 10,
    "op": 0,
    "##ti": 4,
    "##mum": 0,
    "30": 0,
    "33": 0,
    "pH": 0,
    "4": 1,
    "The": 0,
    "G": 5,
    "+": 0,
    "C": 4,
    "content": 0,
    "of": 1,
    "the": 4,
    "##eno": 6,
    "##mic": 2,
    "DNA": 0,
    "56": 0,
    "##ol": 1,
    "%": 0,
    "utilized": 0,
    "format": 0,
    "##e": 70,
    "hydrogen": 0,
    "for": 0,
    "growth": 0,
    "production": 0,
    "Based": 0,
    "on": 1,
    "comparative": 0,
    "sequence": 0,
    "analyses": 0,
    "16": 0,
    "##S": 2,
    "r": 14,
    "##RNA": 0,
    "##c": 9,
    "##r": 15,
    "##A": 6,
    "encoding": 0,
    "alpha": 0,
    "subunit": 0,
    "##hyl": 0,
    "co": 48,
    "##en": 10,
    "##zy": 0,
    "##me": 4,
    "M": 1,
    "red": 1,
    "##uc": 1,
    "##tase": 0,
    "key": 0,
    "enzyme": 0,
    "pathway": 0,
    "genes": 0,
    "affiliated": 0,
    "with": 2,
    "group": 1,
    "E": 3,
    "##1": 20,
    "/": 24,
    "##2": 8,
    "within": 0,
    "order": 0,
    "##omi": 1,
    "##bial": 0,
    "##es": 26,
    "closest": 0,
    "relative": 0,
    "based": 0,
    "both": 0,
    "gene": 0,
    "sequences": 0,
    "b": 22,
    "##oon": 5,
    "##ei": 7,
    "##8": 8,
    "96": 7,
    "3": 0,
    "similarity": 0,
    "85": 0,
    "##duced": 0,
    "amino": 0,
    "acid": 1,
    "percentage": 0,
    "indicates": 0,
    "represent": 0,
    "different": 0,
    "species": 4,
    "same": 0,
    "genus": 0,
    "This": 0,
    "is": 6,
    "supported": 0,
    "our": 0,
    "findings": 0,
    "shared": 0,
    "p": 53,
    "##hen": 0,
    "##otypic": 0,
    "properties": 0,
    "including": 0,
    "morphology": 0,
    "temperature": 0,
    "range": 0,
    "differences": 0,
    "substrate": 0,
    "usage": 0,
    "these": 0,
    "genetic": 0,
    "we": 6,
    "propose": 0,
    "represents": 0,
    "which": 0,
    "name": 0,
    "type": 7,
    "=": 1,
    "N": 2,
    "##BR": 0,
    "105": 0,
    "##24": 0,
    "##4": 8,
    "DS": 2,
    "##M": 3,
    "222": 0,
    "Character": 0,
    "##izing": 0,
    "role": 0,
    "micro": 2,
    "##tub": 2,
    "##ule": 0,
    "binding": 0,
    "protein": 0,
    "B": 13,
    "##im": 4,
    "Cry": 0,
    "##pt": 15,
    "##oc": 3,
    "##cus": 6,
    "neo": 18,
    "##form": 18,
    "##ans": 49,
    "During": 0,
    "sexual": 0,
    "development": 0,
    "human": 3,
    "fun": 0,
    "##gal": 4,
    "path": 0,
    "##ogen": 0,
    "undergo": 0,
    "developmental": 0,
    "transition": 0,
    "yeast": 0,
    "fi": 1,
    "##lam": 0,
    "##ent": 0,
    "##ous": 0,
    "requires": 0,
    "cellular": 0,
    "restructuring": 0,
    "di": 13,
    "##kar": 0,
    "##yon": 2,
    "Di": 1,
    "##yo": 0,
    "##tic": 1,
    "tightly": 0,
    "controlled": 0,
    "nuclear": 0,
    "migration": 0,
    "ensure": 0,
    "faithful": 0,
    "replication": 0,
    "##sse": 0,
    "##mination": 0,
    "material": 0,
    "##pore": 0,
    "pro": 7,
    "##geny": 0,
    "Although": 0,
    "gross": 0,
    "##or": 1,
    "##phological": 0,
    "changes": 0,
    "take": 0,
    "place": 0,
    "during": 0,
    "are": 3,
    "largely": 0,
    "known": 0,
    "molecular": 0,
    "under": 0,
    "##pin": 1,
    "##ning": 0,
    "control": 0,
    "this": 0,
    "process": 0,
    "un": 0,
    "##cha": 1,
    "##rac": 2,
    "##ter": 1,
    "##ized": 0,
    "Here": 0,
    "identify": 0,
    "character": 0,
    "##ize": 0,
    "ho": 10,
    "##mo": 0,
    "##log": 1,
    "Sa": 0,
    "##cc": 1,
    "##har": 0,
    "##omy": 0,
    "##ces": 1,
    "c": 65,
    "##ere": 25,
    "##vis": 23,
    "##iae": 30,
    "##IM": 0,
    "establish": 0,
    "importance": 0,
    "proper": 0,
    "Del": 0,
    "##eti": 0,
    "leads": 0,
    "t": 52,
    "##runcated": 0,
    "##ents": 0,
    "severe": 0,
    "defect": 0,
    "dip": 2,
    "##lo": 5,
    "formation": 0,
    "block": 0,
    "mon": 3,
    "##oka": 2,
    "##ryo": 1,
    "fruit": 3,
    "##ing": 10,
    "Our": 0,
    "lead": 0,
    "model": 0,
    "consistent": 0,
    "critical": 0,
    "integrity": 0,
    "congress": 0,
    "mediated": 0,
    "through": 0,
    "##yt": 7,
    "##os": 22,
    "##kel": 0,
    "##eton": 0,
    "Ser": 0,
    "##ini": 1,
    "##co": 4,
    "##us": 88,
    "##fu": 2,
    "##ndi": 2,
    "act": 0,
    "##ino": 8,
    "##my": 1,
    "##ce": 8,
    "##te": 5,
    "deep": 0,
    "sea": 0,
    "sediment": 0,
    "em": 2,
    "##ended": 0,
    "description": 0,
    "Gram": 0,
    "reaction": 0,
    "positive": 0,
    "bacterial": 0,
    "designated": 0,
    "MCC": 0,
    "1A": 3,
    "##0": 9,
    "##5": 9,
    "##9": 17,
    "##65": 3,
    "53": 0,
    "##6": 12,
    "Indian": 0,
    "Ocean": 0,
    "##mp": 5,
    "##aris": 3,
    "revealed": 0,
    "##olate": 3,
    "97": 2,
    "ma": 13,
    "##rin": 2,
    "J": 1,
    "##10": 0,
    "##7": 14,
    "only": 0,
    "described": 0,
    "related": 0,
    "##ness": 0,
    "two": 0,
    "strains": 4,
    "46": 0,
    "standard": 0,
    "##viation": 0,
    "86": 0,
    "wall": 0,
    "contained": 0,
    "al": 27,
    "##ani": 0,
    "##ne": 6,
    "##ly": 0,
    "##cine": 0,
    "se": 15,
    "##rine": 0,
    "l": 28,
    "or": 8,
    "##ni": 6,
    "##thin": 0,
    "##lut": 5,
    "##ami": 2,
    "corresponds": 0,
    "##cy": 1,
    "##l": 3,
    "##can": 0,
    "chain": 0,
    "##ept": 0,
    "##ido": 0,
    "##gly": 0,
    "Other": 0,
    "characteristics": 0,
    "those": 0,
    "moderately": 0,
    "ha": 3,
    "##lop": 0,
    "##hil": 9,
    "##ic": 7,
    "o": 8,
    "##xi": 0,
    "##das": 1,
    "negative": 0,
    "cat": 0,
    "##ala": 0,
    "##se": 0,
    "forming": 0,
    "major": 1,
    "men": 4,
    "##aq": 0,
    "##uin": 4,
    "##one": 2,
    "##K": 0,
    "8": 3,
    "H": 18,
    "predominant": 0,
    "fatty": 0,
    "acids": 0,
    "##o": 3,
    "15": 6,
    ":": 6,
    "34": 0,
    "17": 1,
    "polar": 0,
    "lip": 0,
    "##ids": 0,
    "##hos": 0,
    "##pha": 5,
    "##dy": 0,
    "##cer": 0,
    "##cho": 4,
    "##line": 1,
    "##lino": 0,
    "##si": 8,
    "##to": 4,
    "unknown": 0,
    "##lip": 0,
    "72": 0,
    "St": 0,
    "##rain": 0,
    "07": 0,
    "##14": 10,
    "213": 0,
    "##3": 7,
    "##GM": 0,
    "##CC": 2,
    "55": 0,
    "assigned": 0,
    "as": 2,
    "proposed": 0,
    "Pro": 0,
    "##sal": 0,
    "Ming": 0,
    "##xia": 1,
    "##ea": 7,
    "##amo": 0,
    "##rp": 0,
    "##hic": 0,
    "##asi": 0,
    "##dio": 0,
    "Bull": 0,
    "##eri": 3,
    "##bas": 0,
    "##ium": 0,
    "clade": 0,
    "##rem": 0,
    "##ella": 9,
    "##les": 1,
    "phylogenetic": 0,
    "analysis": 0,
    "six": 0,
    "new": 0,
    "combinations": 0,
    "four": 0,
    "distinction": 0,
    "##op": 16,
    "##etic": 0,
    "property": 0,
    "resolved": 0,
    "combined": 0,
    "18": 0,
    "internal": 0,
    "trans": 0,
    "##cribed": 0,
    "space": 0,
    "IT": 0,
    "region": 0,
    "26": 0,
    "D": 4,
    "domain": 0,
    "addition": 0,
    "identified": 0,
    "among": 0,
    "ball": 0,
    "##ist": 0,
    "##oni": 1,
    "##dium": 0,
    "China": 0,
    "confirmed": 0,
    "strengthened": 0,
    "separation": 0,
    "other": 0,
    "lineage": 0,
    "var": 1,
    "##ia": 8,
    "##bil": 0,
    "##is": 79,
    "comb": 0,
    "therefore": 0,
    "accommodate": 0,
    "Six": 0,
    "formerly": 0,
    "##era": 2,
    "Four": 0,
    "plant": 4,
    "leaves": 0,
    "collected": 0,
    "Hai": 0,
    "##nan": 1,
    "province": 0,
    "southern": 0,
    "sa": 0,
    "##nya": 0,
    "##ensis": 8,
    "S": 3,
    "##Y": 0,
    "23": 0,
    "AS": 0,
    "36": 0,
    "##23": 1,
    "CBS": 0,
    "114": 0,
    "##ina": 2,
    "##nen": 0,
    "##sis": 8,
    "W": 0,
    "##Z": 3,
    "13": 1,
    "41": 0,
    "f": 45,
    "##oli": 4,
    "##ico": 5,
    "14": 0,
    "35": 0,
    "##18": 0,
    "w": 8,
    "##uz": 0,
    "##his": 5,
    "##nsis": 20,
    "29": 0,
    "##11": 2,
    "Sc": 0,
    "##ard": 0,
    "##ov": 7,
    "##iggs": 2,
    "oral": 0,
    "cavity": 0,
    "clinical": 0,
    "descriptions": 0,
    "##ta": 28,
    "##leo": 1,
    "##morphic": 0,
    "##ac": 6,
    "##ill": 1,
    "##i": 89,
    "infected": 0,
    "arm": 0,
    "wound": 0,
    "subjected": 0,
    "comprehensive": 0,
    "##ty": 1,
    "##pic": 6,
    "tests": 0,
    "found": 0,
    "comprise": 0,
    "##mogeneous": 0,
    "most": 0,
    "closely": 0,
    "CC": 0,
    "##U": 0,
    "##G": 3,
    "##29": 0,
    "94": 0,
    "9": 0,
    "##oly": 2,
    "produced": 0,
    "ace": 2,
    "la": 3,
    "##ctic": 0,
    "end": 0,
    "products": 0,
    "##er": 15,
    "##mentation": 0,
    "49": 0,
    "##ga": 2,
    "Polar": 0,
    "variety": 1,
    "unidentified": 0,
    "##ph": 0,
    "##pid": 2,
    "##og": 0,
    "No": 0,
    "respiratory": 3,
    "q": 1,
    "##ones": 0,
    "detected": 0,
    "L": 13,
    "##ys": 0,
    "##hr": 3,
    "##ine": 6,
    "partially": 0,
    "replaced": 0,
    "one": 0,
    "_": 4,
    "225": 0,
    "##47": 0,
    "580": 0,
    "##90": 0,
    "F": 6,
    "##lav": 1,
    "##ob": 3,
    "##act": 7,
    "##um": 75,
    "##ont": 2,
    "##water": 0,
    "stain": 0,
    "flag": 0,
    "##ted": 0,
    "gliding": 0,
    "yellow": 5,
    "pig": 0,
    "##mented": 0,
    "##W": 1,
    "R": 16,
    "##eo": 1,
    "##je": 0,
    "Island": 0,
    "South": 0,
    "Sea": 0,
    "Korea": 0,
    "grew": 0,
    "optimal": 0,
    "at": 0,
    "25": 0,
    "presence": 0,
    "v": 19,
    "Na": 0,
    "Ph": 0,
    "##yl": 6,
    "showed": 0,
    "belonged": 0,
    "joining": 0,
    "gel": 6,
    "##ila": 7,
    "##MG": 2,
    "214": 1,
    "boots": 0,
    "##tra": 0,
    "re": 6,
    "##sa": 8,
    "##ling": 0,
    "value": 0,
    "100": 0,
    "exhibited": 0,
    "similarities": 0,
    "91": 0,
    "95": 0,
    "members": 0,
    "profile": 0,
    "similar": 0,
    "31": 0,
    "its": 0,
    "could": 0,
    "be": 4,
    "distinguished": 0,
    "distinctive": 0,
    "several": 0,
    "On": 0,
    "basis": 0,
    "data": 0,
    "considered": 0,
    "KC": 0,
    "##TC": 2,
    "228": 0,
    "58": 1,
    "##40": 0,
    "##rma": 0,
    "##sp": 6,
    "##oro": 2,
    "com": 4,
    "##post": 2,
    "##rm": 6,
    "bacterium": 1,
    "formed": 0,
    "branched": 0,
    "ve": 12,
    "##get": 0,
    "##ative": 0,
    "my": 8,
    "##cel": 0,
    "I": 7,
    "temperatures": 0,
    "62": 0,
    "50": 0,
    "below": 0,
    "above": 0,
    "65": 0,
    "69": 0,
    "ant": 20,
    "12": 2,
    "21": 0,
    "11": 7,
    "ll": 0,
    "##no": 8,
    "##pi": 0,
    "##mel": 0,
    "##olar": 0,
    "ratio": 0,
    "consisted": 0,
    "ni": 61,
    "##nh": 0,
    "##yd": 2,
    "sugar": 0,
    "##ham": 3,
    "##nose": 0,
    "##rab": 3,
    "family": 0,
    "##card": 0,
    "##io": 0,
    "##ida": 0,
    "##ceae": 0,
    "but": 0,
    "more": 2,
    "than": 0,
    "ch": 23,
    "##em": 8,
    "##ota": 0,
    "##xon": 0,
    "differed": 0,
    "some": 0,
    "respects": 0,
    "Act": 0,
    "##pol": 1,
    "Therefore": 0,
    "##CM": 0,
    "1642": 1,
    "##y": 35,
    "##ci": 27,
    "##eus": 1,
    "forest": 0,
    "soil": 0,
    "V": 2,
    "Chang": 0,
    "##ba": 21,
    "Mountains": 0,
    "He": 1,
    "##ilon": 0,
    "##g": 10,
    "##jiang": 0,
    "Province": 0,
    "length": 0,
    "strictly": 0,
    "##ero": 0,
    "Col": 0,
    "##onies": 0,
    "##gar": 2,
    "plates": 0,
    "cream": 0,
    "smooth": 0,
    "circular": 0,
    "mm": 0,
    "20": 0,
    "##ura": 1,
    "indicated": 0,
    "##ally": 0,
    "ranging": 0,
    "values": 0,
    "do": 1,
    "##k": 4,
    "##don": 1,
    "big": 1,
    "##eum": 1,
    "1926": 1,
    "32": 0,
    "respectively": 0,
    "results": 0,
    "it": 1,
    "concluded": 0,
    "104": 0,
    "##26": 0,
    "##re": 1,
    "h": 6,
    "##bad": 2,
    "O": 5,
    "farm": 0,
    "Hyderabad": 0,
    "Andhra": 0,
    "Pradesh": 0,
    "India": 0,
    "have": 0,
    "typical": 0,
    "pact": 1,
    "134": 0,
    "##33": 0,
    "99": 3,
    "##liva": 1,
    "128": 0,
    "par": 4,
    "##vu": 4,
    "##lus": 6,
    "131": 0,
    "98": 0,
    "relatives": 0,
    "levels": 0,
    "comparison": 0,
    "It": 0,
    "AA": 0,
    "209": 0,
    "PC": 5,
    "Gordon": 0,
    "hum": 2,
    "##cter": 0,
    "123": 6,
    "##01": 7,
    "attached": 0,
    "spa": 1,
    "##wn": 0,
    "laboratory": 0,
    "grow": 0,
    "edible": 0,
    "mushroom": 0,
    "##icus": 4,
    "bra": 8,
    "##lie": 6,
    "shown": 0,
    "belong": 0,
    "##ydro": 1,
    "##phobic": 1,
    "##a": 79,
    "te": 13,
    "##rra": 2,
    "am": 4,
    "##ara": 1,
    "##qua": 3,
    "system": 0,
    "determined": 0,
    "consist": 0,
    "predominantly": 0,
    "minor": 0,
    "amounts": 0,
    "compounds": 0,
    "##let": 0,
    "##ola": 7,
    "##mine": 0,
    "moderate": 0,
    "man": 0,
    "##nos": 0,
    "##ides": 1,
    "three": 0,
    "My": 0,
    "present": 0,
    "These": 0,
    "traits": 0,
    "tube": 0,
    "##rc": 5,
    "##ulos": 0,
    "##ari": 0,
    "affiliation": 0,
    "physiological": 0,
    "bio": 0,
    "##chemical": 0,
    "allowed": 0,
    "clear": 0,
    "differentiation": 0,
    "45": 1,
    "77": 0,
    "##27": 0,
    "##ip": 8,
    "acidic": 0,
    "##eat": 0,
    "##rop": 1,
    "##mb": 2,
    "##rot": 1,
    "rain": 0,
    "fed": 0,
    "located": 0,
    "near": 0,
    "##ha": 1,
    "NY": 0,
    "USA": 0,
    "Culture": 0,
    "dim": 0,
    "##phic": 1,
    "containing": 0,
    "thin": 0,
    "irregular": 0,
    "##cci": 0,
    "CO": 0,
    "produce": 0,
    "did": 0,
    "not": 0,
    "utilize": 0,
    "##tate": 0,
    "ethanol": 0,
    "##ano": 0,
    "trim": 0,
    "##eth": 0,
    "##yla": 0,
    "Op": 0,
    "##mal": 3,
    "conditions": 0,
    "basal": 0,
    "medium": 0,
    "little": 0,
    "43": 0,
    "##hibit": 0,
    "##ed": 8,
    "completely": 0,
    "To": 0,
    "knowledge": 0,
    "lowest": 0,
    "salt": 0,
    "sensitive": 0,
    "pure": 0,
    "Ace": 0,
    "vitamin": 0,
    "extract": 0,
    "required": 0,
    "established": 0,
    "organism": 0,
    "211": 0,
    "140": 0,
    "Marino": 0,
    "coral": 2,
    "##li": 59,
    "Mu": 1,
    "##ssi": 0,
    "##sm": 0,
    "##ilia": 0,
    "his": 3,
    "405": 3,
    "reef": 1,
    "builder": 0,
    "Se": 0,
    "##tia": 2,
    "Channel": 0,
    "Paulo": 0,
    "Brazil": 0,
    "Its": 0,
    "position": 0,
    "##di": 4,
    "##mini": 4,
    "##cola": 1,
    "##rit": 1,
    "##tani": 1,
    "hybrid": 0,
    "##izations": 0,
    "less": 0,
    "70": 0,
    "supporting": 0,
    "status": 0,
    "characterization": 0,
    "able": 0,
    "42": 0,
    "differentiated": 0,
    "features": 0,
    "ability": 0,
    "d": 0,
    "br": 5,
    "##omo": 0,
    "##su": 0,
    "##nic": 1,
    "Beta": 1,
    "##xy": 6,
    "##but": 0,
    "##yric": 0,
    "k": 3,
    "##eto": 0,
    "##vale": 1,
    "##ric": 14,
    "##in": 6,
    "##ska": 0,
    "##uer": 1,
    "est": 0,
    "##ase": 0,
    "activities": 0,
    "possessed": 0,
    "sum": 0,
    "##med": 0,
    "feature": 0,
    "OH": 1,
    "22": 0,
    "254": 1,
    "##35": 4,
    "CA": 1,
    "144": 1,
    "Am": 0,
    "##gg": 2,
    "##iens": 8,
    "member": 0,
    "Micro": 0,
    "##iac": 0,
    "##eae": 0,
    "K": 2,
    "##SL": 0,
    "##51": 1,
    "##20": 1,
    "03": 6,
    "Anya": 0,
    "##ng": 0,
    "stream": 0,
    "Republic": 0,
    "characterized": 0,
    "using": 0,
    "tax": 0,
    "##ono": 1,
    "approach": 0,
    "Comparative": 0,
    "class": 0,
    "Lab": 0,
    "##ede": 2,
    "##lla": 2,
    "##wa": 2,
    "##ji": 1,
    "Le": 1,
    "##if": 1,
    "##son": 0,
    "##ins": 1,
    "##eng": 1,
    "##ged": 1,
    "##iri": 1,
    "##dar": 1,
    "##ii": 28,
    "##V": 22,
    "67": 1,
    "had": 0,
    "##nob": 0,
    "##ut": 6,
    "diagnostic": 0,
    "47": 2,
    "24": 0,
    "suggested": 0,
    "##EM": 0,
    "512": 0,
    "164": 0,
    "Mini": 0,
    "##imo": 0,
    "##nas": 0,
    "arena": 4,
    "sand": 0,
    "Y": 2,
    "studied": 0,
    "##eta": 0,
    "74": 0,
    "High": 0,
    "genera": 0,
    "Be": 0,
    "##ute": 0,
    "##nberg": 0,
    "salmon": 4,
    "Sal": 0,
    "##ana": 2,
    "multi": 1,
    "##vor": 8,
    "cavern": 1,
    "signature": 0,
    "n": 5,
    "##tide": 0,
    "evidence": 0,
    "106": 0,
    "1975": 0,
    "MB": 0,
    "##IC": 0,
    "08": 0,
    "##34": 0,
    "An": 0,
    "##ox": 2,
    "##llus": 3,
    "ten": 2,
    "##nge": 2,
    "er": 2,
    "##yuan": 2,
    "##ult": 0,
    "##kal": 0,
    "##ito": 0,
    "##ler": 6,
    "##ant": 3,
    "bacteria": 0,
    "hot": 0,
    "springs": 0,
    "Two": 0,
    "112": 7,
    "Ten": 0,
    "##ry": 3,
    "##uan": 0,
    "counties": 0,
    "Yunnan": 0,
    "south": 0,
    "west": 0,
    "occurring": 0,
    "sing": 0,
    "chains": 0,
    "75": 0,
    "while": 0,
    "contents": 0,
    "[": 0,
    "##ren": 5,
    "##oid": 12,
    "]": 1,
    "##ization": 0,
    "valid": 0,
    "published": 0,
    "names": 0,
    "AB": 0,
    "137": 0,
    "##21": 2,
    "##sser": 0,
    "wa": 2,
    "##ds": 3,
    "##worth": 2,
    "##hay": 2,
    "##egan": 5,
    "specimens": 0,
    "archive": 0,
    "##d": 3,
    "reference": 0,
    "has": 0,
    "For": 1,
    "each": 0,
    "independent": 0,
    "sources": 0,
    "Amongst": 0,
    "newly": 0,
    "organisms": 0,
    "can": 7,
    "den": 2,
    "zoo": 1,
    "##de": 10,
    "##gma": 5,
    "##tis": 5,
    "animal": 1,
    "##oris": 2,
    "##aver": 1,
    "studies": 0,
    "demonstrated": 0,
    "distinct": 0,
    "nearest": 0,
    "neighbours": 0,
    "Analysis": 0,
    "partial": 0,
    "their": 0,
    "provided": 0,
    "additional": 0,
    "support": 0,
    "designation": 0,
    "Bay": 0,
    "##esi": 0,
    "##an": 1,
    "includes": 0,
    "##iform": 4,
    "##ome": 4,
    "well": 0,
    "further": 0,
    "##15": 2,
    "##IP": 0,
    "109": 0,
    "87": 0,
    "##46": 0,
    "per": 7,
    "##fi": 3,
    "##vi": 2,
    "oxygen": 0,
    "tolerant": 0,
    "su": 0,
    "##lf": 1,
    "##ide": 3,
    "##zing": 0,
    "sulfur": 0,
    "th": 17,
    "##ios": 0,
    "##ulf": 0,
    "reducing": 0,
    "##ete": 0,
    "spring": 0,
    "organ": 0,
    "##oh": 4,
    "##eter": 0,
    "P": 1,
    "'": 3,
    "##hi": 0,
    "##ode": 0,
    "##nd": 0,
    "##ron": 0,
    "mat": 0,
    "Star": 0,
    "##aya": 0,
    "Russ": 0,
    "resort": 0,
    "Novgorod": 0,
    "Region": 0,
    "Russia": 0,
    "he": 11,
    "##lica": 0,
    "shape": 0,
    "##ze": 0,
    "elemental": 0,
    "via": 0,
    "interaction": 0,
    "deposit": 0,
    "##las": 0,
    "occurred": 0,
    "28": 0,
    "##hari": 0,
    "##des": 0,
    "carbon": 0,
    "energy": 0,
    "use": 0,
    "##eptide": 0,
    "organic": 0,
    "alcohol": 0,
    "glucose": 0,
    "##yr": 6,
    "##u": 3,
    "##vate": 0,
    "fell": 0,
    "lit": 6,
    "##oral": 1,
    "##ova": 1,
    "##ica": 13,
    "cello": 1,
    "##bio": 1,
    "then": 0,
    "89": 0,
    "physiology": 0,
    "1920": 0,
    "251": 0,
    "##por": 21,
    "##osa": 0,
    "##ao": 0,
    "##ua": 1,
    "oil": 0,
    "contaminated": 0,
    "##OL": 0,
    "##f": 3,
    "##37": 1,
    "##car": 0,
    "##bon": 0,
    "poll": 0,
    "##uted": 0,
    "surrounding": 0,
    "petroleum": 0,
    "environment": 0,
    "Tunisia": 0,
    "stained": 0,
    "structure": 0,
    "unlike": 0,
    "thick": 0,
    "##layer": 0,
    "##los": 2,
    "##tri": 5,
    "##isa": 0,
    "##au": 5,
    "##tal": 4,
    "48": 0,
    "least": 0,
    "concentrations": 0,
    "150": 0,
    "Ye": 0,
    "##ast": 0,
    "degradation": 0,
    "##uma": 2,
    "##rate": 0,
    "##ru": 3,
    "##ct": 3,
    "##ose": 0,
    "Also": 0,
    "##tero": 9,
    "##tro": 4,
    "Try": 0,
    "##ptic": 0,
    "unable": 0,
    "Casa": 0,
    "##min": 0,
    "Sul": 0,
    "##fa": 9,
    "##ite": 0,
    "##trate": 0,
    "reduced": 0,
    "##dia": 0,
    "##dial": 0,
    "various": 0,
    "highest": 0,
    "93": 0,
    "37": 0,
    "##HS": 0,
    "##60": 0,
    "##alo": 0,
    "##rre": 9,
    "CT": 0,
    "##T": 1,
    "Cal": 0,
    "##oran": 0,
    "##zor": 1,
    "MV": 0,
    "154": 0,
    "##rod": 0,
    "##uce": 0,
    "##ns": 10,
    "##tre": 0,
    "##zo": 0,
    "##here": 0,
    "tomato": 2,
    "plants": 6,
    "##N": 10,
    "00": 0,
    "grown": 0,
    "Guangzhou": 0,
    "grey": 0,
    "##ish": 0,
    "white": 2,
    "aerial": 0,
    "large": 0,
    "quantity": 0,
    "double": 0,
    "diamond": 0,
    "crystals": 0,
    "potato": 2,
    "##x": 5,
    "##lt": 1,
    "colour": 0,
    "##scopic": 0,
    "observations": 0,
    "##rt": 9,
    "cylindrical": 0,
    "##pores": 0,
    "Ch": 0,
    "Mel": 0,
    "##n": 0,
    "##ments": 0,
    "anti": 0,
    "activity": 0,
    "against": 0,
    "##scher": 1,
    "##ichi": 0,
    "##udo": 0,
    "##mona": 0,
    "##ug": 8,
    "Ba": 1,
    "sub": 22,
    "##til": 22,
    "Can": 0,
    "##da": 0,
    "inhibitor": 0,
    "Pen": 0,
    "##lli": 6,
    "##it": 6,
    "##ense": 2,
    "AT": 2,
    "1916": 1,
    "##ven": 5,
    "##du": 41,
    "##rise": 1,
    "133": 1,
    "Level": 0,
    "low": 0,
    "Furthermore": 0,
    "##R": 2,
    "##RL": 0,
    "248": 0,
    "##00": 5,
    "provides": 0,
    "unique": 0,
    "resolution": 0,
    "typing": 0,
    "##yan": 0,
    "##eria": 0,
    "characters": 0,
    "classification": 0,
    "often": 0,
    "led": 0,
    "ambiguous": 0,
    "assignment": 0,
    "In": 0,
    "past": 0,
    "decades": 0,
    "availability": 0,
    "such": 0,
    "meta": 1,
    "##gen": 2,
    "##cs": 1,
    "steadily": 0,
    "increased": 0,
    "made": 0,
    "reconstruction": 0,
    "evolutionary": 0,
    "relationships": 0,
    "##erial": 0,
    "groups": 0,
    "possible": 0,
    "improving": 0,
    "Con": 0,
    "##serve": 0,
    "##del": 0,
    "insertion": 0,
    "del": 1,
    "##ons": 0,
    "all": 3,
    "RNA": 0,
    "polymer": 0,
    "presently": 0,
    "available": 0,
    "public": 0,
    "databases": 0,
    "##b": 2,
    "involved": 0,
    "directed": 0,
    "They": 0,
    "variable": 0,
    "44": 0,
    "part": 0,
    "what": 0,
    "appears": 0,
    "longer": 0,
    "81": 0,
    "Indeed": 0,
    "number": 0,
    "turn": 0,
    "out": 0,
    "given": 0,
    "even": 0,
    "thus": 0,
    "##genus": 0,
    "level": 0,
    "useful": 0,
    "markers": 0,
    "positions": 0,
    "assess": 0,
    "biodiversity": 0,
    "time": 0,
    "natural": 0,
    "ecosystems": 0,
    "Au": 0,
    "##iba": 0,
    "i": 3,
    "##gna": 3,
    "##cca": 1,
    "ear": 0,
    "##wab": 0,
    "##titis": 1,
    "##tern": 0,
    "transfer": 0,
    "Yan": 0,
    "##iel": 0,
    "##lace": 0,
    "Li": 0,
    "et": 2,
    "2008": 0,
    "##ord": 0,
    "##nea": 1,
    "##MM": 0,
    "##IB": 0,
    "165": 5,
    "&": 0,
    "##t": 1,
    "Ana": 0,
    "algorithms": 0,
    "consistently": 0,
    "grouped": 0,
    "poses": 0,
    "##sed": 0,
    "##ure": 4,
    "variation": 0,
    "saturated": 0,
    "types": 0,
    "pre": 0,
    "##dom": 0,
    "##inating": 0,
    "included": 0,
    "59": 0,
    "We": 0,
    "transferred": 0,
    "amendments": 0,
    "57": 1,
    "##43": 1,
    "##ib": 0,
    "##uen": 0,
    "marine": 0,
    "study": 0,
    "carried": 0,
    "##44": 0,
    "crude": 0,
    "consortium": 0,
    "Gulf": 0,
    "PR": 0,
    "##rig": 1,
    "219": 1,
    "##22": 1,
    "##quence": 0,
    "dominant": 0,
    "38": 0,
    "however": 0,
    "readily": 0,
    "according": 0,
    "252": 0,
    "##28": 0,
    "Fun": 0,
    "secondary": 0,
    "##bol": 1,
    "##ites": 0,
    "strategies": 0,
    "activate": 0,
    "silent": 0,
    "clusters": 0,
    "Fi": 0,
    "fungi": 0,
    "multitude": 0,
    "weight": 0,
    "##active": 0,
    "increasing": 0,
    "genome": 0,
    "impressive": 0,
    "##sy": 0,
    "##hetic": 0,
    "potential": 0,
    "far": 3,
    "being": 0,
    "exploited": 0,
    "##hesis": 0,
    "cluster": 0,
    "Many": 0,
    "##atic": 0,
    "discovered": 0,
    "metabolism": 0,
    "Consequently": 0,
    "product": 1,
    "review": 0,
    "##mar": 0,
    "##izes": 0,
    "current": 0,
    "been": 0,
    "successfully": 0,
    "applied": 0,
    "last": 0,
    "years": 0,
    "especially": 0,
    "##per": 8,
    "##gill": 0,
    "techniques": 0,
    "advantage": 0,
    "mining": 0,
    "vary": 0,
    "simple": 1,
    "search": 0,
    "predicted": 0,
    "##hy": 0,
    "methods": 0,
    "exploit": 0,
    "probable": 0,
    "##gan": 2,
    "##isms": 0,
    "Until": 0,
    "now": 0,
    "majority": 0,
    "successful": 0,
    "approaches": 0,
    "biology": 0,
    "like": 0,
    "generation": 0,
    "##uo": 0,
    "knock": 0,
    "outs": 0,
    "promoter": 0,
    "exchange": 0,
    "over": 0,
    "##ex": 0,
    "##press": 0,
    "transcription": 0,
    "factors": 0,
    "##le": 13,
    "##iot": 0,
    "##ropic": 0,
    "regulator": 0,
    "Moreover": 0,
    "##gene": 0,
    "##tics": 0,
    "opened": 0,
    "avenue": 0,
    "el": 3,
    "##tion": 0,
    "regulation": 0,
    "will": 0,
    "certainly": 0,
    "continue": 0,
    "play": 0,
    "significant": 0,
    "cry": 0,
    "naturally": 0,
    "expressed": 0,
    "One": 0,
    "technique": 0,
    "attempt": 0,
    "si": 0,
    "##mu": 12,
    "##late": 0,
    "habitat": 0,
    "cultivation": 0,
    "ecosystem": 0,
    "already": 0,
    "activation": 0,
    "identification": 0,
    "##lan": 64,
    "simulation": 0,
    "help": 0,
    "discover": 0,
    "future": 0,
    "may": 18,
    "provide": 0,
    "fundamental": 0,
    "insights": 0,
    "into": 0,
    "communication": 0,
    "##art": 0,
    "##mental": 0,
    "traffic": 0,
    "understanding": 0,
    "processes": 0,
    "Great": 0,
    "progress": 0,
    "expression": 0,
    "Less": 0,
    "about": 0,
    "mechanisms": 0,
    "govern": 0,
    "spatial": 0,
    "distribution": 0,
    "enzymes": 0,
    "##ctors": 0,
    "substrates": 0,
    "media": 0,
    "##aly": 0,
    "##ynth": 0,
    "array": 0,
    "systems": 0,
    "analyze": 0,
    "temporal": 0,
    "##uka": 0,
    "##tes": 0,
    "example": 0,
    "##lat": 0,
    "para": 1,
    "##sitic": 1,
    "intensive": 0,
    "because": 0,
    "##cot": 3,
    "highly": 0,
    "toxic": 0,
    "##uta": 2,
    "##genic": 0,
    "car": 0,
    "##cin": 2,
    "humans": 0,
    "animals": 0,
    "Using": 0,
    "synthesis": 0,
    "illustrate": 0,
    "concepts": 0,
    "focuses": 0,
    "compartment": 0,
    "##ali": 1,
    "##zation": 0,
    "contribute": 0,
    "initiation": 0,
    "completion": 0,
    "discuss": 0,
    "recent": 0,
    "discovery": 0,
    "specialized": 0,
    "trafficking": 0,
    "##cles": 0,
    "participate": 0,
    "export": 0,
    "##xin": 0,
    "exterior": 0,
    "work": 0,
    "clearer": 0,
    "how": 0,
    "integrate": 0,
    "basic": 0,
    "machinery": 0,
    "language": 0,
    "interactions": 0,
    "cross": 0,
    "kingdom": 0,
    "hosts": 0,
    "rapidly": 0,
    "emerging": 0,
    "field": 0,
    "growing": 0,
    "chemical": 0,
    "talk": 0,
    "lies": 0,
    "yet": 0,
    "##ated": 0,
    "derived": 0,
    "##uns": 0,
    "##at": 0,
    "termed": 0,
    "End": 0,
    "roles": 0,
    "carrying": 0,
    "##lon": 6,
    "host": 0,
    "reproduce": 0,
    "While": 0,
    "functions": 0,
    "reproduction": 0,
    "they": 0,
    "recognized": 0,
    "agents": 0,
    "facilitate": 0,
    "resistance": 0,
    "attack": 0,
    "composition": 0,
    "introduce": 0,
    "suggests": 0,
    "own": 0,
    "##ir": 21,
    "##nce": 0,
    "Specifically": 0,
    "describe": 0,
    "induce": 0,
    "promote": 0,
    "##ulation": 0,
    "fungus": 0,
    "##igan": 0,
    "mimic": 0,
    "##rona": 2,
    "##tine": 0,
    "manipulate": 0,
    "defense": 0,
    "responses": 0,
    "benefit": 0,
    "implicated": 0,
    "Treatment": 0,
    "ad": 4,
    "##herence": 0,
    "teenage": 0,
    "young": 0,
    "adult": 0,
    "patients": 0,
    "cancer": 0,
    "Ad": 1,
    "##hering": 0,
    "treatment": 0,
    "issue": 0,
    "many": 0,
    "diagnosed": 0,
    "chronic": 0,
    "health": 0,
    "reported": 0,
    "greater": 0,
    "adolescent": 0,
    "However": 0,
    "increase": 0,
    "awareness": 0,
    "challenges": 0,
    "faced": 0,
    "reviewed": 0,
    "substantial": 0,
    "proportion": 0,
    "difficulties": 0,
    "reports": 0,
    "63": 0,
    "regime": 0,
    "inconsistent": 0,
    "across": 0,
    "true": 0,
    "extent": 0,
    "still": 0,
    "unclear": 0,
    "apparent": 0,
    "there": 0,
    "components": 0,
    "assessed": 0,
    "relation": 0,
    "patient": 0,
    "Factor": 0,
    "affect": 0,
    "include": 0,
    "emotional": 0,
    "functioning": 0,
    "depression": 0,
    "self": 0,
    "esteem": 0,
    "beliefs": 0,
    "perceived": 0,
    "illness": 0,
    "severity": 0,
    "vulnerability": 0,
    "parental": 0,
    "parent": 0,
    "child": 0,
    "con": 2,
    "##cor": 0,
    "##dance": 0,
    "##gies": 0,
    "foster": 0,
    "##ctor": 0,
    "targeting": 0,
    "professional": 0,
    "highlights": 0,
    "lack": 0,
    "intervention": 0,
    "addressing": 0,
    "video": 0,
    "game": 0,
    "focusing": 0,
    "behaviour": 0,
    "issues": 0,
    "care": 0,
    "Method": 0,
    "##ological": 0,
    "measuring": 0,
    "addressed": 0,
    "suggestions": 0,
    "design": 0,
    "highlighted": 0,
    "great": 0,
    "need": 0,
    "Mon": 0,
    "##lent": 0,
    "##ions": 0,
    "regulate": 0,
    "Ha": 0,
    "potassium": 0,
    "transport": 0,
    "De": 1,
    "##bar": 0,
    "##nse": 3,
    "residual": 0,
    "indicating": 0,
    "high": 0,
    "affinity": 0,
    "##ers": 0,
    "Trans": 0,
    "##cription": 0,
    "##take": 0,
    "##h": 1,
    "##TR": 0,
    "regulated": 0,
    "##HA": 0,
    "starvation": 0,
    "absence": 0,
    "affected": 0,
    "membrane": 0,
    "expressing": 0,
    "activated": 0,
    "external": 0,
    "##port": 0,
    "certain": 0,
    "mechanism": 0,
    "driving": 0,
    "influx": 0,
    "##H": 0,
    "##ak": 0,
    "Is": 0,
    "##dr": 0,
    "mutations": 0,
    "##use": 0,
    "##lio": 4,
    "##ma": 14,
    "?": 0,
    "so": 4,
    "##matic": 0,
    "ID": 0,
    "##H1": 0,
    "##blast": 0,
    "##oma": 3,
    "remarkable": 0,
    "previously": 0,
    "any": 0,
    "grade": 0,
    "II": 3,
    "III": 0,
    "##mas": 0,
    "Apart": 0,
    "acute": 2,
    "##elo": 0,
    "le": 3,
    "##emia": 0,
    "##umour": 0,
    "carry": 0,
    "##tations": 0,
    "although": 0,
    "much": 0,
    "rare": 0,
    "##53": 1,
    "19": 1,
    "##q": 0,
    "code": 0,
    "mutually": 0,
    "exclusive": 0,
    "##type": 0,
    "common": 0,
    "early": 0,
    "events": 0,
    "##gno": 0,
    "##stic": 0,
    "marker": 0,
    "overall": 0,
    "progression": 0,
    "free": 0,
    "survival": 0,
    "IV": 0,
    "##tated": 0,
    "altered": 0,
    "##alytic": 0,
    "accumulation": 0,
    "##arate": 0,
    "Molecular": 0,
    "##go": 1,
    "single": 0,
    "rarely": 0,
    "occur": 0,
    "together": 0,
    "Because": 0,
    "does": 0,
    "traditional": 0,
    "specifically": 0,
    "commonly": 0,
    "GP": 0,
    "##I": 1,
    "anchored": 0,
    "En": 0,
    "##umi": 32,
    "##gat": 36,
    "encoded": 0,
    "##NG": 0,
    "##F": 1,
    "##36": 0,
    "belongs": 0,
    "##cos": 0,
    "##lase": 0,
    "##comb": 0,
    "Pi": 1,
    "##chia": 0,
    "##pas": 0,
    "##tor": 5,
    "prefer": 0,
    "##ential": 0,
    "acts": 0,
    "soluble": 0,
    "##cans": 0,
    "Car": 0,
    "##box": 0,
    "##yme": 0,
    "##thy": 0,
    "##ur": 3,
    "##dl": 0,
    "Re": 0,
    "##rill": 0,
    "##iant": 0,
    "Blue": 0,
    "RB": 0,
    "mg": 0,
    "HP": 2,
    "##EC": 1,
    "when": 0,
    "acting": 0,
    "##gos": 0,
    "##ride": 3,
    "degree": 0,
    "##otype": 0,
    "##feng": 0,
    "mutant": 0,
    "identical": 0,
    "Me": 0,
    "##as": 0,
    "##uring": 3,
    "impact": 0,
    "Millennium": 0,
    "Development": 0,
    "Goal": 0,
    "era": 3,
    "beyond": 0,
    "scale": 0,
    "effectiveness": 0,
    "evaluation": 0,
    "Evaluation": 0,
    "programmes": 0,
    "initiatives": 0,
    "aimed": 0,
    "improvement": 0,
    "countries": 0,
    "middle": 0,
    "income": 0,
    "needs": 0,
    "Traditional": 0,
    "designs": 0,
    "compare": 0,
    "areas": 0,
    "without": 0,
    "programme": 0,
    "relevant": 0,
    "scaled": 0,
    "virtually": 0,
    "every": 0,
    "district": 0,
    "world": 0,
    "evolution": 0,
    "national": 0,
    "platform": 0,
    "uses": 0,
    "unit": 0,
    "continuous": 0,
    "monitoring": 0,
    "indicators": 0,
    "gather": 0,
    "before": 0,
    "after": 0,
    "period": 0,
    "multiple": 0,
    "analytical": 0,
    "deal": 0,
    "gaps": 0,
    "bias": 0,
    "interim": 0,
    "##mat": 2,
    "##ive": 0,
    "country": 0,
    "ownership": 0,
    "transparency": 0,
    "donor": 0,
    "coordination": 0,
    "providing": 0,
    "rigorous": 0,
    "cost": 0,
    "u": 2,
    "##rea": 0,
    "report": 0,
    "here": 0,
    "##ishes": 0,
    "suggesting": 0,
    "sole": 0,
    "specific": 0,
    "##cible": 0,
    "precursor": 0,
    "responds": 0,
    "nitrogen": 0,
    "repression": 0,
    "ne": 10,
    "##cess": 0,
    "##itating": 0,
    "Are": 0,
    "GA": 0,
    "##TA": 0,
    "factor": 0,
    "contrast": 0,
    "##mon": 0,
    "operative": 0,
    "down": 0,
    "post": 1,
    "translation": 0,
    "promoted": 0,
    "##osis": 1,
    "##logue": 0,
    "contain": 0,
    "arise": 0,
    "du": 1,
    "##plication": 0,
    "giving": 0,
    "put": 0,
    "proteins": 0,
    "acquired": 0,
    "##ho": 2,
    "##GA": 0,
    "essential": 0,
    "##ivo": 0,
    "GT": 0,
    "##ivating": 0,
    "##tein": 0,
    "investigated": 0,
    "##D": 3,
    "##42": 5,
    "intrinsic": 0,
    "stimulate": 0,
    "##lysis": 0,
    "##ases": 0,
    "sensitivity": 0,
    "##el": 1,
    "conserved": 0,
    "complement": 0,
    "##rg": 2,
    "By": 0,
    "tag": 0,
    "##ging": 0,
    "##FP": 0,
    "localized": 0,
    "tip": 0,
    "cortex": 0,
    "##oki": 0,
    "##nes": 0,
    "##pta": 0,
    "sites": 0,
    "forms": 0,
    "effect": 0,
    "##ving": 0,
    "##ele": 1,
    "lacking": 0,
    "presented": 0,
    "##m": 12,
    "tubes": 0,
    "Conversely": 0,
    "restricted": 0,
    "demonstrate": 0,
    "##ong": 0,
    "##ation": 0,
    "Surface": 0,
    "##rome": 0,
    "##ra": 3,
    "##lia": 14,
    "emission": 0,
    "scanning": 0,
    "electron": 0,
    "##sco": 0,
    "##py": 5,
    "##rida": 0,
    "Al": 0,
    "##ve": 0,
    "auto": 0,
    "##tist": 0,
    "##tony": 0,
    "possesses": 0,
    "##lor": 5,
    "##last": 0,
    "thought": 0,
    "photos": 0,
    "##om": 0,
    "##plex": 0,
    "close": 0,
    "predatory": 0,
    "##dell": 4,
    "##put": 0,
    "coated": 0,
    "gold": 0,
    "##rom": 0,
    "##ise": 0,
    "surface": 0,
    "ultra": 0,
    "##structure": 0,
    "bi": 10,
    "##lage": 0,
    "resemble": 0,
    "ed": 1,
    "##ax": 7,
    "notable": 0,
    "ventral": 0,
    "side": 0,
    "groove": 0,
    "extending": 0,
    "anterior": 0,
    "point": 0,
    "ridge": 0,
    "rising": 0,
    "towards": 0,
    "apex": 0,
    "##ell": 0,
    "shorter": 0,
    "posterior": 0,
    "small": 0,
    "curved": 0,
    "app": 3,
    "##end": 3,
    "##age": 0,
    "partly": 0,
    "enclosed": 0,
    "flap": 0,
    "approximately": 0,
    "times": 0,
    "mast": 0,
    "##igo": 0,
    "##mes": 0,
    "combination": 0,
    "coating": 0,
    "proved": 0,
    "superior": 0,
    "determine": 0,
    "fine": 0,
    "##st": 12,
    "##ructural": 0,
    "information": 0,
    "us": 0,
    "diagnosis": 0,
    "##ress": 0,
    "induced": 1,
    "pseudo": 3,
    "protection": 0,
    "solvent": 0,
    "##tham": 0,
    "##oe": 1,
    "Different": 0,
    "##iation": 0,
    "resistant": 0,
    "walled": 0,
    "##ts": 0,
    "allowing": 0,
    "##zoic": 0,
    "survive": 0,
    "lasting": 0,
    "##vour": 0,
    "##able": 0,
    "environmental": 0,
    "relatively": 0,
    "##tone": 0,
    "##MS": 0,
    "##O": 0,
    "##mpt": 0,
    "rounded": 0,
    "stage": 0,
    "envelope": 0,
    "address": 0,
    "whether": 0,
    "rapid": 0,
    "response": 0,
    "differs": 0,
    "dependent": 0,
    "monitored": 0,
    "##sta": 6,
    "##ting": 0,
    "##iating": 0,
    "layered": 0,
    "coat": 0,
    "assembled": 0,
    "treated": 0,
    "CS": 0,
    "protect": 0,
    "assemble": 0,
    "im": 7,
    "specify": 0,
    "terminal": 0,
    "##icit": 0,
    "stress": 0,
    "suggest": 0,
    "possibility": 0,
    "exists": 0,
    "##sts": 0,
    "might": 0,
    "contact": 0,
    "lens": 0,
    "solutions": 0,
    "##sin": 0,
    "##fect": 0,
    "Po": 0,
    "##ble": 0,
    "biological": 0,
    "caste": 8,
    "##llan": 8,
    "Gen": 0,
    "##pect": 0,
    "##hot": 0,
    "##ometric": 0,
    "ass": 3,
    "##ays": 0,
    "##ates": 0,
    "conditioned": 0,
    "exhibit": 0,
    "extra": 0,
    "##cellular": 0,
    "##LA": 0,
    "significantly": 0,
    "compared": 0,
    "associated": 0,
    "05": 1,
    "##nga": 0,
    "##nine": 0,
    "robust": 0,
    "##bis": 0,
    "##tat": 0,
    "##bility": 0,
    "pot": 0,
    "##ency": 0,
    "effectively": 0,
    "pu": 4,
    "##rified": 0,
    "pan": 3,
    "##cre": 0,
    "neither": 0,
    "nor": 0,
    "##oto": 0,
    "##city": 0,
    "brain": 0,
    "##vas": 0,
    "##cular": 0,
    "##oth": 0,
    "##eli": 1,
    "due": 0,
    "Unlike": 0,
    "case": 0,
    "##ste": 0,
    "##lium": 0,
    "appeared": 0,
    "##tosis": 0,
    "fluorescent": 0,
    "labelled": 0,
    "##sty": 0,
    "##rene": 0,
    "beads": 0,
    "Horse": 0,
    "##rad": 0,
    "##idas": 0,
[...]
