{
  "B": {
    "Sc": 9,
    "##p": 0,
    "##16": 0,
    "##0": 0,
    ",": 0,
    "a": 1,
    "multiple": 0,
    "K": 0,
    "##H": 0,
    "-": 0,
    "domain": 0,
    "protein": 0,
    "is": 0,
    "component": 0,
    "of": 0,
    "m": 64,
    "##R": 0,
    "##NP": 0,
    "complexes": 0,
    "in": 0,
    "yeast": 69,
    "A": 0,
    "##bs": 0,
    "##tract": 0,
    "160": 0,
    "k": 0,
    "##D": 59,
    "##a": 11,
    "the": 0,
    "Sa": 7,
    "##cc": 14,
    "##har": 11,
    "##omy": 11,
    "##ces": 11,
    "c": 2,
    "##ere": 0,
    "##vis": 0,
    "##iae": 0,
    "that": 0,
    "contains": 0,
    "14": 0,
    "repeats": 0,
    "h": 0,
    "##n": 0,
    "ho": 0,
    "##mology": 0,
    "(": 0,
    ")": 0,
    "and": 0,
    "demonstrates": 0,
    "significant": 0,
    "sequence": 0,
    "to": 0,
    "family": 0,
    "proteins": 0,
    "collectively": 0,
    "known": 0,
    "as": 0,
    "v": 0,
    "##igi": 0,
    "##lins": 0,
    ".": 0,
    "As": 3,
    "first": 0,
    "step": 0,
    "towards": 0,
    "defining": 0,
    "function": 0,
    "we": 0,
    "have": 0,
    "characterized": 0,
    "sub": 0,
    "##cellular": 0,
    "distribution": 0,
    "##ivo": 0,
    "interactions": 0,
    "this": 0,
    "Using": 0,
    "su": 0,
    "##c": 1,
    "##rose": 0,
    "gradient": 0,
    "fraction": 0,
    "##ation": 0,
    "studies": 0,
    "demonstrated": 0,
    "##yt": 3,
    "##op": 6,
    "##las": 0,
    "##mic": 0,
    "l": 0,
    "##ys": 0,
    "##ates": 0,
    "predominantly": 0,
    "associated": 0,
    "with": 0,
    "p": 0,
    "##oly": 0,
    "##ri": 0,
    "##bos": 0,
    "##ome": 0,
    "##s": 4,
    "Furthermore": 0,
    "found": 0,
    "released": 0,
    "from": 0,
    "by": 0,
    "E": 63,
    "##TA": 0,
    "form": 0,
    "large": 0,
    "complex": 0,
    ">": 0,
    "=": 0,
    "1300": 0,
    "sensitive": 0,
    "both": 0,
    "R": 0,
    "##N": 0,
    "##ase": 0,
    "Na": 0,
    "##C": 0,
    "##l": 1,
    "affinity": 0,
    "ch": 0,
    "##roma": 0,
    "##tography": 0,
    "##olate": 0,
    "these": 0,
    "identified": 0,
    "two": 0,
    "components": 0,
    "other": 0,
    "than": 0,
    ":": 0,
    "binding": 0,
    "Pa": 0,
    "##b": 0,
    "##1": 0,
    "B": 113,
    "##f": 1,
    "##r": 0,
    "The": 0,
    "presence": 0,
    "confirms": 0,
    "be": 0,
    "intriguing": 0,
    "because": 0,
    "null": 0,
    "##hen": 0,
    "##otype": 0,
    "for": 0,
    "gene": 0,
    "essentially": 0,
    "same": 0,
    "reported": 0,
    "s": 7,
    "cells": 0,
    "increased": 0,
    "cell": 0,
    "size": 0,
    "##ber": 2,
    "##rant": 0,
    "DNA": 0,
    "content": 0,
    "These": 0,
    "results": 0,
    "demonstrate": 0,
    "associates": 0,
    "bound": 0,
    "imp": 0,
    "##lica": 0,
    "##ting": 0,
    "role": 0,
    "one": 0,
    "or": 0,
    "more": 0,
    "levels": 0,
    "##RNA": 0,
    "metabolism": 0,
    "IN": 0,
    "##TR": 0,
    "##OD": 0,
    "##UC": 0,
    "##TI": 0,
    "##ON": 0,
    "122": 0,
    "##2": 0,
    "amino": 0,
    "acid": 0,
    "copies": 0,
    "highly": 0,
    "conserved": 0,
    "motif": 0,
    "many": 0,
    "involved": 0,
    "RNA": 0,
    "1": 0,
    "containing": 0,
    "appear": 0,
    "diverse": 0,
    "functions": 0,
    "been": 0,
    "all": 0,
    "kingdoms": 0,
    "life": 0,
    "including": 0,
    "rib": 0,
    "##oso": 27,
    "##mal": 0,
    "S": 34,
    "##3": 0,
    "##scher": 5,
    "##ichi": 5,
    "co": 0,
    "##li": 2,
    "Me": 0,
    "me": 0,
    "##ios": 0,
    "##is": 7,
    "specific": 0,
    "##licing": 0,
    "factor": 0,
    "ME": 0,
    "##X": 0,
    "3": 0,
    "C": 41,
    "##aen": 4,
    "##or": 4,
    "##hab": 4,
    "##dit": 4,
    "el": 0,
    "##egan": 0,
    "presumably": 0,
    "local": 0,
    "##ization": 0,
    "during": 0,
    "development": 0,
    "2": 0,
    "FM": 59,
    "##RP": 0,
    "fragile": 0,
    "X": 1,
    "mental": 0,
    "re": 0,
    "##tar": 0,
    "##dation": 0,
    "humans": 10,
    "partial": 0,
    "clone": 0,
    "H": 4,
    "was": 0,
    "Whole": 0,
    "im": 0,
    "##mu": 0,
    "##no": 2,
    "##lu": 0,
    "##ores": 0,
    "##cence": 0,
    "##izes": 0,
    "##m": 0,
    "en": 0,
    "##rich": 0,
    "##ment": 0,
    "around": 0,
    "nuclear": 0,
    "envelope": 0,
    "what": 0,
    "appears": 0,
    "end": 0,
    "##tic": 0,
    "##ulum": 0,
    "Del": 0,
    "##eti": 0,
    "##on": 2,
    "SC": 0,
    "##P": 0,
    "lo": 0,
    "##cus": 7,
    "not": 0,
    "lethal": 0,
    "but": 0,
    "per": 0,
    "miss": 0,
    "##eg": 0,
    "##regation": 0,
    "genetic": 0,
    "markers": 0,
    "##por": 4,
    "##ulation": 0,
    "abnormal": 0,
    "morphology": 0,
    "irregular": 0,
    "shape": 0,
    "4": 0,
    "O": 3,
    "##er": 8,
    "##vation": 0,
    "led": 0,
    "hypothesis": 0,
    "may": 0,
    "regulating": 0,
    "##lo": 0,
    "##idy": 0,
    "division": 0,
    "More": 0,
    "recently": 0,
    "Weber": 0,
    "colleagues": 0,
    "##it": 0,
    "##ro": 2,
    "activity": 0,
    "using": 0,
    "northwestern": 0,
    "b": 22,
    "##lot": 0,
    "analyses": 0,
    ";": 0,
    "bind": 0,
    "efficiently": 0,
    "##oh": 0,
    "##omo": 2,
    "##pol": 1,
    "##yme": 2,
    "##rs": 0,
    "r": 2,
    "t": 4,
    "5": 0,
    "Cell": 0,
    "revealed": 0,
    "percentage": 0,
    "membrane": 0,
    "##elle": 0,
    "##ts": 0,
    "treatment": 0,
    "either": 0,
    "10": 0,
    "##M": 0,
    "500": 0,
    "While": 0,
    "authors": 0,
    "interpreted": 0,
    "suggest": 0,
    "/": 0,
    "ER": 0,
    "due": 0,
    "primarily": 0,
    "clear": 0,
    "evidence": 0,
    "association": 0,
    "has": 0,
    "Currently": 0,
    "relationship": 0,
    "between": 0,
    "mutant": 0,
    "remains": 0,
    "unclear": 0,
    "~": 0,
    "23": 0,
    "%": 0,
    "identity": 0,
    "40": 0,
    "similarity": 0,
    "at": 0,
    "level": 0,
    "class": 0,
    "ve": 0,
    "##rte": 0,
    "##bra": 0,
    "##te": 0,
    "First": 0,
    "chicken": 1,
    "##lin": 0,
    "##mo": 2,
    "##logue": 0,
    "now": 0,
    "human": 181,
    "6": 0,
    "##eno": 2,
    "##pus": 1,
    "la": 0,
    "##ev": 0,
    "7": 0,
    "Dr": 27,
    "##phi": 27,
    "##la": 30,
    "##lan": 0,
    "##oga": 0,
    "##ster": 0,
    "8": 0,
    "##hi": 4,
    "##zo": 4,
    "##sa": 4,
    "##omb": 0,
    "##e": 0,
    "studied": 0,
    "date": 0,
    "are": 0,
    "nuclei": 0,
    "type": 0,
    "functional": 0,
    "significance": 0,
    "remain": 0,
    "For": 0,
    "example": 0,
    "##rus": 0,
    "their": 0,
    "work": 0,
    "culture": 0,
    "transport": 0,
    "9": 0,
    "11": 0,
    "In": 0,
    "contrast": 0,
    "Do": 0,
    "##dson": 0,
    "Shapiro": 0,
    "concluded": 0,
    "response": 0,
    "est": 0,
    "##rogen": 0,
    "specifically": 0,
    "'": 0,
    "U": 2,
    "##ite": 0,
    "##llo": 0,
    "##gen": 0,
    "##in": 0,
    "12": 0,
    "potentially": 0,
    "stab": 0,
    "##ili": 0,
    "##zing": 0,
    "message": 0,
    "13": 0,
    "Last": 0,
    "##ly": 0,
    "DD": 0,
    "##log": 0,
    "interact": 0,
    "do": 0,
    "##de": 0,
    "##ca": 0,
    "satellite": 0,
    "repeat": 0,
    "regions": 0,
    "cent": 0,
    "##rome": 0,
    "##ric": 0,
    "he": 0,
    "##tero": 1,
    "##ch": 0,
    "##tin": 0,
    "em": 0,
    "##ryo": 0,
    "##nic": 0,
    "##rva": 0,
    "suggesting": 0,
    "possible": 0,
    "structure": 0,
    "goal": 0,
    "present": 0,
    "study": 0,
    "begin": 0,
    "##uc": 0,
    "##ida": 0,
    "character": 0,
    "##izing": 0,
    "mac": 0,
    "##rom": 0,
    "##ole": 0,
    "##cular": 0,
    "We": 0,
    "following": 0,
    "an": 0,
    "apparent": 0,
    "molecular": 0,
    "weight": 0,
    "approximately": 0,
    "##ffin": 0,
    "##ity": 0,
    "pu": 0,
    "##rification": 0,
    "well": 0,
    "e": 0,
    "##uka": 0,
    "15": 0,
    "Finally": 0,
    "third": 0,
    "abundant": 0,
    "previously": 0,
    "associate": 0,
    "unknown": 0,
    "del": 0,
    "reportedly": 0,
    "leads": 0,
    "remarkably": 0,
    "similar": 0,
    "16": 0,
    "indicate": 0,
    "extension": 0,
    "support": 0,
    "seen": 0,
    "its": 0,
    "To": 9,
    "our": 0,
    "knowledge": 0,
    "data": 0,
    "here": 0,
    "MA": 0,
    "##TE": 0,
    "##RI": 0,
    "##AL": 0,
    "##S": 0,
    "AND": 0,
    "##TH": 0,
    "P": 1,
    "##mi": 0,
    "##ds": 0,
    "strains": 0,
    "conditions": 0,
    "All": 1,
    "##comb": 0,
    "##ina": 0,
    "##nt": 3,
    "manipulation": 0,
    "were": 0,
    "performed": 0,
    "according": 0,
    "standard": 0,
    "techniques": 0,
    "utilized": 0,
    "strain": 0,
    "##L": 2,
    "Blue": 0,
    "St": 8,
    "##rata": 0,
    "##gene": 0,
    "J": 0,
    "##F": 0,
    "##y": 2,
    "##15": 0,
    "##11": 0,
    "expressing": 0,
    "FL": 0,
    "##AG": 0,
    "derived": 0,
    "replacement": 0,
    "y": 0,
    "##J": 0,
    "##5": 0,
    "##T": 0,
    "alpha": 0,
    "gal": 0,
    "##7": 0,
    "Delta": 0,
    "102": 0,
    "u": 0,
    "##ra": 0,
    "52": 0,
    "##rp": 0,
    "28": 0,
    "##9": 1,
    "ad": 1,
    "le": 0,
    "##u": 0,
    "112": 0,
    "generous": 0,
    "donated": 0,
    "Mark": 0,
    "Part": 4,
    "##hun": 0,
    "Judith": 0,
    "##ae": 1,
    "##hn": 0,
    "##ing": 3,
    "University": 0,
    "Colorado": 0,
    "Health": 0,
    "Sciences": 0,
    "Center": 0,
    "confirmed": 0,
    "PC": 0,
    "wild": 0,
    "coding": 0,
    "obtained": 0,
    "am": 0,
    "##lification": 0,
    "g": 40,
    "preparation": 0,
    "##K": 0,
    "GA": 0,
    "##80": 0,
    "##RA": 0,
    "mixture": 0,
    "Ta": 0,
    "##q": 0,
    "Fisher": 0,
    "##iot": 0,
    "##ech": 0,
    "##fu": 0,
    "polymer": 0,
    "##ases": 0,
    "prime": 0,
    "G": 7,
    "##CC": 0,
    "##G": 0,
    "##TC": 0,
    "##GA": 0,
    "CT": 0,
    "##AA": 0,
    "##CT": 2,
    "##GC": 0,
    "##A": 0,
    "##TT": 0,
    "upstream": 0,
    "300": 0,
    "downstream": 0,
    "##plified": 0,
    "##AC": 0,
    "##CA": 0,
    "T": 19,
    "result": 0,
    "##ant": 0,
    "did": 0,
    "##eo": 0,
    "##xy": 0,
    "se": 0,
    "##quencing": 0,
    "N": 3,
    "terminal": 0,
    "tags": 0,
    "added": 0,
    "##FL": 0,
    "CC": 0,
    "##AT": 0,
    "AA": 0,
    "##HA": 0,
    "respectively": 0,
    "integration": 0,
    "construct": 0,
    "##lone": 0,
    "##d": 0,
    "into": 0,
    "Y": 0,
    "##I": 1,
    "##21": 0,
    "17": 0,
    "Hi": 0,
    "##nd": 0,
    "##II": 0,
    "restriction": 0,
    "sites": 0,
    "tag": 0,
    "##ged": 0,
    "low": 0,
    "copy": 0,
    "number": 0,
    "##22": 0,
    "made": 0,
    "removal": 0,
    "##pa": 0,
    "fragment": 0,
    "region": 0,
    "followed": 0,
    "##len": 0,
    "##ow": 0,
    "##iga": 0,
    "##tion": 0,
    "attachment": 0,
    "Ba": 4,
    "link": 0,
    "o": 0,
    "##gon": 1,
    "##leo": 1,
    "##tide": 0,
    "Gen": 0,
    "##omi": 0,
    "sequences": 0,
    "subsequent": 0,
    "##ogen": 0,
    "##ous": 0,
    "##ele": 0,
    "achieved": 0,
    "18": 0,
    "generated": 0,
    "##fiction": 0,
    "W": 0,
    "##30": 0,
    "CA": 0,
    "##IN": 0,
    "##DR": 0,
    "ACT": 0,
    "##IP": 0,
    "promoter": 0,
    "manner": 0,
    "##SA": 18,
    "##CF": 0,
    "##BA": 2,
    "##MR": 0,
    "appropriate": 0,
    "position": 0,
    "open": 0,
    "reading": 0,
    "frame": 0,
    "backbone": 0,
    "entire": 0,
    "substituted": 0,
    "genome": 0,
    "place": 0,
    "native": 0,
    "linear": 0,
    "##ph": 0,
    "transformations": 0,
    "protocols": 0,
    "described": 0,
    "elsewhere": 0,
    "19": 0,
    "Con": 0,
    "##fi": 0,
    "##rma": 0,
    "##rified": 0,
    "GT": 0,
    "flanked": 0,
    "deleted": 0,
    "used": 0,
    "Similarly": 0,
    "##pit": 0,
    "##ope": 0,
    "on": 5,
    "Po": 1,
    "##sitive": 0,
    "further": 0,
    "western": 0,
    "analysis": 0,
    "crude": 0,
    "anti": 0,
    "antibodies": 0,
    "soluble": 0,
    "Bo": 11,
    "##eh": 0,
    "##ring": 0,
    "Mann": 0,
    "##heim": 0,
    "Pol": 0,
    "##yr": 0,
    "##ib": 1,
    "##me": 2,
    "isolation": 0,
    "##mes": 0,
    "isolated": 0,
    "combination": 0,
    "Stan": 0,
    "##sfield": 0,
    "20": 0,
    "Maurice": 0,
    "Swan": 0,
    "##son": 0,
    "personal": 0,
    "communication": 0,
    "brief": 0,
    "100": 0,
    "grown": 0,
    "##EP": 0,
    "Hart": 0,
    "##well": 0,
    "synthetic": 0,
    "medium": 0,
    "early": 0,
    "log": 0,
    "phase": 0,
    "##60": 0,
    "0": 0,
    "which": 0,
    "time": 0,
    "##he": 3,
    "##xa": 0,
    "Sigma": 0,
    "directly": 0,
    "final": 0,
    "concentration": 0,
    "micro": 0,
    "##cu": 0,
    "##bate": 0,
    "ice": 0,
    "min": 0,
    "harvested": 0,
    "##gation": 0,
    "4000": 0,
    "Following": 0,
    "wash": 0,
    "##es": 0,
    "water": 0,
    "##ed": 0,
    "##ortex": 0,
    "agitation": 0,
    "equal": 0,
    "volume": 0,
    "glass": 0,
    "beads": 0,
    "buffer": 0,
    "25": 0,
    "Tri": 2,
    "pH": 0,
    "50": 0,
    "KC": 0,
    "30": 0,
    "M": 128,
    "##g": 5,
    "beta": 0,
    "##rca": 0,
    "##pt": 3,
    "##oe": 3,
    "##than": 0,
    "##ol": 3,
    "200": 0,
    "##rot": 0,
    "##oni": 0,
    "PM": 0,
    "##SF": 0,
    "##upe": 0,
    "##64": 0,
    "##ym": 0,
    "##ost": 0,
    "##ati": 0,
    "L": 1,
    "##ate": 0,
    "transferred": 0,
    "clean": 0,
    "##ge": 0,
    "tube": 0,
    "3000": 0,
    "degrees": 0,
    "super": 0,
    "##nat": 0,
    "again": 0,
    "000": 0,
    "then": 0,
    "ass": 0,
    "##ay": 0,
    "absorb": 0,
    "##ance": 0,
    "260": 0,
    "nm": 0,
    "Approximately": 0,
    "##26": 0,
    "units": 0,
    "loaded": 0,
    "onto": 0,
    "45": 0,
    "70": 0,
    "NH": 0,
    "##4": 0,
    "##OA": 0,
    "##rad": 4,
    "##ient": 2,
    "Master": 0,
    "automatic": 0,
    "system": 0,
    "##W": 0,
    "##41": 0,
    "##ti": 0,
    "rotor": 0,
    "Beck": 0,
    "##man": 0,
    "39": 0,
    "collected": 0,
    "Is": 0,
    "##co": 9,
    "##ator": 0,
    "profiles": 0,
    "determined": 0,
    "monitoring": 0,
    "254": 0,
    "controls": 0,
    "sample": 0,
    "before": 0,
    "loading": 0,
    "Where": 0,
    "indicated": 0,
    "addition": 0,
    "One": 0,
    "Pro": 0,
    "##ga": 0,
    "prior": 0,
    "##el": 0,
    "fi": 1,
    "##ltration": 0,
    "120": 0,
    "Pre": 0,
    "Sep": 0,
    "##ha": 0,
    "##ryl": 0,
    "column": 0,
    "Ph": 5,
    "##arma": 0,
    "##cia": 0,
    "cut": 1,
    "off": 0,
    "attached": 0,
    "F": 0,
    "##PL": 0,
    "had": 0,
    "ca": 1,
    "##ted": 0,
    "standards": 0,
    "blue": 0,
    "de": 0,
    "##x": 16,
    "##tra": 0,
    "2000": 0,
    "thy": 0,
    "##rog": 0,
    "##bul": 0,
    "66": 0,
    "##po": 1,
    "##fer": 0,
    "##rit": 0,
    "44": 0,
    "alcohol": 0,
    "##hy": 3,
    "##dr": 0,
    "150": 0,
    "##ov": 20,
    "##ine": 20,
    "serum": 0,
    "album": 0,
    "Ye": 3,
    "##ast": 3,
    "additional": 0,
    "##lar": 0,
    "##ification": 0,
    "passage": 0,
    "through": 0,
    "##inge": 0,
    "tip": 0,
    "filter": 0,
    "##rod": 0,
    "run": 0,
    "over": 0,
    "rate": 0,
    "##age": 0,
    "##nts": 0,
    "Fr": 0,
    "##actions": 0,
    "combined": 0,
    "SD": 0,
    "##cer": 0,
    "di": 0,
    "##thi": 0,
    "##oth": 1,
    "##re": 2,
    "##ito": 1,
    "60": 0,
    "00": 0,
    "br": 0,
    "##phe": 0,
    "analyzed": 0,
    "most": 0,
    "experiments": 0,
    "liter": 0,
    "cultures": 0,
    "washed": 0,
    "twice": 0,
    "##75": 0,
    "75": 0,
    "finally": 0,
    "passed": 0,
    "pre": 0,
    "running": 0,
    "gel": 0,
    "pool": 0,
    "void": 0,
    "total": 0,
    "several": 0,
    "Fi": 0,
    "<": 0,
    "##eptide": 0,
    "D": 3,
    "##Y": 2,
    "This": 0,
    "material": 0,
    "flow": 0,
    "second": 0,
    "extensively": 0,
    "##uted": 0,
    "184": 0,
    "mg": 0,
    "solution": 0,
    "allowed": 0,
    "collection": 0,
    "every": 0,
    "Sam": 0,
    "##ples": 0,
    "last": 0,
    "##uate": 0,
    "Figure": 0,
    "samples": 0,
    "concentrated": 0,
    "PA": 0,
    "##GE": 0,
    "stained": 0,
    "##idal": 0,
    "##25": 0,
    "Co": 2,
    "##oma": 3,
    "##ssie": 0,
    "##cent": 0,
    "##ration": 0,
    "method": 0,
    "##ub": 0,
    "et": 0,
    "al": 0,
    "21": 0,
    "400": 0,
    "met": 0,
    "##han": 0,
    "##lor": 1,
    "##of": 0,
    "##orm": 0,
    "vigorously": 0,
    "discarded": 0,
    "leaving": 0,
    "interface": 0,
    "intact": 0,
    "each": 0,
    "inverted": 0,
    "times": 0,
    "##t": 2,
    "air": 0,
    "dried": 0,
    "##sus": 0,
    "##pen": 0,
    "##ded": 0,
    "x": 0,
    "Western": 0,
    "##rief": 0,
    "mixed": 0,
    "boiled": 0,
    "electro": 0,
    "##ac": 0,
    "##ami": 0,
    "ni": 0,
    "##tro": 0,
    "##cell": 0,
    "##ulos": 0,
    "##io": 0,
    "Ra": 0,
    "fusion": 0,
    "detected": 0,
    "##bation": 0,
    "mouse": 99,
    "mon": 0,
    "##oc": 23,
    "##lon": 0,
    "##al": 0,
    "##body": 0,
    "con": 0,
    "##ju": 0,
    "##gated": 0,
    "sheep": 1,
    "secondary": 0,
    "Am": 0,
    "##ers": 0,
    "##ham": 0,
    "##lut": 0,
    "5000": 0,
    "manufacturer": 0,
    "instructions": 0,
    "EC": 0,
    "exposure": 0,
    "ray": 0,
    "film": 0,
    "Pub": 0,
    "1000": 0,
    "gifts": 0,
    "22": 0,
    "films": 0,
    "scanning": 0,
    "den": 0,
    "##si": 4,
    "##tom": 1,
    "##et": 0,
    "##ry": 0,
    "Molecular": 0,
    "Dynamics": 0,
    "q": 0,
    "##uant": 0,
    "##itated": 0,
    "Image": 0,
    "##Q": 0,
    "software": 0,
    "Col": 0,
    "stain": 0,
    "##ced": 0,
    "##ure": 0,
    "##eu": 0,
    "##hoff": 0,
    "24": 0,
    "stock": 0,
    "prepared": 0,
    "brilliant": 0,
    "250": 0,
    "##mon": 0,
    "##ium": 10,
    "##lf": 0,
    "76": 0,
    "85": 0,
    "##hos": 0,
    "##ori": 0,
    "fixed": 0,
    "ace": 0,
    "##els": 0,
    "##ins": 0,
    "room": 0,
    "temperature": 0,
    "##ain": 0,
    "poured": 0,
    "residual": 0,
    "removed": 0,
    "By": 0,
    "performing": 0,
    "able": 0,
    "detect": 0,
    "ng": 0,
    "lane": 0,
    "Pi": 1,
    "##chia": 1,
    "expression": 0,
    "An": 0,
    "##IS": 0,
    "##6": 0,
    "blunt": 0,
    "##na": 0,
    "##BI": 0,
    "vector": 0,
    "##PI": 0,
    "##vi": 0,
    "##ized": 0,
    "Sal": 1,
    "integrated": 0,
    "High": 0,
    "transform": 0,
    "##ants": 0,
    "selected": 0,
    "initially": 0,
    "his": 0,
    "##dine": 0,
    "def": 0,
    "##icient": 0,
    "selection": 0,
    "increasing": 0,
    "concentrations": 0,
    "##8": 0,
    "US": 0,
    "Biological": 0,
    "##rud": 0,
    "best": 0,
    "f": 0,
    "##fy": 0,
    "##ES": 0,
    "##U": 0,
    "##LT": 0,
    "Express": 0,
    "##ion": 5,
    "created": 0,
    "facilitate": 0,
    "detection": 0,
    "extract": 0,
    "1A": 0,
    "probe": 0,
    "functionality": 0,
    "substitute": 0,
    "modified": 0,
    "ha": 1,
    "##id": 0,
    "tested": 0,
    "##phological": 0,
    "Materials": 0,
    "Method": 0,
    "##B": 0,
    "cases": 0,
    "appeared": 0,
    "##dis": 0,
    "##ui": 0,
    "##sha": 0,
    "##ble": 0,
    "corresponding": 0,
    "shown": 0,
    "negative": 0,
    "control": 0,
    "also": 0,
    "almost": 0,
    "expected": 0,
    "test": 0,
    "ultra": 0,
    "band": 0,
    "dense": 0,
    "consistent": 0,
    "location": 0,
    "80": 0,
    "solid": 0,
    "arrow": 0,
    "convenient": 0,
    "internal": 0,
    "provided": 0,
    "cross": 0,
    "react": 0,
    "ex": 0,
    "##em": 1,
    "migration": 0,
    "pattern": 0,
    "free": 0,
    "appearing": 0,
    "only": 0,
    "upper": 0,
    "determine": 0,
    "whether": 0,
    "truly": 0,
    "reflected": 0,
    "treated": 0,
    "immediately": 0,
    "##ela": 0,
    "##tes": 0,
    "+": 0,
    "cat": 0,
    "##ions": 0,
    "resulting": 0,
    "##sso": 0,
    "##ciation": 0,
    "small": 0,
    "subunit": 0,
    "disappearance": 0,
    "along": 0,
    "marked": 0,
    "increase": 0,
    "abundance": 0,
    "Under": 0,
    "greatest": 0,
    "intensity": 0,
    "signal": 0,
    "Alternatively": 0,
    "inter": 0,
    "##vering": 0,
    "translating": 0,
    "messages": 0,
    "gave": 0,
    "rise": 0,
    "single": 0,
    "Again": 0,
    "shifted": 0,
    "##most": 0,
    "Although": 0,
    "some": 0,
    "larger": 0,
    "caused": 0,
    "diffusion": 0,
    "portion": 0,
    "Character": 0,
    "release": 0,
    "above": 0,
    "instead": 0,
    "##ated": 0,
    "inclusion": 0,
    "un": 0,
    "##tre": 0,
    "confirming": 0,
    "ostensibly": 0,
    "still": 0,
    "indicating": 0,
    "it": 0,
    "remained": 0,
    "limited": 0,
    "resulted": 0,
    "appearance": 0,
    "species": 0,
    "450": 0,
    "visible": 0,
    "extensive": 0,
    "complete": 0,
    "conversion": 0,
    "3D": 0,
    "Se": 0,
    "##quential": 0,
    "alone": 0,
    "arrows": 0,
    "served": 0,
    "##uti": 0,
    "##ng": 0,
    "##omer": 0,
    "##ic": 0,
    "##ize": 0,
    "stability": 0,
    "resistant": 0,
    "panels": 0,
    "##E": 0,
    "However": 0,
    "partially": 0,
    "reduced": 0,
    "remaining": 0,
    "fact": 0,
    "high": 0,
    "salt": 0,
    "suggests": 0,
    "perhaps": 0,
    "if": 0,
    "after": 0,
    "illustrated": 0,
    "higher": 0,
    "##over": 0,
    "completely": 0,
    "abolished": 0,
    "interaction": 0,
    "depend": 0,
    "another": 0,
    "26": 0,
    "opposed": 0,
    "##pot": 0,
    "##hes": 2,
    "non": 0,
    "trans": 0,
    "##lat": 0,
    "##able": 0,
    "predicted": 0,
    "absence": 0,
    "demonstrating": 0,
    "protocol": 0,
    "mock": 0,
    "without": 0,
    "unrelated": 0,
    "##act": 7,
    "##ose": 0,
    "phosphate": 0,
    "##rid": 0,
    "##yl": 7,
    "##ns": 0,
    "lower": 0,
    "panel": 0,
    "neither": 0,
    "case": 0,
    "##ute": 0,
    "no": 0,
    "bands": 0,
    "preparations": 0,
    "procedure": 0,
    "observed": 0,
    "major": 0,
    "55": 0,
    "represent": 0,
    "##fying": 0,
    "bottom": 0,
    "suggested": 0,
    "identify": 0,
    "##cise": 0,
    "sent": 0,
    "Ke": 0,
    "##ck": 0,
    "##chemical": 0,
    "facility": 0,
    "Yale": 0,
    "try": 0,
    "##ptic": 0,
    "dig": 0,
    "##est": 0,
    "##LD": 0,
    "mass": 0,
    "##pect": 0,
    "##try": 1,
    "clearly": 0,
    "confirm": 0,
    "engineered": 0,
    "center": 0,
    "##ution": 0,
    "when": 0,
    "top": 0,
    "No": 0,
    "where": 0,
    "Mon": 0,
    "migrate": 0,
    "under": 0,
    "post": 0,
    "compared": 0,
    "expressed": 0,
    "host": 0,
    "pastor": 0,
    "##his": 2,
    "subjected": 0,
    "Several": 0,
    "##di": 0,
    "##mers": 0,
    "27": 0,
    "Therefore": 0,
    "explored": 0,
    "possibility": 0,
    "might": 0,
    "contain": 0,
    "##fected": 0,
    "encoding": 0,
    "distinct": 0,
    "complement": 0,
    "strongly": 0,
    "does": 0,
    "dim": 0,
    "order": 0,
    "multi": 0,
    "simply": 0,
    "##CU": 0,
    "##SS": 0,
    "##ION": 0,
    "presented": 0,
    "main": 0,
    "points": 0,
    "regarding": 0,
    "bio": 0,
    "associations": 0,
    "exists": 0,
    "likely": 0,
    "member": 0,
    "Interest": 0,
    "##ingly": 0,
    "observe": 0,
    "##lic": 3,
    "Our": 0,
    "since": 0,
    "unlike": 0,
    "amounts": 0,
    "##ter": 1,
    "##gent": 0,
    "There": 0,
    "explanations": 0,
    "disc": 0,
    "##pan": 1,
    "##cy": 0,
    "group": 0,
    "contained": 0,
    "whereas": 0,
    "instability": 0,
    "leading": 0,
    "Second": 0,
    "##par": 0,
    "##hibit": 0,
    "##lea": 0,
    "##ses": 0,
    "reports": 0,
    "29": 0,
    "can": 0,
    "disrupt": 0,
    "past": 0,
    "included": 0,
    "any": 0,
    "disruption": 0,
    "diet": 0,
    "##hyl": 0,
    "##py": 0,
    "##car": 0,
    "##bon": 0,
    "inhibitor": 0,
    "provide": 0,
    "compelling": 0,
    "Since": 0,
    "seems": 0,
    "unlikely": 0,
    "##st": 1,
    "##utive": 0,
    "translation": 0,
    "machinery": 0,
    "##ial": 0,
    "us": 0,
    "idea": 0,
    "Previously": 0,
    "although": 0,
    "targets": 0,
    "indicates": 0,
    "##ade": 0,
    "##ny": 0,
    "##lated": 0,
    "Whether": 0,
    "binds": 0,
    "sets": 0,
    "will": 0,
    "subject": 0,
    "future": 0,
    "originally": 0,
    "screen": 0,
    "suppress": 0,
    "##ors": 0,
    "##feld": 0,
    "induced": 0,
    "secret": 0,
    "##ory": 0,
    "pathway": 0,
    "however": 0,
    "defects": 0,
    "rather": 0,
    "display": 0,
    "notably": 0,
    "It": 0,
    "therefore": 0,
    "capable": 0,
    "functioning": 0,
    "regulate": 0,
    "genes": 0,
    "transcription": 0,
    "Additionally": 0,
    "hybrid": 0,
    "mit": 0,
    "##otic": 0,
    "spin": 0,
    "##dle": 0,
    "apparatus": 0,
    "essential": 0,
    "##ex": 0,
    "##press": 0,
    "Future": 0,
    "address": 0,
    "regulatory": 0,
    "mechanism": 0,
    "connecting": 0,
    "Considering": 0,
    "conclude": 0,
    "consist": 0,
    "cannot": 0,
    "ruled": 0,
    "out": 0,
    "utilizing": 0,
    "versions": 0,
    "self": 0,
    "formal": 0,
    "somehow": 0,
    "prevented": 0,
    "formation": 0,
    "Nonetheless": 0,
    "unusual": 0,
    "physical": 0,
    "property": 0,
    "conclusion": 0,
    "convincing": 0,
    "way": 0,
    "HP": 0,
    "##od": 0,
    "##ulates": 0,
    "cycle": 0,
    "regulator": 0,
    "He": 4,
    "##tone": 0,
    "required": 0,
    "si": 0,
    "##cing": 0,
    "localized": 0,
    "##ice": 0,
    "scattered": 0,
    "##uch": 0,
    "##romatic": 0,
    "##ci": 7,
    "evident": 0,
    "Here": 0,
    "maintenance": 0,
    "active": 0,
    "progression": 0,
    "those": 0,
    "replication": 0,
    "##osis": 0,
    "De": 0,
    "##ple": 0,
    "pro": 0,
    "##life": 0,
    "##rating": 0,
    "linked": 0,
    "chromosome": 0,
    "segregation": 0,
    "##oki": 0,
    "##nes": 0,
    "##pop": 0,
    "##tosis": 0,
    "Aurora": 0,
    "##lation": 0,
    "##rine": 2,
    "altered": 0,
    "supporting": 0,
    "direct": 0,
    "Overall": 0,
    "view": 0,
    "positive": 0,
    "Ch": 1,
    "subdivided": 0,
    "different": 0,
    "compartment": 0,
    "termed": 0,
    "differs": 0,
    "composition": 0,
    "timing": 0,
    "##den": 0,
    "##sation": 0,
    "throughout": 0,
    "ability": 0,
    "silence": 0,
    "placed": 0,
    "adjacent": 0,
    "within": 0,
    "territory": 0,
    "often": 0,
    "effect": 0,
    "var": 0,
    "##ie": 0,
    "##V": 59,
    "organisms": 0,
    "##yte": 0,
    "##ne": 64,
    "showed": 0,
    "distributed": 0,
    "mainly": 0,
    "te": 1,
    "##mer": 1,
    "fourth": 0,
    "individual": 0,
    "arms": 0,
    "Su": 0,
    "##o": 0,
    "organization": 0,
    "##ifier": 0,
    "home": 0,
    "believed": 0,
    "occur": 0,
    "via": 0,
    "tail": 0,
    "partner": 0,
    "shadow": 0,
    "always": 0,
    "especially": 0,
    "features": 0,
    "argue": 0,
    "roles": 0,
    "##pi": 2,
    "regulation": 0,
    "structural": 0,
    "protecting": 0,
    "integrity": 0,
    "##wi": 0,
    "##ssion": 1,
    "##sp": 0,
    "##ens": 0,
    "survival": 0,
    "##gging": 0,
    "##aph": 5,
    "loss": 0,
    "Mu": 3,
    "##tations": 0,
    "late": 0,
    "break": 0,
    "##ages": 0,
    "##mere": 0,
    "frequency": 0,
    "##ull": 0,
    "mice": 140,
    "SUV": 0,
    "##AR": 0,
    "##39": 0,
    "various": 0,
    "dynamics": 0,
    "understood": 0,
    "interference": 0,
    "##i": 0,
    "based": 0,
    "approach": 0,
    "plays": 0,
    "important": 0,
    "phases": 0,
    "show": 0,
    "nearly": 0,
    "require": 0,
    "maintain": 0,
    "include": 0,
    "MC": 0,
    "##Ms": 0,
    "Or": 0,
    "CD": 0,
    "##45": 0,
    "##CE": 0,
    "few": 0,
    "alternative": 0,
    "explanation": 0,
    "routinely": 0,
    "Schneider": 0,
    "##IB": 0,
    "##CO": 0,
    "supplemented": 0,
    "##etal": 0,
    "calf": 9,
    "pen": 0,
    "##ici": 4,
    "##llin": 0,
    "##cin": 0,
    "##amine": 0,
    "Double": 0,
    "stranded": 0,
    "d": 0,
    "##nea": 0,
    "##ling": 0,
    "potassium": 0,
    "##tate": 0,
    "##OH": 0,
    "ma": 0,
    "##gnesium": 0,
    "95": 0,
    "##aker": 0,
    "cool": 0,
    "slowly": 0,
    "detailed": 0,
    "carried": 0,
    "established": 0,
    "seeded": 0,
    "six": 0,
    "dish": 0,
    "106": 0,
    "After": 0,
    "plates": 0,
    "up": 0,
    "days": 0,
    "##ometric": 0,
    "manual": 0,
    "##rd": 0,
    "kit": 0,
    "##ar": 1,
    "##ingen": 0,
    "fed": 0,
    "scraped": 0,
    "measured": 0,
    "FA": 0,
    "##CS": 0,
    "##ali": 0,
    "##bur": 0,
    "Be": 0,
    "##cton": 0,
    "Dickinson": 0,
    "Data": 0,
    "##uest": 0,
    "El": 0,
    "##ec": 1,
    "##nob": 0,
    "##VD": 0,
    "primary": 0,
    "CIA": 0,
    "rabbit": 14,
    "horse": 5,
    "##ish": 4,
    "##ox": 0,
    "##idas": 0,
    "I": 0,
    "Jackson": 0,
    "##mm": 0,
    "##uno": 0,
    "##res": 0,
    "##ear": 0,
    "Laboratories": 0,
    "En": 4,
    "##il": 0,
    "##umi": 0,
    "##10": 0,
    "whole": 0,
    "700": 0,
    "day": 0,
    "against": 0,
    "##lution": 0,
    "Up": 0,
    "##state": 0,
    "arrested": 0,
    "##chi": 0,
    "##cine": 0,
    "comparison": 0,
    "##sin": 0,
    "slides": 0,
    "##abi": 0,
    "##zed": 0,
    "##ton": 0,
    "blocking": 0,
    "PBS": 0,
    "tub": 0,
    "##ulin": 0,
    "##ico": 0,
    "International": 0,
    "Secondary": 0,
    "coupled": 0,
    "Alex": 0,
    "48": 0,
    "54": 0,
    "##bes": 0,
    "Eugene": 0,
    "Oregon": 0,
    "Images": 0,
    "acquired": 0,
    "##fo": 0,
    "##cal": 2,
    "##SM": 0,
    "##51": 0,
    "##scope": 0,
    "Z": 3,
    "##ei": 1,
    "##ss": 0,
    "##ack": 0,
    "images": 0,
    "##MA": 0,
    "program": 0,
    "Media": 0,
    "##net": 0,
    "##ics": 0,
    "Carl": 0,
    "##bad": 0,
    "Anti": 0,
    "##bo": 0,
    "##dies": 0,
    "#": 0,
    "192": 0,
    "187": 0,
    "reaction": 0,
    "approaches": 0,
    "pull": 0,
    "down": 0,
    "##ays": 0,
    "Micro": 0,
    "##arra": 0,
    "Total": 0,
    "depleted": 0,
    "##eas": 0,
    "Qi": 0,
    "label": 0,
    "##ffy": 0,
    "##met": 0,
    "##rix": 0,
    "AN": 0,
    "##O": 2,
    "##VA": 0,
    "assess": 0,
    "confidence": 0,
    "##got": 0,
    "Direct": 0,
    "reverse": 0,
    "##cribed": 0,
    "##rm": 0,
    "##os": 3,
    "##cript": 0,
    "##NA": 0,
    "35": 0,
    "cycles": 0,
    "products": 0,
    "scanned": 0,
    "##ore": 0,
    "separation": 0,
    "Typhoon": 0,
    "##anne": 0,
    "##ified": 0,
    "##cie": 0,
    "##nces": 0,
    "normal": 0,
    "Act": 0,
    "##pp": 0,
    "##lement": 0,
    "##ary": 0,
    "Material": 0,
    "Orlando": 0,
    "modifications": 0,
    "108": 0,
    "##le": 0,
    "Current": 0,
    "Protocol": 0,
    "son": 0,
    "##ica": 1,
    "##ran": 0,
    "range": 0,
    "perform": 0,
    "182": 0,
    "salmon": 0,
    "sperm": 0,
    "##gar": 0,
    "cleared": 0,
    "rotated": 0,
    "overnight": 0,
    "recovered": 0,
    "Low": 0,
    "once": 0,
    "Li": 0,
    "extracted": 0,
    "procedures": 0,
    "Various": 0,
    "tissues": 0,
    "maternal": 0,
    "stages": 0,
    "so": 1,
    "far": 0,
    "##cluded": 0,
    "systematic": 0,
    "line": 0,
    "model": 0,
    "problem": 0,
    "##cripts": 0,
    "see": 0,
    "reduction": 0,
    "already": 0,
    "90": 0,
    "impact": 0,
    "profile": 0,
    "incorporation": 0,
    "act": 0,
    "##ino": 0,
    "##my": 0,
    "decrease": 0,
    "least": 0,
    "fold": 0,
    "greater": 0,
    "##to": 0,
    "ask": 0,
    "changes": 0,
    "next": 0,
    "assessed": 0,
    "global": 0,
    "chip": 0,
    "experiment": 0,
    "independent": 0,
    "alterations": 0,
    "regulated": 0,
    "ranged": 0,
    "cellular": 0,
    "enzymes": 0,
    "##duction": 0,
    "molecules": 0,
    "At": 0,
    "targeted": 0,
    "Among": 0,
    "process": 0,
    "##ive": 0,
    "correct": 0,
    "32": 0,
    "Other": 0,
    "such": 0,
    "origin": 0,
    "recognition": 0,
    "##af": 0,
    "##ef": 0,
    "gamma": 0,
    "Tam": 0,
    "inner": 0,
    "kin": 0,
    "##eto": 1,
    "##chor": 0,
    "assembly": 0,
    "bi": 0,
    "33": 0,
    "check": 0,
    "##point": 0,
    "34": 0,
    "Loss": 0,
    "cause": 0,
    "bridges": 0,
    "extend": 0,
    "separating": 0,
    "groups": 0,
    "semi": 0,
    "quantitative": 0,
    "Collective": 0,
    "indeed": 0,
    "meta": 0,
    "##pha": 2,
    "##se": 1,
    "mid": 0,
    "##zone": 0,
    "kinase": 0,
    "36": 0,
    "passenger": 0,
    "causes": 0,
    "certain": 0,
    "37": 0,
    "raised": 0,
    "##sist": 0,
    "##ent": 0,
    "##dles": 0,
    "##sor": 0,
    "##ganized": 0,
    "showing": 0,
    "alignment": 0,
    "Some": 0,
    "pole": 0,
    "like": 0,
    "##lop": 0,
    "##has": 0,
    "defect": 0,
    "extra": 0,
    "affected": 0,
    "arguing": 0,
    "pathways": 0,
    "possibly": 0,
    "affect": 0,
    "##fold": 0,
    "physically": 0,
    "fragments": 0,
    "precipitation": 0,
    "##sable": 0,
    "elements": 0,
    "element": 0,
    "136": 0,
    "38": 0,
    "previous": 0,
    "attempted": 0,
    "Prime": 0,
    "designed": 0,
    "cover": 0,
    "Gene": 0,
    "mi": 0,
    "##gu": 0,
    "Certain": 0,
    "consequence": 0,
    "others": 0,
    "implicated": 0,
    "initiation": 0,
    "fork": 0,
    "mutation": 0,
    "damage": 0,
    "block": 0,
    "mimic": 0,
    "##loc": 0,
    "##zation": 0,
    "responsible": 0,
    "OR": 0,
    "##Cs": 0,
    "41": 0,
    "42": 0,
    "43": 0,
    "promoting": 0,
    "delivery": 0,
    "contribute": 0,
    "##quent": 0,
    "contributed": 0,
    "supports": 0,
    "lack": 0,
    "implying": 0,
    "employed": 0,
    "##ct": 1,
    "##kar": 0,
    "##yo": 1,
    "##eni": 0,
    "On": 3,
    "hand": 0,
    "consistently": 0,
    "##cies": 0,
    "experimental": 0,
    "systems": 0,
    "note": 0,
    "array": 0,
    "while": 0,
    "larvae": 0,
    "Dam": 0,
    "ID": 0,
    "seem": 0,
    "change": 0,
    "among": 0,
    "stage": 0,
    "##imated": 0,
    "thus": 0,
    "populations": 0,
    "##iating": 0,
    "differentiated": 0,
    "generally": 0,
    "supported": 0,
    "lines": 0,
    "reporter": 0,
    "requires": 0,
    "##ther": 0,
    "repression": 0,
    "31": 0,
    "relieved": 0,
    "46": 0,
    "light": 0,
    "rolled": 0,
    "47": 0,
    "dramatically": 0,
    "##uta": 0,
    "background": 0,
    "49": 0,
    "proposed": 0,
    "51": 0,
    "exact": 0,
    "heat": 0,
    "shock": 0,
    "53": 0,
    "independence": 0,
    "whereby": 0,
    "##UP": 0,
    "##EM": 0,
    "##EN": 0,
    "available": 0,
    "Online": 0,
    "##ructural": 0,
    "##mb": 0,
    "##rane": 0,
    "domains": 0,
    "##tras": 0,
    "Background": 0,
    "##tein": 0,
    "four": 0,
    "loops": 0,
    "short": 0,
    "loop": 0,
    "term": 0,
    "##ini": 0,
    "systematically": 0,
    "Results": 0,
    "##pta": 0,
    "n": 0,
    "occupied": 0,
    "bulk": 0,
    "residues": 0,
    "Al": 3,
    "##hr": 0,
    "##ip": 0,
    "##hat": 0,
    "three": 0,
    "positions": 0,
    "filled": 0,
    "##ines": 0,
    "##ama": 0,
    "residue": 0,
    "Ty": 0,
    "Val": 0,
    "Il": 0,
    "Le": 0,
    "##32": 0,
    "##gg": 0,
    "inside": 0,
    "Model": 0,
    "novel": 0,
    "algorithm": 0,
    "predict": 0,
    "tight": 0,
    "packing": 0,
    "##lice": 0,
    "mapped": 0,
    "##sul": 0,
    "linking": 0,
    "vicinity": 0,
    "##14": 0,
    "##17": 0,
    "diminished": 0,
    "Cy": 1,
    "##lusion": 0,
    "mediated": 0,
    "key": 0,
    "defines": 0,
    "Te": 0,
    "constitute": 0,
    "integral": 0,
    "characteristic": 0,
    "##ally": 0,
    "motifs": 0,
    "bonds": 0,
    "polar": 0,
    "[": 0,
    "]": 0,
    "put": 0,
    "##ative": 0,
    "members": 0,
    "mammals": 0,
    "play": 0,
    "##hesion": 0,
    "processes": 0,
    "activation": 0,
    "signaling": 0,
    "reviewed": 0,
    "##fs": 0,
    "Ma": 3,
    "##mmal": 0,
    "##ian": 0,
    "##her": 0,
    "##rop": 0,
    "##lak": 0,
    "knock": 0,
    "models": 0,
    "majority": 0,
    "very": 0,
    "little": 0,
    "##EL": 0,
    "received": 0,
    "attention": 0,
    "##quence": 0,
    "Q": 0,
    "##RD": 0,
    "194": 0,
    "196": 0,
    "##rin": 0,
    "consequences": 0,
    "dependent": 0,
    "spreading": 0,
    "cable": 0,
    "site": 0,
    "SF": 0,
    "173": 0,
    "175": 0,
    "egg": 0,
    "crystal": 0,
    "five": 0,
    "##lix": 0,
    "relatively": 0,
    "variable": 0,
    "remarkable": 0,
    "growth": 0,
    "factors": 0,
    "receptors": 0,
    "##HC": 0,
    "II": 0,
    "##family": 0,
    "lateral": 0,
    "\"": 0,
    "mild": 0,
    "##j": 0,
    "series": 0,
    "CH": 0,
    "##AP": 0,
    "disrupted": 0,
    "strong": 0,
    "Multi": 0,
    "##rote": 0,
    "called": 0,
    "web": 0,
    "##dom": 0,
    "influenced": 0,
    "palm": 0,
    "##yla": 0,
    "j": 0,
    "##ux": 0,
    "##tam": 0,
    "encompassing": 0,
    "half": 0,
    "part": 0,
    "molecule": 0,
    "information": 0,
    "differential": 0,
    "sensitivity": 0,
    "##ydro": 0,
    "##phobic": 0,
    "Indeed": 0,
    "Thus": 0,
    "candidates": 0,
    "media": 0,
    "importance": 0,
    "lacking": 0,
    "retained": 0,
    "transported": 0,
    "surface": 0,
    "upon": 0,
    "##con": 0,
    "##itution": 0,
    "rest": 0,
    "##runcated": 0,
    "accumulation": 0,
    "judged": 0,
    "inappropriate": 0,
    "##ivity": 0,
    "unpublished": 0,
    "lost": 0,
    "just": 0,
    "crucial": 0,
    "proper": 0,
    "folding": 0,
    "##valent": 0,
    "##ximal": 0,
    "tool": 0,
    "##hibition": 0,
    "##pal": 0,
    "##mit": 0,
    "BP": 0,
    "enabled": 0,
    "demonstration": 0,
    "formed": 0,
    "Go": 0,
    "##gi": 1,
    "fundamental": 0,
    "unit": 0,
    "##agi": 0,
    "occurs": 0,
    "Moreover": 0,
    "map": 0,
    "##eri": 2,
    "focused": 0,
    "##WI": 0,
    "PR": 0,
    "##OT": 0,
    "##an": 0,
    "##k": 0,
    "databases": 0,
    "common": 0,
    "stretches": 0,
    "particular": 0,
    "Det": 0,
    "##ailed": 0,
    "##ogram": 0,
    "full": 0,
    "length": 0,
    "earlier": 0,
    "##not": 0,
    "##ations": 0,
    "database": 0,
    "entries": 0,
    "Manual": 0,
    "adjustments": 0,
    "done": 0,
    "fully": 0,
    "lengths": 0,
    "Two": 0,
    "could": 0,
    "conservation": 0,
    "occurrence": 0,
    "charged": 0,
    "side": 0,
    "chains": 0,
    "doing": 0,
    "consensus": 0,
    "classified": 0,
    "color": 0,
    "code": 0,
    "categories": 0,
    "Met": 0,
    "Ser": 0,
    "When": 0,
    "types": 0,
    "given": 0,
    "dual": 0,
    "prevalence": 0,
    "##stein": 0,
    "separately": 0,
    "target": 0,
    "considered": 0,
    "##line": 0,
    "inspection": 0,
    "reveals": 0,
    "repeating": 0,
    "promote": 0,
    "coil": 0,
    "spanning": 0,
    "special": 0,
    "they": 0,
    "##hel": 0,
    "##ical": 0,
    "contacts": 0,
    "creating": 0,
    "knob": 0,
    "holes": 0,
    "instance": 0,
    "zipper": 0,
    "forming": 0,
    "hydrogen": 0,
    "bond": 0,
    "across": 0,
    "numbers": 0,
    "67": 0,
    "74": 0,
    "81": 0,
    "occupy": 0,
    "63": 0,
    "77": 0,
    "Another": 0,
    "occupies": 0,
    "3rd": 0,
    "consists": 0,
    "##ln": 0,
    "lacks": 0,
    "##20": 0,
    "exceptions": 0,
    "displayed": 0,
    "wheel": 0,
    "diagram": 0,
    "Analysis": 0,
    "occupying": 0,
    "designated": 0,
    "prominent": 0,
    "feature": 0,
    "##th": 1,
    "##olo": 0,
    "##gs": 2,
    "gain": 0,
    "insight": 0,
    "##iability": 0,
    "substitution": 0,
    "##ies": 0,
    "tends": 0,
    "typically": 0,
    "plot": 0,
    "##29": 0,
    "##28": 0,
    "ridges": 0,
    "flank": 0,
    "groove": 0,
    "overall": 0,
    "landmark": 0,
    "exclusively": 0,
    "together": 0,
    "forms": 0,
    "face": 0,
    "Re": 0,
    "##due": 0,
    "preceded": 0,
    "chiefly": 0,
    "##70": 0,
    "Extreme": 0,
    "falls": 0,
    "absolutely": 0,
    "65": 0,
    "79": 0,
    "frequently": 0,
    "near": 0,
    "78": 0,
    "provides": 0,
    "branched": 0,
    "Less": 0,
    "tend": 0,
    "shows": 0,
    "less": 0,
    "209": 0,
    "##rg": 0,
    "His": 0,
    "##tation": 0,
    "nature": 0,
    "prompted": 0,
    "mutations": 0,
    "des": 0,
    "##ta": 0,
    "##bil": 0,
    "connected": 0,
    "green": 0,
    "fluorescent": 0,
    "##FP": 0,
    "##sar": 0,
    "##com": 0,
    "mostly": 0,
    "##ular": 0,
    "aggregate": 0,
    "##mark": 0,
    "##ably": 0,
    "double": 0,
    "proportion": 0,
    "respective": 0,
    "being": 0,
    "somewhat": 0,
    "pronounced": 0,
    "##18": 0,
    "Also": 0,
    "identical": 0,
    "interpret": 0,
    "indication": 0,
    "##gating": 0,
    "retain": 0,
    "conform": 0,
    "##tri": 1,
    "##guin": 0,
    "##gly": 0,
    "weak": 0,
    "tendency": 0,
    "enhance": 0,
    "##oi": 0,
    "suppressed": 0,
    "use": 0,
    "summary": 0,
    "fused": 0,
    "failed": 0,
    "##diction": 0,
    "modelling": 0,
    "##cut": 0,
    "##top": 0,
    "##arity": 0,
    "axis": 0,
    "potential": 0,
    "modeled": 0,
    "considers": 0,
    "Monte": 0,
    "Carlo": 0,
    "simulated": 0,
    "details": 0,
    "Specifically": 0,
    "scored": 0,
    "silent": 0,
    "effects": 0,
    "left": 0,
    "handed": 0,
    "crossing": 0,
    "angle": 0,
    "app": 0,
    "##ition": 0,
    "follows": 0,
    "pairs": 0,
    "van": 0,
    "der": 0,
    "##aal": 0,
    "contact": 0,
    "close": 0,
    "carbon": 0,
    "oxygen": 0,
    "tighter": 0,
    "distances": 0,
    "interacting": 0,
    "##rro": 0,
    "##bor": 0,
    "apparently": 0,
    "complementary": 0,
    "box": 0,
    "com": 0,
    "##sat": 0,
    "chain": 0,
    "ne": 0,
    "##cess": 0,
    "##itate": 0,
    "Likewise": 0,
    "find": 0,
    "pack": 0,
    "favor": 0,
    "Role": 0,
    "simple": 0,
    "efficient": 0,
    "hours": 0,
    "expose": 0,
    "normally": 0,
    "methods": 0,
    "##pont": 0,
    "##aneous": 0,
    "oxidation": 0,
    "condition": 0,
    "preserves": 0,
    "sit": 0,
    "##olin": 0,
    "th": 0,
    "##iol": 0,
    "reactive": 0,
    "agents": 0,
    "defined": 0,
    "##TM": 0,
    "##MB": 0,
    "produce": 0,
    "essence": 0,
    "zero": 0,
    "##des": 0,
    "##dicative": 0,
    "proximity": 0,
    "chemical": 0,
    "space": 0,
    "arm": 0,
    "efficiency": 0,
    "necessarily": 0,
    "advantages": 0,
    "##ability": 0,
    "##va": 0,
    "##bility": 0,
    "long": 0,
    "red": 0,
    "##ible": 0,
    "strategy": 0,
    "##genesis": 0,
    "contributing": 0,
    "avoid": 0,
    "Important": 0,
    "Single": 0,
    "constructed": 0,
    "faces": 0,
    "simultaneously": 0,
    "replaced": 0,
    "having": 0,
    "achieve": 0,
    "agent": 0,
    "covering": 0,
    "turn": 0,
    "beginning": 0,
    "##ff": 0,
    "##used": 0,
    "signs": 0,
    "highest": 0,
    "carrying": 0,
    "enhanced": 0,
    "elevated": 0,
    "produced": 0,
    "much": 0,
    "Similar": 0,
    "comparable": 0,
    "##tag": 0,
    "places": 0,
    "pair": 0,
    "toward": 0,
    "away": 0,
    "Critical": 0,
    "indirectly": 0,
    "decreased": 0,
    "located": 0,
    "tightly": 0,
    "packed": 0,
    "closer": 0,
    "modest": 0,
    "##lative": 0,
    "##rrel": 10,
    "##eric": 0,
    "examined": 0,
    "virtually": 0,
    "triple": 0,
    "context": 0,
    "findings": 0,
    "involving": 0,
    "probably": 0,
    "representing": 0,
    "random": 0,
    "collision": 0,
    "events": 0,
    "Disc": 0,
    "##uss": 0,
    "identifying": 0,
    "87": 0,
    "218": 0,
    "219": 0,
    "slightly": 0,
    "better": 0,
    "respect": 0,
    "trim": 0,
    "neighboring": 0,
    "Third": 0,
    "mapping": 0,
    "firmly": 0,
    "establishes": 0,
    "Fourth": 0,
    "preliminary": 0,
    "expansion": 0,
    "##serve": 0,
    "consecutive": 0,
    "structures": 0,
    "acids": 0,
    "frequent": 0,
    "theme": 0,
    "buried": 0,
    "interfaces": 0,
    "Due": 0,
    "flat": 0,
    "##tropy": 0,
    "er": 0,
    "promotes": 0,
    "parallel": 0,
    "allow": 0,
    "right": 0,
    "examples": 0,
    "##hage": 2,
    "M1": 0,
    "coat": 0,
    "receptor": 0,
    "##rb": 0,
    "separated": 0,
    "channel": 0,
    "classic": 0,
    "drive": 0,
    "recent": 0,
    "addressing": 0,
    "issue": 0,
    "Lea": 0,
    "##alle": 0,
    "orientation": 0,
    "includes": 0,
    "seven": 0,
    "periodic": 0,
    "involvement": 0,
    "reminiscent": 0,
    "predominant": 0,
    "allowing": 0,
    "##cs": 0,
    "paired": 0,
    "##43": 0,
    "##36": 0,
    "##ilitating": 0,
    "##27": 0,
    "Polar": 0,
    "##go": 0,
    "56": 0,
    "58": 0,
    "##uan": 0,
    "59": 0,
    "environment": 0,
    "though": 0,
    "commonly": 0,
    "disease": 0,
    "Because": 0,
    "##static": 0,
    "##ently": 0,
    "##uri": 64,
    "##ously": 0,
    "migrated": 0,
    "slower": 0,
    "maintaining": 0,
    "tempting": 0,
    "##pec": 0,
    "##ulate": 0,
    "pocket": 0,
    "lined": 0,
    "##cco": 0,
    "##oda": 0,
    "access": 0,
    "transfer": 0,
    "Understanding": 0,
    "##wai": 0,
    "investigation": 0,
    "ample": 0,
    "literature": 0,
    "lead": 0,
    "##sse": 0,
    "path": 0,
    "##gic": 0,
    "61": 0,
    "plausible": 0,
    "Inter": 0,
    "Di": 1,
    "##su": 0,
    "##bu": 0,
    "##ni": 0,
    "##v": 0,
    "##Z": 0,
    "62": 0,
    "##us": 16,
    "##ty": 0,
    "##cho": 3,
    "64": 0,
    "##yna": 0,
    "##ob": 9,
    "##vin": 0,
    "useful": 0,
    "trapping": 0,
    "treating": 0,
    "precise": 0,
    "##tions": 0,
    "positioned": 0,
    "participate": 0,
    "yield": 0,
    "Rather": 0,
    "propose": 0,
    "discussed": 0,
    "##ational": 0,
    "reduces": 0,
    "reduce": 0,
    "even": 0,
    "themselves": 0,
    "would": 0,
    "give": 0,
    "flexibility": 0,
    "limit": 0,
    "Location": 0,
    "border": 0,
    "make": 0,
    "accessible": 0,
    "##eva": 0,
    "Multiple": 0,
    "promoted": 0,
    "capture": 0,
    "existence": 0,
    "interfere": 0,
    "Their": 0,
    "relative": 0,
    "##ficiency": 0,
    "reflects": 0,
    "Such": 0,
    "should": 0,
    "understanding": 0,
    "assumes": 0,
    "##mot": 0,
    "##pic": 0,
    "help": 0,
    "bring": 0,
    "properties": 0,
    "##dy": 0,
    "##lino": 0,
    "68": 0,
    "spaced": 0,
    "apart": 0,
    "poses": 0,
    "module": 0,
    "If": 0,
    "replacing": 0,
    "contributions": 0,
    "Much": 0,
    "contributor": 0,
    "diversity": 0,
    "Structure": 0,
    "ongoing": 0,
    "providing": 0,
    "Key": 0,
    "apply": 0,
    "##luk": 0,
    "Milwaukee": 0,
    "##eim": 0,
    "##ide": 0,
    "NE": 0,
    "##dric": 0,
    "##h": 0,
    "Louis": 0,
    "male": 0,
    "##im": 0,
    "##ido": 1,
    "##eth": 0,
    "##ane": 2,
    "##but": 0,
    "purchased": 0,
    "Pierce": 0,
    "End": 0,
    "Rock": 0,
    "##ford": 0,
    "IL": 0,
    "cocktail": 0,
    "Fu": 0,
    "##NE": 0,
    "##fect": 0,
    "Roche": 0,
    "Indianapolis": 0,
    "Rest": 0,
    "New": 0,
    "England": 0,
    "##ab": 0,
    "Beverly": 0,
    "chemicals": 0,
    "Scientific": 0,
    "Pitt": 0,
    "##sburg": 0,
    "Lo": 0,
    "designation": 0,
    "accession": 0,
    "names": 0,
    "summarized": 0,
    "Table": 0,
    "segments": 0,
    "guide": 0,
    "##mler": 0,
    "aligned": 0,
    "manually": 0,
    "reference": 0,
    "point": 0,
    "##EG": 0,
    "##tech": 0,
    "Alto": 0,
    "83": 0,
    "introduce": 0,
    "##don": 0,
    "changed": 0,
    "there": 0,
    "minimize": 0,
    "inherent": 0,
    "influence": 0,
    "introduced": 0,
    "##genic": 0,
    "##sco": 0,
    "anal": 0,
    "flu": 0,
    "captured": 0,
    "Spot": 0,
    "camera": 0,
    "##ag": 0,
    "##nos": 0,
    "Instruments": 0,
    "Sterling": 0,
    "Heights": 0,
    "MI": 0,
    "Nik": 0,
    "Eclipse": 0,
    "starting": 0,
    "continuing": 0,
    "Cross": 0,
    "##bat": 0,
    "##BS": 0,
    "##pes": 0,
    "##SO": 0,
    "##bi": 1,
    "##function": 0,
    "fresh": 0,
    "##MS": 0,
    "minutes": 0,
    "clarified": 0,
    "##iq": 0,
    "##uo": 0,
    "##oa": 0,
    "##ce": 5,
    "cold": 0,
    "##lub": 0,
    "##ilized": 0,
    "reducing": 0,
    "HC": 0,
    "Marseille": 0,
    "France": 0,
    "Band": 0,
    "##ool": 0,
    "##yn": 0,
    "Frederick": 0,
    "MD": 0,
    "atomic": 0,
    "69": 0,
    "ideal": 0,
    "##12": 0,
    "##35": 0,
    "dock": 0,
    "##ogo": 0,
    "##nal": 0,
    "parameters": 0,
    "rigid": 0,
    "body": 0,
    "translations": 0,
    "rotation": 0,
    "During": 0,
    "probability": 0,
    "changing": 0,
    "parameter": 0,
    "values": 0,
    "energy": 0,
    "calculated": 0,
    "AM": 0,
    "##BE": 0,
    "united": 0,
    "atom": 0,
    "force": 0,
    "field": 0,
    "Ku": 0,
    "##hl": 0,
    "Baker": 0,
    "71": 0,
    "favorable": 0,
    "energies": 0,
    "select": 0,
    "scoring": 0,
    "##xi": 0,
    "##mize": 0,
    "##ltz": 0,
    "##mann": 0,
    "mini": 0,
    "##mizing": 0,
    "Each": 0,
    "consisted": 0,
    "steps": 0,
    "##nent": 0,
    "decay": 0,
    "Ten": 0,
    "restrict": 0,
    "search": 0,
    "area": 0,
    "Para": 0,
    "##meter": 0,
    "restricted": 0,
    "##viation": 0,
    "mean": 0,
    "value": 0,
    "repeated": 0,
    "optimization": 0,
    "rot": 0,
    "##ame": 0,
    "op": 0,
    "##mized": 0,
    "Dead": 0,
    "Eli": 0,
    "##mination": 0,
    "72": 0,
    "##ver": 0,
    "root": 0,
    "squared": 0,
    "score": 0,
    "List": 0,
    "abbreviation": 0,
    "Author": 0,
    "comparisons": 0,
    "drafted": 0,
    "manuscript": 0,
    "##GM": 0,
    "built": 0,
    "supervised": 0,
    "coordinated": 0,
    "##ivation": 0,
    "CS": 0,
    "##MD": 0,
    "sq": 0,
    "##ua": 0,
    "##mous": 0,
    "car": 0,
    "##23": 1,
    "cancer": 0,
    "##ons": 0,
    "poor": 0,
    "##gno": 0,
    "##sis": 0,
    "##shi": 0,
    "Domain": 0,
    "candidate": 0,
    "rare": 0,
    "##eli": 0,
    "effort": 0,
    "mechanisms": 0,
    "head": 0,
    "neck": 0,
    "Only": 0,
    "express": 0,
    "terminate": 0,
    "initiate": 0,
    "cry": 0,
    "None": 0,
    "##code": 0,
    "exhibit": 0,
    "island": 0,
    "surrounding": 0,
    "##ating": 0,
    "patterns": 0,
    "modification": 0,
    "preceding": 0,
    "din": 0,
    "Take": 0,
    "serve": 0,
    "focus": 0,
    "tumor": 0,
    "tumors": 0,
    "##ero": 0,
    "##ges": 0,
    "##tive": 0,
    "tract": 0,
    "##vary": 0,
    "bladder": 0,
    "consisting": 0,
    "spread": 0,
    "##base": 0,
    "##codes": 0,
    "brain": 0,
    "founding": 0,
    "evolution": 0,
    "##arily": 0,
    "whose": 0,
    "thought": 0,
    "##igan": 0,
    "Tu": 1,
    "##mor": 0,
    "inactivated": 0,
    "genetically": 0,
    "##tically": 0,
    "Schmidt": 0,
    "Richter": 0,
    "##hol": 0,
    "##nick": 0,
    "Non": 0,
    "##sen": 0,
    "junction": 0,
    "enough": 0,
    "about": 0,
    "accurately": 0,
    "##ense": 0,
    "must": 0,
    "operating": 0,
    "paper": 0,
    "correlated": 0,
    "##ong": 0,
    "##lies": 0,
    "incorrect": 0,
    "dem": 0,
    "##ige": 0,
    "##lich": 0,
    "##NS": 0,
    "Preliminary": 0,
    "UP": 0,
    "##CI": 0,
    "initiated": 0,
    "embedded": 0,
    "UC": 0,
    "##SC": 0,
    "browser": 0,
    "surveyed": 0,
    "Combined": 0,
    "##ulf": 1,
    "CO": 0,
    "##BR": 0,
    "technique": 0,
    "Xi": 0,
    "Lai": 0,
    "##med": 0,
    "nine": 0,
    "resolution": 0,
    "##fit": 0,
    "converted": 0,
    "advantage": 0,
    "determination": 0,
    "state": 0,
    "basis": 0,
    "specimens": 0,
    "tissue": 0,
    "expresses": 0,
    "125": 0,
    "displays": 0,
    "heavily": 0,
    "##zy": 0,
    "##gos": 0,
    "distinguish": 0,
    "possibilities": 0,
    "currently": 0,
    "ranging": 0,
    "considerably": 0,
    "strictly": 0,
    "ranges": 0,
    "accompanied": 0,
    "failure": 0,
    "consider": 0,
    "survey": 0,
    "battery": 0,
    "OK": 0,
    "##ER": 2,
    "immortal": 0,
    "##formed": 0,
    "oral": 0,
    "##era": 0,
    "##tino": 0,
    "phenomenon": 0,
    "Southern": 0,
    "intro": 0,
    "spans": 0,
    "resolve": 0,
    "para": 0,
    "##dox": 0,
    "amount": 0,
    "decline": 0,
    "sharply": 0,
    "##ibly": 0,
    "examines": 0,
    "progressively": 0,
    "nor": 0,
    "explain": 0,
    "why": 0,
    "produces": 0,
    "discrete": 0,
    "classes": 0,
    "average": 0,
    "und": 0,
    "##ete": 2,
    "##cted": 0,
    "##cription": 0,
    "Subsequent": 0,
    "fine": 0,
    "scale": 0,
    "frames": 0,
    "##ft": 0,
    "nonsense": 0,
    "product": 0,
    "##position": 0,
    "##type": 0,
    "prevent": 0,
    "them": 0,
    "internally": 0,
    "readily": 0,
    "sized": 0,
    "reflect": 0,
    "##matic": 0,
    "Ex": 0,
    "exhibited": 0,
    "04": 0,
    "Like": 0,
    "middle": 0,
    "chosen": 0,
    "Northern": 0,
    "comparatively": 0,
    "smaller": 0,
    "##roper": 0,
    "retention": 0,
    "##onic": 0,
    "fault": 0,
    "broad": 0,
    "##ness": 0,
    "incomplete": 0,
    "RA": 0,
    "base": 0,
    "forward": 0,
    "##19": 0,
    "##gt": 0,
    "##tta": 0,
    "entered": 0,
    "##bank": 0,
    "##34": 0,
    "activate": 0,
    "sometimes": 0,
    "restored": 0,
    "##ace": 0,
    "##lase": 0,
    "09": 0,
    "##zac": 0,
    "##za": 0,
    "combinations": 0,
    "drugs": 0,
    "treatments": 0,
    "##ivate": 0,
    "robust": 0,
    "toxic": 0,
    "shed": 0,
    "interpretation": 0,
    "Treatment": 0,
    "doses": 0,
    "##az": 0,
    "undergoing": 0,
    "drug": 0,
    "growing": 0,
    "developed": 0,
    "yielded": 0,
    "faithful": 0,
    "Of": 0,
    "Even": 0,
    "start": 0,
    "production": 0,
    "premature": 0,
    "terminated": 0,
    "degree": 0,
    "complexity": 0,
    "395": 0,
    "##fference": 0,
    "arise": 0,
    "variations": 0,
    "considerable": 0,
    "compare": 0,
    "##ual": 0,
    "##itative": 0,
    "indicator": 0,
    "critical": 0,
    "segment": 0,
    "discovered": 0,
    "##ivated": 0,
    "##bol": 0,
    "Not": 0,
    "respond": 0,
    "naturally": 0,
    "activated": 0,
    "general": 0,
    "repetitive": 0,
    "dominant": 0,
    "ram": 0,
    "finding": 0,
    "solely": 0,
    "##rone": 0,
    "##erative": 0,
    "actually": 0,
    "Abe": 0,
    "##rra": 0,
    "##delity": 0,
    "variety": 0,
    "inability": 0,
    "evidenced": 0,
    "successful": 0,
    "eliminating": 0,
    "fruit": 0,
    "##ful": 0,
    "areas": 0,
    "explore": 0,
    "##37": 0,
    "##38": 0,
    "##65": 0,
    "Thomas": 0,
    "Carey": 0,
    "Michigan": 0,
    "##ud": 0,
    "##rak": 0,
    "##en": 0,
    "V": 1,
    "##je": 0,
    "Un": 0,
    "##ivers": 0,
    "##ita": 0,
    "Theresa": 0,
    "White": 0,
    "##side": 0,
    "Pittsburgh": 0,
    "Susan": 0,
    "James": 0,
    "##hein": 0,
    "##wald": 0,
    "Harvard": 0,
    "Normal": 0,
    "##vu": 0,
    "##ala": 0,
    "##PP": 0,
    "anonymous": 0,
    "approval": 0,
    "Washington": 0,
    "Human": 19,
    "Studies": 0,
    "Committee": 0,
    "Culture": 0,
    "##iss": 0,
    "##ue": 0,
    "##qua": 0,
    "##ME": 0,
    "Mix": 0,
    "##ture": 0,
    "##hit": 0,
    "##taker": 0,
    "##ssent": 0,
    "##cid": 0,
    "Upper": 0,
    "specimen": 0,
    "adapted": 0,
    "##da": 0,
    "Watson": 0,
    "kits": 0,
    "##IA": 2,
    "##amp": 0,
    "Blood": 0,
    "Mini": 0,
    "manufacturers": 0,
    "synthesis": 0,
    "strand": 0,
    "extended": 0,
    "Super": 0,
    "III": 0,
    "Per": 0,
    "##kin": 0,
    "Elmer": 0,
    "480": 0,
    "Applied": 0,
    "##tem": 0,
    "97": 0,
    "##00": 0,
    "thermal": 0,
    "unless": 0,
    "otherwise": 0,
    "noted": 0,
    "##dium": 0,
    "Doc": 0,
    "imaging": 0,
    "station": 0,
    "##ior": 0,
    "##ad": 0,
    "570": 0,
    "Green": 0,
    "##24": 0,
    "##tat": 0,
    "##aa": 0,
    "##cca": 0,
    "##lify": 0,
    "132": 0,
    "##gat": 0,
    "##tt": 0,
    "Cal": 1,
    "##cula": 0,
    "##mp": 0,
    "version": 0,
    "Microsoft": 0,
    "##cel": 0,
    "##itation": 0,
    "du": 0,
    "##plicate": 0,
    "reactions": 0,
    "Mo": 0,
    "##fication": 0,
    "exception": 0,
    "Inc": 0,
    "##uba": 0,
    "94": 0,
    "Christina": 0,
    "Men": 1,
    "##ke": 0,
    "Paul": 0,
    "Good": 0,
    "##fell": 0,
    "##mote": 0,
    "nest": 0,
    "listed": 0,
    "extends": 0,
    "111": 0,
    "174": 0,
    "extremely": 0,
    "rich": 0,
    "round": 0,
    "template": 0,
    "package": 0,
    "Macintosh": 0,
    "##ests": 0,
    "##at": 0,
    "101": 0,
    "##ested": 0,
    "Digest": 0,
    "visual": 0,
    "video": 0,
    "works": 0,
    "proved": 0,
    "AT": 0,
    "bent": 0,
    "configuration": 0,
    "Extra": 0,
    "##ction": 0,
    "columns": 0,
    "inserted": 0,
    "##CR": 0,
    "TO": 0,
    "##PO": 0,
    "colonies": 0,
    "Plus": 0,
    "##ata": 0,
    "##aca": 0,
    "##att": 0,
    "Big": 0,
    "##ye": 0,
    "##inator": 0,
    "mix": 0,
    "dissolved": 0,
    "mm": 0,
    "dishes": 0,
    "105": 0,
    "switched": 0,
    "daily": 0,
    "##bb": 0,
    "&": 0,
    "##eting": 0,
    "interests": 0,
    "author": 0,
    "declare": 0,
    "competing": 0,
    "parts": 0,
    "SBS": 0,
    "participated": 0,
    "writing": 0,
    "##ma": 2,
    "patients": 233,
    "systemic": 0,
    "##cle": 0,
    "##rosis": 0,
    "System": 0,
    "SS": 0,
    "auto": 0,
    "disorder": 0,
    "connect": 0,
    "widespread": 0,
    "vascular": 0,
    "lesions": 0,
    "##bro": 0,
    "Little": 0,
    "hem": 0,
    "##atic": 0,
    "##bri": 0,
    "disco": 0,
    "##rda": 1,
    "verify": 0,
    "##bot": 0,
    "plasma": 0,
    "subjects": 0,
    "matched": 0,
    "age": 0,
    "sex": 0,
    "environmental": 0,
    "habit": 0,
    "discussion": 0,
    "healthy": 0,
    "geometric": 0,
    "interval": 0,
    "significantly": 0,
    "vs": 0,
    "229": 0,
    "228": 0,
    "231": 0,
    "subset": 0,
    "differences": 0,
    "##use": 0,
    "substantially": 0,
    "correlation": 0,
    "##anti": 0,
    "##rea": 0,
    "##mentation": 0,
    "nail": 0,
    "##cap": 0,
    "##illa": 0,
    "##ros": 0,
    "##copic": 0,
    "pulmonary": 0,
    "reflecting": 0,
    "##sca": 0,
    "##pose": 0,
    "complications": 0,
    "##as": 0,
    "##pas": 0,
    "episodes": 0,
    "##per": 3,
    "##fusion": 0,
    "injury": 0,
    "radical": 0,
    "onset": 0,
    "affects": 0,
    "art": 0,
    "##eries": 0,
    "cap": 0,
    "##ries": 0,
    "causing": 0,
    "blood": 0,
    "##che": 0,
    "##mia": 0,
    "typical": 0,
    "clinical": 0,
    "manifest": 0,
    "unique": 0,
    "yet": 0,
    "##usive": 0,
    "##clusive": 0,
    "controversial": 0,
    "investigations": 0,
    "##coa": 0,
    "##lant": 0,
    "reporting": 0,
    "depressed": 0,
    "basal": 0,
    "stimulate": 0,
    "skin": 0,
    "##min": 0,
    "##iva": 0,
    "##tor": 0,
    "##PA": 0,
    "##bin": 0,
    "highlight": 0,
    "##air": 0,
    "##phate": 0,
    "generation": 0,
    "Conversely": 0,
    "Ce": 0,
    "##rini": 0,
    "##lysis": 0,
    "impaired": 0,
    "breakdown": 0,
    "proven": 0,
    "diagnostic": 0,
    "evaluation": 0,
    "disorders": 0,
    "reliable": 0,
    "marker": 0,
    "superior": 0,
    "measurement": 0,
    "helpful": 0,
    "preventing": 0,
    "patient": 44,
    "investigate": 0,
    "##ales": 0,
    "population": 0,
    "males": 0,
    "females": 0,
    "years": 0,
    "who": 0,
    "fulfilled": 0,
    "American": 0,
    "##uma": 0,
    "##tism": 0,
    "Association": 0,
    "criteria": 0,
    "diagnosis": 0,
    "recruited": 0,
    "hospital": 0,
    "personnel": 0,
    "morning": 0,
    "fast": 0,
    "research": 0,
    "principles": 0,
    "Declaration": 0,
    "Helsinki": 0,
    "informed": 0,
    "consent": 0,
    "testing": 0,
    "individuals": 0,
    "silicon": 0,
    "vacuum": 0,
    "tubes": 0,
    "sodium": 0,
    "##rate": 0,
    "Oxford": 0,
    "UK": 0,
    "gently": 0,
    "1500": 0,
    "stored": 0,
    "until": 0,
    "employing": 0,
    "rapid": 0,
    "automated": 0,
    "enzyme": 0,
    "##bent": 0,
    "##ana": 0,
    "##zer": 0,
    "##erie": 0,
    "Marc": 0,
    "##ile": 5,
    "Ana": 0,
    "##tical": 0,
    "##cision": 0,
    "terms": 0,
    "coefficient": 0,
    "variation": 0,
    "quoted": 0,
    "Sign": 0,
    "##ific": 0,
    "##ari": 0,
    "##metric": 0,
    "tests": 0,
    "Student": 0,
    "Pearson": 0,
    "statistical": 0,
    "set": 0,
    "05": 0,
    "285": 0,
    "evaluated": 0,
    "European": 0,
    "##ler": 1,
    "##ode": 0,
    "Study": 0,
    "Group": 0,
    "inactive": 0,
    "02": 0,
    "table": 0,
    "Rod": 0,
    "##nan": 0,
    "forced": 0,
    "vital": 0,
    "capacity": 0,
    "##VC": 0,
    "##tain": 0,
    "##ger": 0,
    "##esis": 0,
    "##gio": 0,
    "##agu": 0,
    "raise": 0,
    "risk": 0,
    "peculiar": 0,
    "claimed": 0,
    "balance": 0,
    "vessel": 0,
    "pat": 0,
    "##ency": 0,
    "degradation": 0,
    "occurring": 0,
    "wide": 0,
    "weights": 0,
    "recognized": 0,
    "card": 0,
    "##iovascular": 0,
    "##ologies": 0,
    "Accordingly": 0,
    "##lia": 0,
    "##bly": 0,
    "initial": 0,
    "screening": 0,
    "suspected": 0,
    "enables": 0,
    "valid": 0,
    "rule": 0,
    "variance": 0,
    "occasionally": 0,
    "original": 0,
    "innovative": 0,
    "##yper": 0,
    "conceived": 0,
    "design": 0,
    "coordination": 0,
    "helped": 0,
    "draft": 0,
    "##LS": 0,
    "read": 0,
    "approved": 0,
    "processing": 0,
    "##pe": 0,
    "nucleus": 0,
    "##lus": 0,
    "A1": 0,
    "A2": 0,
    "northern": 0,
    "steady": 0,
    "precursor": 0,
    "##ulse": 0,
    "chase": 0,
    "hence": 0,
    "activities": 0,
    "takes": 0,
    "specialized": 0,
    "##nu": 0,
    "external": 0,
    "ET": 0,
    "IT": 0,
    "goes": 0,
    "generate": 0,
    "mature": 0,
    "##ved": 0,
    "processed": 0,
    "subsequently": 0,
    "##SB": 0,
    "Both": 0,
    "##SL": 0,
    "intermediate": 0,
    "course": 0,
    "assembled": 0,
    "needs": 0,
    "acting": 0,
    "modify": 0,
    "playing": 0,
    "divided": 0,
    "AC": 0,
    "MR": 18,
    "belongs": 0,
    "pseudo": 0,
    "##vage": 0,
    "Essential": 0,
    "Nuclear": 0,
    "##cha": 2,
    "##ride": 0,
    "OS": 0,
    "report": 0,
    "necessary": 0,
    "derivatives": 0,
    "dip": 0,
    "except": 0,
    "RS": 0,
    "##rain": 0,
    "##46": 0,
    "CE": 0,
    "##48": 0,
    "integrating": 0,
    "CW": 0,
    "##13": 0,
    "##using": 0,
    "Tan": 0,
    "##ST": 0,
    "##UN": 0,
    "##100": 0,
    "NO": 0,
    "transforming": 0,
    "supplied": 0,
    "##RS": 0,
    "##42": 0,
    "name": 0,
    "gift": 0,
    "William": 0,
    "Len": 0,
    "##nar": 0,
    "##z": 0,
    "##31": 0,
    "create": 0,
    "##US": 0,
    "terminus": 0,
    "##ba": 7,
    "BC": 0,
    "Research": 0,
    "##tics": 0,
    "AD": 0,
    "GP": 0,
    "##EF": 0,
    "152": 0,
    "vectors": 0,
    "Random": 0,
    "introducing": 0,
    "##UT": 0,
    "AG": 0,
    "##TP": 0,
    "transformed": 0,
    "gap": 0,
    "##ped": 0,
    "replica": 0,
    "plate": 0,
    "##onies": 0,
    "picked": 0,
    "##via": 0,
    "temperatures": 0,
    "knew": 0,
    "effectiveness": 0,
    "good": 0,
    "They": 0,
    "named": 0,
    "Selection": 0,
    "remove": 0,
    "##PD": 0,
    "broken": 0,
    "frozen": 0,
    "liquid": 0,
    "layered": 0,
    "w": 0,
    "IS": 0,
    "UV": 0,
    "John": 0,
    "Ari": 0,
    "Florida": 0,
    "##aines": 0,
    "##ville": 0,
    "Texas": 0,
    "don": 2,
    "##key": 2,
    "Lab": 0,
    "taken": 0,
    "equipped": 0,
    "##am": 0,
    "pulse": 0,
    "reached": 0,
    "labeled": 0,
    "chased": 0,
    "hot": 0,
    "##ylon": 0,
    "spray": 0,
    "##NC": 0,
    "Du": 0,
    "Pont": 0,
    "exposed": 0,
    "##YP": 0,
    "Five": 0,
    "##gram": 0,
    "##uring": 0,
    "##eta": 0,
    "##be": 0,
    "ATP": 0,
    "##mage": 0,
    "screens": 0,
    "GAA": 0,
    "##bing": 0,
    "IP": 0,
    "tenth": 0,
    "lanes": 0,
    "##ially": 0,
    "La": 0,
    "Warner": 0,
    "specified": 0,
    "Construction": 0,
    "Then": 0,
    "grow": 0,
    "attempt": 0,
    "Flow": 0,
    "##mis": 0,
    "##sive": 0,
    "my": 1,
    "expand": 0,
    "sole": 0,
    "source": 0,
    "##pressed": 0,
    "Growth": 0,
    "observation": 0,
    "With": 0,
    "weaker": 0,
    "surprisingly": 0,
    "##some": 0,
    "dramatic": 0,
    "peak": 0,
    "shift": 0,
    "preferred": 0,
    "rapidly": 0,
    "##rac": 0,
    "lowered": 0,
    "define": 0,
    "radio": 0,
    "##bel": 0,
    "accumulated": 0,
    "sizes": 0,
    "numerous": 0,
    "Additional": 0,
    "origins": 0,
    "producing": 0,
    "theory": 0,
    "greatly": 0,
    "difference": 0,
    "au": 0,
    "##reus": 0,
    "calm": 0,
    "grew": 0,
    "##cts": 0,
    "U2": 0,
    "checked": 0,
    "substrate": 0,
    "##pia": 0,
    "substrates": 0,
    "##aris": 0,
    "Ho": 1,
    "306": 0,
    "lacked": 0,
    "163": 0,
    "##last": 0,
    "131": 0,
    "encoded": 0,
    "##curate": 0,
    "Search": 0,
    "Arab": 1,
    "##psis": 1,
    "##alia": 0,
    "shared": 0,
    "interesting": 0,
    "connection": 0,
    "deficiency": 0,
    "Further": 0,
    "unstable": 0,
    "ones": 0,
    "involves": 0,
    "Recently": 0,
    "ours": 0,
    "##33": 0,
    "So": 1,
    "Very": 0,
    "Grand": 0,
    "published": 0,
    "90s": 0,
    "particle": 0,
    "agreement": 0,
    "Sur": 0,
    "##rising": 0,
    "none": 0,
    "export": 0,
    "later": 0,
    "discovery": 0,
    "library": 0,
    "actual": 0,
    "learn": 0,
    "Pie": 0,
    "##ste": 1,
    "##oto": 0,
    "surgery": 0,
    "experiences": 0,
    "new": 0,
    "spinal": 0,
    "nerve": 0,
    "feared": 0,
    "##cilla": 0,
    "saw": 0,
    "Oral": 0,
    "surgeon": 0,
    "started": 0,
    "newly": 0,
    "##sound": 0,
    "bone": 0,
    "scalp": 0,
    "##mie": 0,
    "kHz": 0,
    "mineral": 0,
    "spa": 0,
    "soft": 0,
    "experience": 0,
    "##dic": 0,
    "correction": 0,
    "5th": 0,
    "##rger": 0,
    "Devi": 0,
    "##ron": 0,
    "Italy": 0,
    "usual": 0,
    "follow": 0,
    "year": 0,
    "vibration": 0,
    "needed": 0,
    "operation": 0,
    "longer": 0,
    "Bone": 0,
    "healing": 0,
    "##uro": 0,
    "##vas": 0,
    "disturbance": 0,
    "curved": 0,
    "cutting": 0,
    "opportunity": 0,
    "device": 0,
    "selective": 0,
    "cuts": 0,
    "feel": 0,
    "great": 0,
    "usually": 0,
    "varied": 0,
    "nerves": 0,
    "pose": 0,
    "problems": 0,
    "conjunction": 0,
    "##gni": 0,
    "sight": 0,
    "wearing": 0,
    "glasses": 0,
    "reason": 0,
    "moved": 0,
    "pie": 0,
    "##rical": 0,
    "instrument": 0,
    "Effect": 0,
    "French": 0,
    "##sts": 0,
    "Jean": 0,
    "Marie": 0,
    "mentioned": 0,
    "1880": 0,
    "crystals": 0,
    "electrical": 0,
    "current": 0,
    "mechanical": 0,
    "pressure": 0,
    "handle": 0,
    "hammer": 0,
    "movement": 0,
    "movements": 0,
    "depending": 0,
    "insert": 0,
    "amplitude": 0,
    "210": 0,
    "##eur": 2,
    "##ova": 0,
    "Depending": 0,
    "strength": 0,
    "blade": 0,
    "geometry": 0,
    "##ulator": 0,
    "power": 0,
    "cooling": 0,
    "pump": 0,
    "working": 0,
    "automatically": 0,
    "physiological": 0,
    "cost": 0,
    "USD": 0,
    "costs": 0,
    "dollars": 0,
    "old": 0,
    "worker": 0,
    "suffered": 0,
    "fracture": 0,
    "fifth": 0,
    "finger": 0,
    "angular": 0,
    "regional": 0,
    "##hesia": 0,
    "longitudinal": 0,
    "##tens": 0,
    "digit": 0,
    "radial": 0,
    "##um": 1,
    "opened": 0,
    "wedge": 0,
    "Instead": 0,
    "traditional": 0,
    "sharp": 0,
    "hardened": 0,
    "coated": 0,
    "##nn": 0,
    "boost": 0,
    "burst": 0,
    "corrected": 0,
    "##nium": 0,
    "hole": 0,
    "screw": 0,
    "##losure": 0,
    "wound": 0,
    "layers": 0,
    "10th": 0,
    "##oper": 0,
    "edges": 0,
    "edge": 0,
    "need": 0,
    "split": 0,
    "##ise": 0,
    "danger": 0,
    "disturbing": 0,
    "practical": 0,
    "operations": 0,
    "##fie": 0,
    "##ott": 0,
    "mentions": 0,
    "overcome": 0,
    "piece": 0,
    "desired": 0,
    "##ede": 0,
    "experienced": 0,
    "directions": 0,
    "exchange": 0,
    "##lana": 0,
    "object": 0,
    "something": 0,
    "mention": 0,
    "slow": 0,
    "seconds": 0,
    "agree": 0,
    "optimal": 0,
    "surge": 0,
    "bones": 0,
    "friendly": 0,
    "allows": 0,
    "minimal": 0,
    "invasive": 0,
    "##traction": 0,
    "strip": 0,
    "##ping": 0,
    "saves": 0,
    "aim": 0,
    "bony": 0,
    "consolidation": 0,
    "smooth": 0,
    "duration": 0,
    "sick": 0,
    "leave": 0,
    "weeks": 0,
    "recovery": 0,
    "period": 0,
    "regained": 0,
    "satisfied": 0,
    "avoided": 0,
    "DJ": 0,
    "application": 0,
    "wrote": 0,
    "publication": 0,
    "played": 0,
    "technical": 0,
    "aspects": 0,
    "review": 0,
    "chief": 0,
    "##sent": 0,
    "obtain": 0,
    "written": 0,
    "history": 0,
    "accessed": 0,
    "cluster": 0,
    "Three": 0,
    "eight": 0,
    "appropriately": 0,
    "##ging": 0,
    "similarities": 0,
    "varies": 0,
    "closely": 0,
    "related": 0,
    "pan": 0,
    "##cre": 0,
    "lineage": 0,
    "evolutionary": 0,
    "constraints": 0,
    "divers": 0,
    "implications": 0,
    "FF": 0,
    "1997": 0,
    "Press": 0,
    "Vol": 0,
    "Dean": 0,
    "Bat": 0,
    "##ten": 0,
    "Kimberly": 0,
    "Dyer": 0,
    "Joseph": 0,
    "Dom": 0,
    "##ach": 0,
    "##ows": 0,
    "Helen": 0,
    "Rosenberg": 0,
    "*": 0,
    "Laboratory": 0,
    "Host": 0,
    "Defense": 0,
    "Building": 0,
    "Room": 0,
    "National": 0,
    "Institute": 0,
    "##gy": 0,
    "##ious": 0,
    "Disease": 0,
    "Institutes": 0,
    "900": 0,
    "Pike": 0,
    "Beth": 0,
    "208": 0,
    "USA": 0,
    "##ceived": 0,
    "August": 0,
    "Rev": 0,
    "##ised": 0,
    "##ept": 0,
    "September": 0,
    "##01": 0,
    "ABS": 0,
    "##lass": 0,
    "##iated": 0,
    "`": 0,
    "prototype": 0,
    "distinctive": 0,
    "Pan": 0,
    "##xin": 0,
    "Us": 5,
    "liver": 0,
    "Ang": 0,
    "##pical": 0,
    "obscure": 0,
    "Larson": 0,
    "##EA": 0,
    "##phism": 0,
    "Together": 0,
    "##ola": 0,
    "##blast": 0,
    "ACC": 0,
    "AAA": 0,
    "156": 0,
    "148": 0,
    "whom": 0,
    "correspondence": 0,
    "addressed": 0,
    "Tel": 0,
    "301": 0,
    "91": 0,
    "##ax": 0,
    "Em": 0,
    "##ail": 0,
    "@": 0,
    "go": 0,
    "Present": 0,
    "addresses": 0,
    "Duke": 0,
    "School": 0,
    "Medicine": 0,
    "Durham": 0,
    "NC": 0,
    "Department": 0,
    "##ediatric": 0,
    "State": 0,
    "York": 0,
    "Syracuse": 0,
    "NY": 0,
    "Ali": 0,
    "##gn": 0,
    "Region": 0,
    "enclosed": 0,
    "boxes": 0,
    "##los": 0,
    "shade": 0,
    "##TF": 0,
    "##IT": 0,
    "Wisconsin": 0,
    "Computer": 0,
    "San": 0,
    "Diego": 0,
    "directional": 0,
    "Walker": 0,
    "likewise": 0,
    "##box": 0,
    "##bell": 0,
    "_": 0,
    "1994": 0,
    "121": 0,
    "Den": 0,
    "depicting": 0,
    "relationships": 0,
    "##PR": 0,
    "##w": 0,
    "##AN": 2,
    "##ED": 0,
    "##EC": 0,
    "kidney": 0,
    "##nk": 0,
    "##culate": 0,
    "##lect": 0,
    "##DE": 0,
    "##RT": 0,
    "assistance": 0,
    "##que": 0,
    "##nch": 3,
    "Code": 0,
    "Corporation": 0,
    "programs": 0,
    "##weight": 0,
    "arithmetic": 0,
    "pairing": 0,
    "57": 0,
    "Value": 0,
    "percent": 0,
    "row": 0,
    "bold": 0,
    "##face": 0,
    "##alytic": 0,
    "stop": 0,
    "destruction": 0,
    "decreasing": 0,
    "Relations": 0,
    "##hips": 0,
    "diver": 0,
    "subgroup": 0,
    "vary": 0,
    "charge": 0,
    "toxicity": 0,
    "branches": 0,
    "represents": 0,
    "##icular": 0,
    "faint": 0,
    "varying": 0,
    "lung": 0,
    "skeletal": 0,
    "muscle": 0,
    "##iscovered": 0,
    "Same": 0,
    "##hip": 0,
    "denote": 0,
    "##erne": 0,
    "stands": 0,
    "distinguished": 0,
    "##logies": 0,
    "emerged": 0,
    "##plication": 0,
    "occurred": 0,
    "seminal": 0,
    "match": 0,
    "stand": 0,
    "overwhelming": 0,
    "unidentified": 0,
    "Perhaps": 0,
    "question": 0,
    "devoted": 0,
    "##ifying": 0,
    "clusters": 0,
    "evolving": 0,
    "##rima": 0,
    "##ivable": 0,
    "defense": 0,
    "##vir": 0,
    "##OW": 0,
    "##LE": 0,
    "##NT": 0,
    "thank": 0,
    "Ji": 0,
    "##zhi": 0,
    "Zhang": 0,
    "discussions": 0,
    "Harry": 0,
    "Male": 0,
    "##all": 0,
    "##port": 3,
    "laboratory": 0,
    "Howard": 0,
    "Hughes": 0,
    "Medical": 0,
    "Scholar": 0,
    "##ess": 0,
    "Rio": 0,
    "eds": 0,
    "Academic": 0,
    "##rre": 0,
    "##ntino": 0,
    "Let": 0,
    "404": 0,
    "##int": 0,
    "##ema": 0,
    "##uke": 0,
    "##lman": 0,
    "Cars": 0,
    "##ria": 3,
    "##fa": 0,
    "Palm": 0,
    "##ieri": 0,
    "1995": 0,
    "##vo": 0,
    "850": 0,
    "##hima": 0,
    "##rato": 0,
    "Tad": 0,
    "##saki": 0,
    "Sen": 0,
    "Ya": 0,
    "##mada": 0,
    "##cker": 0,
    "1993": 0,
    "##ku": 0,
    "##ls": 0,
    "biological": 0,
    "CR": 0,
    "Boca": 0,
    "Rat": 2,
    "1988": 0,
    "comprehensive": 0,
    "scientific": 0,
    "medical": 0,
    "##teen": 0,
    "##wa": 0,
    "##rita": 0,
    "Oh": 0,
    "##rie": 0,
    "##yama": 0,
    "##eve": 0,
    "##kker": 0,
    "##litz": 0,
    "##chemistry": 0,
    "Tucker": 0,
    "161": 0,
    "Valle": 0,
    "Ad": 0,
    "234": 0,
    "##roi": 0,
    "##anu": 0,
    "Nat": 0,
    "167": 0,
    "168": 0,
    "##awa": 0,
    "Ko": 0,
    "##ka": 0,
    "##phy": 0,
    "126": 0,
    "##90": 0,
    "1996": 0,
    "350": 0,
    "Olson": 0,
    "Mad": 0,
    "##ich": 0,
    "Lee": 0,
    "93": 0,
    "123": 0,
    "##jima": 0,
    "##yi": 0,
    "Ham": 0,
    "##ada": 0,
    "Reddy": 0,
    "Ka": 0,
    "##kan": 0,
    "##aga": 1,
    "1985": 0,
    "82": 0,
    "##ur": 1,
    "1991": 0,
    "Fund": 0,
    "##ament": 0,
    "##als": 0,
    "Evolution": 0,
    "Sin": 0,
    "##auer": 0,
    "Associates": 0,
    "Sunderland": 0,
    "270": 0,
    "215": 0,
    "##44": 0,
    "Kat": 0,
    "Sand": 0,
    "##ki": 0,
    "##zawa": 0,
    "104": 0,
    "Viola": 0,
    "Russo": 0,
    "275": 0,
    "Tiffany": 0,
    "Gonzalez": 0,
    "Nature": 0,
    "223": 0,
    "##uk": 0,
    "213": 0,
    "##ogical": 0,
    "characterization": 0,
    "##yan": 2,
    "##erial": 2,
    "metal": 0,
    "##one": 0,
    "Tech": 0,
    "##ques": 0,
    "bacterial": 0,
    "involve": 0,
    "##ography": 0,
    "performance": 0,
    "##LC": 0,
    "quantities": 0,
    "salts": 0,
    "induce": 0,
    "Expo": 0,
    "##sure": 0,
    "former": 0,
    "metals": 0,
    "simultaneous": 0,
    "induction": 0,
    "##eria": 1,
    "basic": 0,
    "Environmental": 0,
    "##spective": 0,
    "pp": 0,
    "1986": 0,
    "Chemical": 0,
    "##ano": 0,
    "##cter": 7,
    "Metal": 0,
    "Robert": 0,
    "Olaf": 0,
    "Introduction": 0,
    "heavy": 0,
    "##asis": 0,
    "arrangements": 0,
    "investigated": 0,
    "113": 0,
    "world": 0,
    "exist": 0,
    "##yotes": 0,
    "##stant": 0,
    "intended": 0,
    "sum": 0,
    "##mar": 0,
    "emphasis": 0,
    "sources": 0,
    "##ographic": 0,
    "tech": 0,
    "##biology": 0,
    "Victoria": 0,
    "British": 0,
    "Columbia": 0,
    "V8": 0,
    "Canada": 0,
    "##rdi": 1,
    "##ir": 0,
    "##cum": 1,
    "##vent": 0,
    "assumptions": 0,
    "##ass": 0,
    "wave": 0,
    "height": 0,
    "##IG": 0,
    "##UR": 0,
    "Different": 0,
    "Wave": 0,
    "heights": 0,
    "tan": 0,
    "figure": 0,
    "##LA": 0,
    "##FS": 0,
    "##balt": 0,
    "##mine": 0,
    "versus": 0,
    "responses": 0,
    "exceeding": 0,
    "detail": 0,
    "particularly": 0,
    "##out": 0,
    "recommended": 0,
    "compensate": 0,
    "today": 0,
    "absolute": 0,
    "commercially": 0,
    "adequate": 0,
    "evaluate": 0,
    "take": 0,
    "i": 0,
    "na": 0,
    "##les": 0,
    "Standard": 0,
    "curve": 0,
    "tall": 0,
    "##ione": 0,
    "vol": 0,
    "##qui": 0,
    "##yclic": 0,
    "scan": 0,
    "303": 0,
    "static": 0,
    "mercury": 0,
    "drop": 0,
    "hanging": 0,
    "mode": 0,
    "cm": 0,
    "dotted": 0,
    "equilibrium": 0,
    "trace": 0,
    "Ada": 0,
    "##pted": 0,
    "Si": 1,
    "easily": 0,
    "managed": 0,
    "##uration": 0,
    "care": 0,
    "losses": 0,
    "cop": 0,
    "adjustment": 0,
    "density": 0,
    "utility": 0,
    "analyze": 0,
    "beyond": 0,
    "latter": 0,
    "assessing": 0,
    "##iation": 0,
    "tertiary": 0,
    "##action": 0,
    "Number": 0,
    "##had": 2,
    "applied": 0,
    "Time": 0,
    "##erse": 0,
    "prop": 0,
    "##thy": 0,
    "##lam": 0,
    "##ril": 0,
    "organic": 0,
    "##lue": 0,
    "monitored": 0,
    "AU": 0,
    "##LL": 0,
    "##EI": 0,
    "##yne": 2,
    "maintained": 0,
    "axe": 0,
    "##erated": 0,
    "280": 0,
    "?": 0,
    "109": 0,
    "##lide": 0,
    "coincide": 0,
    "MW": 0,
    "##vio": 0,
    "##let": 0,
    "absorbing": 0,
    "undertaken": 0,
    "DE": 0,
    "focusing": 0,
    "maximum": 0,
    "attained": 0,
    "##gra": 0,
    "Four": 0,
    "resolved": 0,
    "peaks": 0,
    "Peak": 0,
    "##sol": 0,
    "##vable": 0,
    "ramp": 0,
    "##istic": 0,
    "measure": 0,
    "73": 0,
    "compositions": 0,
    "Near": 0,
    "integer": 0,
    "##rab": 0,
    "##MP": 0,
    "##mium": 1,
    "chloride": 0,
    "zinc": 0,
    "introduction": 0,
    "##sumption": 0,
    "potent": 0,
    "Twice": 0,
    "synthesized": 0,
    "copper": 0,
    "Recent": 0,
    "resistance": 0,
    "exclusion": 0,
    "hatch": 0,
    "bar": 2,
    "##lora": 0,
    "Control": 0,
    "##marked": 0,
    "bars": 0,
    "intervals": 0,
    "thereafter": 0,
    "assumption": 0,
    "##ia": 12,
    "DC": 0,
    "DS": 0,
    "##ued": 0,
    "EA": 0,
    "##HT": 0,
    "CP": 0,
    "SK": 0,
    "##tracted": 0,
    "burden": 0,
    "successive": 0,
    "transfers": 0,
    "dropped": 0,
    "acquisition": 0,
    "event": 0,
    "explained": 0,
    "substantial": 0,
    "compares": 0,
    "TX": 0,
    "rarely": 0,
    "crab": 1,
    "##rass": 0,
    "uncommon": 0,
    "situated": 0,
    "interest": 0,
    "completion": 0,
    "opening": 0,
    "##raphic": 0,
    "arrangement": 0,
    "assessment": 0,
    "##stituted": 0,
    "presently": 0,
    "underway": 0,
    "grateful": 0,
    "acknowledge": 0,
    "financial": 0,
    "Australian": 0,
    "Marine": 0,
    "Science": 0,
    "Engineering": 0,
    "Council": 0,
    "Excellent": 0,
    "Kiel": 0,
    "##land": 0,
    "Nord": 0,
    "##berg": 0,
    "Ed": 0,
    "##irk": 0,
    "##user": 0,
    "Verlag": 0,
    "Basel": 0,
    "1979": 0,
    "kinetic": 0,
    "256": 0,
    "1981": 0,
    "##test": 0,
    "##inal": 0,
    "parent": 0,
    "##eral": 0,
    "enter": 0,
    "controlled": 0,
    "##ut": 0,
    "1983": 0,
    "##arte": 0,
    "##och": 0,
    "##ronic": 0,
    "##ho": 1,
    "##hal": 0,
    "Ki": 0,
    "1984": 0,
    "##rch": 0,
    "257": 0,
    "242": 0,
    "1982": 0,
    "##vos": 0,
    "Arm": 0,
    "##vert": 0,
    "##eb": 0,
    "243": 0,
    "Abel": 0,
    "characteristics": 0,
    "##ding": 0,
    "##un": 0,
    "89": 0,
    "##ya": 0,
    "149": 0,
    "1980": 0,
    "##bla": 0,
    "dropping": 0,
    "ka": 0,
    "##monia": 0,
    "solutions": 0,
    "Czech": 0,
    "128": 0,
    "1933": 0,
    "que": 0,
    "##nce": 0,
    "308": 0,
    "##uli": 0,
    "##ties": 0,
    "administration": 0,
    "ben": 0,
    "##yre": 0,
    "##ogenic": 0,
    "incidence": 0,
    "##licity": 0,
    "##gna": 3,
    "##ncy": 0,
    "shortened": 0,
    "administered": 0,
    "weakened": 0,
    "##gnant": 0,
    "receiving": 0,
    "##mental": 0,
    "Car": 0,
    "##lta": 0,
    "Administration": 0,
    "Benz": 0,
    "Mi": 3,
    "Yan": 0,
    "##ko": 0,
    "##ern": 0,
    "##iche": 0,
    "##nko": 0,
    "Numerous": 0,
    "enhancing": 0,
    "weakening": 0,
    "poll": 0,
    "##mulating": 0,
    "nitrogen": 0,
    "oxide": 0,
    "sulfur": 0,
    "dioxide": 0,
    "blast": 0,
    "action": 0,
    "respiratory": 0,
    "##estive": 0,
    "forest": 0,
    "rat": 26,
    "dose": 0,
    "MP": 0,
    "compounds": 0,
    "presents": 0,
    "Ukrainian": 0,
    "Kiev": 0,
    "Ukraine": 0,
    "##dress": 0,
    "##print": 0,
    "requests": 0,
    "Pop": 0,
    "##ren": 1,
    "253": 0,
    "ambient": 0,
    "industrial": 0,
    "chemistry": 0,
    "oil": 0,
    "shale": 0,
    "industries": 0,
    "conducted": 0,
    "female": 0,
    "weighing": 0,
    "Animals": 0,
    "week": 0,
    "needle": 0,
    "sold": 0,
    "##ered": 0,
    "olive": 0,
    "##lene": 0,
    "ta": 0,
    "index": 0,
    "animal": 0,
    "bearing": 0,
    "animals": 0,
    "recorded": 0,
    "month": 0,
    "trial": 0,
    "neo": 0,
    "##ms": 1,
    "began": 0,
    "emerge": 0,
    "killed": 0,
    "##hala": 0,
    "die": 0,
    "spontaneous": 0,
    "lasted": 0,
    "1st": 0,
    "AL": 0,
    "stomach": 0,
    "##sten": 0,
    "##osa": 0,
    "diameter": 0,
    "Organ": 0,
    "##sed": 0,
    "neutral": 0,
    "routine": 0,
    "##logical": 0,
    "##scopic": 0,
    "Most": 0,
    "##kov": 0,
    "##oy": 0,
    "##ign": 0,
    "##ap": 0,
    "##illo": 0,
    "##mas": 0,
    "##ening": 0,
    "hundred": 0,
    "Short": 0,
    "died": 0,
    "survived": 0,
    "##lip": 0,
    "##sta": 0,
    "lungs": 0,
    "sign": 0,
    "##ifies": 0,
    "Besides": 0,
    "##ities": 0,
    "##rr": 0,
    "vegetation": 0,
    "cu": 1,
    "aggressive": 0,
    "Many": 0,
    "Scheme": 0,
    "regime": 0,
    "Stage": 0,
    "Groups": 0,
    "Sub": 0,
    "##stance": 0,
    "applications": 0,
    "Order": 0,
    "substances": 0,
    "Ben": 0,
    "Mali": 0,
    "86": 0,
    "##RC": 0,
    "##SI": 0,
    "OF": 0,
    "##OL": 0,
    "##pate": 0,
    "abdominal": 0,
    "wall": 0,
    "##psy": 0,
    "##gement": 0,
    "##rc": 0,
    "##ulous": 0,
    "white": 0,
    "superficial": 0,
    "##lite": 0,
    "##rated": 0,
    "masses": 0,
    "##hered": 0,
    "##ery": 0,
    "inflammation": 0,
    "es": 0,
    "entrance": 0,
    "Over": 0,
    "folds": 0,
    "##ll": 0,
    "##nosis": 0,
    "##rative": 0,
    "##lastic": 0,
    "thick": 0,
    "##ened": 0,
    "merged": 0,
    "cavity": 0,
    "##lt": 0,
    "##hm": 0,
    "damaged": 0,
    "##ja": 0,
    "##cos": 0,
    "erosion": 0,
    "fewer": 0,
    "prevailed": 0,
    "Neo": 0,
    "relate": 0,
    "penetration": 0,
    "alter": 0,
    "##biotic": 0,
    "##cation": 0,
    "##hem": 0,
    "##quin": 0,
    "##hic": 0,
    "months": 0,
    "natural": 0,
    "frontier": 0,
    "torn": 0,
    "opinion": 0,
    "explains": 0,
    "trials": 0,
    "##city": 0,
    "##mper": 0,
    "##gression": 0,
    "##du": 0,
    "##cible": 0,
    "damages": 0,
    "metabolic": 0,
    "decreases": 0,
    "##mini": 0,
    "##stered": 0,
    "effective": 0,
    "##ffe": 0,
    "##ctive": 0,
    "undoubtedly": 0,
    "##mount": 0,
    "Bingham": 0,
    "##alk": 0,
    "threshold": 0,
    "Arch": 0,
    "1969": 0,
    "Gold": 0,
    "##sch": 0,
    "##dt": 0,
    "Katz": 0,
    "Van": 0,
    "##uren": 0,
    "##so": 0,
    "Cancer": 0,
    "84": 0,
    "1973": 0,
    "Kaufman": 0,
    "Madison": 0,
    "##ira": 1,
    "##tors": 0,
    "Syrian": 1,
    "golden": 0,
    "##ters": 0,
    "Proceedings": 0,
    "##tory": 0,
    "Seattle": 0,
    "WA": 0,
    "1974": 0,
    "##san": 0,
    "Fe": 0,
    "##rrer": 0,
    "139": 0,
    "##fe": 1,
    "##iff": 0,
    "Investigation": 0,
    "pollution": 0,
    "man": 3,
    "VII": 0,
    "##kt": 0,
    "##site": 0,
    "##bt": 0,
    "158": 0,
    "##lag": 0,
    "Je": 0,
    "##rack": 0,
    "Weeks": 0,
    "##ben": 0,
    "ant": 2,
    "##hra": 2,
    "##cene": 0,
    "Top": 0,
    "Martin": 0,
    "Net": 0,
    "315": 0,
    "321": 0,
    "##tsky": 0,
    "##oro": 0,
    "##nin": 0,
    "Sol": 0,
    "##dra": 0,
    "intake": 0,
    "Russian": 0,
    "##rl": 0,
    "##jan": 0,
    "##ky": 0,
    "##ovsky": 0,
    "##sh": 0,
    "##bit": 0,
    "##ig": 0,
    "1972": 0,
    "And": 0,
    "##rian": 0,
    "Bull": 0,
    "##ks": 0,
    "##ree": 0,
    "##gie": 0,
    "##dor": 0,
    "1977": 0,
    "Las": 0,
    "##ner": 0,
    "Drew": 0,
    "Hanna": 0,
    "Gill": 0,
    "##bert": 0,
    "Atomic": 0,
    "Energy": 0,
    "Commission": 0,
    "Symposium": 0,
    "Series": 0,
    "1970": 0,
    "Oak": 0,
    "Ridge": 0,
    "##burg": 0,
    "322": 0,
    "Experimental": 0,
    "Path": 0,
    "183": 0,
    "1971": 0,
    "##rene": 0,
    "organ": 0,
    "rats": 57,
    "##kka": 0,
    "189": 0,
    "203": 0,
    "##vor": 0,
    "atmospheric": 0,
    "Handbook": 0,
    "##ygiene": 0,
    "##mos": 2,
    "##pheric": 0,
    "Air": 0,
    "Bush": 0,
    "##tu": 0,
    "Moscow": 0,
    "1976": 0,
    "organism": 0,
    "##nica": 0,
    "tobacco": 2,
    "Coca": 0,
    "124": 0,
    "Watt": 0,
    "##enberg": 0,
    "##cci": 0,
    "Lam": 0,
    "##olic": 0,
    "##lasia": 0,
    "##ski": 0,
    "Mir": 0,
    "Yu": 0,
    "##ols": 0,
    "Estonian": 0,
    "oils": 0,
    "##spect": 0,
    "177": 0,
    "178": 0,
    "##ube": 0,
    "##ritz": 0,
    "##tr": 0,
    "96": 0,
    "Problems": 0,
    "Prevention": 0,
    "Poll": 0,
    "Environment": 0,
    "Tallinn": 0,
    "##gus": 0,
    "##shin": 0,
    "##kh": 1,
    "##jun": 0,
    "##eld": 0,
    "Comparative": 0,
    "Conference": 0,
    "##rgent": 0,
    "Dec": 0,
    "##rease": 0,
    "1968": 0,
    "202": 0,
    "possessing": 0,
    "stance": 0,
    "Man": 3,
    "Budapest": 0,
    "##tl": 0,
    "##its": 0,
    "##kaya": 0,
    "##arate": 0,
    "fly": 0,
    "thin": 0,
    "layer": 0,
    "1965": 0,
    "##sto": 0,
    "##vet": 0,
    "##sky": 0,
    "##hold": 0,
    "##ak": 0,
    "About": 0,
    "setting": 0,
    "##pool": 0,
    "Ash": 0,
    "##kha": 0,
    "1954": 0,
    "Wei": 0,
    "##nstein": 0,
    "prevention": 0,
    "114": 0,
    "##rk": 0,
    "##ulo": 0,
    "##hor": 0,
    "relevance": 0,
    "promotion": 0,
    "##chan": 0,
    "##isms": 0,
    "Effects": 0,
    "London": 0,
    "##aki": 0,
    "##sm": 0,
    "##imating": 0,
    "Risk": 0,
    "##ou": 0,
    "Butler": 0,
    "##OP": 0,
    "155": 0,
    "180": 0,
    "##ru": 0,
    "##ption": 0,
    "##skaya": 0,
    "energetic": 0,
    "##cating": 0,
    "4th": 0,
    "Congress": 0,
    "##cology": 0,
    "##pation": 0,
    "Sofia": 0,
    "##zel": 0,
    "##ura": 0,
    "Luck": 0,
    "##pole": 0,
    "tails": 0,
    "137": 0,
    "1960": 0,
    "She": 0,
    "##rem": 1,
    "##tis": 2,
    "Zoo": 0,
    "##guchi": 0,
    "regeneration": 0,
    "##gua": 0,
    "limb": 0,
    "adult": 0,
    "##ymph": 0,
    "##lator": 0,
    "##orms": 0,
    "##up": 0,
    "##ato": 0,
    "Consider": 0,
    "##uction": 0,
    "SL": 0,
    "Nevertheless": 0,
    "circulating": 0,
    "rates": 0,
    "peripheral": 0,
    "##til": 5,
    "##reased": 0,
    "sequel": 0,
    "##itis": 0,
    "Index": 0,
    "scores": 0,
    "trademark": 0,
    "##usal": 0,
    "relation": 0,
    "illness": 0,
    "develop": 0,
    "prone": 0,
    "NZ": 0,
    "F1": 0,
    "BWF": 0,
    "antagonist": 0,
    "improved": 0,
    "##ential": 0,
    "section": 0,
    "documented": 0,
    "persistent": 0,
    "intermittent": 0,
    "appreciated": 0,
    "245": 0,
    "##tica": 0,
    "means": 0,
    "measuring": 0,
    "sur": 0,
    "##rogate": 0,
    "Can": 0,
    "##date": 0,
    "alternatively": 0,
    "ago": 0,
    "##nist": 0,
    "thereby": 0,
    "##ocytes": 0,
    "General": 0,
    "institutional": 0,
    "boards": 0,
    "California": 0,
    "##rip": 0,
    "##ps": 0,
    "participants": 35,
    "participation": 0,
    "##pants": 3,
    "Pat": 15,
    "##ients": 13,
    "##patient": 0,
    "##tology": 0,
    "clinics": 0,
    "Los": 0,
    "Angeles": 0,
    "County": 0,
    "##nose": 0,
    "race": 0,
    "medications": 0,
    "Based": 0,
    "willingness": 0,
    "donate": 0,
    "147": 0,
    "median": 0,
    "demographic": 0,
    "Clinical": 0,
    "exclude": 0,
    "contribution": 0,
    "chart": 0,
    "##nous": 0,
    "##uff": 0,
    "purposes": 0,
    "below": 0,
    "assigned": 0,
    "##late": 0,
    "##bio": 0,
    "Austin": 0,
    "ratio": 0,
    "##ilization": 0,
    "real": 0,
    "Valencia": 0,
    "##inating": 0,
    "sense": 0,
    "165": 0,
    "AB": 0,
    "##rism": 0,
    "machine": 0,
    "Mel": 0,
    "Foster": 0,
    "City": 0,
    "ratios": 0,
    "formula": 0,
    "##tite": 0,
    "coating": 0,
    "##vid": 0,
    "adding": 0,
    "##nology": 0,
    "Birmingham": 0,
    "detector": 0,
    "Statistical": 0,
    "SP": 0,
    "Chicago": 0,
    "##mat": 0,
    "##ched": 0,
    "##pair": 0,
    "transformation": 0,
    "##tric": 0,
    "Whitney": 0,
    "rank": 0,
    "##kal": 0,
    "Wallis": 0,
    "ranks": 0,
    "moment": 0,
    "##pear": 0,
    "##dina": 0,
    "##mina": 0,
    "tables": 0,
    "Previous": 0,
    "##fra": 0,
    "##gment": 0,
    "spur": 0,
    "##imation": 0,
    "true": 0,
    "observations": 0,
    "##igate": 0,
    "Despite": 0,
    "format": 0,
    "entirely": 0,
    "##rary": 0,
    "assignment": 0,
    "harbor": 0,
    "coats": 0,
    "limits": 0,
    "Level": 0,
    "290": 0,
    "##rt": 0,
    "##oids": 0,
    "racial": 0,
    "Hispanic": 0,
    "##gam": 0,
    "persisted": 0,
    "133": 0,
    "03": 0,
    "attributed": 0,
    "##wing": 0,
    "185": 0,
    "trend": 0,
    "##iter": 0,
    "consideration": 0,
    "##dified": 0,
    "252": 0,
    "stronger": 0,
    "separate": 0,
    "occasions": 0,
    "trends": 0,
    "meaningful": 0,
    "06": 0,
    "Lac": 0,
    "##elo": 0,
    "##hil": 1,
    "count": 0,
    "permitted": 0,
    "##emia": 0,
    "unable": 0,
    "striking": 0,
    "##gens": 0,
    "clearance": 0,
    "mask": 0,
    "##ically": 0,
    "blocked": 0,
    "##iously": 0,
    "documenting": 0,
    "increases": 0,
    "raising": 0,
    "##itic": 0,
    "joints": 0,
    "locally": 0,
    "##roduced": 0,
    "circulation": 0,
    "measures": 0,
    "largest": 0,
    "realized": 0,
    "seemingly": 0,
    "surprising": 0,
    "improve": 0,
    "##cious": 0,
    "##ology": 0,
    "ins": 0,
    "##itive": 0,
    "ten": 0,
    "excessive": 0,
    "exclusive": 0,
    "##riad": 0,
    "##imate": 0,
    "saturated": 0,
    "rendering": 0,
    "incapable": 0,
    "know": 0,
    "regardless": 0,
    "##rina": 0,
    "##uria": 0,
    "##ify": 0,
    "Once": 0,
    "Fresh": 0,
    "despite": 0,
    "freshly": 0,
    "interpretations": 0,
    "expanded": 0,
    "fall": 0,
    "emergence": 0,
    "##ima": 0,
    "highlighting": 0,
    "inverse": 0,
    "load": 0,
    "hall": 0,
    "##marks": 0,
    "formally": 0,
    "##activated": 0,
    "damp": 0,
    "##found": 0,
    "shifts": 0,
    "Given": 0,
    "Gavin": 0,
    "##iment": 0,
    "Regardless": 0,
    "biology": 0,
    "operational": 0,
    "labor": 0,
    "intensive": 0,
    "render": 0,
    "practice": 0,
    "incorporated": 0,
    "valuable": 0,
    "Long": 0,
    "##udi": 0,
    "establish": 0,
    "coordinate": 0,
    "raises": 0,
    "##uki": 0,
    "certainly": 0,
    "warrant": 0,
    "quite": 0,
    "objective": 0,
    "recognize": 0,
    "nodes": 0,
    "Local": 0,
    "##oid": 0,
    "remote": 0,
    "signals": 0,
    "prefer": 0,
    "presenting": 0,
    "investigators": 0,
    "harvest": 0,
    "##rrow": 0,
    "driven": 0,
    "flare": 0,
    "triggered": 0,
    "##mission": 0,
    "pointing": 0,
    "une": 0,
    "##voc": 0,
    "devoid": 0,
    "therapy": 0,
    "premise": 0,
    "actively": 0,
    "contributes": 0,
    "reinforce": 0,
    "rational": 0,
    "underlying": 0,
    "employees": 0,
    "##GS": 0,
    "company": 0,
    "consultant": 0,
    "$": 0,
    "charts": 0,
    "assisted": 0,
    "recruitment": 0,
    "editing": 0,
    "Travel": 0,
    "Large": 0,
    "Population": 0,
    "Case": 0,
    "travel": 0,
    "questions": 0,
    "magnitude": 0,
    "##ans": 0,
    "##wer": 0,
    "Finding": 0,
    "modes": 0,
    "##sel": 0,
    "##ceptive": 0,
    "March": 0,
    "1999": 0,
    "younger": 0,
    "invited": 0,
    "partners": 0,
    "serving": 0,
    "Information": 0,
    "233": 0,
    "traveled": 0,
    "odds": 0,
    "flying": 0,
    "risks": 0,
    "traveling": 0,
    "bus": 0,
    "train": 0,
    "Leiden": 0,
    "kg": 0,
    "estimated": 0,
    "people": 76,
    "shorter": 0,
    "moderately": 0,
    "##group": 0,
    "concern": 0,
    "leg": 0,
    "theories": 0,
    "happen": 0,
    "passengers": 0,
    "move": 0,
    "come": 0,
    "suggestions": 0,
    "ways": 0,
    "Why": 0,
    "Was": 0,
    "Done": 0,
    "studying": 0,
    "What": 0,
    "Did": 0,
    "Researchers": 0,
    "Find": 0,
    "Assessment": 0,
    "Factor": 0,
    "aimed": 0,
    "Netherlands": 0,
    "seeking": 0,
    "receive": 0,
    "meters": 0,
    "worse": 0,
    "borne": 0,
    "mind": 0,
    "getting": 0,
    "Mean": 0,
    "aspect": 0,
    "researchers": 0,
    "sure": 0,
    "invalid": 0,
    "carefully": 0,
    "adjust": 0,
    "opposite": 0,
    "journal": 0,
    "pm": 0,
    "Kenneth": 0,
    "Roth": 0,
    "discusses": 0,
    "Please": 0,
    "Web": 0,
    "online": 0,
    "http": 0,
    "doi": 0,
    "org": 0,
    "heightened": 0,
    "become": 0,
    "suddenly": 0,
    "Heath": 0,
    "##row": 0,
    "Airport": 0,
    "death": 0,
    "arrival": 0,
    "departure": 0,
    "##ism": 0,
    "travelers": 0,
    "distance": 0,
    "conflicting": 0,
    "crossover": 0,
    "record": 0,
    "Australia": 0,
    "haul": 0,
    "flight": 0,
    "Zealand": 0,
    "German": 0,
    "airplane": 0,
    "##elli": 0,
    "additionally": 0,
    "questioned": 0,
    "items": 0,
    "shortly": 0,
    "Design": 0,
    "deep": 0,
    "vein": 0,
    "monitor": 0,
    "geographical": 0,
    "fill": 0,
    "##naire": 0,
    "language": 0,
    "severe": 0,
    "psychiatric": 0,
    "soon": 0,
    "eligible": 0,
    "Partners": 0,
    "standardized": 0,
    "##omorphic": 0,
    "covered": 0,
    "participant": 2,
    "asked": 0,
    "phone": 0,
    "discontinued": 0,
    "clinic": 0,
    "continued": 0,
    "drawn": 0,
    "##wab": 0,
    "mail": 0,
    "replace": 0,
    "extraction": 0,
    "Ethics": 0,
    "Written": 0,
    "letters": 0,
    "management": 0,
    "Dutch": 0,
    "serial": 0,
    "compression": 0,
    "##bject": 0,
    "ventilation": 0,
    "##graphy": 0,
    "veins": 0,
    "##puted": 0,
    "Out": 0,
    "diagnosed": 0,
    "ambiguous": 0,
    "interested": 0,
    "solitary": 0,
    "excluded": 0,
    "May": 0,
    "2002": 0,
    "reasons": 0,
    "willing": 0,
    "reach": 0,
    "responded": 0,
    "couples": 0,
    "aged": 0,
    "want": 0,
    "making": 0,
    "##ents": 0,
    "journey": 0,
    "##rup": 0,
    "dates": 0,
    "88": 0,
    "146": 0,
    "turned": 0,
    "conditional": 0,
    "calculate": 0,
    "matching": 0,
    "account": 0,
    "##bia": 0,
    "estimates": 0,
    "socio": 0,
    "##economic": 0,
    "##ails": 0,
    "##MI": 0,
    "examine": 0,
    "##rgy": 0,
    "assumed": 0,
    "depends": 0,
    "##ments": 0,
    "##ubi": 0,
    "##tal": 0,
    "##ris": 0,
    "cotton": 1,
    "Upon": 0,
    "Subsequently": 0,
    "##tas": 0,
    "##sium": 0,
    "##lal": 0,
    "ethanol": 0,
    "##plex": 0,
    "technician": 0,
    "blinded": 0,
    "concerning": 0,
    "men": 9,
    "differed": 0,
    "trivial": 0,
    "135": 0,
    "##form": 0,
    "145": 0,
    "98": 0,
    "gradually": 0,
    "##rier": 0,
    "seemed": 0,
    "difficult": 0,
    "add": 0,
    "dividing": 0,
    "Height": 0,
    "unnatural": 0,
    "sitting": 0,
    "extreme": 0,
    "comparing": 0,
    "Compared": 0,
    "differ": 0,
    "##ception": 0,
    "women": 30,
    "users": 0,
    "estimate": 0,
    "08": 0,
    "##guous": 0,
    "flew": 0,
    "Being": 0,
    "bit": 0,
    "extent": 0,
    "declined": 0,
    "afterwards": 0,
    "##bari": 0,
    "##pox": 0,
    "##ulated": 0,
    "chambers": 0,
    "volunteers": 0,
    "happened": 0,
    "lesser": 0,
    "cinema": 0,
    "fl": 0,
    "##iers": 0,
    "taller": 0,
    "caution": 0,
    "##trata": 0,
    "cramped": 0,
    "seating": 0,
    "feet": 0,
    "touch": 0,
    "floor": 0,
    "pop": 0,
    "seats": 0,
    "cars": 0,
    "individually": 0,
    "outcome": 0,
    "##encies": 0,
    "##points": 0,
    "disappeared": 0,
    "limitations": 0,
    "lifestyle": 0,
    "recall": 0,
    "bias": 0,
    "person": 7,
    "behavioral": 0,
    "sleeping": 0,
    "pills": 0,
    "consumption": 0,
    "variables": 0,
    "World": 0,
    "Organization": 0,
    "Initiative": 0,
    "Global": 0,
    "Ha": 1,
    "##zard": 0,
    "WR": 0,
    "exercises": 0,
    "carry": 0,
    "##lants": 0,
    "##pecific": 0,
    "efficacy": 0,
    "benefit": 0,
    "carriers": 0,
    "##actic": 0,
    "Supporting": 0,
    "##rous": 0,
    "##var": 0,
    "acute": 0,
    "##ila": 0,
    "##teral": 0,
    "##ergic": 0,
    "##ject": 0,
    "##stra": 0,
    "##dio": 0,
    "pit": 0,
    "##uit": 0,
    "##oll": 0,
    "##icle": 0,
    "hormone": 0,
    "hormones": 0,
    "##ort": 0,
    "##pin": 0,
    "intrinsic": 0,
    "Ace": 0,
    "participating": 0,
    "##ulating": 0,
    "Evidence": 0,
    "birds": 0,
    "##osterone": 0,
    "##metry": 0,
    "##nado": 0,
    "##icles": 0,
    "stimulation": 0,
    "medial": 0,
    "##ias": 0,
    "vent": 0,
    "##mus": 0,
    "##sect": 0,
    "##rena": 0,
    "dorsal": 0,
    "hip": 0,
    "##cam": 0,
    "##dal": 0,
    "blocks": 0,
    "##pra": 2,
    "According": 0,
    "##ffer": 0,
    "neural": 0,
    "supplement": 0,
    "##rmon": 0,
    "adjusting": 0,
    "##nda": 0,
    "central": 0,
    "nervous": 0,
    "ventral": 0,
    "##lating": 0,
    "aims": 0,
    "dies": 0,
    "purpose": 0,
    "bilateral": 0,
    "virgin": 0,
    "195": 0,
    "225": 0,
    "own": 0,
    "kept": 0,
    "lighting": 0,
    "lights": 0,
    "food": 0,
    "Mexico": 0,
    "tap": 0,
    "Guide": 0,
    "##ult": 0,
    "Superior": 0,
    "##ara": 9,
    "##stro": 0,
    "##ars": 0,
    "sacrificed": 0,
    "hour": 0,
    "randomly": 0,
    "allotted": 0,
    "##tized": 0,
    "affecting": 0,
    "injured": 0,
    "manipulated": 0,
    "surgical": 0,
    "sealed": 0,
    "Block": 0,
    "injected": 0,
    "Auto": 0,
    "trunk": 0,
    "rpm": 0,
    "##rations": 0,
    "Radio": 0,
    "##say": 0,
    "Products": 0,
    "coefficients": 0,
    "Statistics": 0,
    "##iate": 0,
    "164": 0,
    "depended": 0,
    "Left": 0,
    "Right": 0,
    "142": 0,
    "157": 0,
    "159": 0,
    "missing": 0,
    "participates": 0,
    "arising": 0,
    "sensory": 0,
    "##lit": 2,
    "##kini": 0,
    "think": 0,
    "sends": 0,
    "reaching": 0,
    "analyzing": 0,
    "neurons": 0,
    "##vat": 0,
    "covers": 0,
    "gang": 0,
    "par": 0,
    "##iet": 0,
    "receives": 0,
    "##ener": 0,
    "Victor": 0,
    "##cup": 0,
    "##unt": 0,
    "##stic": 0,
    "syndrome": 0,
    "injection": 0,
    "##ale": 0,
    "##sume": 0,
    "suppose": 0,
    "originating": 0,
    "##tase": 0,
    "arrives": 0,
    "fibers": 0,
    "Section": 0,
    "sudden": 0,
    "arriving": 0,
    "##yric": 0,
    "pregnant": 0,
    "##ser": 0,
    "adrenaline": 0,
    "##ep": 0,
    "##lla": 0,
    "trigger": 0,
    "explaining": 0,
    "##lion": 0,
    "##do": 0,
    "moderate": 0,
    "##vate": 0,
    "sympathetic": 0,
    "releases": 0,
    "fatal": 0,
    "bow": 0,
    "##pine": 0,
    "deaths": 0,
    "symptoms": 0,
    "presentation": 0,
    "young": 0,
    "##sy": 0,
    "alert": 0,
    "##ncies": 0,
    "##ians": 0,
    "aware": 0,
    "##piration": 0,
    "##cule": 0,
    "vomit": 0,
    "##truction": 0,
    "complaints": 0,
    "describe": 0,
    "complaint": 0,
    "warning": 0,
    "##zophrenia": 0,
    "commenced": 0,
    "##ulp": 0,
    "##iri": 0,
    "regularly": 0,
    "##disciplinary": 0,
    "health": 0,
    "team": 0,
    "him": 0,
    "community": 0,
    "fit": 0,
    "lived": 0,
    "accommodation": 0,
    "staying": 0,
    "temporarily": 0,
    "complained": 0,
    "pain": 0,
    "prescribed": 0,
    "medication": 0,
    "returned": 0,
    "deteriorated": 0,
    "ambulance": 0,
    "collapsed": 0,
    "Post": 0,
    "examination": 0,
    "impacted": 0,
    "pressed": 0,
    "##far": 0,
    "Death": 0,
    "elderly": 0,
    "dangerous": 0,
    "meant": 0,
    "services": 0,
    "demise": 0,
    "spite": 0,
    "regular": 0,
    "##enia": 0,
    "collapse": 0,
    "seizure": 0,
    "equally": 0,
    "quality": 0,
    "adults": 0,
    "immune": 0,
    "Its": 0,
    "sought": 0,
    "Question": 0,
    "reviews": 0,
    "item": 0,
    "scales": 0,
    "##oms": 0,
    "Physical": 0,
    "Fat": 0,
    "Sleep": 0,
    "Fear": 0,
    "Psychological": 0,
    "Work": 0,
    "Social": 0,
    "SA": 0,
    "Women": 3,
    "Rep": 0,
    "##uctive": 0,
    "Test": 0,
    "reliability": 0,
    "consistency": 0,
    "validity": 0,
    "Seven": 0,
    "completed": 0,
    "Internal": 0,
    "##bach": 0,
    "acceptable": 0,
    "92": 0,
    "Form": 0,
    "##pid": 0,
    "##og": 0,
    "Depression": 0,
    "Scale": 0,
    "Fun": 0,
    "Mental": 0,
    "Mode": 0,
    "Known": 0,
    "01": 0,
    "categorized": 0,
    "status": 0,
    "perceived": 0,
    "understand": 0,
    "##une": 0,
    "##lets": 0,
    "bleeding": 0,
    "United": 0,
    "States": 0,
    "Adult": 0,
    "##ately": 0,
    "mortality": 0,
    "Initial": 0,
    "##cor": 3,
    "##ven": 0,
    "IV": 0,
    "##nect": 0,
    "##rap": 0,
    "fail": 0,
    "thirds": 0,
    "sustained": 0,
    "da": 0,
    "##ctor": 0,
    "outcomes": 0,
    "evaluating": 0,
    "perspective": 0,
    "Food": 0,
    "Drug": 0,
    "FDA": 0,
    "notes": 0,
    "Medici": 0,
    "Use": 0,
    "Agency": 0,
    "subjective": 0,
    "perception": 0,
    "psychological": 0,
    "social": 0,
    "##sing": 0,
    "##gia": 0,
    "prolonged": 0,
    "chronic": 0,
    "restoring": 0,
    "counts": 0,
    "physicians": 0,
    "weigh": 0,
    "decisions": 0,
    "children": 59,
    "##view": 0,
    "issues": 0,
    "existing": 0,
    "expert": 0,
    "input": 0,
    "##jects": 0,
    "##ures": 0,
    "geographically": 0,
    "locations": 0,
    "Oklahoma": 0,
    "convenience": 0,
    "Jo": 0,
    "Target": 0,
    "enrollment": 0,
    "roughly": 0,
    "board": 0,
    "accordance": 0,
    "Practice": 0,
    "guidelines": 0,
    "Creation": 0,
    "trained": 0,
    "##rator": 0,
    "honor": 0,
    "##arium": 0,
    "session": 0,
    "sleep": 0,
    "##cological": 0,
    "sexual": 0,
    "Trans": 0,
    "reviewing": 0,
    "searches": 0,
    "reproductive": 0,
    "relevant": 0,
    "distress": 0,
    "fear": 0,
    "Janet": 0,
    "Ni": 0,
    "ps": 0,
    "##ych": 0,
    "##gible": 0,
    "telephone": 0,
    "documents": 0,
    "assessments": 0,
    "##graphic": 0,
    "##licit": 0,
    "completing": 0,
    "creation": 0,
    "##atory": 0,
    "##RE": 0,
    "matrix": 0,
    "comprising": 0,
    "goodness": 0,
    "##FI": 0,
    "norm": 0,
    "##NF": 0,
    "comparative": 0,
    "##IF": 0,
    "square": 0,
    "error": 0,
    "approximation": 0,
    "yields": 0,
    "stable": 0,
    "assuming": 0,
    "ICC": 0,
    "accepted": 0,
    "endorsed": 0,
    "Advisory": 0,
    "##come": 0,
    "Trust": 0,
    "examining": 0,
    "##heses": 0,
    "held": 0,
    "negatively": 0,
    "positively": 0,
    "##rim": 0,
    "##inate": 0,
    "collect": 0,
    "severity": 0,
    "Length": 0,
    "##ier": 0,
    "gender": 0,
    "describes": 0,
    "Caucasian": 0,
    "Fifty": 0,
    "taking": 0,
    "cure": 0,
    "##eration": 0,
    "definite": 0,
    "wrong": 0,
    "inadequate": 0,
    "316": 0,
    "freedom": 0,
    "computing": 0,
    "excluding": 0,
    "Nor": 0,
    "CF": 0,
    "##ems": 0,
    "eliminated": 0,
    "exceeded": 0,
    "norms": 0,
    "grouped": 0,
    "undertake": 0,
    "concepts": 0,
    "##om": 0,
    "bother": 0,
    "how": 0,
    "impacts": 0,
    "choices": 0,
    "becoming": 0,
    "giving": 0,
    "birth": 0,
    "adopting": 0,
    "choice": 0,
    "comprise": 0,
    "weakly": 0,
    "differing": 0,
    "episode": 0,
    "felt": 0,
    "##heart": 0,
    "differentiate": 0,
    "similarly": 0,
    "undergone": 0,
    "##ned": 0,
    "worth": 0,
    "##while": 0,
    "##ego": 0,
    "##riz": 0,
    "fairly": 0,
    "##mogeneous": 0,
    "comprised": 0,
    "going": 0,
    "pivotal": 0,
    "too": 0,
    "lengthy": 0,
    "properly": 0,
    "fifteen": 0,
    "sufficient": 0,
    "criterion": 0,
    "plan": 0,
    "conduct": 0,
    "widely": 0,
    "joint": 0,
    "collaboration": 0,
    "funded": 0,
    "Thousand": 0,
    "Oaks": 0,
    "funding": 0,
    "decision": 0,
    "submit": 0,
    "Gary": 0,
    "Ok": 0,
    "Bus": 0,
    "employee": 0,
    "Cornell": 0,
    "George": 0,
    "##Millan": 0,
    "Professor": 0,
    "Emeritus": 0,
    "Mathias": 0,
    "##BB": 0,
    "##NG": 0,
    "expertise": 0,
    "execution": 0,
    "drafting": 0,
    "breast": 0,
    "laboratories": 0,
    "##ctic": 0,
    "guided": 0,
    "graded": 0,
    "Odd": 0,
    "##vity": 0,
    "##OC": 0,
    "expect": 0,
    "applying": 0,
    "therapeutic": 0,
    "killing": 0,
    "unopposed": 0,
    "##hesis": 0,
    "##fen": 0,
    "##rrence": 0,
    "screened": 0,
    "labs": 0,
    "determining": 0,
    "rough": 0,
    "lab": 0,
    "requirement": 0,
    "awareness": 0,
    "stereo": 0,
    "insufficient": 0,
    "urgent": 0,
    "switch": 0,
    "suited": 0,
    "##iti": 0,
    "##lishing": 0,
    "Classification": 0,
    "Reg": 0,
    "##ression": 0,
    "Tree": 0,
    "BR": 0,
    "Life": 0,
    "Technologies": 0,
    "Universal": 0,
    "Cat": 0,
    "430": 0,
    "##AM": 0,
    "mast": 0,
    "sections": 0,
    "representative": 0,
    "##ologist": 0,
    "##cote": 0,
    "Irwin": 0,
    "Institution": 0,
    "Review": 0,
    "Board": 0,
    "granted": 0,
    "ethical": 0,
    "hold": 0,
    "graph": 0,
    "103": 0,
    "107": 0,
    "trip": 0,
    "house": 0,
    "keeping": 0,
    "##ald": 0,
    "##yd": 1,
    "##cat": 0,
    "116": 0,
    "304": 0,
    "Wilcox": 0,
    "partition": 0,
    "determines": 0,
    "##ceive": 0,
    "Operating": 0,
    "curves": 0,
    "##rading": 0,
    "conventional": 0,
    "undertaking": 0,
    "establishing": 0,
    "##pies": 0,
    "false": 0,
    "exits": 0,
    "Cullen": 0,
    "##bek": 0,
    "##kara": 0,
    "translated": 0,
    "##graded": 0,
    "her": 0,
    "verified": 0,
    "confirmation": 0,
    "prospective": 0,
    "centered": 0,
    "accurate": 0,
    "technology": 0,
    "direction": 0,
    "##dam": 0,
    "##ifications": 0,
    "Fitness": 0,
    "Killing": 0,
    "Cap": 0,
    "##acity": 0,
    "parasite": 0,
    "fitness": 0,
    "##ule": 0,
    "theoretical": 0,
    "conclusions": 0,
    "viral": 0,
    "traits": 0,
    "foot": 3,
    "mouth": 0,
    "virus": 0,
    "passages": 0,
    "plaque": 0,
    "profound": 0,
    "##ime": 0,
    "viruses": 0,
    "##raj": 0,
    "##ector": 0,
    "##uation": 0,
    "adaptation": 0,
    "##tail": 0,
    "harm": 0,
    "hosts": 0,
    "document": 0,
    "##lying": 0,
    "Chi": 0,
    "##eter": 0,
    "vaccine": 0,
    "##settled": 0,
    "##und": 0,
    "availability": 0,
    "dynamic": 0,
    "quasi": 0,
    "copied": 0,
    "competition": 0,
    "continuously": 0,
    "variant": 0,
    "##mpt": 0,
    "landscape": 0,
    "permit": 0,
    "competitive": 0,
    "distributions": 0,
    "bottle": 0,
    "##neck": 0,
    "Muller": 0,
    "##chet": 0,
    "##version": 0,
    "veterinary": 0,
    "medicine": 0,
    "variants": 0,
    "derive": 0,
    "coin": 0,
    "baby": 0,
    "trait": 0,
    "kill": 0,
    "offered": 0,
    "fashion": 0,
    "behavior": 0,
    "parental": 0,
    "##Vs": 3,
    "caps": 0,
    "redundant": 0,
    "vulnerable": 0,
    "##otypic": 0,
    "##lish": 0,
    "pass": 0,
    "##aging": 0,
    "236": 0,
    "##ath": 0,
    "infection": 0,
    "survive": 0,
    "##yers": 0,
    "infected": 0,
    "##edly": 0,
    "surviving": 0,
    "infections": 0,
    "attempts": 0,
    "Kill": 0,
    "displaying": 0,
    "Probably": 0,
    "Map": 0,
    "rescued": 0,
    "##MT": 0,
    "infectious": 2,
    "contributors": 0,
    "204": 0,
    "VP": 0,
    "entry": 0,
    "##geny": 0,
    "##hino": 0,
    "##virus": 1,
    "shares": 0,
    "##RL": 0,
    "directed": 0,
    "##uses": 0,
    "rescue": 0,
    "prediction": 0,
    "evolve": 0,
    "nevertheless": 0,
    "culminating": 0,
    "signalling": 0,
    "shut": 0,
    "particles": 0,
    "expectation": 0,
    "spot": 0,
    "shrimp": 1,
    "Pen": 1,
    "cumulative": 0,
    "diabetes": 0,
    "##cki": 0,
    "historical": 0,
    "HIV": 5,
    "organs": 0,
    "##ropic": 0,
    "AIDS": 0,
    "##mian": 1,
    "##ot": 5,
    "manga": 0,
    "##bey": 0,
    "##aque": 0,
    "loads": 0,
    "##ulent": 0,
    "plant": 0,
    "mosaic": 0,
    "##ley": 2,
    "stripe": 0,
    "transmission": 0,
    "##hed": 0,
    "transmitted": 0,
    "moth": 1,
    "##yman": 1,
    "productive": 0,
    "##ibility": 0,
    "North": 0,
    "breeds": 0,
    "fungus": 0,
    "proportional": 0,
    "fun": 0,
    "##gal": 0,
    "reproduction": 0,
    "accompanying": 0,
    "hit": 0,
    "##icorn": 0,
    "##avi": 0,
    "##ral": 0,
    "reinforced": 0,
    "lie": 0,
    "eliminate": 0,
    "regard": 0,
    "Obviously": 0,
    "conjecture": 0,
    "courses": 0,
    "thanks": 0,
    "drift": 0,
    "##lication": 0,
    "Models": 0,
    "emphasized": 0,
    "regarded": 0,
    "##av": 0,
    "definitions": 0,
    "assume": 0,
    "relating": 0,
    "constant": 0,
    "mobility": 0,
    "imply": 0,
    "conditioned": 0,
    "##iance": 0,
    "##evo": 0,
    "##lve": 0,
    "resident": 0,
    "favored": 0,
    "classical": 0,
    "rabbits": 2,
    "Yet": 0,
    "opens": 0,
    "engineer": 0,
    "competence": 0,
    "handled": 0,
    "contamination": 0,
    "ii": 0,
    "escape": 0,
    "evolved": 0,
    "dominance": 0,
    "##ii": 0,
    "minimum": 0,
    "violet": 0,
    "wells": 0,
    "proportions": 0,
    "request": 0,
    "correspond": 0,
    "equation": 0,
    "950": 0,
    "slope": 0,
    "##vian": 1,
    "www": 0,
    "##lmer": 0,
    "las": 0,
    "instructed": 0,
    "numbering": 0,
    "##ew": 0,
    "##CD": 0,
    "Rs": 0,
    "420": 0,
    "##SN": 0,
    "##ined": 0,
    "##hu": 0,
    "##ffling": 0,
    "Cycle": 0,
    "##nast": 0,
    "runs": 0,
    "lip": 0,
    "Access": 0,
    "Numbers": 0,
    "AJ": 0,
    "##40": 0,
    "##ah": 0,
    "uk": 0,
    "##rida": 0,
    "##data": 0,
    "##H1": 0,
    "stature": 0,
    "measurements": 0,
    "307": 0,
    "sexes": 0,
    "Twenty": 0,
    "frequencies": 0,
    "accounted": 0,
    "265": 0,
    "SE": 0,
    "delay": 0,
    "##iciency": 0,
    "attain": 0,
    "nutrition": 0,
    "Her": 0,
    "responds": 0,
    "##sio": 0,
    "##path": 0,
    "##ological": 0,
    "id": 0,
    "##pathic": 0,
    "##HD": 0,
    "states": 0,
    "childhood": 0,
    "ancestor": 0,
    "99": 0,
    "##ntal": 0,
    "##voke": 0,
    "skip": 0,
    "##ert": 0,
    "##morphic": 0,
    "ages": 0,
    "Has": 0,
    "accelerated": 0,
    "##tron": 0,
    "favourable": 0,
    "##kins": 0,
    "alternate": 0,
    "permits": 0,
    "hampered": 0,
    "143": 0,
    "parents": 0,
    "Iberian": 0,
    "Peninsula": 0,
    "Basque": 0,
    "Hospital": 0,
    "Spanish": 0,
    "Carr": 0,
    "##asco": 0,
    "##dez": 0,
    "adjusted": 0,
    "observer": 0,
    "##end": 0,
    "##tad": 0,
    "mill": 0,
    "##tres": 0,
    "##hir": 0,
    "##urn": 0,
    "##berger": 0,
    "##Ps": 0,
    "415": 0,
    "##ature": 0,
    "Barcelona": 0,
    "Spain": 0,
    "Sense": 0,
    "ends": 0,
    "Kit": 0,
    "Chen": 0,
    "##Es": 0,
    "##cape": 0,
    "programme": 0,
    "visually": 0,
    "observers": 0,
    "establishment": 0,
    "##firmed": 0,
    "1831": 0,
    "##duced": 0,
    "##lm": 0,
    "##rov": 0,
    "##mir": 0,
    "##nov": 0,
    "Hardy": 0,
    "##nberg": 0,
    "##ritic": 0,
    "Bon": 0,
    "Dunn": 0,
    "Step": 0,
    "##wise": 0,
    "Concept": 0,
    "Berkeley": 0,
    "##ination": 0,
    "530": 0,
    "##valence": 0,
    "##lial": 0,
    "##86": 0,
    "278": 0,
    "510": 0,
    "129": 0,
    "tended": 0,
    "Pit": 0,
    "##dict": 0,
    "narrow": 0,
    "achievement": 0,
    "represented": 0,
    "avoiding": 0,
    "##dan": 0,
    "Wagner": 0,
    "##ype": 0,
    "references": 0,
    "bear": 0,
    "Mill": 0,
    "outside": 0,
    "accounts": 0,
    "bore": 0,
    "perfect": 0,
    "##SE": 0,
    "description": 0,
    "Lewis": 0,
    "##dia": 0,
    "highlighted": 0,
    "designing": 0,
    "clues": 0,
    "core": 0,
    "Mat": 2,
    "Programme": 0,
    "Software": 0,
    "GmbH": 0,
    "##chen": 0,
    "Germany": 0,
    "##pel": 0,
    "fingers": 0,
    "masked": 0,
    "Individuals": 0,
    "Six": 0,
    "##ifer": 0,
    "wider": 0,
    "sampling": 0,
    "strategies": 0,
    "Individual": 0,
    "Lead": 0,
    "Children": 5,
    "##yu": 0,
    "Electronic": 0,
    "Waste": 0,
    "Town": 0,
    "China": 0,
    "waste": 0,
    "recycling": 0,
    "primitive": 0,
    "elevation": 0,
    "living": 0,
    "##ives": 0,
    "town": 0,
    "##dian": 0,
    "226": 0,
    "absorption": 0,
    "##hot": 0,
    "chest": 0,
    "##ference": 0,
    "workshops": 0,
    "towns": 0,
    "electronic": 0,
    "emerging": 0,
    "municipal": 0,
    "stream": 0,
    "Da": 0,
    "Hall": 0,
    "2005": 0,
    "Jang": 0,
    "Townsend": 0,
    "2003": 0,
    "Silicon": 0,
    "Valley": 0,
    "Coalition": 0,
    "SV": 0,
    "2001": 0,
    "million": 0,
    "computers": 0,
    "became": 0,
    "obsolete": 0,
    "2007": 0,
    "Safety": 0,
    "Asia": 0,
    "Africa": 0,
    "Johnson": 0,
    "2006": 0,
    "##uck": 0,
    "##ett": 0,
    "noteworthy": 0,
    "country": 0,
    "ratified": 0,
    "Nations": 0,
    "Convention": 0,
    "ban": 0,
    "hazardous": 0,
    "developing": 0,
    "countries": 0,
    "1992": 0,
    "Today": 0,
    "Delhi": 0,
    "India": 0,
    "Shan": 0,
    "Guangdong": 0,
    "Province": 0,
    "popular": 0,
    "destinations": 0,
    "##rig": 0,
    "Within": 0,
    "km": 0,
    "accommodate": 0,
    "millions": 0,
    "tons": 0,
    "overseas": 0,
    "domestic": 0,
    "Nearly": 0,
    "families": 0,
    "engaged": 0,
    "migrant": 0,
    "workers": 0,
    "implementation": 0,
    "safe": 0,
    "expensive": 0,
    "dumped": 0,
    "yards": 0,
    "roads": 0,
    "##ides": 2,
    "fields": 0,
    "irrigation": 0,
    "canals": 0,
    "river": 0,
    "ponds": 0,
    "rivers": 0,
    "disposal": 0,
    "threatening": 0,
    "residents": 0,
    "##aring": 0,
    "dust": 0,
    "soil": 0,
    "sediment": 0,
    "groundwater": 0,
    "Wang": 0,
    "Guo": 0,
    "Wong": 0,
    "headache": 0,
    "##igo": 0,
    "nausea": 0,
    "gas": 0,
    "duo": 0,
    "ul": 0,
    "2004": 0,
    "devices": 0,
    "hazards": 0,
    "##sson": 0,
    "enters": 0,
    "poisoning": 0,
    "environments": 0,
    "##gh": 0,
    "##urs": 0,
    "##uil": 0,
    "Jain": 0,
    "Hu": 0,
    "Need": 0,
    "##lem": 0,
    "1998": 0,
    "Centers": 0,
    "increasingly": 0,
    "academic": 0,
    "skills": 0,
    "##field": 0,
    "safety": 0,
    "margin": 0,
    "##ller": 0,
    "Geographic": 0,
    "villages": 0,
    "chose": 0,
    "village": 0,
    "equipment": 0,
    "##sman": 0,
    "##tling": 0,
    "circuit": 0,
    "baking": 0,
    "baths": 0,
    "specializes": 0,
    "plastic": 0,
    "sorting": 0,
    "materials": 0,
    "##gan": 0,
    "smashed": 0,
    "tiny": 0,
    "pieces": 0,
    "recycled": 0,
    "textiles": 0,
    "industry": 0,
    "traffic": 0,
    "composed": 0,
    "occupational": 0,
    "resided": 0,
    "guardian": 0,
    "kindergarten": 0,
    "counseling": 0,
    "advice": 0,
    "eating": 0,
    "habits": 0,
    "advised": 0,
    "get": 0,
    "College": 0,
    "##pu": 0,
    "##nc": 0,
    "volunteer": 0,
    "nurses": 0,
    "furnace": 0,
    "##FA": 0,
    "##AS": 0,
    "Shi": 0,
    "##mad": 0,
    "##zu": 0,
    "660": 0,
    "##izer": 0,
    "##mple": 0,
    "Kyoto": 0,
    "Japan": 0,
    "wavelength": 0,
    "slit": 0,
    "width": 0,
    "drying": 0,
    "ash": 0,
    "325": 0,
    "accuracy": 0,
    "recover": 0,
    "spike": 0,
    "##eat": 0,
    "precision": 0,
    "Meanwhile": 0,
    "##bino": 0,
    "Jiang": 0,
    "Evaluation": 0,
    "developmental": 0,
    "Weight": 0,
    "##lance": 0,
    "##rum": 0,
    "Factory": 0,
    "Head": 0,
    "graduated": 0,
    "tapes": 0,
    "Old": 0,
    "dismantled": 0,
    "electric": 0,
    "drill": 0,
    "cutter": 0,
    "##iver": 0,
    "hard": 0,
    "driver": 0,
    "wires": 0,
    "cables": 0,
    "Circuit": 0,
    "appliances": 0,
    "heated": 0,
    "coal": 0,
    "fires": 0,
    "melt": 0,
    "##odes": 0,
    "resist": 0,
    "phones": 0,
    "##thermal": 0,
    "computer": 0,
    "soaked": 0,
    "precious": 0,
    "gold": 0,
    "##adi": 0,
    "discharged": 0,
    "nearby": 0,
    "streams": 0,
    "Wire": 0,
    "stripped": 0,
    "burnt": 0,
    "Print": 0,
    "cartridges": 0,
    "ripped": 0,
    "tone": 0,
    "aluminum": 0,
    "steel": 1,
    "Plastic": 0,
    "##ene": 0,
    "##yle": 0,
    "HD": 0,
    "sorted": 0,
    "lust": 0,
    "scrap": 0,
    "burned": 0,
    "burning": 0,
    "odor": 0,
    "sort": 0,
    "gravitational": 0,
    "ceramic": 0,
    "##ugs": 0,
    "sidewalk": 0,
    "dry": 0,
    "grin": 0,
    "##ders": 0,
    "spit": 0,
    "batteries": 0,
    "silver": 0,
    "raw": 0,
    "organized": 0,
    "tasks": 0,
    "Workshop": 0,
    "specializing": 0,
    "residence": 0,
    "older": 0,
    "descending": 0,
    "centralized": 0,
    "lowest": 0,
    "concerned": 0,
    "business": 0,
    "deposition": 0,
    "Examination": 0,
    "speculated": 0,
    "television": 0,
    "lb": 0,
    "weighs": 0,
    "decades": 0,
    "attach": 0,
    "printed": 0,
    "##ilizer": 0,
    "outdoor": 0,
    "contaminated": 0,
    "zone": 0,
    "ground": 0,
    "Chinese": 0,
    "boys": 2,
    "girls": 2,
    "Generally": 0,
    "urban": 0,
    "suburbs": 0,
    "rural": 0,
    "Lu": 0,
    "province": 0,
    "##hong": 0,
    "##shan": 0,
    "Huang": 0,
    "Shen": 0,
    "##zhen": 0,
    "serious": 0,
    "threat": 0,
    "threats": 0,
    "public": 0,
    "##rouse": 0,
    "governments": 0,
    "infrastructure": 0,
    "Light": 0,
    "Chain": 0,
    "##ress": 0,
    "##ditional": 0,
    "Heavy": 0,
    "##tant": 0,
    "##tub": 0,
    "motor": 0,
    "congress": 0,
    "positioning": 0,
    "largely": 0,
    "twenty": 0,
    "twelve": 0,
    "worms": 14,
    "overlap": 0,
    "knocking": 0,
    "##ules": 0,
    "##gate": 0,
    "powers": 0,
    "execute": 0,
    "generating": 0,
    "identification": 0,
    "route": 0,
    "##uron": 0,
    "##ility": 0,
    "moving": 0,
    "minus": 0,
    "cargo": 0,
    "excellent": 0,
    "investigating": 0,
    "##kel": 0,
    "divisions": 0,
    "requirements": 0,
    "Clearly": 0,
    "couple": 0,
    "##cles": 0,
    "eleven": 0,
    "##fers": 0,
    "##eton": 0,
    "itself": 0,
    "##unda": 0,
    "successfully": 0,
    "independently": 0,
    "320": 0,
    "stalk": 0,
    "replaces": 0,
    "walk": 0,
    "prove": 0,
    "engineering": 0,
    "steep": 0,
    "transition": 0,
    "subtle": 0,
    "##put": 0,
    "suppression": 0,
    "##ync": 0,
    "##onized": 0,
    "adulthood": 0,
    "lawn": 0,
    "restore": 0,
    "missed": 0,
    "arrest": 0,
    "##ressed": 0,
    "success": 0,
    "failures": 0,
    "##ites": 0,
    "laps": 0,
    "##graphs": 0,
    "backgrounds": 0,
    "##ended": 0,
    "viable": 0,
    "ok": 0,
    "##down": 0,
    "##ilize": 0,
    "fate": 0,
    "lit": 0,
    "From": 0,
    "refer": 0,
    "acted": 0,
    "Survey": 0,
    "Put": 0,
    "surprised": 0,
    "discover": 0,
    "presumed": 0,
    "aid": 0,
    "road": 0,
    "##block": 0,
    "reasoned": 0,
    "Lower": 0,
    "##lude": 0,
    "bacteria": 0,
    "acts": 0,
    "bypass": 0,
    "oppose": 0,
    "poorly": 0,
    "Prior": 0,
    "cortex": 0,
    "##quito": 0,
    "makes": 0,
    "indirect": 0,
    "poles": 0,
    "##RB": 0,
    "Video": 0,
    "surrounded": 0,
    "##cks": 0,
    "##55": 0,
    "AR": 0,
    "anterior": 0,
    "z": 0,
    "boundary": 0,
    "##53": 0,
    "Far": 0,
    "ST": 0,
    "DL": 0,
    "exploited": 0,
    "##ist": 0,
    "shifting": 0,
    "collecting": 0,
    "prominently": 0,
    "mothers": 0,
    "targeting": 0,
    "##NL": 0,
    "Rob": 0,
    "Road": 0,
    "removes": 0,
    "laying": 0,
    "##ood": 0,
    "crossed": 0,
    "soaking": 0,
    "##trusion": 0,
    "recordings": 0,
    "outlined": 0,
    "save": 0,
    "resources": 0,
    "nonetheless": 0,
    "Fourteen": 0,
    "hits": 0,
    "Eleven": 0,
    "##iology": 0,
    "##usa": 0,
    "insights": 0,
    "##rik": 0,
    "mitochondrial": 0,
    "stress": 0,
    "##aper": 0,
    "##ones": 0,
    "star": 0,
    "##50": 0,
    "##hetic": 0,
    "##dh": 0,
    "alleviate": 0,
    "##lter": 0,
    "likelihood": 0,
    "share": 0,
    "##ctors": 0,
    "judging": 0,
    "##ssi": 0,
    "##lev": 0,
    "##izations": 0,
    "prevents": 0,
    "dependence": 0,
    "reside": 0,
    "trafficking": 0,
    "maintains": 0,
    "Red": 0,
    "remnant": 0,
    "faintly": 0,
    "forces": 0,
    "##tral": 0,
    "Intermediate": 0,
    "worm": 0,
    "##ilia": 0,
    "feeding": 0,
    "Regulation": 0,
    "##uni": 0,
    "proposes": 0,
    "##tment": 0,
    "Complex": 0,
    "compromised": 0,
    "resembles": 0,
    "##ncing": 0,
    "flies": 0,
    "motors": 0,
    "##uddin": 0,
    "possess": 0,
    "##oss": 0,
    "contexts": 0,
    "circumstances": 0,
    "##cross": 0,
    "Bristol": 0,
    "overlapping": 0,
    "constructions": 0,
    "Visual": 0,
    "accomplished": 0,
    "mounting": 0,
    "pads": 0,
    "videos": 0,
    "spinning": 0,
    "disk": 0,
    "##kon": 0,
    "fitted": 0,
    "digital": 0,
    "##tsu": 0,
    "Photo": 0,
    "##nics": 0,
    "Plan": 0,
    "lens": 0,
    "info": 0,
    "Adobe": 0,
    "##obe": 0,
    "obtaining": 0,
    "##vice": 0,
    "Cambridge": 0,
    "rear": 0,
    "##ray": 0,
    "##plate": 0,
    "handling": 0,
    "800": 0,
    "##awed": 0,
    "storage": 0,
    "##ill": 0,
    "sealing": 0,
    "##nti": 0,
    "##fic": 0,
    "shaking": 0,
    "##spense": 0,
    "pipe": 0,
    "##tte": 0,
    "Rain": 0,
    "rain": 0,
    "nun": 0,
    "##brand": 0,
    "##heat": 0,
    "##ista": 0,
    "wheat": 2,
    "custom": 0,
    "adapt": 0,
    "Technical": 0,
    "filling": 0,
    "##tted": 0,
    "##nel": 0,
    "Screen": 0,
    "##cting": 0,
    "spreads": 0,
    "##hee": 0,
    "File": 0,
    "file": 0,
    "##maker": 0,
    "295": 0,
    "streak": 0,
    "reproduced": 0,
    "counted": 0,
    "##link": 0,
    "##IC": 0,
    "Turbo": 0,
    "tailed": 0,
    "easy": 0,
    "shuttle": 0,
    "bomb": 0,
    "##arded": 0,
    "119": 0,
    "ed": 0,
    "##rams": 0,
    "bombardment": 0,
    "briefly": 0,
    "suspended": 0,
    "illumination": 0,
    "sciences": 0,
    "Miss": 0,
    "##issa": 0,
    "##uga": 0,
    "Ontario": 0,
    "##quer": 0,
    "##bar": 0,
    "##lium": 1,
    "sa": 0,
    "##pie": 0,
    "##culus": 0,
    "##dent": 0,
    "Independent": 0,
    "Kingdom": 0,
    "Families": 0,
    "DR": 0,
    "trio": 0,
    "typing": 0,
    "TD": 0,
    "nominal": 0,
    "inheritance": 0,
    "##ited": 0,
    "importantly": 0,
    "attacks": 0,
    "strongest": 0,
    "latest": 0,
    "How": 0,
    "1970s": 0,
    "inflammatory": 0,
    "diseases": 0,
    "continues": 0,
    "intense": 0,
    "encompasses": 0,
    "##gion": 0,
    "##iable": 0,
    "RC": 0,
    "Around": 0,
    "adaptive": 0,
    "obstacle": 0,
    "ancestral": 0,
    "##del": 0,
    "Lim": 0,
    "worldwide": 0,
    "mat": 0,
    "deposit": 0,
    "influences": 0,
    "hereditary": 0,
    "##umour": 0,
    "exhibits": 0,
    "##band": 0,
    "ethnic": 0,
    "inconsistent": 0,
    "situation": 0,
    "lies": 0,
    "definitive": 0,
    "constitutes": 0,
    "merely": 0,
    "Graham": 0,
    "anchor": 0,
    "Testing": 0,
    "typed": 0,
    "07": 0,
    "##set": 0,
    "##kill": 0,
    "BA": 0,
    "GPS": 0,
    "Signal": 0,
    "conditioning": 0,
    "Class": 0,
    "Having": 0,
    "wanted": 0,
    "conferred": 0,
    "Common": 0,
    "distortion": 0,
    "powerful": 0,
    "PD": 0,
    "coded": 0,
    "compound": 0,
    "Next": 0,
    "phased": 0,
    "confident": 0,
    "176": 0,
    "composite": 0,
    "Utah": 0,
    "ancestry": 0,
    "Europe": 0,
    "Yo": 0,
    "##ruba": 0,
    "Nigeria": 0,
    "comment": 0,
    "Hence": 0,
    "##lier": 0,
    "plots": 0,
    "illustrate": 0,
    "preservation": 0,
    "African": 0,
    "Europeans": 0,
    "reveal": 0,
    "anchored": 0,
    "2D": 0,
    "inform": 0,
    "##iting": 0,
    "resides": 0,
    "exhibiting": 0,
    "Project": 0,
    "##pm": 0,
    "##fine": 0,
    "exploring": 0,
    "##OM": 0,
    "maybe": 0,
    "humor": 0,
    "immunity": 0,
    "controlling": 0,
    "arises": 0,
    "attractive": 0,
    "Sweden": 0,
    "conflicts": 0,
    "Canadian": 0,
    "Graves": 0,
    "Minnesota": 0,
    "stem": 0,
    "##ferred": 0,
    "aforementioned": 0,
    "##shing": 0,
    "requiring": 0,
    "susceptible": 0,
    "Ski": 0,
    "##LF": 0,
    "##AD": 0,
    "##keeping": 0,
    "minor": 0,
    "comprises": 0,
    "mother": 0,
    "father": 0,
    "grand": 0,
    "##ental": 0,
    "288": 0,
    "fulfill": 0,
    "revised": 0,
    "Centre": 0,
    "June": 0,
    "donors": 0,
    "digits": 0,
    "Anthony": 0,
    "Nolan": 0,
    "string": 0,
    "Steven": 0,
    "Marsh": 0,
    "Eight": 0,
    "projects": 0,
    "span": 0,
    "##pass": 0,
    "Broad": 0,
    "MIT": 0,
    "Imperial": 0,
    "laser": 0,
    "ion": 0,
    "##isation": 0,
    "Mass": 0,
    "platform": 0,
    "##science": 0,
    "methodology": 0,
    "LA": 0,
    "recommendations": 0,
    "##dized": 0,
    "##coe": 0,
    "identifies": 0,
    "##MG": 0,
    "Database": 0,
    "errors": 0,
    "uniform": 0,
    "elected": 0,
    "unacceptable": 0,
    "call": 0,
    "Family": 0,
    "##lov": 0,
    "##ell": 0,
    "default": 0,
    "settings": 0,
    "looked": 0,
    "##LM": 0,
    "##bet": 0,
    "mining": 0,
    "##sets": 0,
    "descent": 0,
    "assign": 0,
    "sufficiently": 0,
    "##EE": 0,
    "sweep": 0,
    "html": 0,
    "entirety": 0,
    "600": 0,
    "138": 0,
    "##47": 0,
    "610": 0,
    "154": 0,
    "1911": 0,
    "##tree": 0,
    "##llus": 4,
    "##cis": 0,
    "##iens": 0,
    "insect": 0,
    "bacterium": 0,
    "##icide": 0,
    "incidents": 0,
    "MLS": 0,
    "schemes": 0,
    "##pile": 0,
    "integrate": 0,
    "##tos": 2,
    "combine": 0,
    "phylogenetic": 0,
    "searched": 0,
    "##words": 0,
    "scheme": 0,
    "brows": 0,
    "user": 0,
    "reconstruction": 0,
    "portable": 0,
    "##sser": 1,
    "pneumonia": 0,
    "##fluenza": 0,
    "Camp": 1,
    "##ej": 0,
    "##old": 1,
    "Salmon": 2,
    "##ella": 3,
    "epidemic": 0,
    "surveillance": 0,
    "economic": 0,
    "##liga": 0,
    "hospitals": 0,
    "##ih": 0,
    "##tep": 0,
    "##hane": 0,
    "##nsis": 0,
    "tolerant": 0,
    "Unlike": 0,
    "Priest": 0,
    "##xed": 0,
    "belong": 0,
    "exchanges": 0,
    "##rue": 0,
    "confusing": 0,
    "Oslo": 0,
    "server": 0,
    "resource": 0,
    "website": 0,
    "build": 0,
    "Below": 0,
    "building": 0,
    "##AB": 0,
    "reconstructed": 0,
    "combining": 0,
    "Tour": 0,
    "##gas": 0,
    "retrieved": 0,
    "pub": 0,
    "##eus": 0,
    "##pository": 0,
    "##rok": 0,
    "##get": 0,
    "unavailable": 0,
    "##ota": 0,
    "##ona": 0,
    "cc": 0,
    "ft": 0,
    "il": 0,
    "dad": 0,
    "bin": 0,
    "##ML": 0,
    "plc": 0,
    "##QL": 0,
    "graphical": 0,
    "pages": 0,
    "##Net": 0,
    "DB": 0,
    "Gateway": 0,
    "##GI": 0,
    "modules": 0,
    "implemented": 0,
    "Linux": 0,
    "Apache": 0,
    "facilities": 0,
    "Norwegian": 0,
    "node": 0,
    "##putation": 0,
    "##pute": 0,
    "View": 0,
    "Java": 0,
    "apple": 0,
    "tree": 0,
    "horizontal": 0,
    "vertical": 0,
    "zoo": 0,
    "##ming": 0,
    "capabilities": 0,
    "suitable": 0,
    "trees": 0,
    "editor": 0,
    "advanced": 0,
    "tax": 0,
    "sparse": 0,
    "massive": 0,
    "ultimate": 0,
    "join": 0,
    "representation": 0,
    "##mony": 0,
    "##LR": 0,
    "binary": 0,
    "branching": 0,
    "grouping": 0,
    "script": 0,
    "matrices": 0,
    "##cate": 0,
    "##nated": 0,
    "Close": 0,
    "characters": 0,
    "gaps": 0,
    "strict": 0,
    "branch": 0,
    "approximate": 0,
    "##dai": 0,
    "boots": 0,
    "##enstein": 0,
    "Gamma": 0,
    "empirical": 0,
    "Note": 0,
    "uneven": 0,
    "speed": 0,
    "drawing": 0,
    "overview": 0,
    "Matrix": 0,
    "##entation": 0,
    "##imo": 0,
    "See": 0,
    "text": 0,
    "retains": 0,
    "Distribution": 0,
    "page": 0,
    "simulation": 0,
    "absent": 0,
    "uncertainty": 0,
    "mentioning": 0,
    "orders": 0,
    "algorithms": 0,
    "##NI": 0,
    "list": 0,
    "tools": 0,
    "entering": 0,
    "choosing": 0,
    "##word": 0,
    "look": 0,
    "matches": 0,
    "logical": 0,
    "operators": 0,
    "formulated": 0,
    "referred": 0,
    "publications": 0,
    "synonym": 0,
    "descriptions": 0,
    "Throughout": 0,
    "clicking": 0,
    "window": 0,
    "coordinates": 0,
    "links": 0,
    "header": 0,
    "Apart": 0,
    "selecting": 0,
    "colored": 0,
    "mark": 0,
    "option": 0,
    "Distance": 0,
    "##rist": 1,
    "options": 0,
    "navigation": 0,
    "Examples": 0,
    "Trees": 0,
    "offers": 0,
    "consuming": 0,
    "Users": 0,
    "requested": 0,
    "ready": 0,
    "##acts": 0,
    "owing": 0,
    "private": 0,
    "service": 0,
    "paste": 0,
    "uploaded": 0,
    "files": 0,
    "sharing": 0,
    "saved": 0,
    "downloaded": 0,
    "freely": 0,
    "wishing": 0,
    "welcome": 0,
    "front": 0,
    "##VE": 0,
    "objectives": 0,
    "publicly": 0,
    "update": 0,
    "quarterly": 0,
    "developments": 0,
    "deal": 0,
    "##fining": 0,
    "##ram": 0,
    "suit": 0,
    "incorporating": 0,
    "AFL": 0,
    "framework": 0,
    "hope": 0,
    "Discovery": 0,
    "rainbow": 31,
    "trout": 0,
    "My": 10,
    "cerebral": 0,
    "Rainbow": 2,
    "suffer": 0,
    "waters": 0,
    "##rout": 0,
    "Lodge": 0,
    "unchanged": 0,
    "farm": 0,
    "##kis": 0,
    "fish": 0,
    "1800s": 0,
    "##oz": 2,
    "##oan": 0,
    "##sia": 0,
    "1950s": 0,
    "immediate": 0,
    "eastern": 0,
    "drastic": 0,
    "outbreak": 0,
    "principal": 0,
    "sport": 0,
    "##fish": 0,
    "allied": 0,
    "concerns": 0,
    "continue": 0,
    "threatened": 0,
    "endangered": 0,
    "##ids": 0,
    "bull": 1,
    "##vel": 1,
    "##inus": 1,
    "##roa": 1,
    "##head": 1,
    "##ife": 0,
    "begins": 0,
    "##borne": 0,
    "##xon": 0,
    "fins": 0,
    "penetrate": 0,
    "deeper": 0,
    "facilitated": 0,
    "alternating": 0,
    "divide": 0,
    "Between": 0,
    "steadily": 0,
    "##gration": 0,
    "exiting": 0,
    "invade": 0,
    "cart": 0,
    "##eding": 0,
    "cord": 0,
    "##uda": 0,
    "erratic": 0,
    "swimming": 0,
    "black": 3,
    "permanent": 0,
    "vulnerability": 0,
    "##pore": 0,
    "##pores": 0,
    "trapped": 0,
    "ing": 0,
    "predators": 0,
    "dwelling": 0,
    "lining": 0,
    "thousands": 0,
    "lifetime": 0,
    "##vasive": 0,
    "Hatch": 0,
    "brown": 1,
    "combat": 0,
    "crosses": 0,
    "River": 0,
    "inherited": 0,
    "fin": 0,
    "##posed": 0,
    "lists": 0,
    "delta": 0,
    "platforms": 0,
    "etc": 0,
    "enable": 0,
    "construction": 0,
    "economically": 0,
    "##culture": 0,
    "Atlantic": 3,
    "defend": 0,
    "cave": 0,
    "##ats": 0,
    "##gence": 0,
    "responding": 0,
    "limitation": 0,
    "Sept": 0,
    "VHS": 2,
    "neighbor": 0,
    "invading": 0,
    "IF": 0,
    "inn": 0,
    "researched": 0,
    "Type": 0,
    "killer": 0,
    "cope": 0,
    "hundreds": 0,
    "proliferation": 0,
    "engulfed": 0,
    "##connected": 0,
    "serves": 0,
    "##grade": 0,
    "originate": 0,
    "PP": 0,
    "ions": 0,
    "guides": 0,
    "invasion": 0,
    "tuberculosis": 0,
    "capacities": 0,
    "distinction": 0,
    "##PC": 0,
    "effectively": 0,
    "elimination": 0,
    "electron": 0,
    "believe": 0,
    "##tial": 0,
    "##pis": 0,
    "##play": 0,
    "networks": 0,
    "enormous": 0,
    "avenue": 0,
    "feasible": 0,
    "##TL": 0,
    "Animal": 0,
    "reared": 0,
    "grams": 0,
    "Fish": 0,
    "##uth": 0,
    "##ani": 0,
    "##dos": 1,
    "##aud": 0,
    "posterior": 0,
    "Kelley": 0,
    "Chemistry": 0,
    "##ometer": 0,
    "Nan": 0,
    "Wilmington": 0,
    "Starting": 0,
    "dye": 0,
    "GE": 0,
    "Healthcare": 0,
    "Buckinghamshire": 0,
    "Ally": 0,
    "Message": 0,
    "##SP": 0,
    "consortium": 0,
    "##GR": 0,
    "fabric": 0,
    "von": 0,
    "coupling": 0,
    "swap": 0,
    "balanced": 0,
    "##pur": 0,
    "boiling": 0,
    "##PM": 0,
    "BS": 0,
    "##warm": 0,
    "##phere": 0,
    "Hat": 0,
    "##lent": 0,
    "Santa": 0,
    "Clara": 0,
    "underwent": 0,
    "Feature": 0,
    "Raw": 0,
    "deposited": 0,
    "##bus": 0,
    "compliance": 0,
    "Welch": 0,
    "##Script": 0,
    "Real": 0,
    "Hercules": 0,
    "Hot": 0,
    "##aq": 0,
    "melting": 0,
    "ensure": 0,
    "conception": 0,
    "revision": 0,
    "supervision": 0,
    "statistics": 0,
    "continuation": 0,
    "Leon": 3,
    "##tov": 0,
    "dealing": 0,
    "##ord": 0,
    "Des": 1,
    "words": 0,
    "Words": 0,
    "letter": 0,
    "task": 0,
    "classification": 0,
    "##hand": 5,
    "##isch": 0,
    "uses": 0,
    "bank": 0,
    "##rade": 0,
    "word": 0,
    "naive": 0,
    "##gor": 0,
    "##ith": 0,
    "##mated": 0,
    "Ann": 0,
    "constantly": 0,
    "precisely": 0,
    "notion": 0,
    "##bilities": 0,
    "Transfer": 0,
    "definition": 0,
    "continuous": 0,
    "GO": 0,
    "That": 0,
    "choose": 0,
    "terminology": 0,
    "hardly": 0,
    "matters": 0,
    "Generation": 0,
    "notation": 0,
    "sake": 0,
    "##evity": 0,
    "write": 0,
    "##ann": 0,
    "starts": 0,
    "collections": 0,
    "Dot": 0,
    "##less": 0,
    "simplicity": 0,
    "exactly": 0,
    "corresponds": 0,
    "ordered": 0,
    "formulation": 0,
    "##aria": 0,
    "##bles": 0,
    "Actually": 0,
    "stated": 0,
    "##asures": 0,
    "decide": 0,
    "announced": 0,
    "famous": 0,
    "Bay": 0,
    "Theo": 0,
    "{": 0,
    "|": 0,
    "}": 0,
    "tells": 0,
    "equivalent": 0,
    "predictions": 0,
    "Surely": 0,
    "equals": 0,
    "But": 0,
    "virtue": 0,
    "##ilon": 0,
    "reality": 0,
    "assert": 0,
    "implies": 0,
    "equality": 0,
    "everything": 0,
    "##ices": 0,
    "satisfy": 0,
    "obvious": 0,
    "arbitrary": 0,
    "##nical": 0,
    "inequality": 0,
    "holds": 0,
    "plain": 0,
    "##dices": 0,
    "windows": 0,
    "proceed": 0,
    "ascending": 0,
    "supposed": 0,
    "turns": 0,
    "##generate": 0,
    "really": 0,
    "relations": 0,
    "^": 0,
    "consequently": 0,
    "##nai": 0,
    "Certainly": 0,
    "##ote": 0,
    "##gma": 0,
    "expectations": 0,
    "##sper": 0,
    "##sions": 0,
    "##ai": 0,
    "Phi": 0,
    "##finity": 0,
    "never": 0,
    "violated": 0,
    "##regard": 0,
    "discuss": 0,
    "gives": 0,
    "analytical": 0,
    "cum": 0,
    "##bers": 0,
    "##mum": 3,
    "simplified": 0,
    "Are": 0,
    "quote": 0,
    "learning": 0,
    "117": 0,
    "belonged": 0,
    "sensible": 0,
    "Final": 0,
    "##arian": 0,
    "brackets": 0,
    "forth": 0,
    "sums": 0,
    "Lines": 0,
    "confusion": 0,
    "laid": 0,
    "lot": 0,
    "noticing": 0,
    "220": 0,
    "reasonable": 0,
    "statements": 0,
    "Usually": 0,
    "Consequently": 0,
    "quantity": 0,
    "Exactly": 0,
    "Alternative": 0,
    "plotting": 0,
    "specification": 0,
    "labels": 0,
    "axes": 0,
    "averaging": 0,
    "241": 0,
    "310": 0,
    "comes": 0,
    "calculation": 0,
    "noting": 0,
    "principle": 0,
    "probable": 0,
    "applicable": 0,
    "training": 0,
    "violation": 0,
    "intricate": 0,
    "offs": 0,
    "!": 0,
    "noise": 0,
    "bench": 0,
    "##ET": 0,
    "concentrate": 0,
    "relying": 0,
    "concept": 0,
    "topic": 0,
    "challenge": 0,
    "coming": 0,
    "improvement": 0,
    "Issues": 0,
    "##we": 0,
    "cooperation": 0,
    "##chev": 0,
    "##urg": 0,
    "##dorf": 0,
    "challenged": 0,
    "##OS": 0,
    "destroy": 0,
    "iron": 0,
    "##uns": 0,
    "Fen": 0,
    "##ume": 0,
    "##oxide": 0,
    "incorporates": 0,
    "fatty": 0,
    "##dial": 0,
    "attack": 0,
    "encountered": 0,
    "survives": 0,
    "##rates": 0,
    "distinctly": 0,
    "niche": 0,
    "challenges": 0,
    "OH": 0,
    "##rite": 0,
    "##lay": 0,
    "posed": 0,
    "Free": 0,
    "fluid": 0,
    "altering": 0,
    "undergo": 0,
    "##utter": 0,
    "##idge": 0,
    "1990": 0,
    "##ynth": 0,
    "##esi": 0,
    "##ze": 0,
    "incorporate": 0,
    "notable": 0,
    "photos": 0,
    "##etic": 0,
    "Bin": 0,
    "1987": 0,
    "damaging": 0,
    "##odies": 0,
    "electrons": 0,
    "sugar": 0,
    "breaks": 0,
    "hind": 0,
    "atoms": 0,
    "##sey": 0,
    "##ard": 0,
    "##dant": 0,
    "##bic": 0,
    "Bar": 0,
    "##nner": 0,
    "Kelly": 0,
    "putting": 0,
    "harbour": 0,
    "##gues": 0,
    "##yra": 0,
    "Samuel": 0,
    "AP": 0,
    "Linda": 0,
    "repair": 0,
    "Weiss": 0,
    "Gross": 0,
    "##ied": 0,
    "Han": 0,
    "Wallace": 0,
    "##ficient": 0,
    "##aly": 0,
    "##ien": 0,
    "ah": 0,
    "1989": 0,
    "circular": 0,
    "protection": 0,
    "##erd": 0,
    "Karl": 0,
    "##bas": 0,
    "bases": 0,
    "##nne": 0,
    "Cha": 2,
    "##cona": 0,
    "Sad": 0,
    "##zie": 0,
    "Nakamura": 0,
    "Link": 0,
    "##venge": 0,
    "Fraser": 0,
    "Lin": 0,
    "Industrial": 0,
    "##eca": 0,
    "Mal": 0,
    "##ond": 0,
    "##uer": 0,
    "generator": 0,
    "##sko": 0,
    "Mouse": 4,
    "##oli": 0,
    "Cho": 0,
    "##orn": 0,
    "##urable": 0,
    "whenever": 0,
    "##zes": 0,
    "Aero": 0,
    "Performance": 0,
    "##quid": 0,
    "##zzling": 0,
    "dimensional": 0,
    "authentic": 0,
    "spectrum": 0,
    "stays": 0,
    "##hine": 0,
    "##hashi": 0,
    "##phine": 0,
    "labelled": 0,
    "faced": 0,
    "##coming": 0,
    "##lie": 0,
    "ultimately": 0,
    "Base": 0,
    "##sma": 0,
    "##tch": 0,
    "carrier": 0,
    "##ival": 0,
    "Mac": 0,
    "mildly": 0,
    "##VI": 0,
    "ring": 0,
    "##wicz": 0,
    "les": 0,
    "repaired": 0,
    "##ctional": 0,
    "##tched": 0,
    "defending": 0,
    "harmful": 0,
    "protect": 0,
    "Ah": 0,
    "##vich": 0,
    "##spiration": 0,
    "##ional": 0,
    "##ising": 0,
    "protective": 0,
    "repertoire": 0,
    "atmosphere": 0,
    "dark": 0,
    "Bridges": 0,
    "Bert": 0,
    "Wizard": 0,
    "Corp": 0,
    "Color": 0,
    "##medical": 0,
    "##HP": 0,
    "##nched": 0,
    "chill": 0,
    "##bis": 0,
    "perch": 0,
    "1200": 0,
    "mobile": 0,
    "##ban": 0,
    "Pure": 0,
    "humid": 0,
    "counters": 0,
    "##ayman": 0,
    "##citation": 0,
    "emission": 0,
    "380": 0,
    "##nza": 0,
    "Ltd": 0,
    "Switzerland": 0,
    "##rno": 0,
    "##vsky": 0,
    "ads": 0,
    "##bed": 0,
    "grid": 0,
    "Ted": 0,
    "Hit": 0,
    "##achi": 0,
    "America": 0,
    "Pleasant": 0,
    "##olar": 0,
    "##load": 0,
    "##dition": 0,
    "##erman": 0,
    "analogue": 0,
    "##zon": 0,
    "##TO": 0,
    "##TY": 0,
    "##IL": 0,
    "##TU": 0,
    "##IO": 0,
    "##IE": 0,
    "ISO": 0,
    "Luke": 0,
    "##vic": 0,
    "##rsen": 0,
    "##kova": 0,
    "Kane": 0,
    "##udo": 1,
    "Latvian": 0,
    "Organic": 0,
    "Ai": 0,
    "##kra": 0,
    "Riga": 0,
    "Latvia": 0,
    "stems": 0,
    "Die": 0,
    "##der": 1,
    "##tan": 0,
    "catalyst": 0,
    "yielding": 0,
    "##taining": 0,
    "gained": 0,
    "##lge": 0,
    "protected": 0,
    "heart": 0,
    "rhythm": 0,
    "##lis": 2,
    "##raz": 0,
    "##uen": 0,
    "\\": 0,
    "##ily": 0,
    "##ves": 0,
    "##mpo": 0,
    "Yi": 0,
    "VI": 0,
    "AS": 0,
    "##yer": 0,
    "cultivated": 0,
    "##biotics": 0,
    "Solutions": 0,
    "Plate": 0,
    "alive": 0,
    "calculations": 0,
    "MG": 0,
    "##iro": 0,
    "Der": 0,
    "##tives": 0,
    "slight": 0,
    "Drugs": 0,
    "derivative": 0,
    "##ind": 0,
    "Tai": 0,
    "Foundation": 0,
    "Donovan": 0,
    "Shepherd": 0,
    "##itz": 0,
    "##rn": 0,
    "##ava": 0,
    "##ret": 0,
    "Zambia": 0,
    "##lini": 0,
    "##gin": 0,
    "##rand": 0,
    "Germain": 0,
    "Ram": 0,
    "Cara": 0,
    "##mell": 0,
    "##ever": 0,
    "##rne": 0,
    "251": 0,
    "Bel": 0,
    "Pope": 0,
    "Fast": 0,
    "Lynch": 0,
    "255": 0,
    "##ney": 0,
    "Basic": 0,
    "Wiley": 0,
    "##dell": 0,
    "Ball": 0,
    "January": 0,
    "February": 0,
    "drives": 0,
    "##uin": 36,
    "##ea": 36,
    "pig": 0,
    "differentiation": 0,
    "pigs": 0,
    "##ve": 0,
    "lava": 0,
    "##chy": 0,
    "Paper": 0,
    "##mation": 0,
    "Tin": 0,
    "##cio": 0,
    "Silva": 0,
    "Ara": 0,
    "##jo": 0,
    "Nah": 0,
    "##art": 0,
    "##logy": 0,
    "##ibe": 1,
    "140": 0,
    "Brazil": 0,
    "##ula": 0,
    "##ire": 0,
    "Unit": 0,
    "Institut": 0,
    "Past": 0,
    "Paris": 0,
    "##nding": 0,
    "##sitic": 0,
    "##jure": 0,
    "surfaces": 0,
    "dogs": 2,
    "eggs": 0,
    "portal": 0,
    "Beaver": 0,
    "reaches": 0,
    "##ee": 0,
    "##eed": 0,
    "helm": 0,
    "bra": 0,
    "##gratory": 0,
    "##oat": 0,
    "acquire": 0,
    "GM": 0,
    "Rapid": 0,
    "Publishers": 0,
    "##post": 0,
    "##rong": 0,
    "##bred": 0,
    "Paulo": 0,
    "Max": 0,
    "##lde": 0,
    "Denmark": 0,
    "Kirk": 0,
    "##aar": 0,
    "Perry": 0,
    "Maryland": 0,
    "washing": 0,
    "stopped": 0,
    "501": 0,
    "optical": 0,
    "##sities": 0,
    "490": 0,
    "reader": 0,
    "##hul": 0,
    "shallow": 0,
    "Guinea": 3,
    "cardiac": 0,
    "chamber": 0,
    "counting": 0,
    "Rosen": 0,
    "##led": 0,
    "##hea": 0,
    "withdrawn": 0,
    "Min": 0,
    "##rio": 0,
    "##cite": 0,
    "nude": 1,
    "Charles": 0,
    "Au": 0,
    "##uf": 0,
    "dial": 0,
    "##sal": 0,
    "flush": 0,
    "contents": 0,
    "##ues": 0,
    "irrelevant": 0,
    "##rice": 0,
    "Recovery": 0,
    "Kaye": 0,
    "##opped": 0,
    "timed": 0,
    "peaked": 0,
    "##iliated": 0,
    "AI": 0,
    "Mar": 0,
    "Days": 0,
    "##isk": 0,
    "drastically": 0,
    "sacrifice": 0,
    "222": 0,
    "behaviour": 0,
    "1815": 0,
    "submitted": 0,
    "##long": 0,
    "penetrated": 0,
    "develops": 0,
    "liberation": 0,
    "stimulus": 0,
    "eyes": 0,
    "quickly": 0,
    "mob": 0,
    "##tee": 0,
    "##eal": 0,
    "photo": 0,
    "##hs": 0,
    "lasting": 0,
    "##eyer": 0,
    "patches": 0,
    "##ital": 0,
    "##lani": 0,
    "##fied": 0,
    "Hay": 0,
    "##ashi": 0,
    "Petersen": 0,
    "Stevens": 0,
    "McKenzie": 0,
    "Austen": 0,
    "Owen": 0,
    "##nse": 0,
    "##sity": 0,
    "Collins": 0,
    "Williams": 0,
    "312": 0,
    "Ward": 0,
    "##lav": 0,
    "Cromwell": 0,
    "##hara": 0,
    "Walt": 0,
    "Kay": 0,
    "##jn": 0,
    "##zee": 0,
    "Schultz": 0,
    "Dale": 0,
    "1963": 0,
    "440": 0,
    "Development": 0,
    "Bee": 0,
    "130": 0,
    "##lau": 0,
    "Hyde": 0,
    "calcium": 0,
    "##hora": 3,
    "Scott": 0,
    "##ndon": 0,
    "##chin": 1,
    "spiral": 0,
    "##shima": 0,
    "routes": 0,
    "Zhou": 0,
    "gut": 0,
    "##moto": 0,
    "##kat": 0,
    "##uchi": 0,
    "Ren": 0,
    "Thompson": 0,
    "Seymour": 0,
    "##dak": 0,
    "##itors": 0,
    "Pet": 0,
    "##rol": 0,
    "JR": 0,
    "Boris": 0,
    "##ways": 0,
    "Reference": 0,
    "##ttes": 0,
    "Cohen": 0,
    "##lick": 0,
    "##tz": 0,
    "230": 0,
    "Snyder": 0,
    "1952": 0,
    "Lima": 0,
    "Abrams": 0,
    "Silver": 0,
    "Steel": 0,
    "##sui": 0,
    "115": 0,
    "Parsons": 0,
    "##rieve": 0,
    "RB": 0,
    "fails": 0,
    "grant": 0,
    "Nacional": 0,
    "##mento": 0,
    "Grant": 0,
    "##ago": 5,
    "##quis": 0,
    "##stad": 0,
    "wish": 0,
    "Mrs": 0,
    "##rna": 0,
    "##ndes": 0,
    "Rossi": 0,
    "Costa": 0,
    "Gong": 0,
    "photography": 0,
    "artwork": 0,
    "kindly": 0,
    "Urban": 0,
    "Jr": 0,
    "Fin": 0,
    "October": 0,
    "November": 0,
    "PT": 0,
    "##plied": 0,
    "excess": 0,
    "compatible": 0,
    "denoted": 0,
    "codes": 0,
    "repeatedly": 0,
    "Carlton": 0,
    "Art": 0,
    "Consortium": 0,
    "modeling": 0,
    "ninth": 0,
    "211": 0,
    "solved": 0,
    "conservative": 0,
    "##rat": 0,
    "considering": 0,
    "rows": 0,
    "181": 0,
    "correctly": 0,
    "##verse": 0,
    "rejected": 0,
    "reject": 0,
    "interactive": 0,
    "disputed": 0,
    "discrimination": 0,
    "Mont": 0,
    "refined": 0,
    "##tina": 0,
    "##ceptor": 0,
    "outer": 0,
    "##nz": 0,
    "supply": 0,
    "combines": 0,
    "barrier": 0,
    "##ight": 0,
    "temporal": 0,
    "outline": 0,
    "sides": 0,
    "illustration": 0,
    "channels": 0,
    "##das": 0,
    "rods": 0,
    "cones": 0,
    "vision": 0,
    "converting": 0,
    "terminals": 0,
    "structured": 0,
    "##she": 0,
    "emphasizes": 0,
    "intimate": 0,
    "accepts": 0,
    "##cycle": 0,
    "exports": 0,
    "tips": 0,
    "renewal": 0,
    "driving": 0,
    "decade": 0,
    "emphasizing": 0,
    "rod": 0,
    "##nas": 0,
    "night": 0,
    "chick": 0,
    "bodies": 0,
    "monkey": 0,
    "##pse": 0,
    "analogous": 0,
    "deficit": 0,
    "##abe": 0,
    "physiology": 0,
    "detachment": 0,
    "##jection": 0,
    "emphasize": 0,
    "stimuli": 0,
    "Release": 0,
    "ensures": 0,
    "##smo": 0,
    "##KA": 0,
    "##rase": 0,
    "eye": 0,
    "peaking": 0,
    "##DP": 0,
    "bath": 0,
    "concurrent": 0,
    "##lux": 0,
    "insertion": 0,
    "##hore": 0,
    "swelling": 0,
    "confined": 0,
    "begun": 0,
    "convert": 0,
    "##way": 0,
    "##grad": 0,
    "preference": 0,
    "ll": 0,
    "Lev": 0,
    "##ryn": 1,
    "illuminated": 0,
    "relieve": 0,
    "pursuing": 0,
    "##lex": 0,
    "##iform": 0,
    "Associated": 0,
    "plants": 0,
    "thirty": 0,
    "fungi": 0,
    "##luster": 0,
    "oriented": 0,
    "warehouse": 0,
    "inventor": 0,
    "characterised": 0,
    "##tur": 0,
    "##bial": 0,
    "devastating": 0,
    "##light": 0,
    "potato": 1,
    "##ht": 3,
    "##fest": 0,
    "rice": 5,
    "##rise": 0,
    "crop": 0,
    "##rable": 0,
    "meanwhile": 0,
    "##ono": 0,
    "gone": 0,
    "starvation": 0,
    "##orium": 0,
    "deploy": 0,
    "##duct": 0,
    "encounters": 0,
    "defences": 0,
    "corn": 3,
    "advances": 0,
    "genetics": 0,
    "##ust": 0,
    "##oria": 0,
    "##inas": 0,
    "Cut": 0,
    "##phs": 0,
    "powder": 0,
    "Blu": 1,
    "gram": 0,
    "risen": 0,
    "##eae": 0,
    "##agon": 1,
    "nod": 0,
    "##orum": 0,
    "##lume": 0,
    "grey": 0,
    "##ld": 0,
    "##iner": 0,
    "##inia": 1,
    "##rying": 0,
    "interrogation": 0,
    "sophisticated": 0,
    "##tons": 0,
    "##tones": 0,
    "##oon": 2,
    "##rica": 2,
    "vast": 0,
    "kingdom": 0,
    "gains": 0,
    "##cot": 0,
    "##ez": 0,
    "##iz": 0,
    "partly": 0,
    "Line": 0,
    "##rien": 0,
    "##phic": 0,
    "switching": 0,
    "##lum": 0,
    "##asi": 0,
    "##tale": 0,
    "arch": 0,
    "##rang": 0,
    "##ement": 0,
    "##ngo": 0,
    "##gill": 3,
    "##trate": 0,
    "##yon": 0,
    "##tible": 0,
    "##igma": 1,
    "##ket": 0,
    "namely": 0,
    "##ssy": 0,
    "##ificant": 0,
    "wished": 0,
    "mating": 0,
    "encounter": 0,
    "##ilis": 0,
    "aerial": 0,
    "sensing": 0,
    "cues": 0,
    "constituent": 0,
    "MVP": 0,
    "innovations": 0,
    "specialised": 0,
    "##wl": 0,
    "ecological": 0,
    "##mise": 0,
    "##ese": 0,
    "clade": 0,
    "inventory": 0,
    "##ises": 0,
    "coverage": 0,
    "Hidden": 0,
    "Set": 0,
    "project": 0,
    "##hari": 0,
    "Cry": 1,
    "helping": 0,
    "##oud": 0,
    "SR": 0,
    "##hana": 0,
    "decided": 0,
    "ranked": 0,
    "##oo": 0,
    "offer": 0,
    "defence": 0,
    "rely": 0,
    "##grading": 0,
    "##tine": 0,
    "NL": 0,
    "##olis": 0,
    "##ester": 0,
    "##phorus": 0,
    "##PS": 0,
    "##OR": 0,
    "Soft": 0,
    "##berry": 0,
    "##oris": 0,
    "##mata": 0,
    "##mate": 0,
    "##azi": 0,
    "##mona": 1,
    "##ug": 0,
    "converts": 0,
    "Members": 0,
    "amid": 0,
    "##acy": 0,
    "Gala": 0,
    "##tel": 1,
    "aura": 0,
    "##nation": 0,
    "accept": 0,
    "Secret": 0,
    "##hom": 0,
    "leaves": 0,
    "pet": 0,
    "organisation": 0,
    "answer": 0,
    "Before": 0,
    "universal": 0,
    "looking": 0,
    "messenger": 0,
    "##icit": 0,
    "##ilation": 0,
    "arose": 0,
    "deployed": 0,
    "pin": 0,
    "progress": 0,
    "websites": 0,
    "inflation": 0,
    "Swiss": 0,
    "sang": 0,
    "curated": 0,
    "HM": 0,
    "##mmer": 0,
    "PS": 0,
    "installed": 0,
    "Wild": 0,
    "##BL": 0,
    "delayed": 0,
    "rode": 3,
    "becomes": 0,
    "knockout": 0,
    "##esta": 0,
    "offspring": 0,
    "paradigm": 0,
    "passive": 0,
    "Morris": 0,
    "maze": 0,
    "exaggerated": 0,
    "leveled": 0,
    "predator": 0,
    "marine": 0,
    "##voked": 0,
    "##elles": 0,
    "adverse": 0,
    "Myers": 0,
    "##idated": 0,
    "Clarkson": 0,
    "Land": 0,
    "Rice": 0,
    "Typical": 0,
    "Davidson": 0,
    "Barker": 0,
    "Parkinson": 0,
    "Alzheimer": 0,
    "Sato": 0,
    "Few": 0,
    "##vior": 0,
    "Spy": 0,
    "##ker": 0,
    "1975": 0,
    "pioneering": 0,
    "schedule": 0,
    "opera": 0,
    "##ND": 0,
    "counterparts": 0,
    "drinking": 0,
    "memory": 0,
    "##human": 0,
    "protects": 0,
    "metallic": 0,
    "##take": 0,
    "Yao": 0,
    "##roid": 0,
    "neon": 0,
    "Answer": 0,
    "vapor": 0,
    "said": 0,
    "aging": 0,
    "Lambert": 0,
    "performances": 0,
    "Carrie": 0,
    "Bach": 0,
    "Murdoch": 0,
    "Park": 0,
    "##chal": 0,
    "##ska": 0,
    "mate": 0,
    "generations": 0,
    "plug": 0,
    "Tokyo": 0,
    "vitamin": 0,
    "##ilo": 0,
    "Thereafter": 0,
    "brains": 0,
    "eat": 0,
    "bucket": 0,
    "drink": 0,
    "onward": 0,
    "litter": 0,
    "##ely": 0,
    "suffering": 0,
    "##lines": 0,
    "Welfare": 0,
    "Marian": 0,
    "walls": 0,
    "gravity": 0,
    "image": 0,
    "cleaned": 0,
    "lid": 0,
    "door": 0,
    "facing": 0,
    "closed": 0,
    "delivered": 0,
    "back": 0,
    "retaining": 0,
    "trail": 0,
    "##vers": 0,
    "##off": 0,
    "shaped": 0,
    "submerged": 0,
    "paint": 0,
    "counter": 0,
    "##bal": 0,
    "sixth": 0,
    "##ille": 0,
    "combustion": 0,
    "amalgamation": 0,
    "##kawa": 0,
    "Nippon": 0,
    "Osaka": 0,
    "dog": 0,
    "Ottawa": 0,
    "certified": 0,
    "fell": 0,
    "Whenever": 0,
    "Body": 0,
    "weighed": 0,
    "##otion": 0,
    "marginal": 0,
    "wise": 0,
    "Regarding": 0,
    "demonstrations": 0,
    "discussing": 0,
    "##ulet": 0,
    "##smus": 0,
    "lives": 0,
    "Except": 0,
    "##ancy": 0,
    "argued": 0,
    "minute": 0,
    "surfaced": 0,
    "2008": 0,
    "examinations": 0,
    "dei": 0,
    "##lous": 0,
    "behaviors": 0,
    "basically": 0,
    "debated": 0,
    "Apparently": 0,
    "guarantee": 0,
    "Earlier": 0,
    "Potter": 0,
    "##agger": 0,
    "expressions": 0,
    "Harrison": 0,
    "Archer": 0,
    "Wu": 0,
    "acceleration": 0,
    "scar": 0,
    "Novel": 0,
    "##As": 0,
    "##location": 0,
    "elongated": 0,
    "opposing": 0,
    "Kaiser": 0,
    "constituents": 0,
    "##wo": 0,
    "##mel": 0,
    "Bowen": 0,
    "Ross": 0,
    "##can": 0,
    "Hai": 0,
    "collar": 0,
    "##OX": 0,
    "McMahon": 0,
    "##aka": 0,
    "##bayashi": 0,
    "Din": 0,
    "Sakura": 0,
    "Dar": 0,
    "##tadt": 0,
    "Heidelberg": 0,
    "Eagles": 0,
    "Paisley": 0,
    "##tative": 0,
    "Bank": 0,
    "Jun": 0,
    "Richmond": 0,
    "Equal": 0,
    "##iden": 0,
    "Bucks": 0,
    "##emont": 0,
    "Cruz": 0,
    "Cheng": 0,
    "Kung": 0,
    "Taiwan": 0,
    "Chang": 0,
    "Luc": 0,
    "tandem": 0,
    "Alpha": 0,
    "##retta": 0,
    "Won": 0,
    "##wang": 0,
    "Korea": 0,
    "plus": 0,
    "empty": 0,
    "Thirty": 0,
    "vehicle": 0,
    "Dual": 0,
    "Lucifer": 0,
    "Reporter": 0,
    "##ora": 0,
    "##lined": 0,
    "##gawa": 0,
    "##wood": 0,
    "240": 0,
    "periods": 0,
    "augmented": 0,
    "competitor": 0,
    "competes": 0,
    "##fted": 0,
    "Production": 0,
    "##course": 0,
    "Kim": 0,
    "uncertain": 0,
    "##pressing": 0,
    "Rush": 0,
    "##more": 0,
    "##FF": 0,
    "##apon": 0,
    "##CL": 0,
    "##ahl": 0,
    "##quest": 0,
    "Ng": 0,
    "##uy": 0,
    "Stewart": 0,
    "Bloom": 0,
    "Jai": 0,
    "##wal": 0,
    "thicker": 0,
    "##tum": 0,
    "##eum": 0,
    "bears": 0,
    "beneficial": 0,
    "Networks": 0,
    "entities": 0,
    "Principal": 0,
    "critically": 0,
    "vertex": 0,
    "##card": 0,
    "campus": 0,
    "technologies": 0,
    "volumes": 0,
    "relies": 0,
    "Text": 0,
    "abstract": 0,
    "organize": 0,
    "objects": 0,
    "signatures": 0,
    "respectable": 0,
    "dictated": 0,
    "signature": 0,
    "generic": 0,
    "guaranteed": 0,
    "dealt": 0,
    "handles": 0,
    "shall": 0,
    "network": 0,
    "communities": 0,
    "ranking": 0,
    "Published": 0,
    "Experiment": 0,
    "##lim": 0,
    "Any": 0,
    "entity": 0,
    "container": 0,
    "containers": 0,
    "impossible": 0,
    "vertices": 0,
    "Without": 0,
    "let": 0,
    "##ID": 0,
    "##quisite": 0,
    "creates": 0,
    "certainty": 0,
    "vertically": 0,
    "horizontally": 0,
    "attribute": 0,
    "successes": 0,
    "forbidden": 0,
    "Edge": 0,
    "graphs": 0,
    "expense": 0,
    "hint": 0,
    "##lean": 0,
    "calculating": 0,
    "performs": 0,
    "ignored": 0,
    "wonder": 0,
    "exhaust": 0,
    "viewed": 0,
    "slots": 0,
    "numerical": 0,
    "underneath": 0,
    "Bern": 0,
    "##lli": 0,
    "denotes": 0,
    "accordingly": 0,
    "##flow": 0,
    "##around": 0,
    "solve": 0,
    "grows": 0,
    "constructing": 0,
    "401": 0,
    "perfectly": 0,
    "333": 0,
    "squares": 0,
    "narrower": 0,
    "shrink": 0,
    "meaning": 0,
    "computational": 0,
    "limiting": 0,
    "filtering": 0,
    "regards": 0,
    "Communities": 0,
    "chance": 0,
    "Network": 0,
    "##ung": 0,
    "##rge": 0,
    "net": 0,
    "solving": 0,
    "implements": 0,
    "Community": 0,
    "modular": 0,
    "Newman": 0,
    "port": 0,
    "generators": 0,
    "documentation": 0,
    "Name": 0,
    "brings": 0,
    "grain": 0,
    "reversed": 0,
    "##BM": 0,
    "##versing": 0,
    "researcher": 0,
    "category": 0,
    "##AV": 0,
    "Benjamin": 0,
    "##lists": 0,
    "naming": 0,
    "justified": 0,
    "draw": 0,
    "##graph": 0,
    "answering": 0,
    "Looking": 0,
    "##lio": 0,
    "##titis": 0,
    "##ytic": 0,
    "##lled": 0,
    "generates": 0,
    "reproduce": 0,
    "ease": 0,
    "##aus": 0,
    "##sian": 0,
    "##Ds": 0,
    "explicit": 0,
    "thereof": 0,
    "preserve": 0,
    "benefits": 0,
    "observing": 0,
    "assigns": 0,
    "vice": 0,
    "versa": 0,
    "Worth": 0,
    "##ean": 0,
    "Run": 0,
    "##time": 0,
    "Windows": 0,
    "Professional": 0,
    "sun": 0,
    "jar": 0,
    "packages": 0,
    "download": 0,
    "Jakarta": 0,
    "Commons": 0,
    "Collections": 0,
    "##rta": 0,
    "Colt": 0,
    "Library": 0,
    "##sche": 0,
    "colt": 0,
    "Jam": 0,
    "math": 0,
    "##avan": 0,
    "jam": 0,
    "lap": 0,
    "##hart": 0,
    "##free": 0,
    "proof": 0,
    "Rear": 0,
    "Now": 0,
    "##stituting": 0,
    "##uad": 0,
    "##ratic": 0,
    "bigger": 0,
    "Eva": 0,
    "relates": 0,
    "boundaries": 0,
    "flexible": 0,
    "closest": 0,
    "removing": 0,
    "reversal": 0,
    "scope": 0,
    "##offs": 0,
    "Personal": 0,
    "deprived": 0,
    "walking": 0,
    "cycling": 0,
    "neighbourhood": 0,
    "Glasgow": 0,
    "Scotland": 0,
    "motorway": 0,
    "freeway": 0,
    "postal": 0,
    "##bei": 0,
    "rating": 0,
    "diary": 0,
    "IPA": 0,
    "household": 0,
    "Active": 0,
    "owner": 0,
    "rented": 0,
    "homes": 0,
    "shops": 0,
    "amenities": 0,
    "ownership": 0,
    "discretion": 0,
    "Until": 0,
    "dominated": 0,
    "##cial": 0,
    "recreation": 0,
    "exercise": 0,
    "encourage": 0,
    "cue": 0,
    "supportive": 0,
    "aesthetic": 0,
    "surroundings": 0,
    "pavement": 0,
    "spatial": 0,
    "policy": 0,
    "connectivity": 0,
    "land": 0,
    "Giles": 0,
    "Hand": 0,
    "##isa": 0,
    "wealth": 0,
    "climate": 0,
    "streets": 0,
    "beside": 0,
    "thing": 0,
    "interventions": 0,
    "densely": 0,
    "populated": 0,
    "employment": 0,
    "opportunities": 0,
    "improving": 0,
    "Others": 0,
    "claim": 0,
    "pedestrian": 0,
    "cyclists": 0,
    "##urage": 0,
    "eventual": 0,
    "live": 0,
    "referenced": 0,
    "census": 0,
    "visits": 0,
    "broadly": 0,
    "districts": 0,
    "city": 0,
    "centre": 0,
    "residential": 0,
    "housing": 0,
    "flats": 0,
    "##pling": 0,
    "Royal": 0,
    "Mail": 0,
    "drew": 0,
    "households": 0,
    "smallest": 0,
    "geography": 0,
    "alerted": 0,
    "advance": 0,
    "coloured": 0,
    "posted": 0,
    "packs": 0,
    "university": 0,
    "crest": 0,
    "surveys": 0,
    "householder": 0,
    "birthday": 0,
    "prize": 0,
    "win": 0,
    "pound": 0,
    "euro": 0,
    "##cher": 0,
    "Response": 0,
    "aesthetics": 0,
    "cleaning": 0,
    "checks": 0,
    "tenure": 0,
    "merging": 0,
    "spouse": 0,
    "imperial": 0,
    "metric": 0,
    "metres": 0,
    "kilograms": 0,
    "##tile": 0,
    "scaled": 0,
    "##centric": 0,
    "metre": 0,
    "planned": 0,
    "##aries": 0,
    "journeys": 0,
    "##laus": 0,
    "vigorous": 0,
    "expenditure": 0,
    "meet": 0,
    "spent": 0,
    "##wed": 0,
    "##ena": 0,
    "modelled": 0,
    "recommendation": 0,
    "##how": 0,
    "134": 0,
    "bicycle": 0,
    "travelled": 0,
    "miles": 0,
    "kilometres": 0,
    "difficulty": 0,
    "quarter": 0,
    "mile": 0,
    "disability": 0,
    "usable": 0,
    "retired": 0,
    "minority": 0,
    "satisfactory": 0,
    "##gel": 0,
    "Representative": 0,
    "intervention": 0,
    "recruiting": 0,
    "downward": 0,
    "national": 0,
    "upward": 0,
    "socially": 0,
    "outs": 0,
    "edited": 0,
    "electoral": 0,
    "register": 0,
    "owning": 0,
    "output": 0,
    "occupation": 0,
    "disadvantage": 0,
    "Don": 0,
    "international": 0,
    "offering": 0,
    "encourages": 0,
    "reasonably": 0,
    "knowing": 0,
    "##tribution": 0,
    "##ision": 0,
    "doubt": 0,
    "##ured": 0,
    "possession": 0,
    "asset": 0,
    "settlement": 0,
    "leisure": 0,
    "considerations": 0,
    "anyway": 0,
    "recreational": 0,
    "students": 0,
    "pleasure": 0,
    "reliance": 0,
    "pointed": 0,
    "Wen": 0,
    "##dges": 0,
    "attitude": 0,
    "##utile": 0,
    "imagine": 0,
    "resigned": 0,
    "seeing": 0,
    "inevitable": 0,
    "affluent": 0,
    "captive": 0,
    "##makers": 0,
    "recognise": 0,
    "PhD": 0,
    "thesis": 0,
    "supervisor": 0,
    "constituted": 0,
    "steering": 0,
    "##oam": 0,
    "Gran": 0,
    "##rient": 0,
    "Rich": 0,
    "Reservoir": 0,
    "##sistence": 0,
    "depth": 0,
    "foam": 0,
    "##rcle": 0,
    "dormant": 0,
    "reservoir": 0,
    "inhaled": 0,
    "giant": 0,
    "rim": 0,
    "##lose": 0,
    "Lang": 0,
    "##quire": 0,
    "##drome": 0,
    "##lle": 0,
    "##mett": 0,
    "##pher": 0,
    "nut": 2,
    "dorm": 0,
    "##worthy": 0,
    "freed": 0,
    "nutrients": 0,
    "secure": 0,
    "provider": 0,
    "Toulouse": 0,
    "##ony": 0,
    "committee": 0,
    "donor": 0,
    "declaration": 0,
    "kind": 0,
    "##NR": 0,
    "Middle": 0,
    "##brook": 0,
    "##ppe": 0,
    "##ndo": 0,
    "##rf": 0,
    "suspension": 0,
    "beat": 0,
    "essay": 0,
    "1640": 0,
    "cult": 0,
    "Nile": 0,
    "##aine": 0,
    "Survival": 0,
    "Oil": 0,
    "mounted": 0,
    "640": 0,
    "##book": 0,
    "pictures": 0,
    "solvent": 0,
    "110": 0,
    "capped": 0,
    "##tised": 0,
    "##here": 0,
    "petroleum": 0,
    "spots": 0,
    "Process": 0,
    "rubber": 0,
    "policeman": 0,
    "Verona": 0,
    "Thin": 0,
    "##mpus": 0,
    "Op": 0,
    "Cool": 0,
    "Systems": 0,
    "Well": 0,
    "##scribed": 0,
    "Classical": 0,
    "firstly": 0,
    "Nielsen": 0,
    "seldom": 0,
    "enlarged": 0,
    "views": 0,
    "contrary": 0,
    "anticipated": 0,
    "brightly": 0,
    "lose": 0,
    "stationary": 0,
    "coincided": 0,
    "halt": 0,
    "##yas": 0,
    "##hetical": 0,
    "Whatever": 0,
    "thousand": 0,
    "scarce": 0,
    "preserved": 0,
    "translucent": 0,
    "surround": 0,
    "Ultimately": 0,
    "spaces": 0,
    "##ologists": 0,
    "century": 0,
    "Hunter": 0,
    "neglected": 0,
    "debris": 0,
    "swallowed": 0,
    "infants": 1,
    "##tary": 0,
    "##gli": 0,
    "residing": 0,
    "derives": 0,
    "Page": 0,
    "definitely": 0,
    "producers": 0,
    "##ey": 0,
    "keep": 0,
    "##ducing": 0,
    "matter": 0,
    "debate": 0,
    "phenomena": 0,
    "proves": 0,
    "traditionally": 0,
    "admitted": 0,
    "##vitation": 0,
    "proposal": 0,
    "##cola": 0,
    "##num": 0,
    "enabling": 0,
    "hide": 0,
    "introduces": 0,
    "shelter": 0,
    "##verty": 0,
    "Kenya": 0,
    "Philippines": 0,
    "Bangladesh": 0,
    "poverty": 0,
    "Millennium": 0,
    "Goals": 0,
    "persons": 4,
    "Household": 0,
    "rated": 0,
    "216": 0,
    "238": 0,
    "capita": 0,
    "##iles": 0,
    "indicators": 0,
    "income": 0,
    "committed": 0,
    "era": 0,
    "##dication": 0,
    "provision": 0,
    "highlights": 0,
    "blind": 0,
    "cloud": 0,
    "focuses": 0,
    "fog": 0,
    "fuzzy": 0,
    "colors": 0,
    "shapes": 0,
    "Eventually": 0,
    "inexpensive": 0,
    "artificial": 0,
    "everyone": 0,
    "afford": 0,
    "fee": 0,
    "earning": 0,
    "experts": 0,
    "People": 2,
    "ill": 0,
    "wealthy": 0,
    "##stand": 0,
    "education": 0,
    "sanitation": 0,
    "earn": 0,
    "money": 0,
    "improvements": 0,
    "goals": 0,
    "sighted": 0,
    "consumed": 0,
    "assets": 0,
    "owned": 0,
    "Improvement": 0,
    "##rave": 0,
    "##lling": 0,
    "disabilities": 0,
    "Blind": 0,
    "globally": 0,
    "Limited": 0,
    "asserted": 0,
    "productivity": 0,
    "saving": 0,
    "2020": 0,
    "billion": 0,
    "##bid": 0,
    "Impact": 0,
    "district": 0,
    "Negro": 0,
    "April": 0,
    "December": 0,
    "Persons": 1,
    "compact": 0,
    "VA": 0,
    "daylight": 0,
    "spectacle": 0,
    "##nell": 0,
    "tumbling": 0,
    "##hole": 0,
    "##logist": 0,
    "torch": 0,
    "flashlight": 0,
    "##cope": 0,
    "lamp": 0,
    "WHO": 0,
    "convention": 0,
    "treat": 0,
    "visited": 0,
    "attend": 0,
    "houses": 0,
    "agreed": 0,
    "interviewed": 0,
    "teams": 0,
    "interview": 0,
    "deaf": 0,
    "217": 0,
    "162": 0,
    "Collection": 0,
    "monthly": 0,
    "interviews": 0,
    "pilot": 0,
    "finances": 0,
    "Living": 0,
    "Standards": 0,
    "expenses": 0,
    "monetary": 0,
    "payment": 0,
    "Monthly": 0,
    "rent": 0,
    "##hill": 0,
    "##ings": 0,
    "Philippine": 0,
    "furniture": 0,
    "cattle": 1,
    "vehicles": 0,
    "roof": 0,
    "toilet": 0,
    "rooms": 0,
    "Self": 0,
    "asking": 0,
    "richest": 0,
    "Quality": 0,
    "Training": 0,
    "Field": 0,
    "##work": 0,
    "Interview": 0,
    "##pts": 0,
    "languages": 0,
    "translator": 0,
    "Teams": 0,
    "SAS": 0,
    "answers": 0,
    "gross": 0,
    "##liers": 0,
    "##gis": 0,
    "##lihood": 0,
    "Tests": 0,
    "marital": 0,
    "##ang": 0,
    "##thical": 0,
    "signed": 0,
    "thumb": 0,
    "ethics": 0,
    "committees": 0,
    "Tropical": 0,
    "Salle": 0,
    "oldest": 0,
    "married": 0,
    "literacy": 0,
    "job": 0,
    "##mma": 0,
    "biggest": 0,
    "purchase": 0,
    "payments": 0,
    "stating": 0,
    "Economic": 0,
    "##tern": 0,
    "allocation": 0,
    "gradual": 0,
    "severely": 0,
    "Mari": 0,
    "##uce": 0,
    "operated": 0,
    "Pakistan": 0,
    "blinding": 0,
    "##rive": 0,
    "abandonment": 0,
    "fertile": 0,
    "disabled": 0,
    "##ots": 0,
    "Bulgaria": 0,
    "Ghana": 0,
    "Chile": 0,
    "Zimbabwe": 0,
    "Rwanda": 0,
    "universally": 0,
    "Tanzania": 0,
    "##tracts": 0,
    "investment": 0,
    "farming": 0,
    "cited": 0,
    "##with": 0,
    "##standing": 0,
    "barriers": 0,
    "South": 0,
    "Sri": 0,
    "Lanka": 0,
    "belief": 0,
    "took": 0,
    "##gth": 0,
    "aided": 0,
    "notorious": 0,
    "gangster": 0,
    "prosecution": 0,
    "smuggling": 0,
    "gambling": 0,
    "boot": 0,
    "##leg": 0,
    "murder": 0,
    "eventually": 0,
    "convicted": 0,
    "jury": 0,
    "convinced": 0,
    "clothes": 0,
    "fur": 0,
    "##nish": 0,
    "foods": 0,
    "season": 0,
    "comfortable": 0,
    "##grarian": 0,
    "society": 0,
    "command": 0,
    "borrow": 0,
    "savings": 0,
    "##cede": 0,
    "##tise": 0,
    "##ators": 0,
    "averages": 0,
    "sampled": 0,
    "economies": 0,
    "Unfortunately": 0,
    "refused": 0,
    "communicate": 0,
    "abortion": 0,
    "born": 0,
    "20th": 0,
    "Japanese": 0,
    "##nian": 0,
    "Mexican": 0,
    "Africans": 0,
    "Americans": 0,
    "Israeli": 0,
    "founder": 0,
    "Carlos": 0,
    "checking": 0,
    "1980s": 0,
    "south": 0,
    "1900": 0,
    "1925": 0,
    "206": 0,
    "1926": 0,
    "1950": 0,
    "1951": 0,
    "southern": 0,
    "papers": 0,
    "schools": 0,
    "Service": 0,
    "cards": 0,
    "contacted": 0,
    "archive": 0,
    "##vik": 0,
    "mathematical": 0,
    "##liance": 0,
    "##hp": 0,
    "quarters": 0,
    "scenario": 0,
    "##ented": 0,
    "##mism": 0,
    "##dence": 0,
    "##fin": 0,
    "pregnancy": 0,
    "##etus": 0,
    "favors": 0,
    "rose": 0,
    "applies": 0,
    "practically": 0,
    "turnover": 0,
    "Higher": 0,
    "coordinator": 0,
    "subfamily": 0,
    "Often": 0,
    "hi": 0,
    "assignments": 0,
    "##uristic": 0,
    "##sign": 0,
    "##sla": 0,
    "##current": 0,
    "architecture": 0,
    "MS": 0,
    "hidden": 0,
    "curator": 0,
    "histories": 0,
    "narrowly": 0,
    "hierarchy": 0,
    "leaf": 0,
    "ancient": 0,
    "SM": 0,
    "exceeds": 0,
    "straightforward": 0,
    "##join": 0,
    "mirror": 0,
    "viewpoint": 0,
    "rigorous": 0,
    "descendant": 0,
    "child": 0,
    "refers": 0,
    "bits": 0,
    "##core": 0,
    "197": 0,
    "235": 0,
    "newer": 0,
    "declared": 0,
    "historically": 0,
    "relied": 0,
    "claiming": 0,
    "Child": 0,
    "overly": 0,
    "cautious": 0,
    "counterpart": 0,
    "##suming": 0,
    "membership": 0,
    "concrete": 0,
    "picture": 0,
    "descendants": 0,
    "Average": 0,
    "##rse": 0,
    "snaps": 0,
    "ancestors": 0,
    "scenarios": 0,
    "distant": 0,
    "transferring": 0,
    "situations": 0,
    "employ": 0,
    "jack": 0,
    "knife": 0,
    "rehabilitation": 0,
    "professionals": 0,
    "##mand": 0,
    "workforce": 0,
    "pressures": 0,
    "behind": 0,
    "professional": 0,
    "therapist": 0,
    "speech": 0,
    "amongst": 0,
    "##ruit": 0,
    "Education": 0,
    "convened": 0,
    "dimensions": 0,
    "Financial": 0,
    "Marketing": 0,
    "thirteen": 0,
    "planning": 0,
    "sector": 0,
    "shortages": 0,
    "##ists": 0,
    "jurisdictions": 0,
    "internationally": 0,
    "nationally": 0,
    "provincial": 0,
    "difficulties": 0,
    "Provinces": 0,
    "projected": 0,
    "Personnel": 0,
    "demand": 0,
    "discharge": 0,
    "Canadians": 0,
    "sectors": 0,
    "demands": 0,
    "profession": 0,
    "annual": 0,
    "1990s": 0,
    "shortage": 0,
    "clearer": 0,
    "Speech": 0,
    "Audio": 0,
    "##logists": 0,
    "Language": 0,
    "Hearing": 0,
    "tracking": 0,
    "Care": 0,
    "##fill": 0,
    "agency": 0,
    "openings": 0,
    "seek": 0,
    "geographic": 0,
    "labour": 0,
    "market": 0,
    "influential": 0,
    "conceptual": 0,
    "##hmann": 0,
    "stay": 0,
    "##rel": 0,
    "makers": 0,
    "government": 0,
    "Ministry": 0,
    "director": 0,
    "ministries": 0,
    "##viour": 0,
    "science": 0,
    "Meyer": 0,
    "satisfaction": 0,
    "organizational": 0,
    "commitment": 0,
    "intention": 0,
    "resign": 0,
    "Theory": 0,
    "rewards": 0,
    "motivation": 0,
    "peoples": 1,
    "jobs": 0,
    "bad": 0,
    "##ssa": 0,
    "##tisfied": 0,
    "responsibility": 0,
    "advancement": 0,
    "feelings": 0,
    "policies": 0,
    "##person": 0,
    "salary": 0,
    "security": 0,
    "##tisfaction": 0,
    "skill": 0,
    "autonomy": 0,
    "feedback": 0,
    "challenging": 0,
    "creativity": 0,
    "dimension": 0,
    "employer": 0,
    "pay": 0,
    "fringe": 0,
    "career": 0,
    "differently": 0,
    "Wales": 0,
    "liked": 0,
    "Northwestern": 0,
    "sustainable": 0,
    "workplace": 0,
    "##bula": 0,
    "organizing": 0,
    "Phase": 0,
    "Literature": 0,
    "Consolidated": 0,
    "Nursing": 0,
    "Allied": 0,
    "##HL": 0,
    "##dl": 0,
    "##power": 0,
    "vocational": 0,
    "catalogue": 0,
    "organizations": 0,
    "##au": 0,
    "peer": 0,
    "manager": 0,
    "clarity": 0,
    "articles": 0,
    "bread": 0,
    "themes": 0,
    "Services": 0,
    "Resources": 0,
    "Sector": 0,
    "Newfoundland": 0,
    "Labrador": 0,
    "##pert": 0,
    "Panel": 0,
    "Toronto": 0,
    "nominate": 0,
    "acknowledged": 0,
    "leadership": 0,
    "specialty": 0,
    "##ence": 0,
    "##fully": 0,
    "nominations": 0,
    "nominee": 0,
    "Those": 0,
    "send": 0,
    "curriculum": 0,
    "Round": 0,
    "UCLA": 0,
    "return": 0,
    "office": 0,
    "email": 0,
    "meeting": 0,
    "rankings": 0,
    "ratings": 0,
    "debates": 0,
    "voting": 0,
    "##gies": 0,
    "relocation": 0,
    "paths": 0,
    "Face": 0,
    "Strategy": 0,
    "Rankings": 0,
    "##powerment": 0,
    "recognizing": 0,
    "staff": 0,
    "valued": 0,
    "##ving": 0,
    "liability": 0,
    "collaborative": 0,
    "recruit": 0,
    "bonus": 0,
    "workshop": 0,
    "agencies": 0,
    "incentives": 0,
    "summer": 0,
    "mentor": 0,
    "##ship": 0,
    "school": 1,
    "student": 0,
    "contracts": 0,
    "tier": 0,
    "ladder": 0,
    "##red": 0,
    "accreditation": 0,
    "commented": 0,
    "aggression": 0,
    "abuse": 0,
    "violence": 0,
    "tolerance": 0,
    "tailored": 0,
    "providers": 0,
    "implementing": 0,
    "weather": 0,
    "abusive": 0,
    "ensuring": 0,
    "advisory": 0,
    "meetings": 0,
    "Alberta": 0,
    "desire": 0,
    "consultation": 0,
    "marketing": 0,
    "careers": 0,
    "Therapy": 0,
    "declining": 0,
    "Programs": 0,
    "campaign": 0,
    "college": 0,
    "educators": 0,
    "initiatives": 0,
    "arena": 0,
    "alliances": 0,
    "guidance": 0,
    "counsel": 0,
    "Christie": 0,
    "client": 0,
    "##upation": 0,
    "guiding": 0,
    "judgment": 0,
    "assistants": 0,
    "compete": 0,
    "article": 0,
    "delivering": 0,
    "believes": 0,
    "utilize": 0,
    "stakeholders": 0,
    "fund": 0,
    "##ners": 0,
    "responsibilities": 0,
    "##vise": 0,
    "practices": 0,
    "placement": 0,
    "Solomon": 0,
    "supervising": 0,
    "thinking": 0,
    "appealing": 0,
    "provisions": 0,
    "Southeastern": 0,
    "##tip": 0,
    "##ends": 0,
    "priority": 0,
    "implement": 0,
    "Nova": 0,
    "Scotia": 0,
    "##rent": 0,
    "commitments": 0,
    "##care": 0,
    "elder": 0,
    "##making": 0,
    "employers": 0,
    "scrutiny": 0,
    "perspectives": 0,
    "came": 0,
    "managing": 0,
    "ensured": 0,
    "opinions": 0,
    "wage": 0,
    "incentive": 0,
    "attracting": 0,
    "sustaining": 0,
    "consolidated": 0,
    "##nta": 0,
    "Caesar": 0,
    "elect": 0,
    "##lamp": 0,
    "##raction": 0,
    "um": 0,
    "Piece": 0,
    "fertility": 0,
    "Place": 0,
    "##reta": 0,
    "##herence": 0,
    "##birth": 0,
    "##ntation": 0,
    "##yster": 0,
    "District": 0,
    "infant": 1,
    "drains": 0,
    "litre": 0,
    "##fused": 0,
    "operative": 0,
    "Ultra": 0,
    "stopping": 0,
    "feeling": 0,
    "traction": 0,
    "relaxed": 0,
    "complicated": 0,
    "clamped": 0,
    "overrun": 0,
    "##tures": 0,
    "unexpected": 0,
    "advocate": 0,
    "provisional": 0,
    "statement": 0,
    "Conservative": 0,
    "##are": 0,
    "opted": 0,
    "Editor": 0,
    "Chief": 0,
    "##onal": 0,
    "Fate": 0,
    "Hip": 0,
    "actions": 0,
    "juvenile": 0,
    "disturb": 0,
    "zones": 0,
    "fore": 0,
    "exit": 0,
    "##ronology": 0,
    "apex": 0,
    "##llar": 0,
    "acidic": 0,
    "symmetric": 0,
    "##itor": 0,
    "cease": 0,
    "##nor": 0,
    "facts": 0,
    "Almost": 0,
    "transit": 0,
    "##nock": 0,
    "bright": 0,
    "ceased": 0,
    "cow": 0,
    "##kers": 0,
    "##span": 0,
    "Already": 0,
    "##uter": 0,
    "##SV": 0,
    "##grating": 0,
    "##mates": 0,
    "newborn": 0,
    "580": 0,
    "manage": 0,
    "Inspired": 0,
    "directs": 0,
    "Sox": 0,
    "##inen": 0,
    "blades": 0,
    "##din": 0,
    "Sonic": 0,
    "##dge": 0,
    "##hog": 0,
    "claims": 0,
    "Later": 0,
    "whilst": 0,
    "marks": 0,
    "arranged": 0,
    "Typically": 0,
    "##raft": 0,
    "##actor": 0,
    "resemble": 0,
    "adopted": 0,
    "remark": 0,
    "##by": 0,
    "##gue": 2,
    "##wley": 0,
    "##una": 0,
    "hp": 0,
    "housed": 0,
    "##ibi": 0,
    "Lund": 0,
    "Brain": 0,
    "##erve": 0,
    "thickness": 0,
    "##rona": 0,
    "floating": 0,
    "Heads": 0,
    "##CM": 0,
    "Jackie": 0,
    "Denver": 0,
    "Boulder": 0,
    "producer": 0,
    "##VS": 0,
    "##lug": 0,
    "##tamine": 0,
    "fix": 0,
    "##KO": 0,
    "##vance": 0,
    "goat": 3,
    "ABC": 0,
    "remainder": 0,
    "dams": 0,
    "##dir": 0,
    "Oxfordshire": 0,
    "##tional": 0,
    "wooden": 0,
    "abdomen": 0,
    "shaved": 0,
    "razor": 0,
    "##aro": 0,
    "horn": 0,
    "moist": 0,
    "warm": 0,
    "horns": 0,
    "##tured": 0,
    "muscles": 0,
    "cage": 0,
    "##edd": 0,
    "nesting": 0,
    "institute": 0,
    "Resource": 0,
    "##imeter": 0,
    "snap": 0,
    "Every": 0,
    "Poole": 0,
    "##uard": 0,
    "##vant": 0,
    "operator": 0,
    "ever": 0,
    "##ams": 0,
    "##gnate": 0,
    "sensor": 0,
    "multitude": 0,
    "aux": 0,
    "##SR": 0,
    "faster": 0,
    "Zurich": 0,
    "doubling": 0,
    "bait": 0,
    "carries": 0,
    "##coat": 0,
    "##ticus": 0,
    "##nie": 0,
    "Resistance": 0,
    "##nam": 0,
    "neighbouring": 0,
    "##cist": 0,
    "##eron": 0,
    "governed": 0,
    "##lining": 0,
    "governing": 0,
    "##MM": 0,
    "##cline": 0,
    "##arland": 0,
    "colony": 0,
    "Bradford": 0,
    "magnetic": 0,
    "##ads": 0,
    "##CH": 0,
    "Frey": 0,
    "##pton": 0,
    "cooled": 0,
    "Select": 0,
    "pulsed": 0,
    "153": 0,
    "##porated": 0,
    "Cheung": 0,
    "Ponce": 0,
    "##ike": 0,
    "Volume": 0,
    "Akira": 0,
    "##kas": 0,
    "Fuji": 0,
    "##det": 0,
    "170": 0,
    "Biology": 0,
    "Suit": 0,
    "Hybrid": 0,
    "filters": 0,
    "650": 0,
    "Hon": 0,
    "Benton": 0,
    "Davis": 0,
    "##screen": 0,
    "termination": 0,
    "legend": 0,
    "141": 0,
    "Live": 0,
    "Lane": 0,
    "extending": 0,
    "libraries": 0,
    "Horizon": 0,
    "dashed": 0,
    "Dash": 0,
    "Gilbert": 0,
    "interrupted": 0,
    "550": 0,
    "750": 0,
    "framed": 0,
    "circles": 0,
    "##verted": 0,
    "470": 0,
    "artifacts": 0,
    "Whereas": 0,
    "Ms": 0,
    "Aid": 0,
    "Special": 0,
    "Central": 0,
    "##jin": 0,
    "Yokohama": 0,
    "244": 0,
    "Morgan": 0,
    "##tti": 0,
    "##allo": 0,
    "193": 0,
    "Gil": 0,
    "Smith": 0,
    "978": 0,
    "224": 0,
    "##nney": 0,
    "Kern": 0,
    "335": 0,
    "Hard": 0,
    "Rolling": 0,
    "##zen": 0,
    "##rar": 0,
    "##ik": 0,
    "Fuller": 0,
    "166": 0,
    "Pearl": 0,
    "##oka": 0,
    "302": 0,
    "305": 0,
    "560": 0,
    "Sang": 0,
    "Nick": 0,
    "##ul": 4,
    "258": 0,
    "##reath": 0,
    "##nac": 0,
    "##ois": 0,
    "Hare": 0,
    "##mbo": 1,
    "1978": 0,
    "##rner": 0,
    "Boyle": 0,
    "Mount": 0,
    "##eit": 0,
    "Berg": 0,
    "Sea": 0,
    "##rle": 0,
    "Stuart": 0,
    "##kie": 0,
    "##sted": 0,
    "##phon": 0,
    "##sty": 0,
    "##rity": 0,
    "##iam": 0,
    "Piper": 0,
    "Miller": 0,
    "Division": 0,
    "##physics": 0,
    "Johns": 0,
    "Hopkins": 0,
    "Public": 0,
    "Baltimore": 0,
    "212": 0,
    "July": 0,
    "analog": 0,
    "promise": 0,
    "Protected": 0,
    "##hon": 0,
    "##IM": 0,
    "Vega": 0,
    "chips": 0,
    "##tera": 0,
    "##DS": 0,
    "extinction": 0,
    "Unless": 0,
    "valve": 0,
    "##ask": 0,
    "##erer": 0,
    "trap": 0,
    "barrel": 0,
    "##rgon": 0,
    "portions": 0,
    "orange": 0,
    "Hamilton": 0,
    "swollen": 0,
    "warmed": 0,
    "hair": 0,
    "Dry": 0,
    "##lving": 0,
    "swell": 0,
    "##rapped": 0,
    "bubbles": 0,
    "tapping": 0,
    "##opy": 0,
    "Return": 0,
    "##val": 0,
    "##tec": 0,
    "##onium": 0,
    "returns": 0,
    "Terminal": 0,
    "370": 0,
    "drops": 0,
    "stirred": 0,
    "sin": 0,
    "##tered": 0,
    "Support": 0,
    "mole": 0,
    "Label": 0,
    "Small": 0,
    "mold": 0,
    "##cock": 0,
    "moisture": 0,
    "blowing": 0,
    "##ety": 0,
    "##ermined": 0,
    "Barnett": 0,
    "symbol": 0,
    "##utes": 0,
    "##nate": 0,
    "pure": 0,
    "2d": 0,
    "##charged": 0,
    "passing": 0,
    "##inated": 0,
    "144": 0,
    "Aden": 0,
    "##ift": 0,
    "##fter": 0,
    "voltage": 0,
    "halfway": 0,
    "traces": 0,
    "##ilities": 0,
    "grants": 0,
    "Jaya": 0,
    "##rama": 0,
    "1874": 0,
    "Letters": 0,
    "##eon": 0,
    "##utz": 0,
    "##inger": 4,
    "1755": 0,
    "1769": 0,
    "##ciating": 0,
    "Keith": 0,
    "Andrew": 0,
    "Holmes": 0,
    "Todd": 0,
    "Taylor": 0,
    "Street": 0,
    "ON": 0,
    "preferring": 0,
    "##eval": 0,
    "Falcon": 0,
    "Court": 0,
    "convertible": 0,
    "releasing": 0,
    "separates": 0,
    "concentrating": 0,
    "##lves": 1,
    "##active": 0,
    "Johnston": 0,
    "##phony": 0,
    "##ras": 1,
    "meter": 0,
    "Amber": 0,
    "MB": 0,
    "filtered": 0,
    "batch": 0,
    "prepare": 0,
    "##lk": 0,
    "blending": 0,
    "Heat": 0,
    "##bled": 0,
    "attacked": 0,
    "whatever": 0,
    "sliced": 0,
    "Break": 0,
    "rising": 0,
    "falling": 0,
    "mixes": 0,
    "unsuccessful": 0,
    "absorbed": 0,
    "##xes": 0,
    "preparing": 0,
    "wa": 0,
    "Neither": 0,
    "232": 0,
    "Communications": 0,
    "##llum": 0,
    "Hess": 0,
    "##lew": 0,
    "##aja": 0,
    "Wilson": 0,
    "Pascal": 0,
    "Craig": 0,
    "##zi": 0,
    "313": 0,
    "Mom": 0,
    "248": 0,
    "##ick": 0,
    "##asing": 0,
    "Jong": 0,
    "Jan": 0,
    "##sz": 0,
    "1966": 0,
    "Canton": 0,
    "Harper": 0,
    "Row": 0,
    "Barrett": 0,
    "Cold": 0,
    "Spring": 0,
    "Harbor": 0,
    "Richards": 0,
    "##aya": 0,
    "Brook": 0,
    "##haven": 0,
    "Lowe": 0,
    "Malcolm": 0,
    "188": 0,
    "Wake": 0,
    "264": 0,
    "Cass": 0,
    "247": 0,
    "##rmal": 0,
    "woman": 2,
    "##oker": 0,
    "##rani": 0,
    "Ewing": 0,
    "Arthur": 0,
    "1918": 0,
    "##scence": 0,
    "##lap": 0,
    "avid": 0,
    "##list": 0,
    "focal": 0,
    "capsule": 0,
    "##volved": 0,
    "##hesive": 0,
    "##otherapy": 0,
    "Vin": 0,
    "Follow": 0,
    "Homer": 0,
    "Wright": 0,
    "nowadays": 0,
    "clue": 0,
    "##king": 0,
    "Rodriguez": 0,
    "##lton": 0,
    "amber": 0,
    "##mbe": 0,
    "1919": 0,
    "Francis": 0,
    "Osborne": 0,
    "Son": 0,
    "Barbara": 0,
    "##ums": 0,
    "Georgia": 0,
    "Atlanta": 0,
    "recognizes": 0,
    "dispersed": 0,
    "symmetry": 0,
    "recipient": 0,
    "##nity": 0,
    "interchange": 0,
    "CB": 0,
    "169": 0,
    "synthesizer": 0,
    "##BC": 0,
    "Sites": 0,
    "460": 0,
    "Devlin": 0,
    "rendered": 0,
    "ended": 0,
    "##gant": 0,
    "Selected": 0,
    "commercial": 0,
    "tram": 0,
    "chilled": 0,
    "GMA": 0,
    "390": 0,
    "Nr": 0,
    "beneath": 0,
    "agrees": 0,
    "ya": 0,
    "680": 0,
    "##stal": 0,
    "##copy": 0,
    "discount": 0,
    "bracket": 0,
    "Located": 0,
    "##cribe": 0,
    "Heinz": 0,
    "Schuster": 0,
    "##rano": 0,
    "Stein": 0,
    "Calendar": 0,
    "Publishing": 0,
    "##sei": 0,
    "Heinrich": 0,
    "Elias": 0,
    "198": 0,
    "281": 0,
    "Chad": 0,
    "##wick": 0,
    "375": 0,
    "Wan": 0,
    "West": 0,
    "205": 0,
    "Guy": 0,
    "365": 0,
    "360": 0,
    "1967": 0,
    "Reeve": 0,
    "##uh": 0,
    "Shine": 0,
    "Dal": 0,
    "Lands": 0,
    "##chu": 0,
    "##night": 0,
    "1759": 0,
    "1764": 0,
    "##aw": 0,
    "Anderson": 0,
    "Bell": 0,
    "##bright": 0,
    "##quel": 0,
    "311": 0,
    "publisher": 0,
    "Down": 0,
    "insulin": 0,
    "Card": 0,
    "##iac": 0,
    "Protection": 0,
    "programmed": 0,
    "##ivating": 0,
    "packaged": 0,
    "naked": 0,
    "##cked": 0,
    "##fies": 0,
    "exploration": 0,
    "liner": 0,
    "Pac": 0,
    "##ntin": 0,
    "##uous": 0,
    "Product": 0,
    "##ington": 0,
    "humidity": 0,
    "Initially": 0,
    "##robe": 0,
    "Beta": 0,
    "grade": 0,
    "Recording": 0,
    "##ght": 0,
    "Students": 0,
    "##ledge": 0,
    "searching": 0,
    "install": 0,
    "##pf": 0,
    "processors": 0,
    "##rag": 0,
    "machines": 0,
    "gathering": 0,
    "Que": 0,
    "retrieve": 0,
    "servers": 0,
    "##formatics": 0,
    "pipeline": 0,
    "submission": 0,
    "updates": 0,
    "Solar": 0,
    "CPU": 0,
    "processor": 0,
    "concurrently": 0,
    "##cimal": 0,
    "##hing": 0,
    "Computing": 0,
    "gather": 0,
    "Along": 0,
    "splitting": 0,
    "finish": 0,
    "reads": 0,
    "Unix": 0,
    "locking": 0,
    "honors": 0,
    "balancing": 0,
    "clock": 0,
    "speeds": 0,
    "virtual": 0,
    "calls": 0,
    "routines": 0,
    "suite": 0,
    "joining": 0,
    "lock": 0,
    "happens": 0,
    "Outside": 0,
    "overhead": 0,
    "writes": 0,
    "temporary": 0,
    "unlock": 0,
    "Intel": 0,
    "Spa": 0,
    "##star": 0,
    "kernel": 0,
    "stride": 0,
    "developer": 0,
    "conducting": 0,
    "compilation": 0,
    "##aling": 0,
    "ran": 0,
    "dominate": 0,
    "formats": 0,
    "updated": 0,
    "intend": 0,
    "herb": 0,
    "attending": 0,
    "Trinidad": 0,
    "Caribbean": 0,
    "##pliant": 0,
    "##dicate": 0,
    "medicinal": 0,
    "herbs": 0,
    "relief": 0,
    "tradition": 0,
    "descriptive": 0,
    "Clinic": 0,
    "191": 0,
    "Gender": 0,
    "ethnicity": 0,
    "schooling": 0,
    "backyard": 0,
    "supermarket": 0,
    "##alis": 0,
    "shop": 0,
    "pharmacy": 0,
    "friends": 0,
    "consulted": 0,
    "Ginger": 1,
    "garlic": 6,
    "##oes": 0,
    "pepper": 0,
    "sage": 0,
    "relatives": 0,
    "healthcare": 0,
    "##lity": 0,
    "##bre": 0,
    "Jamaica": 0,
    "##child": 1,
    "Emergency": 0,
    "attended": 0,
    "departments": 0,
    "##hale": 0,
    "##lities": 0,
    "Commonwealth": 0,
    "prohibit": 0,
    "medicines": 0,
    "##rgen": 0,
    "fuel": 0,
    "dollar": 0,
    "trade": 0,
    "botanical": 0,
    "informing": 0,
    "physician": 0,
    "tea": 0,
    "Tobago": 0,
    "bush": 0,
    "Faculty": 0,
    "Indies": 0,
    "Augustine": 0,
    "permission": 0,
    "Director": 0,
    "##cturnal": 0,
    "coughing": 0,
    "Version": 0,
    "ninety": 0,
    "##bering": 0,
    "Asian": 0,
    "Indian": 0,
    "suburban": 0,
    "unemployment": 0,
    "educational": 0,
    "controllers": 0,
    "prescription": 0,
    "##liner": 0,
    "friend": 0,
    "cultural": 0,
    "remedy": 0,
    "usage": 0,
    "Twelve": 0,
    "fourteen": 0,
    "supplies": 0,
    "worked": 0,
    "Herb": 0,
    "sat": 0,
    "##iv": 0,
    "##iber": 2,
    "##nale": 0,
    "##pet": 0,
    "##if": 0,
    "##olia": 0,
    "foe": 0,
    "lemon": 2,
    "##grass": 2,
    "indigenous": 0,
    "marijuana": 0,
    "roots": 0,
    "##china": 5,
    "##cea": 5,
    "Golden": 1,
    "Seal": 0,
    "##mile": 1,
    "##amo": 0,
    "##mill": 0,
    "imported": 0,
    "tablets": 0,
    "seal": 0,
    "Educational": 0,
    "##truct": 0,
    "Singapore": 0,
    "internet": 0,
    "cough": 0,
    "existed": 0,
    "depot": 0,
    "suspect": 0,
    "##loy": 0,
    "cheap": 0,
    "prohibited": 0,
    "qualified": 0,
    "incurred": 0,
    "avail": 0,
    "obviously": 0,
    "garden": 0,
    "weeds": 0,
    "Pepper": 0,
    "bay": 1,
    "##leaf": 1,
    "commence": 0,
    "customary": 0,
    "ton": 0,
    "institutions": 0,
    "attitudes": 0,
    "purchasing": 0,
    "assist": 0,
    "alternatives": 0,
    "mandate": 0,
    "pertaining": 0,
    "##ntly": 0,
    "coordinating": 0,
    "conference": 0,
    "NW": 0
  },
  "I": {
    "Sc": 0,
    "##p": 1,
    "##16": 0,
    "##0": 0,
    ",": 0,
    "a": 9,
    "multiple": 0,
    "K": 0,
    "##H": 0,
    "-": 45,
    "domain": 0,
    "protein": 0,
    "is": 0,
    "component": 0,
    "of": 0,
    "m": 1,
    "##R": 0,
    "##NP": 0,
    "complexes": 0,
    "in": 2,
    "yeast": 1,
    "A": 0,
    "##bs": 0,
    "##tract": 0,
    "160": 0,
    "k": 0,
    "##D": 0,
    "##a": 26,
    "the": 0,
    "Sa": 0,
    "##cc": 0,
    "##har": 0,
    "##omy": 0,
    "##ces": 0,
    "c": 59,
    "##ere": 51,
    "##vis": 18,
    "##iae": 18,
    "that": 0,
    "contains": 0,
    "14": 0,
    "repeats": 0,
    "h": 0,
    "##n": 3,
    "ho": 0,
    "##mology": 0,
    "(": 0,
    ")": 0,
    "and": 3,
    "demonstrates": 0,
    "significant": 0,
    "sequence": 0,
    "to": 0,
    "family": 0,
    "proteins": 0,
    "collectively": 0,
    "known": 0,
    "as": 0,
    "v": 0,
    "##igi": 0,
    "##lins": 0,
    ".": 385,
    "As": 0,
    "first": 0,
    "step": 0,
    "towards": 0,
    "defining": 0,
    "function": 0,
    "we": 2,
    "have": 0,
    "characterized": 0,
    "sub": 0,
    "##cellular": 0,
    "distribution": 0,
    "##ivo": 0,
    "interactions": 0,
    "this": 0,
    "Using": 0,
    "su": 0,
    "##c": 1,
    "##rose": 0,
    "gradient": 0,
    "fraction": 0,
    "##ation": 0,
    "studies": 0,
    "demonstrated": 0,
    "##yt": 0,
    "##op": 0,
    "##las": 0,
    "##mic": 0,
    "l": 2,
    "##ys": 0,
    "##ates": 0,
    "predominantly": 0,
    "associated": 0,
    "with": 0,
    "p": 11,
    "##oly": 2,
    "##ri": 0,
    "##bos": 1,
    "##ome": 0,
    "##s": 48,
    "Furthermore": 0,
    "found": 0,
    "released": 0,
    "from": 0,
    "by": 0,
    "E": 0,
    "##TA": 0,
    "form": 0,
    "large": 0,
    "complex": 0,
    ">": 0,
    "=": 0,
    "1300": 0,
    "sensitive": 0,
    "both": 0,
    "R": 0,
    "##N": 0,
    "##ase": 0,
    "Na": 0,
    "##C": 0,
    "##l": 0,
    "affinity": 0,
    "ch": 4,
    "##roma": 0,
    "##tography": 0,
    "##olate": 0,
    "these": 0,
    "identified": 0,
    "two": 0,
    "components": 0,
    "other": 0,
    "than": 0,
    ":": 0,
    "binding": 0,
    "Pa": 0,
    "##b": 56,
    "##1": 0,
    "B": 2,
    "##f": 3,
    "##r": 1,
    "The": 0,
    "presence": 0,
    "confirms": 0,
    "be": 0,
    "intriguing": 0,
    "because": 0,
    "null": 0,
    "##hen": 0,
    "##otype": 0,
    "for": 0,
    "gene": 0,
    "essentially": 0,
    "same": 0,
    "reported": 0,
    "s": 33,
    "cells": 0,
    "increased": 0,
    "cell": 0,
    "size": 0,
    "##ber": 0,
    "##rant": 0,
    "DNA": 0,
    "content": 0,
    "These": 0,
    "results": 0,
    "demonstrate": 0,
    "associates": 0,
    "bound": 0,
    "imp": 0,
    "##lica": 0,
    "##ting": 0,
    "role": 0,
    "one": 0,
    "or": 0,
    "more": 0,
    "levels": 0,
    "##RNA": 0,
    "metabolism": 0,
    "IN": 0,
    "##TR": 0,
    "##OD": 0,
    "##UC": 0,
    "##TI": 0,
    "##ON": 0,
    "122": 0,
    "##2": 0,
    "amino": 0,
    "acid": 0,
    "copies": 0,
    "highly": 0,
    "conserved": 0,
    "motif": 0,
    "many": 0,
    "involved": 0,
    "RNA": 0,
    "1": 4,
    "containing": 0,
    "appear": 0,
    "diverse": 0,
    "functions": 0,
    "been": 0,
    "all": 0,
    "kingdoms": 0,
    "life": 0,
    "including": 0,
    "rib": 0,
    "##oso": 0,
    "##mal": 1,
    "S": 0,
    "##3": 1,
    "##scher": 0,
    "##ichi": 0,
    "co": 52,
    "##li": 52,
    "Me": 0,
    "me": 9,
    "##ios": 0,
    "##is": 46,
    "specific": 0,
    "##licing": 0,
    "factor": 0,
    "ME": 0,
    "##X": 0,
    "3": 0,
    "C": 0,
    "##aen": 0,
    "##or": 0,
    "##hab": 0,
    "##dit": 0,
    "el": 39,
    "##egan": 39,
    "presumably": 0,
    "local": 0,
    "##ization": 0,
    "during": 0,
    "development": 0,
    "2": 0,
    "FM": 0,
    "##RP": 0,
    "fragile": 0,
    "X": 0,
    "mental": 0,
    "re": 1,
    "##tar": 0,
    "##dation": 0,
    "humans": 0,
    "partial": 0,
    "clone": 0,
    "H": 0,
    "was": 0,
    "Whole": 0,
    "im": 2,
    "##mu": 2,
    "##no": 2,
    "##lu": 0,
    "##ores": 0,
    "##cence": 0,
    "##izes": 0,
    "##m": 0,
    "en": 0,
    "##rich": 0,
    "##ment": 0,
    "around": 0,
    "nuclear": 0,
    "envelope": 0,
    "what": 0,
    "appears": 0,
    "end": 0,
    "##tic": 0,
    "##ulum": 0,
    "Del": 0,
    "##eti": 0,
    "##on": 1,
    "SC": 0,
    "##P": 0,
    "lo": 0,
    "##cus": 0,
    "not": 0,
    "lethal": 0,
    "but": 0,
    "per": 0,
    "miss": 0,
    "##eg": 0,
    "##regation": 0,
    "genetic": 0,
    "markers": 0,
    "##por": 1,
    "##ulation": 0,
    "abnormal": 0,
    "morphology": 0,
    "irregular": 0,
    "shape": 0,
    "4": 0,
    "O": 0,
    "##er": 2,
    "##vation": 0,
    "led": 0,
    "hypothesis": 0,
    "may": 7,
    "regulating": 0,
    "##lo": 1,
    "##idy": 0,
    "division": 0,
    "More": 0,
    "recently": 0,
    "Weber": 0,
    "colleagues": 0,
    "##it": 1,
    "##ro": 0,
    "activity": 0,
    "using": 0,
    "northwestern": 0,
    "b": 78,
    "##lot": 0,
    "analyses": 0,
    ";": 0,
    "bind": 0,
    "efficiently": 0,
    "##oh": 0,
    "##omo": 0,
    "##pol": 0,
    "##yme": 0,
    "##rs": 0,
    "r": 1,
    "t": 57,
    "5": 0,
    "Cell": 0,
    "revealed": 0,
    "percentage": 0,
    "membrane": 0,
    "##elle": 0,
    "##ts": 0,
    "treatment": 0,
    "either": 0,
    "10": 0,
    "##M": 0,
    "500": 0,
    "While": 0,
    "authors": 0,
    "interpreted": 0,
    "suggest": 0,
    "/": 0,
    "ER": 0,
    "due": 0,
    "primarily": 0,
    "clear": 0,
    "evidence": 0,
    "association": 0,
    "has": 0,
    "Currently": 0,
    "relationship": 0,
    "between": 0,
    "mutant": 0,
    "remains": 0,
    "unclear": 0,
    "~": 0,
    "23": 0,
    "%": 0,
    "identity": 0,
    "40": 0,
    "similarity": 0,
    "at": 0,
    "level": 0,
    "class": 0,
    "ve": 3,
    "##rte": 0,
    "##bra": 0,
    "##te": 0,
    "First": 0,
    "chicken": 0,
    "##lin": 0,
    "##mo": 0,
    "##logue": 0,
    "now": 0,
    "human": 0,
    "6": 0,
    "##eno": 0,
    "##pus": 0,
    "la": 1,
    "##ev": 1,
    "7": 0,
    "Dr": 0,
    "##phi": 0,
    "##la": 1,
    "##lan": 12,
    "##oga": 9,
    "##ster": 9,
    "8": 0,
    "##hi": 0,
    "##zo": 0,
    "##sa": 1,
    "##omb": 6,
    "##e": 10,
    "studied": 0,
    "date": 0,
    "are": 0,
    "nuclei": 0,
    "type": 1,
    "functional": 0,
    "significance": 0,
    "remain": 0,
    "For": 0,
    "example": 0,
    "##rus": 1,
    "their": 0,
    "work": 0,
    "culture": 0,
    "transport": 0,
    "9": 0,
    "11": 0,
    "In": 0,
    "contrast": 0,
    "Do": 0,
    "##dson": 0,
    "Shapiro": 0,
    "concluded": 0,
    "response": 0,
    "est": 0,
    "##rogen": 0,
    "specifically": 0,
    "'": 0,
    "U": 0,
    "##ite": 0,
    "##llo": 0,
    "##gen": 0,
    "##in": 0,
    "12": 0,
    "potentially": 0,
    "stab": 0,
    "##ili": 0,
    "##zing": 0,
    "message": 0,
    "13": 0,
    "Last": 0,
    "##ly": 0,
    "DD": 0,
    "##log": 0,
    "interact": 0,
    "do": 0,
    "##de": 2,
    "##ca": 1,
    "satellite": 0,
    "repeat": 0,
    "regions": 0,
    "cent": 0,
    "##rome": 0,
    "##ric": 0,
    "he": 0,
    "##tero": 0,
    "##ch": 0,
    "##tin": 0,
    "em": 0,
    "##ryo": 0,
    "##nic": 6,
    "##rva": 0,
    "suggesting": 0,
    "possible": 0,
    "structure": 0,
    "goal": 0,
    "present": 0,
    "study": 0,
    "begin": 0,
    "##uc": 0,
    "##ida": 0,
    "character": 0,
    "##izing": 0,
    "mac": 3,
    "##rom": 0,
    "##ole": 0,
    "##cular": 0,
    "We": 0,
    "following": 0,
    "an": 2,
    "apparent": 0,
    "molecular": 0,
    "weight": 0,
    "approximately": 0,
    "##ffin": 0,
    "##ity": 0,
    "pu": 2,
    "##rification": 0,
    "well": 0,
    "e": 1,
    "##uka": 0,
    "15": 0,
    "Finally": 0,
    "third": 0,
    "abundant": 0,
    "previously": 0,
    "associate": 0,
    "unknown": 0,
    "del": 0,
    "reportedly": 0,
    "leads": 0,
    "remarkably": 0,
    "similar": 0,
    "16": 0,
    "indicate": 0,
    "extension": 0,
    "support": 0,
    "seen": 0,
    "its": 0,
    "To": 0,
    "our": 0,
    "knowledge": 0,
    "data": 0,
    "here": 0,
    "MA": 0,
    "##TE": 0,
    "##RI": 0,
    "##AL": 0,
    "##S": 1,
    "AND": 0,
    "##TH": 0,
    "P": 0,
    "##mi": 1,
    "##ds": 0,
    "strains": 0,
    "conditions": 0,
    "All": 0,
    "##comb": 0,
    "##ina": 1,
    "##nt": 1,
    "manipulation": 0,
    "were": 0,
    "performed": 0,
    "according": 0,
    "standard": 0,
    "techniques": 0,
    "utilized": 0,
    "strain": 2,
    "##L": 2,
    "Blue": 0,
    "St": 0,
    "##rata": 0,
    "##gene": 1,
    "J": 0,
    "##F": 0,
    "##y": 0,
    "##15": 0,
    "##11": 0,
    "expressing": 0,
    "FL": 0,
    "##AG": 0,
    "derived": 0,
    "replacement": 0,
    "y": 0,
    "##J": 0,
    "##5": 0,
    "##T": 1,
    "alpha": 0,
    "gal": 0,
    "##7": 1,
    "Delta": 0,
    "102": 0,
    "u": 0,
    "##ra": 3,
    "52": 0,
    "##rp": 2,
    "28": 0,
    "##9": 0,
    "ad": 0,
    "le": 1,
    "##u": 0,
    "112": 0,
    "generous": 0,
    "donated": 0,
    "Mark": 0,
    "Part": 0,
    "##hun": 0,
    "Judith": 0,
    "##ae": 2,
    "##hn": 0,
    "##ing": 1,
    "University": 0,
    "Colorado": 0,
    "Health": 0,
    "Sciences": 0,
    "Center": 0,
    "confirmed": 0,
    "PC": 0,
    "wild": 0,
    "coding": 0,
    "obtained": 0,
    "am": 0,
    "##lification": 0,
    "g": 23,
    "preparation": 0,
    "##K": 0,
    "GA": 0,
    "##80": 0,
    "##RA": 0,
    "mixture": 0,
    "Ta": 0,
    "##q": 1,
    "Fisher": 0,
    "##iot": 0,
    "##ech": 0,
    "##fu": 0,
    "polymer": 0,
    "##ases": 0,
    "prime": 0,
    "G": 0,
    "##CC": 0,
    "##G": 2,
    "##TC": 0,
    "##GA": 0,
    "CT": 0,
    "##AA": 0,
    "##CT": 0,
    "##GC": 0,
    "##A": 0,
    "##TT": 0,
    "upstream": 0,
    "300": 0,
    "downstream": 0,
    "##plified": 0,
    "##AC": 0,
    "##CA": 0,
    "T": 1,
    "result": 0,
    "##ant": 0,
    "did": 0,
    "##eo": 0,
    "##xy": 0,
    "se": 1,
    "##quencing": 0,
    "N": 0,
    "terminal": 0,
    "tags": 0,
    "added": 0,
    "##FL": 0,
    "CC": 0,
    "##AT": 0,
    "AA": 0,
    "##HA": 0,
    "respectively": 0,
    "integration": 0,
    "construct": 0,
    "##lone": 0,
    "##d": 0,
    "into": 0,
    "Y": 1,
    "##I": 0,
    "##21": 2,
    "17": 0,
    "Hi": 0,
    "##nd": 0,
    "##II": 0,
    "restriction": 0,
    "sites": 0,
    "tag": 0,
    "##ged": 0,
    "low": 0,
    "copy": 0,
    "number": 0,
    "##22": 0,
    "made": 0,
    "removal": 0,
    "##pa": 0,
    "fragment": 0,
    "region": 0,
    "followed": 0,
    "##len": 0,
    "##ow": 0,
    "##iga": 1,
    "##tion": 0,
    "attachment": 0,
    "Ba": 0,
    "link": 0,
    "o": 0,
    "##gon": 0,
    "##leo": 0,
    "##tide": 0,
    "Gen": 0,
    "##omi": 0,
    "sequences": 0,
    "subsequent": 0,
    "##ogen": 0,
    "##ous": 0,
    "##ele": 0,
    "achieved": 0,
    "18": 0,
    "generated": 0,
    "##fiction": 0,
    "W": 0,
    "##30": 0,
    "CA": 0,
    "##IN": 0,
    "##DR": 0,
    "ACT": 0,
    "##IP": 0,
    "promoter": 0,
    "manner": 0,
    "##SA": 0,
    "##CF": 0,
    "##BA": 0,
    "##MR": 0,
    "appropriate": 0,
    "position": 0,
    "open": 0,
    "reading": 0,
    "frame": 0,
    "backbone": 0,
    "entire": 0,
    "substituted": 0,
    "genome": 0,
    "place": 0,
    "native": 0,
    "linear": 0,
    "##ph": 0,
    "transformations": 0,
    "protocols": 0,
    "described": 0,
    "elsewhere": 0,
    "19": 0,
    "Con": 0,
    "##fi": 0,
    "##rma": 0,
    "##rified": 0,
    "GT": 0,
    "flanked": 0,
    "deleted": 0,
    "used": 0,
    "Similarly": 0,
    "##pit": 0,
    "##ope": 0,
    "on": 0,
    "Po": 0,
    "##sitive": 0,
    "further": 0,
    "western": 0,
    "analysis": 0,
    "crude": 0,
    "anti": 0,
    "antibodies": 0,
    "soluble": 0,
    "Bo": 0,
    "##eh": 0,
    "##ring": 0,
    "Mann": 0,
    "##heim": 0,
    "Pol": 0,
    "##yr": 0,
    "##ib": 0,
    "##me": 30,
    "isolation": 0,
    "##mes": 0,
    "isolated": 0,
    "combination": 0,
    "Stan": 0,
    "##sfield": 0,
    "20": 2,
    "Maurice": 0,
    "Swan": 0,
    "##son": 2,
    "personal": 0,
    "communication": 0,
    "brief": 0,
    "100": 0,
    "grown": 0,
    "##EP": 0,
    "Hart": 0,
    "##well": 0,
    "synthetic": 0,
    "medium": 0,
    "early": 0,
    "log": 0,
    "phase": 0,
    "##60": 0,
    "0": 0,
    "which": 0,
    "time": 0,
    "##he": 0,
    "##xa": 0,
    "Sigma": 0,
    "directly": 0,
    "final": 0,
    "concentration": 0,
    "micro": 1,
    "##cu": 0,
    "##bate": 0,
    "ice": 0,
    "min": 0,
    "harvested": 0,
    "##gation": 0,
    "4000": 0,
    "Following": 0,
    "wash": 0,
    "##es": 0,
    "water": 0,
    "##ed": 0,
    "##ortex": 0,
    "agitation": 0,
    "equal": 0,
    "volume": 0,
    "glass": 0,
    "beads": 0,
    "buffer": 0,
    "25": 0,
    "Tri": 0,
    "pH": 0,
    "50": 0,
    "KC": 0,
    "30": 0,
    "M": 0,
    "##g": 0,
    "beta": 0,
    "##rca": 0,
    "##pt": 0,
    "##oe": 0,
    "##than": 0,
    "##ol": 0,
    "200": 0,
    "##rot": 4,
    "##oni": 0,
    "PM": 0,
    "##SF": 0,
    "##upe": 0,
    "##64": 0,
    "##ym": 0,
    "##ost": 0,
    "##ati": 0,
    "L": 0,
    "##ate": 0,
    "transferred": 0,
    "clean": 0,
    "##ge": 0,
    "tube": 0,
    "3000": 0,
    "degrees": 0,
    "super": 0,
    "##nat": 0,
    "again": 0,
    "000": 0,
    "then": 0,
    "ass": 0,
    "##ay": 0,
    "absorb": 0,
    "##ance": 0,
    "260": 0,
    "nm": 0,
    "Approximately": 0,
    "##26": 0,
    "units": 0,
    "loaded": 0,
    "onto": 0,
    "45": 0,
    "70": 0,
    "NH": 0,
    "##4": 0,
    "##OA": 0,
    "##rad": 0,
    "##ient": 0,
    "Master": 0,
    "automatic": 0,
    "system": 0,
    "##W": 0,
    "##41": 0,
    "##ti": 2,
    "rotor": 0,
    "Beck": 0,
    "##man": 0,
    "39": 0,
    "collected": 0,
    "Is": 0,
    "##co": 0,
    "##ator": 0,
    "profiles": 0,
    "determined": 0,
    "monitoring": 0,
    "254": 0,
[...]
