{
  "B": {
    "D": 498,
    "##PP": 92,
    "##6": 65,
    "as": 122,
    "a": 424,
    "candidate": 0,
    "gene": 0,
    "for": 3,
    "ne": 26,
    "##uro": 20,
    "##le": 254,
    "##ptic": 1,
    "-": 2,
    "induced": 0,
    "ta": 110,
    "##rdi": 1,
    "##ve": 5,
    "d": 63,
    "##ys": 143,
    "##kin": 3,
    "##esi": 2,
    "##a": 295,
    ".": 0,
    "We": 0,
    "implemented": 0,
    "two": 0,
    "step": 0,
    "approach": 0,
    "to": 38,
    "detect": 0,
    "potential": 0,
    "predict": 0,
    "##or": 133,
    "variants": 0,
    "(": 471,
    "TD": 29,
    ")": 0,
    "in": 90,
    "s": 252,
    "##chi": 25,
    "##zo": 296,
    "##ph": 127,
    "##ren": 21,
    "##ic": 317,
    "subjects": 0,
    "First": 0,
    ",": 0,
    "we": 0,
    "screened": 0,
    "associations": 0,
    "by": 0,
    "using": 0,
    "genome": 0,
    "wide": 0,
    "Il": 6,
    "##lum": 1,
    "##ina": 23,
    "Human": 0,
    "##H": 493,
    "##ap": 41,
    "##C": 308,
    "##N": 200,
    "##V": 84,
    "##37": 3,
    "##0": 72,
    "S": 207,
    "##NP": 14,
    "array": 0,
    "61": 1,
    "Japanese": 0,
    "##zophrenia": 0,
    "patients": 0,
    "with": 10,
    "treatment": 0,
    "resistant": 0,
    "and": 123,
    "without": 0,
    "Next": 0,
    "performed": 0,
    "replication": 0,
    "analysis": 0,
    "36": 0,
    "138": 0,
    "non": 19,
    "An": 12,
    "association": 0,
    "of": 0,
    "an": 16,
    "the": 11,
    "dip": 35,
    "##ept": 1,
    "##idy": 11,
    "##l": 1055,
    "p": 1176,
    "##idas": 0,
    "##e": 793,
    "like": 0,
    "protein": 0,
    "6": 92,
    "r": 151,
    "##s": 732,
    "##9": 47,
    "##7": 79,
    "##8": 70,
    "##20": 22,
    "most": 0,
    "promising": 0,
    "identified": 0,
    "screen": 0,
    "was": 0,
    "significant": 0,
    "sample": 0,
    "all": 21,
    "##eli": 0,
    "##c": 486,
    "P": 819,
    "=": 0,
    "0": 0,
    "00": 0,
    "4": 154,
    "x": 44,
    "10": 5,
    "odds": 0,
    "ratio": 0,
    "2": 283,
    "32": 0,
    "combined": 0,
    "The": 0,
    "is": 118,
    "located": 0,
    "intro": 0,
    "##n": 903,
    "1": 237,
    "risk": 0,
    "##ele": 14,
    "associated": 0,
    "decreased": 0,
    "expression": 0,
    "human": 0,
    "post": 0,
    "##mor": 12,
    "##tem": 1,
    "pre": 16,
    "##front": 0,
    "##al": 74,
    "cortex": 0,
    "Ch": 17,
    "##ronic": 15,
    "administration": 0,
    "ha": 34,
    "##lop": 61,
    "##eri": 19,
    "##do": 98,
    "increased": 0,
    "##pp": 3,
    "mouse": 0,
    "brains": 0,
    "auxiliary": 0,
    "subunit": 0,
    "K": 109,
    "##v": 4,
    "##4": 150,
    "regulate": 0,
    "properties": 0,
    "which": 0,
    "activity": 0,
    "do": 161,
    "##pa": 130,
    "##mine": 213,
    "##rg": 54,
    "neurons": 0,
    "findings": 0,
    "this": 0,
    "study": 0,
    "indicate": 0,
    "that": 0,
    "altered": 0,
    "response": 0,
    "/": 0,
    "long": 3,
    "term": 0,
    "involved": 0,
    "Nan": 0,
    "##os": 244,
    "##il": 63,
    "##ver": 82,
    "effects": 0,
    "on": 4,
    "growth": 0,
    "parameters": 0,
    "experimental": 0,
    "##f": 98,
    "##lat": 106,
    "##ox": 236,
    "##ico": 48,
    "##sis": 0,
    "br": 29,
    "##oil": 0,
    "##er": 70,
    "chickens": 0,
    "A": 254,
    "cause": 0,
    "economic": 0,
    "losses": 0,
    "production": 0,
    "In": 14,
    "effect": 0,
    "one": 0,
    "commercial": 0,
    "na": 42,
    "##no": 209,
    "##com": 35,
    "##po": 82,
    "##und": 2,
    "##oc": 116,
    "##id": 238,
    "##o": 138,
    "Na": 153,
    "##b": 125,
    "Pa": 9,
    "##rs": 19,
    "Co": 83,
    "Iran": 0,
    "evaluated": 0,
    "reduction": 0,
    "##in": 818,
    "performance": 0,
    "##dices": 0,
    "suffering": 0,
    "from": 0,
    "For": 1,
    "total": 0,
    "300": 0,
    "day": 0,
    "old": 0,
    "chick": 0,
    "Ross": 0,
    "strain": 0,
    "were": 0,
    "randomly": 0,
    "divided": 0,
    "into": 0,
    "groups": 0,
    "3": 179,
    "replica": 0,
    "##tes": 26,
    "15": 12,
    "each": 0,
    "separated": 0,
    "pen": 31,
    "during": 0,
    "28": 0,
    "experiment": 0,
    "Treatment": 0,
    "including": 0,
    "group": 0,
    ":": 0,
    "fed": 0,
    "basal": 0,
    "diet": 14,
    "B": 194,
    "pp": 2,
    "##m": 82,
    "productive": 0,
    "C": 907,
    "plus": 0,
    "250": 0,
    "Data": 0,
    "body": 0,
    "weight": 0,
    "gain": 0,
    "##W": 19,
    "##G": 204,
    "feed": 0,
    "intake": 0,
    "conversion": 0,
    "FC": 4,
    "##R": 96,
    "recorded": 0,
    "at": 27,
    "weekly": 0,
    "intervals": 0,
    "Also": 0,
    "cumulative": 0,
    "data": 0,
    "assessed": 0,
    "Results": 0,
    "showed": 0,
    "although": 0,
    "supplement": 0,
    "conventional": 0,
    "had": 0,
    "no": 12,
    "but": 21,
    "addition": 0,
    "containing": 0,
    "significantly": 0,
    "consumption": 0,
    "last": 0,
    "weeks": 0,
    "period": 0,
    "improvement": 0,
    "these": 0,
    "ability": 0,
    "dim": 34,
    "##ini": 61,
    "##sh": 0,
    "inhibitor": 0,
    "##y": 320,
    "influence": 0,
    "intensity": 0,
    "smoking": 0,
    "years": 0,
    "work": 0,
    "metal": 22,
    "##lu": 165,
    "##rgy": 0,
    "pro": 134,
    "o": 322,
    "##xi": 169,
    "##dant": 0,
    "anti": 2,
    "##ida": 22,
    "##nt": 45,
    "balance": 0,
    "blood": 0,
    "##mel": 9,
    "##ters": 3,
    "aim": 0,
    "investigate": 0,
    "cigarette": 0,
    "occupational": 0,
    "exposure": 0,
    "heavy": 0,
    "metals": 0,
    "degree": 0,
    "im": 61,
    "##bal": 9,
    "##ance": 0,
    "investigations": 0,
    "urine": 0,
    "400": 0,
    "male": 4,
    "copper": 99,
    "100": 2,
    "none": 0,
    "##x": 130,
    "##posed": 0,
    "Biological": 0,
    "material": 0,
    "three": 0,
    "##smo": 0,
    "##kers": 0,
    "those": 0,
    "who": 0,
    "smoked": 0,
    "less": 0,
    "than": 0,
    "20": 5,
    "cigarettes": 0,
    "more": 0,
    "results": 0,
    "increase": 0,
    "concentration": 0,
    "lead": 0,
    "ca": 126,
    "##d": 270,
    "##mium": 83,
    "##rsen": 85,
    "while": 0,
    "caused": 0,
    "further": 0,
    "level": 0,
    "ma": 89,
    "##lon": 68,
    "##dial": 33,
    "##de": 555,
    "##hy": 299,
    "approximately": 0,
    "##fold": 0,
    "higher": 0,
    "plasma": 0,
    "compared": 0,
    "control": 0,
    "have": 0,
    "observed": 0,
    "disturbance": 0,
    "##nts": 0,
    "er": 21,
    "##yt": 42,
    "##hr": 37,
    "##yte": 0,
    "l": 190,
    "##ate": 101,
    "manifest": 0,
    "##ed": 7,
    "##lot": 6,
    "##hi": 69,
    "##one": 228,
    "g": 519,
    "##lut": 282,
    "##ath": 162,
    "##ione": 187,
    "concentrations": 0,
    "well": 0,
    "super": 64,
    "##oxide": 81,
    "di": 225,
    "##sm": 4,
    "##uta": 2,
    "##se": 13,
    "per": 74,
    "activities": 0,
    "decrease": 0,
    "transfer": 0,
    "##ase": 0,
    "##iga": 3,
    "##ret": 15,
    "##te": 294,
    "age": 2,
    "additional": 0,
    "factors": 0,
    "affecting": 0,
    "Mercury": 5,
    "induce": 0,
    "c": 595,
    "##lo": 163,
    "##gen": 83,
    "##du": 0,
    "##cible": 0,
    "ni": 222,
    "##tric": 79,
    "oxide": 11,
    "##ynth": 0,
    "Nuclear": 0,
    "factor": 0,
    "ka": 12,
    "##ppa": 0,
    "N": 492,
    "##F": 209,
    "transcription": 0,
    "media": 0,
    "variety": 0,
    "genes": 0,
    "immune": 0,
    "inflammatory": 0,
    "responses": 0,
    "activation": 0,
    "numerous": 0,
    "##lam": 28,
    "##mat": 8,
    "##ory": 4,
    "products": 0,
    "##oki": 0,
    "##nes": 46,
    "CO": 144,
    "##X": 98,
    "i": 46,
    "##OS": 17,
    "##valent": 4,
    "mercury": 50,
    "has": 0,
    "been": 0,
    "used": 0,
    "thousands": 0,
    "Although": 0,
    "clearly": 0,
    "toxic": 0,
    "##mmal": 0,
    "##ian": 0,
    "organ": 59,
    "systems": 0,
    "especially": 0,
    "system": 0,
    "still": 0,
    "some": 0,
    "areas": 0,
    "world": 0,
    "However": 0,
    "underlying": 0,
    "mechanism": 0,
    "not": 0,
    "Here": 0,
    "report": 0,
    "bio": 30,
    "##chemical": 0,
    "evidence": 0,
    "alone": 0,
    "resulting": 0,
    "suggest": 0,
    "can": 20,
    "diseases": 0,
    "lowering": 0,
    "host": 0,
    "defense": 0,
    "To": 7,
    "ch": 367,
    "##rom": 49,
    "##ium": 117,
    "tan": 18,
    "##nery": 0,
    "workers": 0,
    "Si": 85,
    "##alk": 15,
    "##ot": 29,
    "Pakistan": 0,
    "widely": 0,
    "leather": 0,
    "industry": 0,
    "are": 0,
    "under": 0,
    "constant": 0,
    "threat": 0,
    "adverse": 0,
    "health": 0,
    "due": 0,
    "its": 0,
    "excessive": 0,
    "Our": 0,
    "objective": 0,
    "find": 0,
    "out": 0,
    "240": 0,
    "males": 0,
    "consisting": 0,
    "120": 0,
    "##ner": 0,
    "##ies": 0,
    "equal": 0,
    "number": 0,
    "controls": 0,
    "included": 0,
    "Blood": 0,
    "complete": 0,
    "counts": 0,
    "high": 0,
    "sensitive": 0,
    "reactive": 0,
    "routine": 0,
    "tests": 0,
    "carried": 0,
    "procedures": 0,
    "levels": 0,
    "BC": 0,
    "##r": 186,
    "analyzed": 0,
    "graph": 129,
    "##ite": 60,
    "furnace": 0,
    "atomic": 0,
    "absorption": 0,
    "##pect": 0,
    "##rop": 76,
    "##hot": 2,
    "##ometer": 0,
    "Per": 6,
    "Elmer": 0,
    "analyst": 0,
    "200": 0,
    "revealed": 0,
    "average": 0,
    "33": 0,
    "13": 3,
    "%": 0,
    "skin": 0,
    "##ash": 0,
    "##es": 115,
    "14": 5,
    "12": 3,
    "chronic": 0,
    "##on": 48,
    "##tis": 4,
    "8": 93,
    "gas": 0,
    "##tri": 34,
    "con": 5,
    "##junct": 0,
    "##iv": 0,
    "##itis": 0,
    "raised": 0,
    "median": 0,
    "inter": 0,
    "##qua": 8,
    "##rt": 71,
    "##ile": 2,
    "range": 0,
    "56": 0,
    "37": 0,
    "72": 0,
    "nm": 0,
    "##ol": 548,
    "L": 130,
    "31": 1,
    "245": 0,
    "39": 0,
    "<": 13,
    "##1": 67,
    "Six": 0,
    "##ty": 120,
    "five": 0,
    "54": 0,
    "above": 0,
    "upper": 0,
    "limit": 0,
    "set": 0,
    "Agency": 0,
    "Sub": 1,
    "##stance": 0,
    "Drug": 0,
    "Regis": 0,
    "##try": 1,
    "u": 42,
    "##rina": 1,
    "##ry": 40,
    "ex": 0,
    "##cre": 5,
    "##tion": 1,
    "131": 0,
    "46": 0,
    "312": 0,
    "26": 1,
    "01": 0,
    "hem": 26,
    "##ato": 4,
    "##logical": 0,
    "he": 50,
    "##tic": 22,
    "re": 142,
    "##nal": 16,
    "function": 0,
    "imp": 5,
    "##air": 0,
    "##ment": 0,
    "because": 0,
    "##da": 44,
    "##tive": 0,
    "stress": 0,
    "It": 1,
    "concluded": 0,
    "about": 0,
    "half": 1,
    "They": 0,
    "their": 0,
    "biological": 0,
    "fluids": 0,
    "enhanced": 0,
    "changes": 0,
    "Fish": 0,
    "##tam": 61,
    "q": 92,
    "##uant": 6,
    "##ifying": 0,
    "weighing": 0,
    "benefits": 0,
    "risks": 0,
    "This": 0,
    "paper": 0,
    "describes": 0,
    "quantitative": 0,
    "benefit": 0,
    "assessment": 0,
    "fish": 0,
    "compare": 0,
    "net": 0,
    "expressed": 0,
    "##AL": 0,
    "##Y": 71,
    "scenarios": 0,
    "reference": 0,
    "scenario": 0,
    "current": 0,
    "Dutch": 0,
    "population": 0,
    "what": 0,
    "recommended": 0,
    "authorities": 0,
    "alternative": 0,
    "if": 11,
    "consume": 0,
    "##g": 294,
    "week": 0,
    "close": 0,
    "recommendation": 0,
    "All": 6,
    "there": 0,
    "convincing": 0,
    "incorporated": 0,
    "Q": 42,
    "##IB": 1,
    "##RA": 5,
    "software": 0,
    "www": 0,
    "##ali": 64,
    "##bra": 12,
    "e": 52,
    "##u": 234,
    "si": 109,
    "##mu": 6,
    "##late": 14,
    "show": 0,
    "it": 7,
    "Pro": 21,
    "##tec": 0,
    "honey": 0,
    "against": 0,
    "smoke": 0,
    "impaired": 0,
    "sexual": 0,
    "behavior": 0,
    "fertility": 0,
    "rats": 0,
    "##function": 0,
    "determine": 0,
    "protective": 0,
    "CS": 19,
    "Thirty": 0,
    "adult": 0,
    "##pra": 29,
    "##gue": 0,
    "Da": 4,
    "##wley": 0,
    "four": 0,
    "H": 415,
    "+": 0,
    "Rat": 0,
    "received": 0,
    "oral": 0,
    "##st": 23,
    "##ille": 0,
    "water": 0,
    "daily": 0,
    "kg": 0,
    "##ava": 0,
    "##ge": 0,
    "also": 0,
    "exposed": 0,
    "min": 12,
    "times": 0,
    "From": 0,
    "rat": 0,
    "co": 130,
    "##hab": 0,
    "##ited": 0,
    "un": 8,
    "##tre": 19,
    "##ated": 11,
    "female": 0,
    "behavioral": 0,
    "reproductive": 0,
    "studies": 0,
    "Honey": 0,
    "percentage": 0,
    "achieving": 0,
    "##mission": 0,
    "##ja": 1,
    "##cula": 0,
    "mating": 0,
    "index": 0,
    "Thus": 0,
    "##elo": 1,
    "##pathic": 0,
    "Mi": 15,
    "##kan": 5,
    "##ia": 45,
    "scan": 2,
    "##den": 11,
    "Preliminary": 0,
    "investigation": 0,
    "plant": 0,
    "extract": 0,
    "seed": 0,
    "##mination": 0,
    "##hibition": 0,
    "##ass": 1,
    "##ay": 0,
    "aerial": 0,
    "parts": 0,
    "Act": 2,
    "##ivity": 0,
    "guided": 0,
    "fraction": 0,
    "##ation": 0,
    "M": 316,
    "led": 1,
    "isolation": 0,
    "highly": 0,
    "active": 0,
    "compound": 0,
    "mi": 31,
    "##oli": 27,
    "minimum": 0,
    "08": 0,
    "##3": 247,
    "micro": 4,
    "m": 52,
    "##L": 73,
    "As": 103,
    "abundant": 0,
    "invasive": 0,
    "Sri": 0,
    "Lanka": 0,
    "other": 0,
    "South": 0,
    "Asian": 0,
    "countries": 0,
    "could": 0,
    "be": 17,
    "developed": 0,
    "environment": 0,
    "friendly": 0,
    "natural": 0,
    "herb": 0,
    "##icide": 0,
    "either": 0,
    "crude": 0,
    "form": 26,
    "##edd": 0,
    "or": 23,
    "pure": 0,
    "major": 0,
    "constituent": 0,
    "~": 0,
    "02": 0,
    "Det": 0,
    "##ec": 13,
    "##oly": 453,
    "##cy": 241,
    "##lic": 110,
    "##romatic": 10,
    "h": 190,
    "##ydro": 186,
    "##car": 85,
    "##bon": 32,
    "different": 0,
    "types": 0,
    "processed": 0,
    "foods": 0,
    "Pol": 54,
    "PC": 69,
    "##A": 463,
    "particularly": 0,
    "molecular": 0,
    "classified": 0,
    "probable": 0,
    "car": 173,
    "##cin": 277,
    "##ogen": 7,
    "humans": 0,
    "present": 0,
    "samples": 0,
    "meat": 0,
    "chicken": 0,
    "fried": 1,
    "potato": 0,
    "toast": 0,
    "bread": 0,
    "will": 0,
    "thermal": 0,
    "##ly": 173,
    "microwave": 0,
    "oven": 0,
    "Different": 0,
    "collected": 0,
    "##yre": 37,
    "##ne": 595,
    "ben": 145,
    "ant": 55,
    "##hra": 13,
    "##cene": 13,
    "##lour": 2,
    "##oan": 2,
    "##the": 15,
    "analytical": 0,
    "method": 0,
    "involves": 0,
    "sa": 97,
    "##ni": 140,
    "##fication": 0,
    "met": 346,
    "##han": 78,
    "##olic": 81,
    "potassium": 23,
    "extraction": 0,
    "##he": 47,
    "##xa": 202,
    "determination": 0,
    "liquid": 0,
    "##roma": 6,
    "##tography": 0,
    "obtained": 0,
    "variation": 0,
    "detected": 0,
    "##tu": 0,
    "##ffs": 0,
    "Fr": 6,
    "##ied": 0,
    "selected": 0,
    "studied": 0,
    "found": 0,
    "content": 0,
    "highest": 0,
    "mean": 0,
    "flu": 66,
    "##oran": 7,
    "within": 0,
    "low": 0,
    "international": 0,
    "##missible": 0,
    "avoid": 0,
    "pollution": 0,
    "may": 1,
    "hazardous": 0,
    "individual": 0,
    "society": 0,
    "Effect": 0,
    "T": 437,
    "##ov": 18,
    "##it": 83,
    "R": 134,
    "Jet": 0,
    "structure": 0,
    "th": 165,
    "##ora": 24,
    "##ci": 41,
    "##hia": 9,
    "t": 337,
    "##rich": 8,
    "##ome": 23,
    "Dr": 1,
    "##oso": 14,
    "##phi": 46,
    "##la": 58,
    "me": 73,
    "##lan": 11,
    "##oga": 1,
    "##ster": 234,
    "Wide": 0,
    "fungi": 0,
    "##cid": 9,
    "##est": 27,
    "##icides": 0,
    "known": 0,
    "profound": 0,
    "several": 0,
    "##tar": 1,
    "##get": 8,
    "organisms": 0,
    "concern": 0,
    "aims": 0,
    "demonstrate": 0,
    "##pid": 20,
    "##mal": 7,
    "dorsal": 0,
    "##orax": 0,
    "External": 0,
    "morphology": 0,
    "structural": 0,
    "variations": 0,
    "app": 0,
    "##end": 3,
    "##ages": 0,
    "extensively": 0,
    "scanning": 0,
    "electron": 0,
    "##scope": 0,
    "flies": 0,
    "treated": 0,
    "30": 0,
    "40": 0,
    "Similar": 0,
    "cap": 6,
    "##tan": 42,
    "##ta": 90,
    "##fo": 50,
    "reported": 0,
    "produce": 0,
    "so": 11,
    "##matic": 2,
    "mutations": 0,
    "same": 0,
    "organism": 0,
    "successfully": 0,
    "demonstrates": 0,
    "St": 15,
    "##ructural": 0,
    "maximum": 0,
    "notable": 0,
    "change": 0,
    "gross": 0,
    "abnormal": 0,
    "##ity": 0,
    "mutation": 0,
    "proteins": 0,
    "normal": 0,
    "cut": 0,
    "##icular": 0,
    "deposition": 0,
    "Screen": 0,
    "##ing": 1,
    "##mo": 82,
    "##lator": 0,
    "Moroccan": 0,
    "medicinal": 0,
    "plants": 0,
    "Herb": 2,
    "traditional": 0,
    "medicines": 0,
    "being": 0,
    "practice": 0,
    "many": 0,
    "treating": 0,
    "##ments": 0,
    "large": 0,
    "Morocco": 0,
    "folk": 0,
    "medicine": 0,
    "treat": 0,
    "related": 0,
    "disorders": 0,
    "evaluate": 0,
    "##Es": 0,
    "tested": 0,
    "proliferation": 0,
    "cells": 0,
    "prepared": 0,
    "##TT": 44,
    "5": 217,
    "##eth": 128,
    "##yl": 344,
    "##thi": 33,
    "##az": 108,
    "##hen": 273,
    "##tra": 86,
    "##lium": 16,
    "##omi": 28,
    "ass": 0,
    "##ple": 0,
    "stimulation": 0,
    "##can": 6,
    "##lin": 37,
    "Con": 2,
    "mit": 12,
    "##ogenic": 7,
    "agent": 0,
    "positive": 0,
    "indicated": 0,
    "##ra": 15,
    "Three": 0,
    "first": 0,
    "represented": 0,
    "##ru": 53,
    "##llus": 0,
    "##loc": 5,
    "##is": 170,
    "U": 60,
    "##ica": 10,
    "##oi": 49,
    "##ca": 26,
    "El": 1,
    "##etta": 0,
    "##ria": 52,
    "card": 10,
    "##amo": 3,
    "##mum": 0,
    "Cap": 1,
    "##par": 54,
    "spin": 8,
    "##osa": 21,
    "Piper": 1,
    "cube": 1,
    "##ba": 68,
    "##nos": 35,
    "##up": 32,
    "##pressive": 0,
    "second": 0,
    "##ti": 68,
    "Ari": 3,
    "##sto": 3,
    "##tura": 1,
    "##mon": 14,
    "Mar": 0,
    "##bi": 32,
    "##um": 97,
    "v": 59,
    "##ul": 4,
    "##gar": 13,
    "Sin": 3,
    "##gra": 5,
    "Del": 1,
    "##phy": 46,
    "##nium": 30,
    "##sa": 43,
    "Le": 6,
    "sat": 0,
    "Am": 22,
    "##mi": 164,
    "##na": 43,
    "##ga": 28,
    "Te": 13,
    "##lini": 17,
    "art": 11,
    "##ulata": 0,
    "rest": 0,
    "did": 1,
    "alter": 4,
    "result": 0,
    "important": 0,
    "##E": 117,
    "conclusion": 0,
    "interesting": 0,
    "##lating": 0,
    "action": 0,
    "certain": 0,
    "explain": 0,
    "use": 0,
    "implications": 0,
    "therapeutic": 0,
    "infections": 0,
    "such": 0,
    "prop": 32,
    "##hyl": 256,
    "##actic": 0,
    "ad": 59,
    "##ju": 0,
    "##vant": 0,
    "cancer": 0,
    "##em": 52,
    "##otherapy": 0,
    "##tero": 193,
    "##idal": 14,
    "##nin": 103,
    "Op": 0,
    "##op": 186,
    "##ogo": 7,
    "j": 18,
    "##apon": 0,
    "##icus": 0,
    "Lil": 0,
    "##iac": 0,
    "##eae": 0,
    "via": 0,
    "mass": 0,
    "##rome": 1,
    "simple": 0,
    "accurate": 0,
    "simultaneous": 0,
    "##ification": 0,
    "roots": 0,
    "HP": 23,
    "##LC": 1,
    "MS": 9,
    "Sep": 0,
    "##ara": 3,
    "Tiger": 0,
    "18": 7,
    "column": 0,
    "detection": 0,
    "mobile": 0,
    "phase": 0,
    "consisted": 0,
    "acid": 0,
    "ace": 166,
    "##ton": 21,
    "##ril": 40,
    "flow": 0,
    "rate": 0,
    "valid": 0,
    "linear": 1,
    "precision": 0,
    "repeat": 0,
    "##ability": 0,
    "stability": 0,
    "recovery": 0,
    "limits": 0,
    "provides": 0,
    "good": 0,
    ">": 0,
    "99": 4,
    "RS": 27,
    "##D": 153,
    "05": 0,
    "93": 0,
    "82": 0,
    "102": 0,
    "84": 0,
    "considered": 0,
    "suitable": 0,
    "quality": 0,
    "O": 180,
    "new": 0,
    "##cos": 46,
    "##ides": 56,
    "Re": 37,
    "##ine": 700,
    "##cki": 0,
    "##nea": 0,
    "Two": 0,
    "##pi": 137,
    "##ros": 52,
    "##tano": 14,
    "##ls": 84,
    "fur": 22,
    "##ost": 25,
    "##ano": 45,
    "##ino": 127,
    "##ide": 152,
    "isolated": 0,
    "together": 0,
    "compounds": 0,
    "25": 34,
    "##S": 232,
    "beta": 90,
    "##ri": 50,
    "##dr": 113,
    "y": 0,
    "##copy": 4,
    "##rano": 7,
    "##side": 79,
    "kit": 1,
    "##ige": 9,
    "structures": 0,
    "el": 11,
    "##uc": 118,
    "##idated": 0,
    "##copic": 0,
    "methods": 0,
    "##MR": 3,
    "spectrum": 0,
    "##cer": 116,
    "Season": 0,
    "##mark": 0,
    "##ers": 10,
    "blue": 0,
    "##uss": 0,
    "##el": 38,
    "My": 4,
    "##til": 6,
    "##us": 17,
    "ed": 2,
    "##uli": 13,
    "Icelandic": 0,
    "##cal": 16,
    "island": 0,
    "Atlantic": 0,
    "G": 354,
    "##ad": 20,
    "##hua": 0,
    "environmental": 0,
    "monitoring": 0,
    "Bar": 0,
    "##ents": 0,
    "Sea": 0,
    "limited": 0,
    "relevant": 0,
    "indicators": 0,
    "various": 0,
    "##ors": 0,
    "hind": 0,
    "##ered": 0,
    "development": 0,
    "consistent": 0,
    "scientific": 0,
    "basis": 0,
    "selecting": 0,
    "indicator": 0,
    "species": 0,
    "developing": 0,
    "practical": 0,
    "Accordingly": 0,
    "main": 0,
    "develop": 0,
    "common": 0,
    "base": 0,
    "##line": 98,
    "values": 0,
    "identify": 0,
    "strengths": 0,
    "limitations": 0,
    "Blue": 0,
    "sampled": 0,
    "north": 0,
    "Norwegian": 0,
    "f": 166,
    "##jord": 0,
    "March": 0,
    "June": 0,
    "September": 0,
    "December": 0,
    "2010": 0,
    "Digest": 0,
    "##ive": 0,
    "glands": 0,
    "bi": 147,
    "##val": 0,
    "liver": 0,
    "anal": 0,
    "cat": 64,
    "##ala": 7,
    "[": 168,
    "CA": 37,
    "##T": 189,
    "]": 0,
    "GP": 5,
    "##ST": 3,
    "lip": 4,
    "##io": 93,
    "##bar": 24,
    "##bit": 23,
    "##uri": 54,
    "substances": 0,
    "##BA": 52,
    "##RS": 4,
    "##xy": 257,
    "##rad": 31,
    "##ical": 4,
    "##ven": 0,
    "##ging": 0,
    "capacity": 0,
    "TO": 2,
    "##SC": 5,
    "##ns": 39,
    "##formation": 0,
    "et": 96,
    "##ho": 100,
    "##res": 11,
    "##uf": 6,
    "de": 73,
    "##yla": 79,
    "ER": 0,
    "##OD": 1,
    "general": 0,
    "membrane": 0,
    "##MS": 35,
    "##cent": 0,
    "##rations": 0,
    "PA": 69,
    "##ves": 1,
    "meta": 4,
    "##bol": 25,
    "##ites": 0,
    "##ified": 0,
    "Finally": 0,
    "energy": 0,
    "reserves": 0,
    "##ids": 114,
    "##bo": 50,
    "##dra": 41,
    "transport": 0,
    "ET": 5,
    "dig": 4,
    "##estive": 0,
    "##land": 28,
    "provided": 0,
    "background": 0,
    "information": 0,
    "cycle": 0,
    "physiological": 0,
    "status": 0,
    "very": 0,
    "similar": 0,
    "trends": 0,
    "seasonal": 0,
    "##lines": 0,
    "weaker": 0,
    "var": 0,
    "##iability": 0,
    "events": 0,
    "und": 1,
    "##ete": 3,
    "##cted": 0,
    "time": 0,
    "between": 0,
    "sampling": 0,
    "occasions": 0,
    "Ph": 58,
    "##iol": 94,
    "##ogical": 0,
    "complementary": 0,
    "commonly": 0,
    "they": 0,
    "valuable": 0,
    "Inter": 0,
    "##p": 288,
    "##reta": 0,
    "difficult": 0,
    "preferred": 0,
    "over": 0,
    "enzyme": 0,
    "reporting": 0,
    "sub": 0,
    "Arctic": 0,
    "location": 0,
    "Overall": 0,
    "adequate": 0,
    "interpret": 0,
    "abundance": 0,
    "ease": 0,
    "handle": 0,
    "distribution": 0,
    "southern": 0,
    "##bard": 0,
    "##ought": 0,
    "episode": 0,
    "##od": 27,
    "##ulates": 0,
    "river": 0,
    "##film": 0,
    "##ric": 32,
    "##los": 23,
    "##an": 70,
    "consequences": 0,
    "global": 0,
    "rivers": 0,
    "include": 0,
    "regime": 0,
    "entrance": 0,
    "When": 0,
    "scarce": 0,
    "reduced": 8,
    "##lution": 0,
    "am": 116,
    "##lify": 0,
    "chemical": 0,
    "Therefore": 0,
    "studying": 0,
    "communities": 0,
    "compromised": 0,
    "##ants": 0,
    "critical": 0,
    "assessing": 0,
    "how": 0,
    "affect": 0,
    "ecosystems": 0,
    "drought": 0,
    "might": 0,
    "pulses": 0,
    "##CS": 15,
    "objectives": 0,
    "assess": 0,
    "separate": 0,
    "simulated": 0,
    "achieved": 0,
    "through": 0,
    "drastic": 0,
    "growing": 0,
    "artificial": 0,
    "channels": 0,
    "conditions": 0,
    "Control": 0,
    ";": 0,
    "##lated": 14,
    "days": 0,
    "interrupted": 0,
    "only": 0,
    "48": 0,
    "pulse": 0,
    "then": 0,
    "left": 0,
    "steady": 0,
    "Several": 0,
    "des": 9,
    "##cript": 0,
    "before": 0,
    "after": 0,
    "Flow": 0,
    "subsequent": 0,
    "interrupt": 0,
    "##ion": 20,
    "##voke": 0,
    "extra": 0,
    "##cellular": 0,
    "##hos": 163,
    "##pha": 56,
    "##tase": 0,
    "bacterial": 0,
    "mortality": 0,
    "green": 0,
    "algae": 0,
    "##mass": 0,
    "severely": 0,
    "affected": 0,
    "drastically": 0,
    "photos": 0,
    "##etic": 0,
    "efficiency": 0,
    "##bility": 0,
    "bacteria": 0,
    "##ms": 0,
    "phosphate": 27,
    "up": 0,
    "##take": 1,
    "Late": 0,
    "evidenced": 0,
    "recovered": 0,
    "far": 1,
    "better": 0,
    "subjected": 0,
    "both": 0,
    "latter": 0,
    "suffered": 0,
    "persistent": 0,
    "indicating": 0,
    "##plified": 0,
    "toxicity": 0,
    "finding": 0,
    "suggests": 0,
    "poll": 0,
    "##ace": 31,
    "##rb": 25,
    "following": 0,
    "composition": 0,
    "##eno": 147,
    "##to": 116,
    "essential": 0,
    "oil": 0,
    "##ep": 45,
    "##eta": 24,
    "n": 111,
    "##uda": 0,
    "Z": 192,
    "##ea": 4,
    "##lings": 0,
    "aimed": 0,
    "E": 247,
    "##O": 531,
    "measured": 0,
    "contents": 0,
    "alpha": 114,
    "7": 72,
    "##pet": 1,
    "##cton": 22,
    "##ma": 13,
    "68": 0,
    "38": 0,
    "'": 0,
    "seeds": 0,
    "root": 0,
    "stem": 0,
    "Random": 0,
    "##morphic": 0,
    "DNA": 0,
    "RA": 16,
    "##PD": 2,
    "Some": 0,
    "occurred": 0,
    "profiles": 0,
    "##minated": 13,
    "Even": 0,
    "though": 0,
    "soluble": 0,
    "quantity": 0,
    "vary": 0,
    "sodium": 118,
    "su": 131,
    "##phate": 21,
    "##ac": 82,
    "##ryl": 94,
    "##ami": 117,
    "gel": 0,
    "electro": 0,
    "##ores": 16,
    "SD": 5,
    "##GE": 23,
    "little": 0,
    "differentiation": 0,
    "band": 0,
    "interactions": 0,
    "##pathy": 0,
    "Let": 0,
    "##hali": 13,
    "accumulation": 0,
    "##net": 11,
    "##ics": 1,
    "aluminum": 11,
    "tissues": 0,
    "al": 128,
    "##bino": 10,
    "lethal": 0,
    "percent": 0,
    "##iles": 0,
    "doses": 0,
    "##50": 11,
    "kidney": 0,
    "##test": 0,
    "brain": 0,
    "serum": 0,
    "single": 0,
    "throughout": 0,
    "estimated": 0,
    "24": 16,
    "45": 0,
    "Al": 88,
    "b": 118,
    "w": 5,
    "##t": 116,
    "utilized": 0,
    "dose": 0,
    "50": 0,
    "07": 0,
    "##umi": 73,
    "##num": 2,
    "residues": 0,
    "periods": 0,
    "negatively": 0,
    "correlated": 0,
    "##inal": 11,
    "corresponding": 0,
    "except": 0,
    "when": 0,
    "Ki": 0,
    "##ically": 0,
    "area": 0,
    "curves": 0,
    "AU": 1,
    "##tal": 28,
    "moment": 0,
    "##MC": 23,
    "followed": 0,
    "longest": 0,
    "elimination": 0,
    "life": 0,
    "residence": 0,
    "MR": 0,
    "On": 0,
    "hand": 0,
    "slow": 0,
    "clearance": 0,
    "rates": 0,
    "order": 0,
    "##z": 18,
    "com": 0,
    "##puted": 0,
    "respectively": 0,
    "starting": 0,
    "##ET": 13,
    "##CT": 3,
    "##ED": 9,
    "Bel": 2,
    "##uga": 2,
    "Hu": 0,
    "##so": 26,
    "acute": 0,
    "diesel": 0,
    "Po": 13,
    "##ten": 5,
    "##tial": 0,
    "tumor": 0,
    "suppress": 0,
    "role": 0,
    "mon": 92,
    "##og": 20,
    "color": 0,
    "MG": 2,
    "recently": 0,
    "regulation": 0,
    "cellular": 0,
    "regulatory": 0,
    "processes": 0,
    "context": 0,
    "##li": 33,
    "##gna": 9,
    "##ncy": 0,
    "investigated": 0,
    "absent": 0,
    "majority": 0,
    "primary": 9,
    "I": 90,
    "##mm": 1,
    "##uno": 1,
    "##his": 5,
    "predominantly": 0,
    "##ous": 1,
    "##pit": 9,
    "##hel": 6,
    "##ial": 4,
    "reside": 0,
    "core": 0,
    "surface": 0,
    "##elle": 0,
    "named": 0,
    "Furthermore": 0,
    "interact": 0,
    "selective": 0,
    "##dic": 3,
    "##ito": 26,
    "##2": 493,
    "##iti": 19,
    "##des": 48,
    "among": 0,
    "interaction": 0,
    "##I": 76,
    "strongest": 0,
    "##ex": 16,
    "##press": 0,
    "suppressed": 0,
    "colony": 0,
    "formation": 0,
    "cell": 0,
    "lines": 0,
    "knock": 0,
    "##down": 0,
    "resulted": 0,
    "##kt": 0,
    "##lation": 0,
    "Take": 0,
    "our": 0,
    "plays": 0,
    "negative": 0,
    "##dy": 31,
    "##lino": 15,
    "##si": 34,
    "kinase": 0,
    "signaling": 0,
    "Chemical": 0,
    "constituents": 0,
    "##ip": 56,
    "##sitic": 0,
    "##dron": 6,
    "bra": 0,
    "##chy": 0,
    "##sta": 52,
    "DC": 55,
    "##utt": 0,
    "V": 59,
    "##ceae": 0,
    "distributed": 0,
    "belongs": 0,
    "family": 0,
    "substitute": 0,
    "European": 0,
    "mist": 0,
    "##let": 6,
    "##oe": 18,
    "##oro": 66,
    "component": 0,
    "47": 0,
    "##tone": 16,
    "19": 6,
    "sit": 5,
    "##ery": 2,
    "##gma": 6,
    "##lea": 0,
    "##ero": 24,
    "##con": 51,
    "sq": 14,
    "##ual": 13,
    "##ene": 197,
    "##yr": 181,
    "##upe": 6,
    "##non": 33,
    "bet": 11,
    "##ulin": 25,
    "##ulon": 2,
    "##lean": 25,
    "##nic": 21,
    "fl": 112,
    "##av": 94,
    "##ono": 102,
    "##ce": 80,
    "##tin": 158,
    "##her": 5,
    "There": 0,
    "previous": 0,
    "reports": 0,
    "literature": 0,
    "source": 0,
    "##gly": 49,
    "##pert": 0,
    "##ens": 2,
    "##K": 45,
    "facilitate": 0,
    "my": 36,
    "##RE": 3,
    "rap": 13,
    "##am": 83,
    "multiple": 0,
    "##TO": 9,
    "##alog": 0,
    "prevent": 0,
    "dependent": 0,
    "translation": 0,
    "continuing": 0,
    "depends": 0,
    "independent": 0,
    "mediated": 0,
    "internal": 0,
    "rib": 33,
    "##me": 83,
    "entry": 0,
    "sites": 0,
    "##TR": 0,
    "region": 0,
    "trans": 11,
    "##cripts": 0,
    "##M": 135,
    "Rap": 3,
    "##P": 374,
    "activated": 0,
    "specimens": 0,
    "##arma": 0,
    "##cological": 0,
    "genetic": 0,
    "##len": 44,
    "##cing": 0,
    "prevented": 0,
    "##re": 40,
    "##gu": 7,
    "##bro": 31,
    "##gated": 0,
    "contrast": 0,
    "RNA": 0,
    "specimen": 0,
    "se": 181,
    "##zed": 0,
    "##ored": 0,
    "##uction": 0,
    "Studies": 0,
    "null": 0,
    "em": 9,
    "##ryo": 2,
    "fi": 23,
    "##blast": 4,
    "additionally": 0,
    "supported": 0,
    "These": 0,
    "fail": 0,
    "safe": 0,
    "##hibit": 0,
    "regulated": 0,
    "sensitivity": 0,
    "provide": 0,
    "rational": 0,
    "##ally": 0,
    "targeting": 0,
    "Up": 0,
    "##CR": 0,
    "functional": 0,
    "crucial": 0,
    "maintenance": 0,
    "##ness": 0,
    "drug": 0,
    "small": 0,
    "lung": 0,
    "hypothesis": 0,
    "proposed": 0,
    "failure": 0,
    "Previously": 0,
    "demonstrated": 0,
    "acquisition": 0,
    "##sen": 0,
    "transition": 8,
    "feature": 0,
    "reminiscent": 0,
    "##ef": 24,
    "##5": 103,
    "contain": 0,
    "proportion": 0,
    "responsible": 0,
    "having": 0,
    "self": 0,
    "renewal": 0,
    "##ro": 110,
    "##ivo": 0,
    "exhibited": 0,
    "strong": 0,
    "sphere": 0,
    "forming": 0,
    "secret": 0,
    "parent": 0,
    "AM": 46,
    "##31": 3,
    "##00": 1,
    "##RNA": 0,
    "##fect": 0,
    "ST": 13,
    "##AT": 11,
    "Y": 20,
    "##70": 7,
    "wild": 0,
    "type": 0,
    "PT": 46,
    "##EN": 21,
    "whereas": 0,
    "mutant": 0,
    "W": 34,
    "##10": 12,
    "downstream": 0,
    "FA": 4,
    "sorted": 0,
    "formed": 0,
    "spheres": 0,
    "radiation": 0,
    "resistance": 0,
    "stronger": 0,
    "Len": 0,
    "##vir": 57,
    "##duction": 0,
    "##46": 1,
    "introduction": 0,
    "candidates": 0,
    "maintain": 0,
    "##dated": 0,
    "pathway": 0,
    "target": 0,
    "eliminating": 0,
    "##gnant": 0,
    "Role": 0,
    "##pie": 0,
    "successful": 0,
    "##fying": 0,
    "delivery": 0,
    "SE": 0,
    "##DS": 5,
    "SM": 1,
    "##phobic": 0,
    "presents": 0,
    "challenge": 0,
    "##que": 0,
    "##lub": 1,
    "##ility": 0,
    "Self": 0,
    "##ropic": 3,
    "mixture": 0,
    "oils": 0,
    "surf": 0,
    "##act": 14,
    "solvent": 0,
    "design": 0,
    "formulation": 0,
    "improve": 0,
    "##hil": 4,
    "said": 0,
    "##ant": 84,
    "polar": 0,
    "##sion": 0,
    "drop": 0,
    "size": 0,
    "charge": 0,
    "essence": 0,
    "specific": 0,
    "pharmaceutical": 0,
    "combinations": 0,
    "efficient": 0,
    "With": 0,
    "interest": 0,
    "field": 0,
    "increasing": 0,
    "need": 0,
    "guidelines": 0,
    "selection": 0,
    "obtain": 0,
    "effective": 0,
    "improved": 0,
    "##ila": 2,
    "review": 0,
    "recent": 0,
    "approaches": 0,
    "appropriate": 0,
    "characterization": 0,
    "dos": 0,
    "##age": 0,
    "##cter": 0,
    "Men": 4,
    "##tha": 4,
    "##qui": 29,
    "##eni": 75,
    "##i": 111,
    "Ben": 0,
    "##tham": 0,
    "##dis": 0,
    "fresh": 0,
    "Lam": 0,
    "Gen": 10,
    "##nar": 10,
    "##gent": 0,
    "Mountains": 0,
    "Sardinia": 0,
    "Italy": 0,
    "pu": 15,
    "##leg": 1,
    "78": 0,
    "men": 8,
    "##th": 65,
    "##hone": 4,
    "##ule": 1,
    "##gon": 7,
    "limo": 9,
    "##nen": 9,
    "76": 0,
    "##fu": 23,
    "##nga": 0,
    "means": 0,
    "helpful": 0,
    "prevention": 0,
    "contamination": 0,
    "indoor": 0,
    "environments": 0,
    "Carbon": 15,
    "sources": 0,
    "medium": 1,
    "pH": 1,
    "affects": 0,
    "##ania": 0,
    "##nife": 0,
    "Du": 1,
    "advent": 0,
    "##lide": 28,
    "deals": 0,
    "op": 4,
    "##mis": 0,
    "suspension": 0,
    "culture": 0,
    "Sol": 12,
    "##ana": 13,
    "carbon": 213,
    "initial": 0,
    "cultures": 0,
    "##rose": 20,
    "best": 0,
    "113": 0,
    "58": 0,
    "F": 144,
    "11": 25,
    "dry": 2,
    "secondary": 2,
    "mg": 0,
    "optimal": 0,
    "9": 16,
    "09": 0,
    "##mp": 3,
    "##aris": 2,
    "##har": 0,
    "##co": 100,
    "##etics": 0,
    "##ag": 12,
    "dogs": 0,
    "##mes": 23,
    "##layer": 0,
    "tablets": 0,
    "##sper": 3,
    "##sible": 0,
    "purpose": 0,
    "release": 0,
    "administered": 0,
    "determined": 0,
    "calculated": 0,
    "##tment": 0,
    "model": 0,
    "pattern": 0,
    "burst": 0,
    "sustained": 0,
    "quasi": 0,
    "Fi": 5,
    "diffusion": 0,
    "based": 0,
    "curve": 0,
    "81": 0,
    "95": 0,
    "44": 0,
    "Compared": 0,
    "lower": 0,
    "longer": 0,
    "aforementioned": 0,
    "evaluating": 0,
    "characteristics": 0,
    "evaluation": 0,
    "##ject": 0,
    "##able": 0,
    "##LA": 41,
    "##lants": 0,
    "controlled": 0,
    "##ct": 149,
    "Class": 0,
    "II": 0,
    "IS": 5,
    "##grad": 0,
    "polymer": 0,
    "la": 101,
    "##tible": 0,
    "##eral": 5,
    "IV": 4,
    "##asi": 2,
    "##rol": 230,
    "##ido": 51,
    "##MP": 29,
    "##tine": 72,
    "##zy": 27,
    "##B": 308,
    "Hansen": 0,
    "leading": 0,
    "##ological": 0,
    "behaviour": 0,
    "exclusion": 0,
    "determining": 0,
    "##isco": 0,
    "##sity": 6,
    "solutions": 0,
    "decreasing": 0,
    "Sc": 25,
    "##ann": 0,
    "##sco": 1,
    "##py": 52,
    "relationship": 0,
    "##lant": 2,
    "##ffin": 1,
    "##ities": 0,
    "degradation": 0,
    "accelerated": 0,
    "generated": 0,
    "Hz": 0,
    "electromagnetic": 0,
    "memory": 0,
    "consolidation": 0,
    "mice": 0,
    "extremely": 0,
    "frequency": 0,
    "##LF": 0,
    "##MF": 10,
    "six": 0,
    "Using": 0,
    "passive": 0,
    "task": 0,
    "despite": 0,
    "tendency": 0,
    "learns": 0,
    "stay": 0,
    "platform": 0,
    "electric": 0,
    "shock": 0,
    "Immediately": 0,
    "learning": 0,
    "session": 0,
    "laboratory": 0,
    "animals": 0,
    "placed": 0,
    "sin": 10,
    "##oid": 33,
    "##ham": 34,
    "device": 0,
    "off": 0,
    "third": 0,
    "Twenty": 0,
    "hours": 0,
    "again": 0,
    "down": 0,
    "late": 0,
    "Sign": 0,
    "##ificant": 0,
    "decreases": 0,
    "devastating": 0,
    "##ane": 50,
    "##rite": 37,
    "##rp": 63,
    "Sal": 11,
    "##ix": 2,
    "##rea": 73,
    "goat": 0,
    "##ow": 0,
    "##graphic": 0,
    "techniques": 0,
    "en": 17,
    "16": 5,
    "along": 0,
    "fatty": 95,
    "alcohol": 69,
    "established": 0,
    "##SI": 8,
    "2D": 1,
    "experiments": 0,
    "moderate": 0,
    "##las": 2,
    "##hor": 28,
    "##bia": 0,
    "##ber": 7,
    "part": 0,
    "identification": 0,
    "##ade": 5,
    "##cano": 3,
    "##pe": 24,
    "##art": 28,
    "23": 0,
    "##lag": 8,
    "##ella": 0,
    "##gic": 2,
    "Their": 0,
    "spectral": 0,
    "experiences": 0,
    "confirmed": 0,
    "comparing": 0,
    "Structure": 0,
    "##ket": 13,
    "##iper": 5,
    "##azi": 29,
    "Micro": 0,
    "##bis": 6,
    "##por": 40,
    "##era": 23,
    "Livingston": 0,
    "Island": 0,
    "Antarctica": 0,
    "##oth": 13,
    "##bas": 1,
    "##guin": 0,
    "Antarctic": 0,
    "##mpo": 0,
    "##rified": 0,
    "consecutive": 0,
    "##lica": 63,
    "##ative": 0,
    "absolute": 0,
    "configuration": 0,
    "amino": 158,
    "NO": 121,
    "##ES": 19,
    "correlation": 0,
    "##ifer": 3,
    "##oto": 27,
    "try": 19,
    "##pt": 74,
    "##osy": 7,
    "92": 0,
    "le": 21,
    "##uke": 0,
    "##mia": 1,
    "He": 20,
    "##vi": 24,
    "##oma": 5,
    "Trans": 2,
    "##mic": 12,
    "##bial": 0,
    "disc": 0,
    "Ba": 26,
    "##aph": 0,
    "##cus": 1,
    "au": 2,
    "##reus": 0,
    "##omy": 11,
    "##ces": 0,
    "##iri": 4,
    "##ch": 68,
    "##scher": 0,
    "##ichi": 1,
    "Can": 9,
    "##di": 49,
    "##bic": 40,
    "##ans": 12,
    "Mu": 2,
    "##cor": 51,
    "##eh": 10,
    "##ei": 4,
    "Comparative": 0,
    "leaves": 0,
    "##inn": 23,
    "Pi": 4,
    "##ees": 0,
    "te": 121,
    "##j": 1,
    "Me": 54,
    "##rr": 9,
    "##iment": 0,
    "##our": 2,
    "food": 0,
    "preparations": 0,
    "##mina": 0,
    "employing": 0,
    "analyses": 0,
    "done": 12,
    "leaf": 0,
    "##ugen": 5,
    "Both": 0,
    "radical": 0,
    "potent": 0,
    "##ela": 17,
    "##ting": 0,
    "standard": 0,
    "Among": 0,
    "terms": 0,
    "Anti": 1,
    "##rid": 37,
    "Cary": 0,
    "##ter": 63,
    "odor": 0,
    "##ata": 0,
    "##tate": 34,
    "Ham": 0,
    "##yo": 12,
    "##zhi": 0,
    "##ester": 10,
    "##aen": 15,
    "cafe": 0,
    "##oy": 17,
    "published": 0,
    "closely": 0,
    "##oids": 36,
    "relative": 0,
    "standards": 0,
    "molecules": 0,
    "Moreover": 0,
    "enzymes": 0,
    "namely": 0,
    "##olin": 104,
    "##cho": 62,
    "##tera": 0,
    "inactive": 0,
    "Minor": 0,
    "death": 0,
    "defects": 0,
    "lacking": 0,
    "Bad": 0,
    "members": 0,
    "ho": 9,
    "##mology": 0,
    "subgroup": 0,
    "establishment": 0,
    "tissue": 0,
    "home": 0,
    "##asis": 0,
    "##pop": 0,
    "developmental": 0,
    "cues": 0,
    "##ously": 0,
    "forms": 0,
    "implicated": 0,
    "triggered": 0,
    "glucose": 388,
    "##hic": 16,
    "##vation": 0,
    "his": 34,
    "##lase": 0,
    "suppression": 0,
    "##ymph": 0,
    "##genesis": 0,
    "upon": 0,
    "##rant": 7,
    "address": 0,
    "possible": 0,
    "red": 0,
    "##unda": 0,
    "##ncies": 0,
    "lack": 0,
    "paradigm": 0,
    "##tosis": 0,
    "Only": 0,
    "spontaneous": 0,
    "thy": 23,
    "kept": 0,
    "deprived": 0,
    "delayed": 0,
    "Of": 0,
    "note": 0,
    "minor": 0,
    "mainly": 0,
    "lineage": 0,
    "Long": 0,
    "follow": 0,
    "aged": 0,
    "Together": 0,
    "transformation": 0,
    "mechanisms": 0,
    "exclusively": 0,
    "linked": 0,
    "induction": 0,
    "##iating": 0,
    "roles": 0,
    "receptors": 0,
    "##41": 20,
    "ago": 7,
    "##nist": 0,
    "antagonist": 1,
    "Despite": 0,
    "relevance": 0,
    "##bot": 0,
    "##ama": 107,
    "tools": 0,
    "separating": 0,
    "receptor": 0,
    "##type": 0,
    "claimed": 0,
    "##uron": 2,
    "##eric": 5,
    "verified": 0,
    "profile": 0,
    "hip": 0,
    "##cam": 19,
    "##pal": 0,
    "slice": 0,
    "Field": 0,
    "##tat": 56,
    "##yna": 3,
    "##EP": 11,
    "##SP": 0,
    "##voked": 0,
    "tempo": 0,
    "path": 0,
    "##AP": 33,
    "input": 0,
    "##tum": 0,
    "##cu": 38,
    "SL": 6,
    "EC": 3,
    "litter": 0,
    "##mates": 7,
    "42": 0,
    "extent": 0,
    "application": 0,
    "add": 0,
    "##itive": 0,
    "reversed": 0,
    "confirm": 0,
    "actions": 0,
    "seen": 0,
    "medial": 0,
    "##pse": 0,
    "den": 4,
    "System": 0,
    "lo": 10,
    "##lid": 39,
    "##phe": 274,
    "##tamine": 85,
    "support": 0,
    "##psy": 0,
    "mixed": 0,
    "article": 0,
    "Special": 0,
    "Issue": 0,
    "entitled": 0,
    "Met": 45,
    "##ab": 1,
    "##ceptor": 0,
    "##ang": 7,
    "##genic": 1,
    "horse": 0,
    "chestnut": 0,
    "designed": 0,
    "examine": 0,
    "HC": 45,
    "##gio": 2,
    "um": 1,
    "##bil": 12,
    "vein": 0,
    "end": 8,
    "anchor": 0,
    "understand": 0,
    "Ju": 2,
    "##rka": 0,
    "CE": 3,
    "MC": 5,
    "Inc": 0,
    "##uba": 0,
    "125": 0,
    "survival": 0,
    "Colony": 0,
    "marker": 0,
    "fragment": 0,
    "migration": 0,
    "matrix": 0,
    "##rote": 11,
    "##inas": 0,
    "vascular": 0,
    "generate": 0,
    "efficacy": 0,
    "models": 0,
    "##esis": 0,
    "dial": 0,
    "##ky": 25,
    "diary": 12,
    "pipe": 8,
    "derivatives": 0,
    "series": 0,
    "synthesis": 0,
    "##pipe": 6,
    "##rig": 62,
    "##nard": 1,
    "assignments": 0,
    "conform": 0,
    "##ational": 0,
    "##min": 22,
    "##och": 31,
    "##ym": 0,
    "149": 0,
    "rich": 0,
    "##lor": 179,
    "##of": 74,
    "##orm": 14,
    "shown": 0,
    "competitive": 0,
    "04": 0,
    "towards": 0,
    "presence": 0,
    "##san": 20,
    "vitamin": 130,
    "Plant": 0,
    "minerals": 0,
    "trace": 0,
    "elements": 0,
    "##ury": 3,
    "##if": 20,
    "##olia": 0,
    "Tong": 0,
    "##kat": 0,
    "Ali": 2,
    "harvested": 0,
    "##ak": 0,
    "##hang": 0,
    "Malaysia": 0,
    "Bradford": 0,
    "contained": 0,
    "dimensional": 0,
    "49": 0,
    "k": 87,
    "21": 3,
    "spots": 0,
    "Is": 19,
    "##ole": 213,
    "differences": 0,
    "mineral": 0,
    "element": 0,
    "calcium": 123,
    "##gnesium": 27,
    "concerned": 0,
    "Delta": 4,
    "progress": 0,
    "made": 0,
    "understanding": 0,
    "importance": 0,
    "initiation": 0,
    "accompany": 0,
    "reversal": 0,
    "analyze": 0,
    "ideal": 0,
    "##cline": 23,
    "expressing": 0,
    "##runcated": 0,
    "##yper": 6,
    "##lasia": 0,
    "removal": 0,
    "3D": 0,
    "cry": 8,
    "rapidly": 0,
    "completely": 0,
    "##xin": 69,
    "below": 0,
    "molecule": 0,
    "CC": 43,
    "##36": 15,
    "##47": 8,
    "By": 0,
    "withdrawal": 0,
    "##ist": 11,
    "##ui": 4,
    "##sha": 0,
    "##ble": 0,
    "should": 0,
    "##versible": 0,
    "described": 0,
    "involving": 0,
    "##put": 0,
    "rapid": 0,
    "allow": 0,
    "advance": 0,
    "early": 0,
    "stage": 0,
    "usually": 0,
    "later": 0,
    "discovery": 0,
    "pipeline": 0,
    "143": 0,
    "##nas": 0,
    "Tu": 4,
    "activate": 0,
    "pathways": 0,
    "stimulate": 0,
    "##lysis": 0,
    "even": 0,
    "oxygen": 185,
    "satisfy": 0,
    "continuous": 0,
    "##leo": 117,
    "##tide": 60,
    "ATP": 86,
    "acids": 0,
    "necessary": 0,
    "tumors": 0,
    "characterized": 0,
    "elevated": 0,
    "HK": 0,
    "##gene": 8,
    "suggested": 0,
    "account": 0,
    "conserved": 0,
    "recognition": 0,
    "motif": 0,
    "##14": 20,
    "##tino": 35,
    "head": 0,
    "neck": 0,
    "##ua": 3,
    "##mous": 0,
    "##NS": 0,
    "##CC": 5,
    "derived": 0,
    "Important": 0,
    "inverse": 0,
    "##rrel": 0,
    "##ates": 16,
    "targets": 0,
    "potentially": 0,
    "metabolism": 0,
    "##lau": 6,
    "##21": 9,
    "Cy": 42,
    "##nan": 0,
    "##chu": 3,
    "##unt": 0,
    "##oni": 144,
    "ones": 0,
    "Dec": 3,
    "##hl": 16,
    "##tr": 0,
    "Lev": 3,
    "##city": 0,
    "74": 0,
    "##GC": 24,
    "79": 0,
    "##01": 26,
    "##itation": 0,
    "##vin": 24,
    "Boer": 0,
    "##ha": 9,
    "##avia": 0,
    "##ff": 16,
    "##usa": 6,
    "rot": 9,
    "separation": 0,
    "##ert": 6,
    "gradient": 0,
    "##ori": 34,
    "27": 5,
    "accuracy": 0,
    "robust": 0,
    "35": 2,
    "75": 0,
    "22": 1,
    "83": 0,
    "##cot": 72,
    "##itative": 0,
    "variables": 0,
    "sea": 0,
    "bass": 0,
    "Di": 29,
    "##rar": 0,
    "##chus": 0,
    "lab": 0,
    "##rax": 0,
    "reared": 0,
    "farms": 0,
    "Facility": 0,
    "##pol": 18,
    "##ogy": 0,
    "facility": 0,
    "farm": 0,
    "go": 14,
    "##nado": 0,
    "##oo": 3,
    "test": 55,
    "##osterone": 62,
    "17": 62,
    "est": 135,
    "sections": 0,
    "##ds": 0,
    "examined": 0,
    "hormone": 0,
    "influenced": 0,
    "locations": 0,
    "##pologies": 0,
    "Evaluation": 0,
    "##rma": 0,
    "##utical": 0,
    "##dom": 25,
    "##rier": 0,
    "great": 0,
    "therapy": 0,
    "diagnostic": 0,
    "probe": 0,
    "imaging": 0,
    "inflammation": 0,
    "##maging": 0,
    "applied": 0,
    "local": 0,
    "##ize": 0,
    "carrier": 0,
    "itself": 0,
    "particular": 0,
    "case": 0,
    "modification": 0,
    "##ron": 40,
    "emission": 0,
    "##graphy": 0,
    "##pliant": 0,
    "radio": 0,
    "##pes": 1,
    "easily": 0,
    "efficiently": 0,
    "AD": 30,
    "##ME": 0,
    "loaded": 0,
    "##bell": 1,
    "label": 0,
    "##tribution": 0,
    "enter": 0,
    "derivative": 0,
    "behave": 0,
    "similarly": 0,
    "poorly": 0,
    "chosen": 0,
    "analog": 0,
    "already": 0,
    "establish": 0,
    "feasible": 0,
    "comparison": 0,
    "former": 0,
    "##phological": 0,
    "log": 0,
    "dissolution": 0,
    "##aco": 4,
    "across": 0,
    "##ola": 84,
    "##yers": 0,
    "fundamental": 0,
    "ideas": 0,
    "research": 0,
    "New": 0,
    "##pis": 0,
    "chin": 0,
    "##ensis": 0,
    "promotes": 0,
    "##PA": 25,
    "##KA": 0,
    "##AR": 0,
    "Group": 0,
    "comprise": 0,
    "where": 0,
    "##ulate": 0,
    "transmission": 0,
    "state": 0,
    "##bation": 0,
    "##ny": 47,
    "##HP": 34,
    "##AM": 73,
    "site": 0,
    "Ser": 50,
    "##45": 8,
    "##yle": 74,
    "##thy": 46,
    "MP": 75,
    "produced": 0,
    "blockade": 0,
    "##sin": 75,
    "A2": 0,
    "promote": 0,
    "specifically": 0,
    "##ita": 33,
    "##k": 1,
    "##ivation": 0,
    "##ishes": 0,
    "##aton": 3,
    "##ig": 12,
    "##ral": 12,
    "prevents": 0,
    "##iation": 0,
    "ton": 0,
    "##dynamic": 0,
    "novel": 0,
    "##rna": 2,
    "solid": 0,
    "polo": 6,
    "##mer": 20,
    "conducted": 0,
    "primarily": 0,
    "ul": 0,
    "secondly": 0,
    "enhance": 0,
    "PD": 21,
    "After": 0,
    "##sso": 0,
    "##lving": 0,
    "components": 0,
    "##OH": 100,
    "##VP": 33,
    "VA": 3,
    "64": 0,
    "spray": 0,
    "drying": 0,
    "Polo": 2,
    "grinding": 0,
    "physical": 0,
    "mixing": 0,
    "melting": 0,
    "differential": 0,
    "##ime": 20,
    "DS": 1,
    "powder": 0,
    "X": 13,
    "ray": 0,
    "##raction": 0,
    "##RD": 0,
    "Four": 0,
    "##ier": 0,
    "transform": 0,
    "infrared": 0,
    "dried": 0,
    "displayed": 0,
    "70": 0,
    "product": 0,
    "irritation": 0,
    "stomach": 0,
    "Chi": 0,
    "agents": 0,
    "##reased": 0,
    "fun": 0,
    "##gal": 0,
    "##ised": 0,
    "emerging": 0,
    "repertoire": 0,
    "drugs": 0,
    "demands": 0,
    "greater": 0,
    "knowledge": 0,
    "efforts": 0,
    "mammals": 0,
    "Nik": 4,
    "##ko": 11,
    "##my": 50,
    "clinical": 0,
    "synthesized": 0,
    "modified": 0,
    "discussed": 0,
    "ve": 47,
    "##fa": 36,
    "dioxide": 0,
    "##hala": 16,
    "General": 0,
    "##ety": 0,
    "##sor": 5,
    "##der": 2,
    "panic": 0,
    "Previous": 0,
    "subjective": 0,
    "symptoms": 0,
    "anxiety": 0,
    "##uated": 0,
    "##tics": 0,
    "##raze": 1,
    "lesser": 0,
    "par": 10,
    "##eti": 114,
    "##en": 51,
    "licensed": 0,
    "treatments": 0,
    "healthy": 0,
    "volunteers": 0,
    "Fifty": 0,
    "participants": 0,
    "random": 0,
    "receive": 0,
    "place": 0,
    "Study": 0,
    "##mental": 0,
    "reach": 0,
    "150": 0,
    "Part": 0,
    "##ici": 34,
    "##pants": 0,
    "inhaled": 0,
    "air": 0,
    "minutes": 0,
    "blind": 0,
    "presentation": 0,
    "blinded": 0,
    "vital": 0,
    "##jective": 0,
    "ratings": 0,
    "##tions": 0,
    "expected": 0,
    "pressure": 0,
    "heart": 0,
    "No": 1,
    "feeling": 0,
    "tense": 0,
    "nervous": 0,
    "alert": 0,
    "generally": 0,
    "clear": 0,
    "##dia": 22,
    "##ze": 36,
    "##pine": 64,
    "challenges": 0,
    "##rot": 101,
    "GA": 49,
    "##ergic": 0,
    "##wave": 0,
    "assisted": 0,
    "##ob": 19,
    "##ut": 2,
    "##pox": 11,
    "##nam": 9,
    "naturally": 0,
    "occurring": 0,
    "amid": 48,
    "##kal": 2,
    "##rum": 0,
    "nine": 0,
    "steps": 0,
    "Oct": 3,
    "##omo": 11,
    "materials": 0,
    "End": 1,
    "##ulum": 0,
    "29": 0,
    "integrity": 0,
    "breast": 0,
    "##MT": 14,
    "disruption": 0,
    "##hesion": 0,
    "loss": 0,
    "##dent": 0,
    "previously": 0,
    "##29": 35,
    "drive": 0,
    "ME": 50,
    "arrest": 0,
    "MD": 80,
    "MB": 14,
    "231": 0,
    "establishing": 0,
    "manner": 0,
    "example": 0,
    "##lug": 0,
    "##nai": 0,
    "##wi": 0,
    "##dh": 0,
    "incomplete": 0,
    "BT": 17,
    "markers": 0,
    "##oker": 0,
    "##ati": 69,
    "##19": 18,
    "##ent": 28,
    "fibers": 0,
    "act": 14,
    "restoration": 0,
    "##otype": 0,
    "##chan": 1,
    "##istic": 0,
    "##J": 21,
    "z": 39,
    "##ula": 1,
    "##cc": 18,
    "##lude": 0,
    "##din": 55,
    "##pical": 0,
    "##bble": 0,
    "contact": 0,
    "##ization": 0,
    "##nock": 0,
    "reverse": 0,
    "motor": 0,
    "deficit": 0,
    "prolonged": 0,
    "Parkinson": 0,
    "disease": 0,
    "##lus": 14,
    "##mb": 10,
    "##rane": 6,
    "Spa": 2,
    "##nning": 0,
    "##TM": 5,
    "Recently": 0,
    "central": 0,
    "##sel": 13,
    "III": 0,
    "##park": 0,
    "##ins": 98,
    "##onia": 4,
    "animal": 0,
    "suggesting": 0,
    "represent": 0,
    "contributions": 0,
    "fully": 0,
    "##eb": 6,
    "##rove": 0,
    "##box": 62,
    "does": 0,
    "alleviate": 0,
    "##ser": 4,
    "##at": 97,
    "evenly": 0,
    "spaced": 0,
    "##ale": 8,
    "akin": 0,
    "lasting": 0,
    "salt": 0,
    "fore": 0,
    "##lim": 5,
    "##metry": 0,
    "##teral": 0,
    "les": 0,
    "##stant": 0,
    "partially": 0,
    "strategy": 0,
    "##ev": 1,
    "autism": 0,
    "disorder": 0,
    "pilot": 0,
    "##15": 1,
    "##13": 20,
    "gamma": 32,
    "##yric": 0,
    "##mit": 0,
    "AS": 4,
    "##Ds": 0,
    "def": 8,
    "##icient": 0,
    "possibly": 0,
    "directly": 0,
    "living": 0,
    "adults": 0,
    "preliminary": 0,
    "##tron": 1,
    "Em": 4,
    "##iss": 0,
    "Tom": 1,
    "##ography": 0,
    "##igan": 0,
    "measure": 0,
    "functioning": 0,
    "matched": 0,
    "binding": 0,
    "000": 0,
    "Plan": 0,
    "##ned": 0,
    "limb": 0,
    "regions": 0,
    "##dal": 11,
    "nucleus": 0,
    "##ben": 57,
    "bilateral": 0,
    "Further": 0,
    "driven": 0,
    "##eur": 4,
    "##ode": 2,
    "##vel": 6,
    "##ders": 0,
    "##lone": 25,
    "##eran": 3,
    "##ted": 30,
    "Paulo": 0,
    "##wn": 0,
    "##mento": 1,
    "fruits": 0,
    "discovered": 0,
    "##hun": 0,
    "##eu": 5,
    "exhaust": 0,
    "##ari": 17,
    "##lava": 4,
    "ultra": 1,
    "violet": 0,
    "##fra": 11,
    "CD": 13,
    "##im": 39,
    "##rini": 3,
    "trim": 6,
    "##yra": 32,
    "extensive": 0,
    "OR": 5,
    "der": 1,
    "##eg": 2,
    "##ulation": 0,
    "broad": 0,
    "depression": 0,
    "Evidence": 0,
    "inadequate": 0,
    "key": 0,
    "patient": 0,
    "incidence": 0,
    "##bid": 9,
    "pain": 0,
    "##gni": 0,
    "##zing": 0,
    "care": 0,
    "largely": 0,
    "focused": 0,
    "##oam": 18,
    "##iner": 0,
    "##OA": 16,
    "innovative": 0,
    "describe": 0,
    "52": 0,
    "##ulator": 0,
    "##cology": 0,
    "##ays": 0,
    "affinity": 0,
    "1000": 0,
    "fold": 0,
    "vs": 0,
    "##cute": 9,
    "battery": 0,
    "comprising": 0,
    "tail": 0,
    "forced": 0,
    "swim": 0,
    "##ented": 0,
    "##uation": 0,
    "##ther": 7,
    "punished": 0,
    "crossings": 0,
    "plate": 0,
    "##ges": 56,
    "##cia": 3,
    "nerve": 0,
    "side": 0,
    "liability": 0,
    "ordination": 0,
    "##aro": 12,
    "however": 0,
    "##gnition": 0,
    "social": 0,
    "tool": 0,
    "##TE": 10,
    "##ancy": 0,
    "parallel": 0,
    "testing": 0,
    "engagement": 0,
    "##points": 0,
    "supports": 0,
    "value": 0,
    "Collective": 0,
    "##aria": 0,
    "volatile": 0,
    "##uca": 4,
    "##ptus": 0,
    "##rio": 3,
    "##dor": 0,
    "##ritic": 0,
    "fluid": 0,
    "yields": 0,
    "HD": 4,
    "SC": 18,
    "##rone": 10,
    "##lla": 4,
    "steam": 0,
    "##illa": 6,
    "##SD": 0,
    "62": 0,
    "bound": 0,
    "free": 1,
    "Highest": 0,
    "##oter": 19,
    "##pen": 71,
    "91": 0,
    "superior": 0,
    "Sex": 0,
    "stroke": 0,
    "##rogen": 229,
    "##ction": 0,
    "##roke": 0,
    "disability": 0,
    "Experimental": 0,
    "sexually": 0,
    "##phic": 0,
    "demonstrating": 0,
    "intrinsic": 0,
    "##che": 0,
    "damage": 0,
    "##span": 0,
    "##ctive": 0,
    "del": 4,
    "##eter": 0,
    "##ious": 0,
    "older": 0,
    "women": 0,
    "remain": 0,
    "unclear": 0,
    "examining": 0,
    "relates": 0,
    "injury": 0,
    "yet": 0,
    "cerebral": 0,
    "systemic": 0,
    "few": 0,
    "contribution": 0,
    "sex": 0,
    "examines": 0,
    "Development": 0,
    "##rber": 20,
    "Be": 8,
    "##active": 0,
    "Chinese": 0,
    "Medicine": 0,
    "poor": 0,
    "##udo": 1,
    "##tern": 0,
    "##ary": 10,
    "diagram": 0,
    "constructed": 0,
    "observation": 0,
    "##ilization": 0,
    "##we": 8,
    "80": 0,
    "exhibit": 0,
    "peak": 0,
    "tablet": 0,
    "163": 0,
    "154": 0,
    "##ndo": 4,
    "##rine": 95,
    "aspects": 0,
    "##ame": 4,
    "##nial": 0,
    "##pile": 0,
    "##rino": 5,
    "##log": 10,
    "seizure": 0,
    "Cat": 6,
    "multi": 0,
    "##face": 0,
    "condition": 0,
    "cluster": 0,
    "around": 0,
    "points": 0,
    "often": 0,
    "##nst": 0,
    "##vu": 2,
    "##ute": 40,
    "##sio": 0,
    "##logy": 0,
    "remains": 0,
    "circulating": 0,
    "play": 0,
    "AP": 30,
    "##ote": 8,
    "##HD": 4,
    "##OC": 14,
    "##ibility": 0,
    "plastic": 0,
    "##iate": 0,
    "##sy": 9,
    "##nap": 2,
    "##pus": 0,
    "thus": 0,
    "regulator": 0,
    "##fer": 8,
    "protection": 0,
    "evident": 0,
    "tolerance": 0,
    "completed": 0,
    "sponsored": 0,
    "trial": 1,
    "proved": 0,
    "beneficial": 0,
    "favorable": 0,
    "useful": 0,
    "##ps": 7,
    "##ilon": 1,
    "##way": 0,
    "smooth": 0,
    "muscle": 0,
    "merely": 0,
    "contract": 0,
    "apparatus": 0,
    "recipient": 0,
    "##tors": 0,
    "signal": 0,
    "player": 0,
    "##del": 0,
    "link": 0,
    "Rs": 0,
    "##ulating": 0,
    "noted": 0,
    "##chia": 0,
    "almost": 0,
    "ignored": 0,
    "network": 0,
    "intended": 0,
    "historical": 0,
    "perspective": 0,
    "highlights": 0,
    "updates": 0,
    "future": 0,
    "perspectives": 0,
    "34": 0,
    "functions": 0,
    "##lio": 5,
    "##form": 82,
    "frequently": 0,
    "deleted": 0,
    "GB": 8,
    "##izes": 0,
    "55": 0,
    "##Ms": 0,
    "##phism": 0,
    "##arra": 0,
    "Not": 0,
    "##ably": 0,
    "shortened": 0,
    "whose": 0,
    "##lification": 0,
    "Express": 0,
    "Force": 0,
    "migrate": 0,
    "A1": 3,
    "##27": 14,
    "U2": 0,
    "##51": 1,
    "stable": 0,
    "##pressing": 0,
    "smaller": 0,
    "##fts": 0,
    "##ficient": 0,
    "Additional": 0,
    "targeted": 0,
    "Yin": 0,
    "Yang": 0,
    "acts": 0,
    "mode": 0,
    "##rating": 0,
    "overall": 0,
    "Fat": 7,
    "edible": 0,
    "cu": 75,
    "##cum": 13,
    "At": 5,
    "##dium": 15,
    "##nsis": 0,
    "resource": 0,
    "Chile": 0,
    "ethanol": 133,
    "tub": 0,
    "##ules": 0,
    "organs": 0,
    "wall": 0,
    "Sa": 10,
    "##inated": 14,
    "69": 0,
    "##ou": 7,
    "##ura": 33,
    "amounts": 0,
    "41": 0,
    "94": 0,
    "##uns": 10,
    "##rac": 33,
    "##don": 27,
    "##pent": 15,
    "ally": 5,
    "##cate": 7,
    "generation": 0,
    "es": 13,
    "Ally": 1,
    "display": 0,
    "vice": 0,
    "versa": 0,
    "effectively": 0,
    "##rist": 9,
    "mac": 13,
    "##hage": 0,
    "##go": 9,
    "##lue": 15,
    "SK": 1,
    "##bate": 9,
    "##coil": 0,
    "relaxed": 0,
    "##nz": 8,
    "##atic": 0,
    "Copyright": 0,
    "2012": 0,
    "John": 0,
    "Wiley": 0,
    "&": 0,
    "Sons": 0,
    "Ltd": 0,
    "Effects": 0,
    "##rata": 0,
    "##oz": 18,
    "##abe": 9,
    "##as": 13,
    "##cular": 0,
    "whether": 0,
    "##Z": 157,
    "##per": 22,
    "65": 0,
    "preserves": 0,
    "Starting": 0,
    "diabetes": 0,
    "##mini": 0,
    "##stra": 3,
    "##ort": 11,
    "rings": 0,
    "relaxation": 0,
    "##ore": 11,
    "nor": 56,
    "##rena": 5,
    "##rosis": 0,
    "##NF": 2,
    "##uki": 0,
    "IL": 0,
    "##trate": 14,
    "##hit": 2,
    "corrected": 0,
    "##met": 80,
    "react": 0,
    "contraction": 0,
    "reducing": 0,
    "preventing": 0,
    "Investigation": 0,
    "commercially": 0,
    "available": 0,
    "preparation": 0,
    "##folia": 0,
    "rigid": 0,
    "thereof": 0,
    "neutral": 1,
    "##U": 73,
    "comet": 0,
    "##tom": 2,
    "None": 0,
    "##ined": 12,
    "##rgon": 12,
    "coral": 0,
    "##cell": 0,
    "##ffe": 49,
    "##rim": 10,
    "aid": 0,
    "messenger": 0,
    "mimic": 0,
    "introduce": 0,
    "progression": 0,
    "##cle": 1,
    "##rc": 134,
    "##lip": 17,
    "##bes": 3,
    "##ized": 0,
    "crossover": 0,
    "##iovascular": 0,
    "##besity": 0,
    "##ur": 18,
    "##poli": 5,
    "individuals": 0,
    "double": 0,
    "density": 0,
    "##ometric": 0,
    "##throp": 0,
    "##MI": 3,
    "waist": 0,
    "##ir": 17,
    "##ference": 0,
    "arm": 0,
    "fat": 0,
    "remained": 0,
    "statistical": 0,
    "unchanged": 0,
    "summary": 0,
    "leads": 0,
    "Promotion": 0,
    "repair": 0,
    "nuclear": 0,
    "AT": 28,
    "stimuli": 0,
    "##ax": 28,
    "##lang": 0,
    "##ie": 0,
    "portion": 0,
    "exported": 0,
    "thought": 0,
    "resides": 0,
    "##lates": 5,
    "phases": 0,
    "classical": 0,
    "define": 0,
    "maintains": 0,
    "##rain": 0,
    "##head": 0,
    "Get": 0,
    "##ND": 0,
    "barrier": 0,
    "complex": 0,
    "##play": 0,
    "evolution": 0,
    "##arily": 0,
    "indirectly": 0,
    "controlling": 0,
    "##fi": 77,
    "##ling": 0,
    "ps": 1,
    "##oria": 0,
    "normally": 0,
    "##otic": 0,
    "layers": 0,
    "overlapping": 0,
    "promoter": 0,
    "##pressed": 0,
    "loop": 0,
    "maintaining": 0,
    "mild": 0,
    "Ra": 4,
    "transformed": 0,
    "occurs": 0,
    "process": 0,
    "Additionally": 0,
    "##cut": 0,
    "##aneous": 0,
    "injected": 0,
    "contributes": 0,
    "cello": 2,
    "##bio": 2,
    "##via": 0,
    "##igi": 0,
    "petals": 0,
    "pat": 2,
    "57": 0,
    "yield": 0,
    "##ring": 15,
    "oxidation": 0,
    "route": 0,
    "easier": 0,
    "##rification": 0,
    "synthetic": 0,
    "semi": 0,
    "##hetic": 0,
    "pot": 0,
    "##vage": 0,
    "##zation": 0,
    "##action": 0,
    "promoted": 0,
    "##IO": 5,
    "##HF": 12,
    "bond": 0,
    "##olis": 0,
    "##jun": 1,
    "##tor": 5,
    "according": 0,
    "strategic": 0,
    "position": 0,
    "reaction": 0,
    "1A": 0,
    "##sar": 1,
    "##80": 7,
    "Tea": 0,
    "tree": 0,
    "alterations": 0,
    "Mel": 3,
    "document": 0,
    "influences": 0,
    "database": 0,
    "intensive": 0,
    "heat": 0,
    "##ts": 4,
    "##EL": 0,
    "##w": 0,
    "##SR": 0,
    "##codes": 0,
    "responds": 0,
    "##hesis": 0,
    "mm": 0,
    "encoding": 0,
    "put": 2,
    "nod": 0,
    "division": 0,
    "##lux": 0,
    "pump": 0,
    "principal": 0,
    "##inen": 1,
    "ten": 11,
    "direction": 0,
    "analogous": 0,
    "insight": 0,
    "##ar": 26,
    "##ista": 1,
    "##mate": 21,
    "agriculture": 0,
    "programs": 0,
    "given": 0,
    "corn": 0,
    "VI": 0,
    "Level": 0,
    "##ld": 12,
    "##rative": 0,
    "severe": 0,
    "Pre": 2,
    "partly": 0,
    "Recent": 0,
    "advances": 0,
    "chemistry": 0,
    "##lf": 83,
    "##ona": 37,
    "##ional": 2,
    "Now": 0,
    "becoming": 0,
    "problems": 0,
    "public": 0,
    "way": 0,
    "##ntly": 0,
    "decade": 0,
    "examples": 0,
    "significance": 0,
    "##lax": 0,
    "promoting": 0,
    "crop": 0,
    "grown": 0,
    "fiber": 0,
    "Many": 0,
    "positively": 0,
    "greatly": 0,
    "direct": 0,
    "explored": 0,
    "connected": 0,
    "mentioned": 0,
    "##yne": 9,
    "sum": 0,
    "##mar": 36,
    "focusing": 0,
    "Direct": 0,
    "##cini": 0,
    "##ill": 28,
    "Fruit": 0,
    "Extra": 0,
    "##cts": 0,
    "Heart": 0,
    "##nd": 8,
    "##rial": 0,
    "Fun": 0,
    "##ctions": 0,
    "##berry": 0,
    "fruit": 0,
    "##ani": 114,
    "##ond": 2,
    "Higher": 0,
    "mitochondrial": 0,
    "##spiration": 0,
    "##vate": 14,
    "mildly": 0,
    "##led": 0,
    "87": 0,
    "Su": 2,
    "##cci": 6,
    "##nate": 12,
    "Pure": 0,
    "##vid": 5,
    "gal": 32,
    "##yan": 34,
    "possess": 0,
    "give": 0,
    "insights": 0,
    "Ethan": 6,
    "Ma": 1,
    "##gnolia": 0,
    "##hari": 18,
    "deficiency": 0,
    "bark": 0,
    "contains": 0,
    "##gno": 1,
    "##ki": 13,
    "##hon": 0,
    "##vat": 2,
    "neo": 15,
    "sufficient": 0,
    "possibility": 0,
    "##ism": 1,
    "ingredients": 0,
    "##mation": 0,
    "Alzheimer": 0,
    "LP": 10,
    "seven": 0,
    "injection": 0,
    "elevation": 0,
    "##tro": 66,
    "##glia": 0,
    "precursor": 0,
    "##ving": 0,
    "shows": 0,
    "intervention": 0,
    "gang": 5,
    "##lia": 1,
    "park": 0,
    "monkeys": 0,
    "##jection": 0,
    "rode": 0,
    "##human": 0,
    "##rima": 0,
    "unknown": 0,
    "substrates": 0,
    "##all": 12,
    "##chemistry": 0,
    "##55": 14,
    "firing": 0,
    "##opy": 8,
    "##TP": 36,
    "##nor": 2,
    "localized": 0,
    "60": 0,
    "90": 0,
    "terminals": 0,
    "split": 0,
    "labeled": 0,
    "features": 0,
    "bout": 0,
    "##ons": 0,
    "difference": 0,
    "recordings": 0,
    "awake": 0,
    "volumes": 0,
    "opposite": 0,
    "any": 0,
    "subtle": 0,
    "bursting": 0,
    "##cilla": 0,
    "##tory": 1,
    "acting": 0,
    "irregular": 0,
    "occurrence": 0,
    "pauses": 0,
    "##fari": 15,
    "Learning": 0,
    "forget": 0,
    "man": 26,
    "extinction": 0,
    "##sol": 8,
    "addiction": 0,
    "Finding": 0,
    "##usive": 0,
    "goal": 0,
    "Consequently": 0,
    "researchers": 0,
    "beginning": 0,
    "strategies": 0,
    "manipulation": 0,
    "memories": 0,
    "become": 0,
    "powerful": 0,
    "##iva": 28,
    "continued": 0,
    "##lap": 0,
    "##bs": 6,
    "##nce": 0,
    "Red": 0,
    "strength": 0,
    "cue": 0,
    "En": 0,
    "disrupt": 0,
    "reduce": 0,
    "##ivating": 0,
    "seeking": 0,
    "taking": 0,
    "latest": 0,
    "basic": 0,
    "hopes": 0,
    "exploit": 0,
    "##ese": 6,
    "bases": 0,
    "Die": 0,
    "Then": 0,
    "characterised": 0,
    "elemental": 0,
    "newly": 0,
    "them": 0,
    "remarkable": 0,
    "cross": 0,
    "talk": 0,
    "##AD": 89,
    "subset": 0,
    "dual": 0,
    "canonical": 0,
    "##vo": 12,
    "para": 46,
    "##dox": 4,
    "member": 0,
    "##65": 1,
    "##quential": 0,
    "##location": 0,
    "reporter": 0,
    "##ctional": 0,
    "invasion": 0,
    "Ce": 11,
    "##last": 4,
    "Anne": 0,
    "turn": 0,
    "prefer": 0,
    "##ential": 0,
    "reporters": 0,
    "##utive": 0,
    "contribute": 0,
    "node": 0,
    "##sul": 51,
    "necessarily": 0,
    "metabolic": 0,
    "syndrome": 0,
    "Type": 0,
    "section": 0,
    "NH": 18,
    "##AN": 0,
    "1999": 0,
    "2000": 0,
    "least": 0,
    "911": 0,
    "Hispanic": 0,
    "whites": 0,
    "blacks": 0,
    "59": 0,
    "Mexican": 0,
    "Americans": 0,
    "MA": 7,
    "defined": 0,
    "revised": 0,
    "##OM": 2,
    "lowest": 0,
    "ethnic": 0,
    "Fast": 0,
    "inconsistent": 0,
    "racial": 0,
    "neither": 0,
    "required": 0,
    "Dam": 0,
    "##aging": 0,
    "##ially": 0,
    "##olate": 34,
    "lot": 0,
    "Africa": 0,
    "Asia": 0,
    "purposes": 0,
    "explore": 0,
    "##wise": 0,
    "##ution": 0,
    "subsequently": 0,
    "damaging": 0,
    "version": 0,
    "principles": 0,
    "coupled": 0,
    "magnetic": 0,
    "resonance": 0,
    "identity": 0,
    "hop": 2,
    "pronounced": 0,
    "conclude": 0,
    "endowed": 0,
    "needed": 0,
    "cited": 0,
    "##rit": 11,
    "reduces": 0,
    "white": 0,
    "##ose": 86,
    "insulin": 0,
    "peripheral": 0,
    "skeletal": 0,
    "##omer": 0,
    "stereo": 0,
    "##lly": 1,
    "volume": 0,
    "noticed": 0,
    "signalling": 0,
    "therefore": 0,
    "constitute": 0,
    "viable": 0,
    "nutrition": 0,
    "Molecular": 0,
    "overview": 0,
    "actual": 0,
    "attempt": 0,
    "emphasize": 0,
    "explanation": 0,
    "controversial": 0,
    "comment": 0,
    "issues": 0,
    "##ug": 16,
    "##ediatric": 0,
    "Pat": 0,
    "##ients": 0,
    "##lastic": 0,
    "supportive": 0,
    "focus": 0,
    "##les": 37,
    "classes": 0,
    "guide": 0,
    "management": 0,
    "##ior": 1,
    "##ova": 3,
    "industrial": 0,
    "fixed": 0,
    "bed": 0,
    "##roa": 7,
    "Laura": 0,
    "##ncia": 0,
    "##bt": 0,
    "##eld": 0,
    "##iel": 0,
    "build": 0,
    "ions": 0,
    "Ni": 72,
    "ion": 3,
    "##rem": 0,
    "85": 0,
    "71": 0,
    "columns": 0,
    "##rch": 0,
    "##cap": 9,
    "capable": 0,
    "inexpensive": 0,
    "technology": 0,
    "##quest": 0,
    "##ering": 0,
    "##family": 0,
    "Good": 0,
    "##fell": 0,
    "##hora": 0,
    "circa": 0,
    "##dian": 0,
    "rhythm": 0,
    "##ctor": 0,
    "vessel": 0,
    "Various": 0,
    "##ology": 0,
    "others": 0,
    "Since": 0,
    "involvement": 0,
    "lesions": 0,
    "replacement": 0,
    "##dos": 22,
    "cardiac": 0,
    "Character": 0,
    "valve": 0,
    "vent": 0,
    "##ular": 0,
    "Card": 1,
    "##sound": 0,
    "##comb": 0,
    "##h": 38,
    "##AS": 0,
    "begun": 0,
    "96": 0,
    "##fusion": 0,
    "trials": 0,
    "##truction": 0,
    "Left": 0,
    "averaged": 0,
    "scores": 0,
    "ranging": 0,
    "ages": 0,
    "##pta": 1,
    "##ressed": 0,
    "##truct": 0,
    "valves": 0,
    "##vent": 0,
    "##NT": 33,
    "##ning": 0,
    "##yd": 26,
    "##raz": 52,
    "##lt": 18,
    "##su": 0,
    "##lani": 10,
    "seek": 0,
    "topic": 0,
    "159": 0,
    "degrees": 0,
    "sized": 0,
    "aggregate": 0,
    "particles": 0,
    "retained": 0,
    "instead": 0,
    "##ating": 0,
    "practically": 0,
    "ins": 0,
    "##ub": 0,
    "130": 0,
    "partition": 0,
    "coefficient": 0,
    "##uo": 0,
    "##tien": 0,
    "retention": 0,
    "amount": 0,
    "cream": 0,
    "J": 44,
    "backs": 0,
    "hair": 0,
    "##less": 0,
    "UV": 1,
    "##rra": 0,
    "##diation": 0,
    "checked": 0,
    "reflect": 0,
    "quickly": 0,
    "carriers": 0,
    "Formula": 0,
    "##ibe": 0,
    "doctors": 0,
    "##see": 0,
    "India": 0,
    "formula": 0,
    "Khan": 0,
    "Tibetan": 0,
    "Medical": 0,
    "Institute": 0,
    "usage": 0,
    "##hn": 1,
    "##ographic": 0,
    "interviewed": 0,
    "##ung": 11,
    "humor": 0,
    "mental": 0,
    "ingredient": 0,
    "utilize": 0,
    "Each": 0,
    "treats": 0,
    "uses": 0,
    "distinct": 0,
    "##rag": 7,
    "##ran": 38,
    "nut": 2,
    "##rro": 8,
    "##bor": 2,
    "##rue": 0,
    "Western": 0,
    "##BB": 5,
    "substance": 0,
    "flame": 0,
    "supposed": 0,
    "##rmon": 0,
    "generations": 0,
    "##bred": 0,
    "F1": 0,
    "bred": 0,
    "enable": 0,
    "##rous": 6,
    "sperm": 6,
    "reproduction": 0,
    "De": 7,
    "##volved": 0,
    "##itrus": 0,
    "sunk": 0,
    "Peel": 0,
    "driving": 0,
    "force": 0,
    "##load": 0,
    "insults": 0,
    "real": 5,
    "recording": 0,
    "##eel": 0,
    "Ho": 8,
    "Tanaka": 0,
    "CP": 34,
    "##ducing": 0,
    "##yme": 6,
    "##ones": 47,
    "##ger": 7,
    "##onal": 8,
    "insult": 0,
    "##sation": 0,
    "##sp": 33,
    "##RP": 9,
    "blocked": 0,
    "Den": 1,
    "##itic": 10,
    "prediction": 0,
    "##gens": 7,
    "manuscript": 0,
    "methodology": 0,
    "##UT": 10,
    "represents": 0,
    "Lange": 0,
    "line": 2,
    "Upon": 0,
    "##zer": 0,
    "##CL": 0,
    "##12": 32,
    "##dicative": 0,
    "##zers": 0,
    "din": 11,
    "##obe": 5,
    "##lde": 35,
    "nickel": 14,
    "##inate": 6,
    "distinguished": 0,
    "Critical": 0,
    "passage": 0,
    "##aw": 2,
    "##40": 20,
    "ii": 0,
    "##mize": 0,
    "##cence": 0,
    "optimization": 0,
    "##well": 0,
    "protocol": 0,
    "laboratories": 0,
    "working": 0,
    "performing": 0,
    "distinguishing": 0,
    "Non": 3,
    "##vour": 0,
    "adaptive": 0,
    "##lad": 0,
    "instance": 0,
    "sensor": 0,
    "##imo": 7,
    "cognitive": 0,
    "##sia": 1,
    "neglect": 0,
    "addressed": 0,
    "update": 0,
    "##rani": 3,
    "##DC": 10,
    "Rather": 0,
    "attempting": 0,
    "comprehensive": 0,
    "regard": 0,
    "reviewed": 0,
    "framework": 0,
    "briefly": 0,
    "discuss": 0,
    "open": 0,
    "##vers": 0,
    "directions": 0,
    "upcoming": 0,
    "Ang": 3,
    "##iot": 9,
    "##vert": 0,
    "Properties": 0,
    "##rass": 0,
    "Bois": 0,
    "##uh": 0,
    "bin": 0,
    "##ude": 0,
    "Jam": 0,
    "##zad": 0,
    "##tens": 6,
    "converting": 0,
    "AC": 22,
    "##zin": 16,
    "##phon": 24,
    "AB": 28,
    "##TS": 13,
    "power": 0,
    "##erial": 0,
    "extracted": 0,
    "Fe": 139,
    "##uen": 2,
    "63": 0,
    "But": 2,
    "##ima": 6,
    "##irs": 2,
    "##more": 0,
    "##nu": 7,
    "##fference": 0,
    "amphibious": 0,
    "Lo": 0,
    "##bel": 8,
    "cardinal": 0,
    "##ae": 12,
    "submerged": 0,
    "emerge": 0,
    "visible": 0,
    "pet": 3,
    "##uni": 2,
    "##eon": 10,
    "##uma": 33,
    "##roy": 1,
    "contributed": 0,
    "98": 0,
    "remaining": 0,
    "light": 0,
    "populations": 0,
    "opens": 0,
    "unprecedented": 0,
    "possibilities": 0,
    "processing": 0,
    "electrical": 0,
    "##iform": 0,
    "##king": 0,
    "##vis": 0,
    "##aged": 0,
    "point": 0,
    "pit": 0,
    "##falls": 0,
    "relation": 0,
    "outcomes": 0,
    "Target": 0,
    "##roach": 0,
    "##tia": 2,
    "absence": 0,
    "WA": 2,
    "##ence": 0,
    "undergo": 0,
    "finely": 0,
    "tuned": 0,
    "spike": 0,
    "wave": 0,
    "discharge": 0,
    "##WD": 0,
    "produces": 0,
    "extended": 0,
    "##mpt": 0,
    "##mus": 11,
    "##nso": 0,
    "Interest": 0,
    "##ingly": 0,
    "preceded": 0,
    "onset": 0,
    "lie": 0,
    "prone": 0,
    "Neo": 3,
    "##nat": 0,
    "##lora": 7,
    "##tt": 0,
    "##vasive": 0,
    "girls": 0,
    "causes": 0,
    "##itating": 0,
    "cure": 0,
    "currently": 0,
    "exists": 0,
    "Mouse": 0,
    "bearing": 0,
    "neon": 0,
    "brief": 0,
    "maternal": 0,
    "fear": 0,
    "adulthood": 0,
    "impact": 0,
    "##pot": 0,
    "##uit": 0,
    "axis": 2,
    "exposing": 0,
    "308": 0,
    "1st": 0,
    "adaptation": 0,
    "##CP": 29,
    "regular": 0,
    "##cturnal": 0,
    "cage": 0,
    "##RT": 19,
    "restraint": 0,
    "##ulated": 0,
    "object": 0,
    "restoring": 0,
    "##ced": 0,
    "Present": 0,
    "prove": 0,
    "contrasting": 0,
    "interventions": 0,
    "windows": 0,
    "Current": 0,
    "played": 0,
    "programming": 0,
    "character": 0,
    "##isation": 0,
    "dye": 0,
    "##uff": 0,
    "##rophe": 0,
    "cultivated": 0,
    "minorities": 0,
    "Vietnam": 0,
    "colour": 0,
    "##hine": 34,
    "##Q": 32,
    "HM": 24,
    "##BC": 10,
    "Considering": 0,
    "widespread": 0,
    "Based": 0,
    "290": 0,
    "##CI": 5,
    "##uka": 0,
    "##emia": 0,
    "Bear": 0,
    "##disciplinary": 0,
    "raw": 0,
    "official": 0,
    "bear": 0,
    "Arc": 0,
    "##tos": 40,
    "##va": 7,
    "sold": 0,
    "markets": 0,
    "Internet": 0,
    "websites": 0,
    "putting": 0,
    "consumer": 0,
    "safety": 0,
    "owing": 0,
    "##nge": 1,
    "finger": 0,
    "##print": 0,
    "integrated": 0,
    "##TL": 0,
    "here": 0,
    "distinguish": 0,
    "##prints": 0,
    "simplest": 0,
    "differentiate": 0,
    "##ify": 0,
    "##uti": 37,
    "Li": 58,
    "Smith": 0,
    "##itz": 0,
    "##HC": 21,
    "toward": 0,
    "##ols": 46,
    "solution": 0,
    "##za": 24,
    "##Ps": 9,
    "##ah": 8,
    "##ych": 6,
    "matching": 0,
    "While": 0,
    "reliable": 0,
    "measurement": 0,
    "much": 0,
    "fungus": 0,
    "Dal": 0,
    "##centric": 0,
    "bodies": 0,
    "Vietnamese": 0,
    "##ois": 11,
    "##rien": 2,
    "##gos": 8,
    "Transfer": 0,
    "tier": 0,
    "NC": 0,
    "##TC": 28,
    "##25": 7,
    "##44": 5,
    "equivalent": 0,
    "##ency": 0,
    "chemicals": 0,
    "ethical": 0,
    "view": 0,
    "##gy": 5,
    "able": 0,
    "class": 0,
    "Within": 0,
    "Sen": 0,
    "EU": 0,
    "Programme": 0,
    "funded": 0,
    "Integrated": 0,
    "Project": 0,
    "CT": 6,
    "2005": 0,
    "##86": 1,
    "##mized": 0,
    "Tier": 0,
    "training": 0,
    "##NC": 17,
    "##ctic": 6,
    "extreme": 0,
    "coded": 0,
    "fashion": 0,
    "operating": 0,
    "procedure": 0,
    "acceptance": 0,
    "criteria": 0,
    "project": 0,
    "transferred": 0,
    "offer": 0,
    "unique": 0,
    "opportunity": 0,
    "Local": 0,
    "##say": 0,
    "LL": 0,
    "##NA": 31,
    "decades": 0,
    "effectiveness": 0,
    "prime": 0,
    "reins": 0,
    "cocaine": 88,
    "conditioned": 0,
    "preference": 0,
    "Ad": 1,
    "##diction": 0,
    "##pu": 0,
    "##lsive": 0,
    "One": 0,
    "obstacle": 0,
    "##sist": 0,
    "##ict": 0,
    "spent": 0,
    "paired": 0,
    "compartment": 0,
    "completion": 0,
    "combination": 0,
    "What": 0,
    "student": 0,
    "?": 0,
    "reviews": 0,
    "aids": 0,
    "identifies": 0,
    "gaps": 0,
    "uncertain": 0,
    "##ties": 0,
    "make": 0,
    "balanced": 0,
    "weak": 0,
    "prevalence": 0,
    "outside": 0,
    "US": 0,
    "ambiguous": 0,
    "Risk": 0,
    "documented": 0,
    "appreciated": 0,
    "users": 0,
    "themselves": 0,
    "purchase": 0,
    "offers": 0,
    "guarantees": 0,
    "authenticity": 0,
    "illegal": 0,
    "urgent": 0,
    "belief": 0,
    "likely": 0,
    "appear": 0,
    "near": 0,
    "collect": 0,
    "existing": 0,
    "technologies": 0,
    "making": 0,
    "issue": 0,
    "Hip": 0,
    "spatial": 0,
    "Morris": 0,
    "maze": 0,
    "facilitated": 0,
    "##eptide": 8,
    "Ta": 6,
    "interfere": 0,
    "##osis": 0,
    "##hip": 0,
    "hidden": 0,
    "moved": 0,
    "##uad": 0,
    "##eval": 0,
    "blocking": 0,
    "##ilitating": 0,
    "##53": 4,
    "133": 0,
    "##umour": 0,
    "strongly": 0,
    "contributing": 0,
    "expresses": 0,
    "##orms": 0,
    "une": 0,
    "##lore": 1,
    "depleted": 0,
    "block": 0,
    "##ulo": 1,
    "##ste": 2,
    "##orio": 0,
    "##q": 1,
    "##dge": 0,
    "##hog": 1,
    "Consider": 0,
    "##ened": 4,
    "hedge": 0,
    "tempered": 0,
    "upstream": 0,
    "Individual": 0,
    "lent": 0,
    "##ira": 3,
    "delivered": 0,
    "construct": 0,
    "skinny": 0,
    "dispatched": 0,
    "##IS": 2,
    "providing": 0,
    "knocking": 0,
    "showing": 0,
    "##vor": 1,
    "outcome": 0,
    "##gable": 0,
    "harbor": 0,
    "Proto": 0,
    "##pan": 7,
    "Towards": 0,
    "##eng": 0,
    "regarded": 0,
    "date": 0,
    "##DP": 39,
    "##top": 18,
    "kinetic": 0,
    "varied": 0,
    "complexity": 0,
    "paid": 0,
    "caution": 0,
    "alcoholic": 3,
    "##AF": 5,
    "##LD": 17,
    "recognized": 0,
    "Celia": 0,
    "permanent": 0,
    "##nological": 0,
    "##ler": 10,
    "genetically": 0,
    "cases": 0,
    "##titis": 0,
    "inclusion": 0,
    "excluded": 0,
    "##orage": 0,
    "enabled": 0,
    "phenomenon": 0,
    "believed": 0,
    "##lie": 0,
    "apparent": 0,
    "critically": 0,
    "spans": 0,
    "coupling": 0,
    "exercise": 0,
    "##ride": 21,
    "SA": 17,
    "Supporting": 0,
    "generalized": 0,
    "Response": 0,
    "rated": 0,
    "measures": 0,
    "mood": 0,
    "experience": 0,
    "pleasure": 0,
    "Sul": 4,
    "##trar": 0,
    "substrate": 0,
    "rely": 0,
    "trip": 10,
    "demand": 0,
    "necessity": 0,
    "monitor": 0,
    "adapt": 0,
    "supply": 0,
    "match": 0,
    "monitors": 0,
    "regulating": 0,
    "##ard": 0,
    "amassed": 0,
    "surrounding": 0,
    "emphasizes": 0,
    "require": 0,
    "eventually": 0,
    "translating": 0,
    "##dict": 0,
    "##rta": 13,
    "enhancing": 0,
    "Mir": 2,
    "##formed": 0,
    "Block": 0,
    "Design": 0,
    "##roo": 0,
    "Dot": 0,
    "subsidiary": 0,
    "Path": 0,
    "Analysis": 0,
    "predicted": 0,
    "##GA": 40,
    "duration": 0,
    "illness": 0,
    "fit": 0,
    "indirect": 0,
    "##cognition": 0,
    "Diet": 0,
    "brush": 0,
    "border": 0,
    "##mined": 0,
    "##ich": 3,
    "receiving": 0,
    "##int": 0,
    "FX": 0,
    "undertaken": 0,
    "Administration": 0,
    "decline": 0,
    "##cles": 0,
    "prior": 0,
    "feeding": 0,
    "marked": 0,
    "##icit": 0,
    "##hani": 11,
    "centres": 0,
    "select": 0,
    "sensing": 0,
    "Rev": 0,
    "##ible": 0,
    "emerged": 0,
    "##ions": 0,
    "constitution": 0,
    "##nta": 9,
    "modes": 0,
    "allows": 0,
    "##static": 0,
    "centre": 0,
    "engineered": 0,
    "desired": 0,
    "Changes": 0,
    "monitored": 0,
    "accurately": 0,
    "resolution": 0,
    "optical": 0,
    "##rate": 20,
    "##lav": 48,
    "screening": 0,
    "bomb": 1,
    "que": 52,
    "##rab": 4,
    "##ios": 10,
    "da": 37,
    "##mona": 0,
    "brass": 2,
    "##cea": 0,
    "subsp": 0,
    "##au": 3,
    "bacterium": 0,
    "Eleven": 0,
    "Val": 10,
    "Ty": 20,
    "shrimp": 0,
    "##thal": 10,
    "acoustic": 0,
    "##vitation": 0,
    "Acoustic": 0,
    "son": 0,
    "##tries": 0,
    "MHz": 0,
    "absorb": 0,
    "##imeter": 0,
    "##meter": 0,
    "remarkably": 0,
    "pulsing": 0,
    "duty": 0,
    "cycles": 0,
    "pulsed": 0,
    "compensation": 0,
    "unless": 0,
    "count": 0,
    "97": 0,
    "Association": 0,
    "arousal": 0,
    "fatigue": 0,
    "##oda": 7,
    "##fin": 33,
    "Multiple": 0,
    "dem": 4,
    "##ye": 12,
    "##lina": 3,
    "##ue": 0,
    "distress": 0,
    "##om": 0,
    "unrelated": 0,
    "load": 0,
    "daytime": 0,
    "sleep": 0,
    "##iness": 0,
    "auto": 0,
    "wake": 0,
    "##fulness": 0,
    "relieve": 0,
    "difficulties": 0,
    "sympathetic": 0,
    "question": 0,
    "##worth": 0,
    "Stanford": 0,
    "Sleep": 0,
    "Scale": 0,
    "visual": 0,
    "analogue": 0,
    "scales": 0,
    "flicker": 0,
    "fusion": 0,
    "##illo": 4,
    "Test": 6,
    "choice": 0,
    "##ast": 2,
    "pupil": 0,
    "diameter": 0,
    "differ": 0,
    "Mo": 13,
    "##path": 0,
    "correct": 0,
    "##encies": 0,
    "##rene": 31,
    "since": 0,
    "damaged": 0,
    "probably": 0,
    "Post": 0,
    "##citation": 0,
    "mid": 34,
    "##queduct": 0,
    "grey": 0,
    "posts": 0,
    "whole": 0,
    "patch": 0,
    "##lamp": 0,
    "inward": 0,
    "shift": 0,
    "voltage": 0,
    "outward": 0,
    "##OE": 12,
    "##BO": 3,
    "abolished": 0,
    "Slow": 0,
    "EP": 0,
    "train": 0,
    "released": 0,
    "spill": 0,
    "currents": 0,
    "##LP": 5,
    "pan": 4,
    "dependence": 0,
    "##lli": 2,
    "##tus": 0,
    "characteristic": 0,
    "##rap": 21,
    "##phony": 0,
    "impose": 0,
    "ambient": 0,
    "psychological": 0,
    "hence": 0,
    "mini": 0,
    "advantage": 0,
    "makes": 0,
    "safer": 0,
    "minimal": 0,
    "inherent": 0,
    "occur": 0,
    "chain": 0,
    "##hat": 6,
    "##eper": 0,
    "##ake": 1,
    "##aceae": 0,
    "Din": 1,
    "configurations": 0,
    "##iden": 2,
    "circular": 0,
    "##rois": 0,
    "##thermal": 0,
    "##apa": 5,
    "##tite": 6,
    "##wall": 0,
    "##not": 2,
    "##ube": 0,
    "composite": 0,
    "coating": 0,
    "##medical": 0,
    "alloy": 0,
    "mechanical": 0,
    "fix": 0,
    "metallic": 0,
    "Because": 0,
    "extraordinary": 0,
    "facilities": 0,
    "##ein": 36,
    "##force": 0,
    "MW": 0,
    "Cal": 11,
    "CH": 52,
    "##mogeneous": 0,
    "deposits": 0,
    "dispersed": 0,
    "##eva": 0,
    "##tting": 0,
    "obtaining": 0,
    "Quality": 0,
    "flower": 0,
    "Young": 0,
    "flowers": 0,
    "##cht": 0,
    "##ss": 0,
    "Vale": 0,
    "consumed": 0,
    "bitter": 0,
    "vegetable": 0,
    "Active": 0,
    "young": 0,
    "Thailand": 0,
    "ranges": 0,
    "117": 0,
    "77": 0,
    "Loss": 0,
    "sign": 0,
    "tomato": 0,
    "##gression": 0,
    "##anu": 0,
    "##nell": 0,
    "##ii": 6,
    "##cope": 16,
    "##ped": 0,
    "parental": 0,
    "Such": 0,
    "trend": 0,
    "seems": 0,
    "depend": 0,
    "rather": 0,
    "##wed": 0,
    "##ign": 11,
    "agree": 0,
    "traits": 0,
    "straw": 0,
    "##aga": 0,
    "##ssa": 0,
    "##nut": 0,
    "##rient": 0,
    "##tensive": 0,
    "attention": 0,
    "pregnant": 0,
    "PP": 26,
    "BP": 123,
    "##zoic": 7,
    "111": 0,
    "##quent": 0,
    "takes": 0,
    "personal": 0,
    "##ital": 11,
    "birth": 0,
    "adjusted": 0,
    "AG": 8,
    "offspring": 0,
    "mothers": 0,
    "apparently": 0,
    "bone": 0,
    "fracture": 0,
    "##sities": 0,
    "##MD": 55,
    "relationships": 0,
    "101": 0,
    "Han": 0,
    "Five": 0,
    "##17": 24,
    "##OX": 48,
    "##11": 13,
    "SP": 6,
    "##jects": 0,
    "carrying": 0,
    "largest": 0,
    "252": 0,
    "136": 0,
    "##var": 0,
    "03": 0,
    "falls": 0,
    "year": 0,
    "06": 0,
    "286": 0,
    "Gene": 0,
    "concert": 0,
    "accession": 0,
    "##race": 1,
    "Bank": 0,
    "Universidad": 0,
    "Auto": 0,
    "Cha": 3,
    "##ping": 0,
    "assigned": 0,
    "attributed": 0,
    "##wth": 0,
    "##orn": 1,
    "##loss": 0,
    "##ure": 18,
    "Johns": 0,
    "tradition": 0,
    "AA": 10,
    "##eration": 0,
    "Total": 0,
    "ranged": 0,
    "lit": 41,
    "##vian": 3,
    "142": 0,
    "214": 0,
    "Live": 0,
    "##MG": 0,
    "##oll": 11,
    "retrospective": 0,
    "consideration": 0,
    "##found": 0,
    "##hin": 36,
    "releasing": 0,
    "Simple": 0,
    "live": 0,
    "start": 0,
    "123": 0,
    "##EI": 28,
    "##tically": 0,
    "deposited": 0,
    "fabric": 0,
    "ceramic": 0,
    "plan": 0,
    "##bat": 5,
    "##tery": 8,
    "conduct": 0,
    "##PO": 38,
    "##orous": 2,
    "##gnate": 0,
    "DE": 25,
    "##gard": 0,
    "thin": 0,
    "film": 0,
    "##ator": 5,
    "operation": 0,
    "batteries": 0,
    "Do": 50,
    "##ht": 50,
    "##rip": 2,
    "##cs": 12,
    "ranking": 0,
    "##oes": 5,
    "66": 0,
    "integrating": 0,
    "enables": 0,
    "##ota": 5,
    "##pia": 0,
    "Lebanon": 0,
    "##IC": 7,
    "164": 0,
    "##SO": 14,
    "43": 0,
    "possesses": 0,
    "##fied": 1,
    "Mix": 0,
    "##ture": 0,
    "Models": 0,
    "PS": 7,
    "Male": 0,
    "challenged": 0,
    "protector": 0,
    "##phine": 33,
    "##ili": 41,
    "Neither": 0,
    "comparable": 0,
    "##aly": 2,
    "kHz": 0,
    "Likewise": 0,
    "##alytic": 0,
    "##sonic": 0,
    "converted": 0,
    "reflected": 0,
    "##lix": 0,
    "coil": 0,
    "##xe": 18,
    "sensory": 0,
    "NE": 2,
    "increases": 0,
    "##vity": 0,
    "improvements": 0,
    "executive": 0,
    "shifting": 0,
    "exact": 0,
    "availability": 0,
    "impulse": 0,
    "##tized": 0,
    "units": 0,
    "leaving": 0,
    "intact": 0,
    "##has": 21,
    "magnitude": 0,
    "##FP": 0,
    "##herence": 0,
    "depending": 0,
    "initially": 0,
    "amplitude": 0,
    "fields": 0,
    "bands": 0,
    "##EG": 110,
    "signals": 0,
    "Could": 0,
    "descend": 0,
    "FL": 6,
    "dams": 0,
    "pregnancy": 0,
    "full": 16,
    "seminal": 0,
    "presented": 0,
    "height": 0,
    "Tel": 0,
    "short": 2,
    "##ening": 0,
    "##sat": 10,
    "##mere": 0,
    "Yet": 0,
    "recover": 0,
    "shorter": 0,
    "immediate": 0,
    "passages": 0,
    "resist": 0,
    "cop": 0,
    "##60": 19,
    "technique": 0,
    "deposit": 0,
    "Unfortunately": 0,
    "theory": 0,
    "universal": 0,
    "seemed": 0,
    "##OT": 21,
    "ratios": 0,
    "##site": 0,
    "films": 0,
    "333": 0,
    "photo": 0,
    "##lta": 0,
    "larger": 0,
    "circuit": 0,
    "requirements": 0,
    "poisoning": 0,
    "##phorus": 27,
    "insufficient": 0,
    "consequence": 0,
    "past": 0,
    "##mper": 5,
    "origin": 0,
    "tempting": 0,
    "identical": 0,
    "get": 0,
    "positions": 0,
    "modifications": 0,
    "detail": 0,
    "##erve": 0,
    "##PC": 4,
    "##YP": 0,
    "stab": 0,
    "recovering": 0,
    "contrary": 0,
    "##fused": 0,
    "stain": 0,
    "illustrated": 0,
    "##but": 26,
    "##trom": 6,
    "##gli": 55,
    "OH": 58,
    "acted": 0,
    "##ductor": 0,
    "predictions": 0,
    "situations": 0,
    "Vita": 10,
    "disturb": 0,
    "pulmonary": 0,
    "Its": 0,
    "basement": 0,
    "architecture": 0,
    "thick": 0,
    "##olar": 0,
    "until": 0,
    "Col": 0,
    "##lage": 0,
    "chains": 0,
    "Matrix": 0,
    "reverted": 0,
    "##pose": 0,
    "alignment": 0,
    "bar": 4,
    "350": 0,
    "thickness": 0,
    "##zen": 40,
    "##ulp": 5,
    "classic": 0,
    "theoretical": 0,
    "calculations": 0,
    "##plate": 0,
    "forces": 0,
    "plane": 0,
    "coincided": 0,
    "orientation": 0,
    "shape": 0,
    "##tered": 0,
    "115": 0,
    "##body": 0,
    "##ope": 6,
    "##nia": 0,
    "easy": 0,
    "##oms": 0,
    "prominent": 0,
    "childhood": 0,
    "##rte": 1,
    "##voc": 0,
    "skeleton": 0,
    "##mulating": 0,
    "typical": 0,
    "causing": 0,
    "substitution": 0,
    "moderately": 0,
    "Image": 0,
    "##ind": 11,
    "##entation": 0,
    "dynamics": 0,
    "Hospital": 0,
    "380": 0,
    "nationwide": 0,
    "representative": 0,
    "people": 0,
    "1998": 0,
    "adjustments": 0,
    "##rona": 5,
    "medications": 0,
    "##rin": 165,
    "Kaplan": 0,
    "Mei": 0,
    "Cox": 0,
    "person": 0,
    "confidence": 0,
    "interval": 0,
    "51": 0,
    "hazard": 0,
    "89": 0,
    "86": 0,
    "##urs": 0,
    "##roid": 19,
    "##tad": 0,
    "##eca": 0,
    "##tral": 5,
    "##oa": 24,
    "grave": 0,
    "Her": 0,
    "Artemis": 3,
    "##cens": 0,
    "insect": 0,
    "##icidal": 0,
    "Rhys": 0,
    "##oper": 1,
    "allowed": 0,
    "##llo": 3,
    "twenty": 0,
    "representing": 0,
    "##zu": 2,
    "##lene": 41,
    "camp": 11,
    "Pet": 2,
    "dish": 0,
    "cm": 0,
    "cyclone": 2,
    "marine": 0,
    "##rod": 21,
    "##hes": 0,
    "112": 0,
    "antibodies": 0,
    "changed": 0,
    "Subsequently": 0,
    "153": 0,
    "##38": 0,
    "##26": 13,
    "transplant": 0,
    "competent": 0,
    "Besides": 0,
    "favor": 0,
    "##lets": 0,
    "BA": 21,
    "supplemented": 0,
    "##ng": 13,
    "fork": 0,
    "box": 0,
    "duo": 0,
    "fast": 0,
    "augmented": 0,
    "##lar": 6,
    "unexpectedly": 0,
    "neural": 0,
    "participating": 0,
    "middle": 0,
    "aging": 0,
    "drinking": 0,
    "mature": 0,
    "##rk": 0,
    "CR": 0,
    "month": 0,
    "##af": 24,
    "##fe": 18,
    "substantially": 0,
    "regardless": 0,
    "child": 0,
    "hood": 0,
    "Omega": 3,
    "##FA": 74,
    "##HA": 50,
    "EPA": 10,
    "surprising": 0,
    "acknowledged": 0,
    "somewhat": 0,
    "conflicting": 0,
    "consistently": 0,
    "##sable": 0,
    "proper": 0,
    "##uate": 2,
    "discusses": 0,
    "integrate": 0,
    "investigating": 0,
    "cover": 0,
    "modeling": 0,
    "nuclei": 2,
    "proof": 0,
    "summarized": 0,
    "look": 0,
    "unstable": 0,
    "Animal": 0,
    "progressed": 0,
    "deal": 0,
    "finally": 0,
    "narrowing": 0,
    "gap": 0,
    "bench": 0,
    "bedside": 0,
    "clinic": 0,
    "concerning": 0,
    "come": 0,
    "detailed": 0,
    "Match": 0,
    "##cies": 0,
    "ZIP": 8,
    "autonomous": 0,
    "##risto": 8,
    "pseudo": 0,
    "erase": 0,
    "storage": 0,
    "Wu": 0,
    "Zhang": 0,
    "adequately": 0,
    "exceed": 0,
    "reaches": 0,
    "beyond": 0,
    "excess": 0,
    "spare": 0,
    "##fected": 0,
    "mathematical": 0,
    "noticeable": 0,
    "scrambled": 0,
    "nonetheless": 0,
    "correspond": 0,
    "##GP": 8,
    "##rium": 0,
    "muscular": 0,
    "physiology": 0,
    "##vas": 26,
    "bundle": 0,
    "scar": 0,
    "healing": 0,
    "fibre": 0,
    "##mura": 3,
    "67": 0,
    "spa": 1,
    "fund": 0,
    "sent": 0,
    "Convention": 0,
    "Unit": 0,
    "##bers": 0,
    "equally": 0,
    "respect": 0,
    "##otypic": 0,
    "Similarly": 0,
    "##adi": 27,
    "would": 0,
    "sole": 0,
    "##rrow": 0,
    "observe": 0,
    "##et": 5,
    "##rance": 0,
    "##ody": 0,
    "##life": 0,
    "##rator": 0,
    "##pher": 9,
    "AI": 0,
    "##elin": 4,
    "##russ": 0,
    "ISO": 10,
    "##llar": 9,
    "unit": 0,
    "CB": 23,
    "##ilation": 0,
    "Caucasian": 0,
    "##CF": 0,
    "##90": 8,
    "##IP": 24,
    "adjustment": 0,
    "##bin": 19,
    "Aurora": 0,
    "cent": 0,
    "mat": 0,
    "##uration": 0,
    "##dle": 0,
    "defect": 0,
    "##dles": 0,
    "More": 0,
    "##ong": 3,
    "##ilia": 0,
    "##ption": 0,
    "expanded": 0,
    "##bu": 27,
    "OS": 1,
    "##CA": 22,
    "##cine": 30,
    "##tein": 48,
    "RCA": 0,
    "##graded": 0,
    "versus": 0,
    "##quin": 75,
    "consequently": 0,
    "program": 0,
    "eliminate": 0,
    "harmful": 0,
    "##tage": 0,
    "regarding": 0,
    "##gate": 0,
    "capability": 0,
    "judged": 0,
    "Ames": 0,
    "Comet": 0,
    "pivotal": 0,
    "designing": 0,
    "entity": 0,
    "##athy": 0,
    "collection": 0,
    "Information": 0,
    "females": 0,
    "sourced": 0,
    "##ett": 0,
    "Ava": 0,
    "photographs": 0,
    "meeting": 0,
    "##gis": 0,
    "event": 0,
    "Most": 0,
    "delay": 0,
    "months": 0,
    "Less": 0,
    "quarter": 2,
    "variant": 0,
    "Se": 54,
    "##iz": 4,
    "##ures": 0,
    "spinal": 0,
    "##rva": 0,
    "facial": 0,
    "assist": 0,
    "meet": 0,
    "another": 0,
    "formal": 31,
    "Form": 8,
    "##ald": 11,
    "##quito": 0,
    "International": 0,
    "Research": 0,
    "Cancer": 0,
    "links": 0,
    "Rep": 2,
    "Fan": 0,
    "supporting": 0,
    "##iet": 2,
    "##iciency": 0,
    "chromosome": 0,
    "BR": 2,
    "protect": 2,
    "Future": 0,
    "AK": 0,
    "##ocytes": 0,
    "##eto": 61,
    "generating": 0,
    "##uin": 98,
    "Expo": 0,
    "##sure": 0,
    "##BL": 3,
    "tobacco": 0,
    "*": 1,
    "needs": 0,
    "Novel": 0,
    "networks": 0,
    "express": 0,
    "players": 0,
    "increasingly": 0,
    "master": 0,
    "switch": 0,
    "loops": 0,
    "participate": 0,
    "biology": 0,
    "sulfur": 16,
    "Numerous": 0,
    "nitrogen": 39,
    "##ram": 46,
    "du": 3,
    "##ib": 28,
    "##enia": 0,
    "capacities": 0,
    "decomposition": 0,
    "##yn": 24,
    "ON": 8,
    "catalyst": 0,
    "##venge": 0,
    "##zone": 19,
    "LA": 10,
    "##SS": 11,
    "88": 0,
    "Heat": 0,
    "##aper": 0,
    "##SF": 1,
    "During": 0,
    "becomes": 0,
    "opted": 0,
    "evidently": 0,
    "Concert": 0,
    "permit": 0,
    "##logies": 0,
    "help": 0,
    "##vade": 0,
    "switched": 0,
    "discovering": 0,
    "##bri": 18,
    "##cated": 0,
    "surfaces": 0,
    "Cell": 0,
    "diverse": 0,
    "##cale": 0,
    "machinery": 0,
    "##cation": 0,
    "precise": 0,
    "##ough": 0,
    "glass": 4,
    "##lit": 41,
    "##raphy": 0,
    "etc": 0,
    "##hing": 0,
    "##physical": 0,
    "behaviors": 0,
    "##kel": 0,
    "##eton": 5,
    "engineering": 0,
    "##nus": 2,
    "##pur": 0,
    "##sing": 0,
    "neglected": 0,
    "tropical": 0,
    "African": 0,
    "cost": 0,
    "parasite": 0,
    "attractive": 0,
    "##matical": 0,
    "initiated": 0,
    "killing": 0,
    "dock": 0,
    "scope": 0,
    "nearly": 0,
    "##vention": 0,
    "ranks": 0,
    "mortal": 0,
    "Min": 2,
    "##eanut": 0,
    "##stered": 0,
    "Je": 0,
    "##mas": 0,
    "##ej": 0,
    "##un": 0,
    "counted": 0,
    "varying": 0,
    "##tain": 0,
    "observations": 0,
    "reveal": 0,
    "holds": 0,
    "promise": 0,
    "##rack": 0,
    "##ndra": 0,
    "pig": 0,
    "##oral": 2,
    "earliest": 0,
    "signs": 0,
    "flat": 0,
    "preceding": 0,
    "##tology": 0,
    "resembling": 0,
    "juvenile": 0,
    "right": 0,
    "surgical": 0,
    "vessels": 0,
    "##UN": 0,
    "heads": 0,
    "##cat": 7,
    "assessments": 0,
    "cracks": 0,
    "weighted": 0,
    "##ean": 1,
    "##ulus": 0,
    "susceptible": 0,
    "loading": 0,
    "joint": 0,
    "##dl": 0,
    "##eda": 0,
    "constitutes": 0,
    "wound": 0,
    "##pers": 0,
    "##ptera": 0,
    "##rug": 0,
    "era": 0,
    "Pass": 0,
    "##nch": 1,
    "hydrogen": 151,
    "perhaps": 0,
    "stresses": 0,
    "Assessment": 0,
    "##fish": 0,
    "##rato": 2,
    "suit": 0,
    "trunk": 0,
    "angle": 0,
    "length": 0,
    "score": 0,
    "hp": 0,
    "##roi": 17,
    "patterns": 0,
    "##dation": 0,
    "##ations": 0,
    "acceptable": 0,
    "cattle": 0,
    "##got": 0,
    "1900": 0,
    "outbreak": 0,
    "regulations": 0,
    "##rgo": 1,
    "##tism": 0,
    "##ice": 6,
    "cereal": 0,
    "grains": 0,
    "##tle": 0,
    "called": 0,
    "summer": 0,
    "implementation": 0,
    "milling": 0,
    "socio": 0,
    "##economic": 0,
    "Ethiopia": 0,
    "1977": 0,
    "2001": 0,
    "1975": 0,
    "Australia": 0,
    "1987": 0,
    "United": 0,
    "States": 0,
    "1996": 0,
    "1997": 0,
    "Brazil": 0,
    "opposed": 0,
    "epidemic": 0,
    "devoted": 0,
    "silver": 30,
    "##pian": 7,
    "Salmon": 0,
    "Sur": 5,
    "##rising": 0,
    "##quisite": 0,
    "absorbed": 0,
    "colonies": 0,
    "##ising": 0,
    "Plate": 0,
    "##rre": 0,
    "##spective": 0,
    "frame": 0,
    "depended": 0,
    "indicates": 0,
    "intercept": 0,
    "##rri": 1,
    "##tant": 0,
    "mob": 0,
    "##ilize": 0,
    "channel": 0,
    "referenced": 0,
    "##urable": 0,
    "automated": 0,
    "##34": 12,
    "##sive": 0,
    "persisted": 0,
    "stores": 0,
    "measuring": 0,
    "appears": 0,
    "option": 0,
    "utility": 0,
    "CF": 13,
    "##RI": 2,
    "Baby": 0,
    "##yer": 0,
    "interface": 0,
    "##ith": 6,
    "tight": 0,
    "junction": 0,
    "##position": 0,
    "##sty": 17,
    "##mers": 1,
    "700": 0,
    "PR": 6,
    "##MA": 104,
    "##chen": 0,
    "##usal": 0,
    "Through": 0,
    "bridges": 0,
    "Lama": 0,
    "explained": 0,
    "##hwa": 0,
    "##nn": 0,
    "agreed": 0,
    "accepted": 0,
    "##lial": 0,
    "idea": 0,
    "Super": 1,
    "foam": 0,
    "static": 0,
    "dynamic": 0,
    "wet": 0,
    "template": 0,
    "directed": 0,
    "vapor": 0,
    "hundred": 0,
    "dimension": 0,
    "walls": 0,
    "layer": 0,
    "sheets": 0,
    "coated": 0,
    "Water": 0,
    "measurements": 0,
    "advancing": 0,
    "##ceding": 0,
    "##pel": 0,
    "##lent": 1,
    "nature": 0,
    "##bound": 0,
    "applications": 0,
    "sticking": 0,
    "cleaning": 0,
    "##rrosion": 0,
    "friction": 0,
    "Mal": 2,
    "children": 0,
    "##AG": 26,
    "147": 0,
    "201": 0,
    "##lace": 3,
    "nerves": 0,
    "VII": 0,
    "IX": 0,
    "##agu": 0,
    "Ultra": 0,
    "##ration": 0,
    "examination": 0,
    "argued": 0,
    "medication": 0,
    "accelerate": 0,
    "producing": 0,
    "##izing": 0,
    "unnatural": 0,
    "According": 0,
    "imply": 0,
    "abuse": 0,
    "##22": 10,
    "##28": 3,
    "##32": 6,
    "##33": 7,
    "considerably": 0,
    "proven": 0,
    "indeed": 0,
    "entering": 0,
    "unusual": 0,
    "fact": 0,
    "Sept": 0,
    "involve": 0,
    "swelling": 0,
    "restricted": 0,
    "movement": 0,
    "emergency": 0,
    "department": 0,
    "nausea": 0,
    "cc": 0,
    "mint": 0,
    "purchased": 0,
    "store": 0,
    "knee": 0,
    "##inge": 0,
    "Ball": 0,
    "##otte": 0,
    "##nee": 1,
    "##nc": 0,
    "yielded": 0,
    "cloud": 0,
    "Improvement": 0,
    "washing": 0,
    "space": 0,
    "discharged": 0,
    "hospital": 0,
    "##biotic": 0,
    "foreign": 0,
    "rare": 9,
    "complicated": 0,
    "##VA": 8,
    "acquired": 0,
    "##gment": 0,
    "Indian": 0,
    "##vio": 4,
    "gold": 2,
    "empirical": 0,
    "107": 0,
    "considering": 0,
    "residual": 0,
    "##ego": 0,
    "##riz": 7,
    "respond": 0,
    "##viation": 0,
    "Large": 0,
    "systematic": 0,
    "damp": 0,
    "##port": 0,
    "portal": 0,
    "norm": 3,
    "Following": 0,
    "stopped": 0,
    "IN": 0,
    "taken": 0,
    "53": 0,
    "accompanied": 0,
    "##istan": 0,
    "Ku": 0,
    "introduces": 0,
    "click": 0,
    "Ban": 0,
    "languages": 0,
    "southwestern": 0,
    "Zambia": 0,
    "spoken": 0,
    "neighboring": 0,
    "Botswana": 0,
    "Namibia": 0,
    "Angola": 0,
    "consonants": 0,
    "closest": 0,
    "linguistic": 0,
    "relatives": 0,
    "language": 0,
    "##isan": 1,
    "borrowed": 0,
    "combine": 0,
    "sequences": 0,
    "Province": 0,
    "speaking": 0,
    "fine": 0,
    "scaled": 0,
    "tandem": 0,
    "repeats": 0,
    "prehistoric": 0,
    "borrow": 0,
    "histories": 0,
    "bias": 0,
    "incorporation": 0,
    "sounds": 0,
    "sound": 0,
    "sequence": 0,
    "sharing": 0,
    "extant": 0,
    "indication": 0,
    "must": 0,
    "##structure": 0,
    "indigenous": 0,
    "survive": 0,
    "Clinical": 0,
    "undergoing": 0,
    "adolescent": 0,
    "modelled": 0,
    "gender": 0,
    "##linear": 0,
    "BS": 23,
    "parameter": 0,
    "##nent": 0,
    "error": 0,
    "##bject": 0,
    "proportional": 0,
    "##patient": 0,
    "final": 0,
    "estimates": 0,
    "accounting": 0,
    "##gation": 0,
    "##some": 0,
    "##bos": 7,
    "added": 0,
    "##stal": 0,
    "atom": 8,
    "know": 0,
    "##formatics": 0,
    "propose": 0,
    "Drugs": 0,
    "##dication": 0,
    "##NI": 3,
    "alongside": 0,
    "resources": 0,
    "avid": 0,
    "destruction": 0,
    "dominated": 0,
    "setting": 0,
    "clone": 0,
    "recognizing": 0,
    "AL": 44,
    "##AA": 4,
    "##LL": 22,
    "##PL": 0,
    "virus": 0,
    "##lian": 1,
    "competence": 0,
    "cancel": 0,
    "##lous": 0,
    "whereby": 0,
    "\"": 0,
    "##oh": 2,
    "##ere": 19,
    "neutron": 0,
    "scattering": 0,
    "matter": 0,
    "cold": 0,
    "##tering": 0,
    "##16": 37,
    "Institut": 0,
    "Lau": 2,
    "France": 0,
    "temperature": 0,
    "##ases": 0,
    "##AC": 38,
    "elastic": 0,
    "##here": 0,
    "##IN": 15,
    "square": 0,
    "displacement": 0,
    "flexibility": 0,
    "implying": 0,
    "flexible": 0,
    "energies": 0,
    "##rm": 3,
    "window": 0,
    "Becker": 0,
    "2004": 0,
    "turned": 0,
    "relations": 0,
    "Between": 0,
    "280": 0,
    "316": 0,
    "systematically": 0,
    "grow": 0,
    "crystals": 0,
    "Quantum": 0,
    "reactions": 0,
    "bonding": 0,
    "taut": 0,
    "bonded": 0,
    "title": 0,
    "311": 0,
    "##iza": 6,
    "##tinuum": 0,
    "approximation": 0,
    "computational": 0,
    "quite": 0,
    "##zable": 0,
    "energetic": 0,
    "exchange": 0,
    "##eo": 14,
    "##ries": 0,
    "formations": 0,
    "favored": 0,
    "bonds": 0,
    "comes": 0,
    "calculation": 0,
    "true": 0,
    "sexes": 0,
    "##iology": 0,
    "experienced": 0,
    "suffer": 0,
    "##far": 5,
    "adjusting": 0,
    "special": 0,
    "situation": 0,
    "Abe": 0,
    "pairs": 0,
    "##nti": 0,
    "##tative": 0,
    "frequencies": 0,
    "frequent": 0,
    "warrant": 0,
    "Oral": 0,
    "bee": 0,
    "external": 0,
    "##ban": 34,
    "chances": 0,
    "penetration": 0,
    "##table": 0,
    "atop": 0,
    "Beta": 2,
    "##ider": 0,
    "##hem": 1,
    "scratching": 0,
    "His": 16,
    "examinations": 0,
    "##lement": 0,
    "##tations": 0,
    "FK": 5,
    "##ck": 0,
    "##cess": 0,
    "##ines": 34,
    "##alle": 0,
    "families": 0,
    "Samoa": 0,
    "Islands": 0,
    "share": 0,
    "founder": 0,
    "miss": 0,
    "##ense": 0,
    "remainder": 0,
    "premature": 0,
    "termination": 0,
    "create": 0,
    "frames": 0,
    "instability": 0,
    "stature": 0,
    "progressive": 0,
    "slightly": 0,
    "diminished": 0,
    "overlap": 0,
    "##H1": 4,
    "prevalent": 0,
    "thinking": 0,
    "likelihood": 0,
    "gives": 0,
    "rise": 0,
    "harm": 1,
    "contributor": 0,
    "##ractical": 0,
    "highlighted": 0,
    "##esta": 0,
    "##tional": 0,
    "##etal": 0,
    "##uch": 0,
    "attended": 0,
    "Down": 0,
    "institution": 0,
    "Mat": 0,
    "##ern": 1,
    "##pin": 11,
    "And": 11,
    "##sten": 14,
    "##bide": 6,
    "gate": 0,
    "pyramid": 0,
    "now": 0,
    "WC": 20,
    "##eron": 0,
    "##aut": 0,
    "astronaut": 0,
    "shifted": 0,
    "overs": 0,
    "##hoot": 0,
    "threshold": 0,
    "modify": 0,
    "##GS": 11,
    "##Cs": 1,
    "course": 0,
    "##phere": 0,
    "##nob": 0,
    "##piration": 0,
    "Whole": 0,
    "lava": 0,
    "burden": 0,
    "dark": 0,
    "dominant": 0,
    "spaces": 0,
    "terminal": 0,
    "smallest": 0,
    "particle": 0,
    "aspect": 0,
    "severity": 0,
    "ranked": 0,
    "Para": 6,
    "salts": 0,
    "##ives": 0,
    "toilet": 0,
    "Humans": 0,
    "ing": 0,
    "extension": 0,
    "ring": 0,
    "domain": 0,
    "competitor": 0,
    "origins": 0,
    "vulnerable": 0,
    "hazards": 0,
    "stating": 0,
    "thereby": 0,
    "garnered": 0,
    "effort": 0,
    "bridge": 0,
    "Society": 0,
    "invited": 0,
    "experts": 0,
    "attendees": 0,
    "##men": 0,
    "Siberian": 0,
    "##sters": 0,
    "##mps": 0,
    "substantial": 0,
    "lean": 0,
    "lost": 0,
    "vehicle": 0,
    "pads": 0,
    "##cas": 0,
    "Body": 0,
    "respiratory": 0,
    "maintained": 0,
    "expenditure": 0,
    "relate": 0,
    "cavity": 0,
    "standardized": 0,
    "##ival": 10,
    "##iculate": 0,
    "##PM": 2,
    "##liva": 5,
    "##dam": 8,
    "Nico": 15,
    "respective": 0,
    "sorting": 0,
    "comb": 0,
    "##ust": 0,
    "identifying": 0,
    "Regulation": 0,
    "##cks": 0,
    "Weight": 0,
    "relatively": 0,
    "SR": 7,
    "basins": 0,
    "simulation": 0,
    "rugged": 0,
    "landscape": 0,
    "perform": 0,
    "round": 0,
    "trips": 0,
    "visiting": 0,
    "temperatures": 0,
    "walk": 0,
    "draw": 0,
    "##backs": 0,
    "convergence": 0,
    "bigger": 0,
    "tackle": 0,
    "steadily": 0,
    "raises": 0,
    "##licit": 0,
    "explicit": 0,
    "##mot": 1,
    "coarse": 0,
    "grain": 0,
    "representation": 0,
    "frustrated": 0,
    "twice": 0,
    "500": 0,
    "bottle": 0,
    "##neck": 0,
    "Orient": 0,
    "versatile": 0,
    "precisely": 0,
    "##una": 0,
    "assumed": 0,
    "##thin": 5,
    "screens": 0,
    "pass": 0,
    "##ivated": 0,
    "assembly": 0,
    "packing": 0,
    "##off": 0,
    "##cious": 0,
    "##sions": 0,
    "planes": 0,
    "tens": 0,
    "flows": 0,
    "vicinity": 0,
    "oriented": 0,
    "tin": 4,
    "IT": 12,
    "##hale": 9,
    "##sca": 5,
    "Ace": 9,
    "##tag": 0,
    "##sts": 0,
    "meter": 0,
    "##liner": 0,
    "##flow": 0,
    "definition": 0,
    "approved": 0,
    "prototype": 0,
    "once": 0,
    "unlike": 0,
    "seem": 0,
    "Dual": 0,
    "combining": 0,
    "##agon": 0,
    "##nis": 2,
    "problem": 0,
    "##ways": 0,
    "lungs": 0,
    "destructive": 0,
    "disappointing": 0,
    "recruitment": 0,
    "Broad": 0,
    "##odies": 3,
    "Jan": 0,
    "delta": 11,
    "limitation": 0,
    "comparative": 0,
    "##EC": 14,
    "specially": 0,
    "Line": 0,
    "##bula": 0,
    "##red": 4,
    "##aba": 16,
    "##bilities": 0,
    "##tation": 0,
    "Food": 0,
    "##eding": 0,
    "output": 0,
    "blunt": 0,
    "concentrating": 0,
    "ore": 0,
    "##rice": 4,
    "Lin": 2,
    "##week": 0,
    "##yk": 0,
    "palm": 14,
    "unwanted": 0,
    "##ulatory": 0,
    "mount": 0,
    "lasted": 0,
    "Public": 0,
    "consent": 0,
    "##bank": 0,
    "Jordan": 0,
    "success": 0,
    "willing": 0,
    "informed": 0,
    "national": 0,
    "survey": 0,
    "perception": 0,
    "overwhelming": 0,
    "concept": 0,
    "investing": 0,
    "country": 0,
    "asked": 0,
    "decision": 0,
    "feel": 0,
    "willingness": 0,
    "ground": 0,
    "Educational": 0,
    "awareness": 0,
    "campaigns": 0,
    "participation": 0,
    "rights": 0,
    "community": 0,
    "endurance": 0,
    "vibration": 0,
    "stimulus": 0,
    "Eight": 0,
    "underwent": 0,
    "sessions": 0,
    "12th": 0,
    "recruited": 0,
    "peaks": 0,
    "protocols": 0,
    "states": 0,
    "Energy": 0,
    "##mma": 4,
    "##RC": 0,
    "Global": 0,
    "declined": 0,
    "repression": 0,
    "##IF": 0,
    "tube": 1,
    "consensus": 0,
    "Factor": 0,
    "##ily": 0,
    "tended": 0,
    "reflecting": 0,
    "disposition": 0,
    "Lu": 4,
    "##scent": 0,
    "platinum": 17,
    "complexes": 0,
    "##metric": 0,
    "^": 0,
    "##LE": 0,
    "bulk": 0,
    "##onic": 3,
    "yielding": 0,
    "##itting": 0,
    "crystal": 0,
    "prompted": 0,
    "quantum": 0,
    "Alpha": 1,
    "gram": 0,
    "Under": 0,
    "attached": 0,
    "248": 0,
    "##llin": 14,
    "##nine": 7,
    "miniature": 0,
    "##long": 0,
    "presumably": 0,
    "##charged": 0,
    "library": 0,
    "##fine": 2,
    "substituted": 0,
    "##MB": 22,
    "Ko": 3,
    "##ximal": 0,
    "##ibly": 0,
    "Michael": 0,
    "##ord": 0,
    "intermediate": 0,
    "faster": 0,
    "tighter": 0,
    "Des": 0,
    "##dote": 0,
    "##erging": 0,
    "opportunities": 0,
    "subfamily": 0,
    "Given": 0,
    "adds": 0,
    "AR": 4,
    "##lies": 0,
    "variable": 0,
    "##SB": 0,
    "exploited": 0,
    "die": 20,
    "rescue": 0,
    "spine": 0,
    "##gement": 0,
    "linking": 0,
    "##yana": 9,
    "##sian": 0,
    "worker": 0,
    "##WA": 0,
    "Korean": 0,
    "##18": 31,
    "##43": 7,
    "codes": 0,
    "stretch": 0,
    "410": 0,
    "Canadian": 0,
    "132": 0,
    "whom": 0,
    "lend": 0,
    "Something": 0,
    "got": 0,
    "psychiatric": 0,
    "healthcare": 0,
    "costs": 0,
    "costly": 0,
    "unpredictable": 0,
    "investor": 0,
    "abilities": 0,
    "companies": 0,
    "Industrial": 0,
    "back": 0,
    "corporate": 0,
    "financial": 0,
    "legal": 0,
    "consider": 0,
    "avenue": 0,
    "forward": 0,
    "spur": 0,
    "DD": 13,
    "challenging": 0,
    "innovations": 0,
    "enabling": 0,
    "progresses": 0,
    "achieve": 0,
    "##lles": 0,
    "highlight": 0,
    "Or": 4,
    "legislation": 0,
    "policies": 0,
    "adopted": 0,
    "orphan": 0,
    "worldwide": 0,
    "reflections": 0,
    "discussions": 0,
    "history": 0,
    "outlined": 0,
    "compares": 0,
    "America": 0,
    "Union": 0,
    "Japan": 0,
    "Singapore": 0,
    "Taiwan": 0,
    "Canada": 0,
    "incentives": 0,
    "designation": 0,
    "author": 0,
    "legislative": 0,
    "collaboration": 0,
    "##pecific": 0,
    "anchored": 0,
    "triple": 0,
    "binds": 0,
    "##cans": 0,
    "##ype": 0,
    "rescued": 0,
    "##ibi": 0,
    "##alis": 0,
    "anterior": 0,
    "limbs": 0,
    "##eus": 3,
    "accumulated": 0,
    "deliver": 0,
    "accounts": 0,
    "typically": 0,
    "ineffective": 0,
    "worse": 0,
    "##lay": 0,
    "blocks": 0,
    "disclosed": 0,
    "sizes": 0,
    "us": 0,
    "##zes": 0,
    "##IL": 8,
    "DR": 0,
    "##OP": 47,
    "folding": 0,
    "trigger": 0,
    "##ient": 0,
    "##iki": 0,
    "teams": 0,
    "emphasis": 0,
    "created": 0,
    "collaborative": 0,
    "planning": 0,
    "science": 0,
    "Monitor": 0,
    "delays": 0,
    "Solutions": 0,
    "Rate": 0,
    "##ivate": 0,
    "##SA": 16,
    "##dates": 3,
    "##date": 32,
    "hall": 0,
    "##tas": 10,
    "800": 0,
    "programmed": 0,
    "Death": 0,
    "##FT": 1,
    "##ume": 3,
    "##cis": 0,
    "PM": 22,
    "Side": 0,
    "references": 0,
    "##raft": 0,
    "##ciation": 0,
    "##DE": 63,
    "##lity": 0,
    "default": 0,
    "rarely": 0,
    "encountered": 0,
    "##gan": 6,
    "##olo": 26,
    "confirmation": 0,
    "Management": 0,
    "consists": 0,
    "##section": 0,
    "diagnosis": 0,
    "##ural": 0,
    "Due": 0,
    "chemist": 0,
    "##ilated": 0,
    "##igate": 0,
    "platforms": 0,
    "##sal": 0,
    "##lient": 0,
    "sugar": 48,
    "clay": 0,
    "referred": 0,
    "##forcing": 0,
    "gains": 0,
    "##lect": 0,
    "matrices": 0,
    "##bla": 0,
    "##izer": 0,
    "Sonic": 0,
    "##ifier": 0,
    "expansion": 0,
    "gallery": 0,
    "Meanwhile": 0,
    "galleries": 0,
    "So": 4,
    "##jiang": 0,
    "pigs": 0,
    "thoroughly": 0,
    "clarified": 0,
    "depot": 0,
    "abdominal": 0,
    "##ire": 3,
    "##imus": 21,
    "##DM": 1,
    "complications": 0,
    "##bent": 0,
    "ng": 0,
    "209": 0,
    "218": 0,
    "Much": 0,
    "eccentric": 0,
    "counter": 0,
    "expressions": 0,
    "Nick": 1,
    "##lding": 0,
    "factories": 0,
    "chloride": 5,
    "obvious": 0,
    "##gas": 0,
    "protects": 0,
    "serious": 0,
    "IP": 9,
    "hour": 0,
    "##iated": 0,
    "protected": 0,
    "turnover": 0,
    "prevailing": 0,
    "##umba": 0,
    "##brae": 0,
    "Unlike": 0,
    "extend": 0,
    "analogy": 0,
    "validity": 0,
    "questioned": 0,
    "initiate": 0,
    "influx": 0,
    "stiff": 0,
    "velocity": 0,
    "reflection": 0,
    "##VR": 0,
    "comparisons": 0,
    "fall": 0,
    "148": 0,
    "174": 0,
    "170": 0,
    "185": 0,
    "If": 1,
    "unlikely": 0,
    "jaw": 0,
    "prescribed": 0,
    "##ON": 20,
    "inn": 0,
    "fate": 0,
    "##pear": 0,
    "##man": 11,
    "coincide": 0,
    "timing": 0,
    "##uk": 0,
    "immunity": 0,
    "serve": 0,
    "##inger": 3,
    "##sect": 0,
    "dear": 0,
    "computer": 0,
    "audit": 0,
    "Single": 0,
    "##ech": 81,
    "mostly": 0,
    "nominally": 0,
    "##sign": 0,
    "##ature": 0,
    "predominant": 0,
    "Hence": 0,
    "##virus": 0,
    "##duced": 0,
    "##altered": 0,
    "approx": 0,
    "##imating": 0,
    "infinite": 0,
    "Reconstruction": 0,
    "evolutionary": 0,
    "hierarchy": 0,
    "Statistical": 0,
    "considerable": 0,
    "tract": 0,
    "##uations": 0,
    "Wright": 0,
    "Fisher": 0,
    "approximate": 0,
    "Mark": 0,
    "Monte": 0,
    "Carlo": 0,
    "algorithm": 0,
    "suited": 0,
    "sets": 0,
    "##tract": 0,
    "pneumonia": 0,
    "illustrate": 0,
    "genetics": 0,
    "appropriately": 0,
    "accommodate": 0,
    "Cross": 0,
    "##link": 0,
    "branched": 2,
    "argument": 0,
    "Un": 1,
    "##plex": 13,
    "escape": 0,
    "##pack": 0,
    "North": 0,
    "American": 0,
    "Branch": 0,
    "##dell": 0,
    "##lite": 17,
    "##ray": 0,
    "worms": 0,
    "clit": 0,
    "##nel": 0,
    "freshwater": 0,
    "##heses": 0,
    "genus": 0,
    "##set": 19,
    "consistency": 0,
    "archive": 0,
    "branch": 0,
    "estimate": 0,
    "phylogenetic": 0,
    "##cribed": 0,
    "clade": 0,
    "lengths": 0,
    "tax": 10,
    "undergone": 0,
    "grouping": 0,
    "##orted": 0,
    "genera": 0,
    "##das": 0,
    "reasonable": 0,
    "describing": 0,
    "panel": 0,
    "##zine": 27,
    "every": 0,
    "exception": 0,
    "##alo": 23,
    "##fen": 133,
    "conducting": 0,
    "##activated": 0,
    "##robe": 1,
    "tracking": 0,
    "image": 0,
    "680": 0,
    "405": 0,
    "Photo": 0,
    "tracked": 0,
    "spat": 2,
    "##vale": 6,
    "vomit": 1,
    "180": 0,
    "sur": 3,
    "##rogate": 0,
    "##sui": 0,
    "code": 0,
    "##ltration": 0,
    "firm": 0,
    "Lower": 0,
    "Selected": 0,
    "deadly": 0,
    "weapon": 0,
    "venom": 0,
    "milestone": 0,
    "snakes": 0,
    "##idae": 0,
    "hundreds": 0,
    "snake": 0,
    "century": 0,
    "bind": 0,
    "instruments": 0,
    "branches": 0,
    "sciences": 0,
    "landmarks": 0,
    "##version": 0,
    "Que": 6,
    "spite": 0,
    "##rehension": 0,
    "##quer": 2,
    "Select": 1,
    "##ll": 4,
    "originally": 0,
    "##ubi": 43,
    "cord": 1,
    "viral": 0,
    "cocktail": 0,
    "##LM": 3,
    "##aver": 0,
    "plot": 0,
    "tolerant": 0,
    "maize": 0,
    "Mai": 0,
    "staple": 0,
    "weeds": 0,
    "##fers": 0,
    "crops": 0,
    "GM": 0,
    "separately": 0,
    "formulated": 0,
    "weights": 0,
    "##day": 0,
    "##scopic": 0,
    "Hong": 0,
    "Kong": 0,
    "##yster": 0,
    "##kon": 0,
    "China": 0,
    "mollusk": 0,
    "endemic": 0,
    "coastal": 0,
    "fauna": 0,
    "116": 0,
    "Southern": 0,
    "161": 0,
    "variance": 0,
    "Mean": 0,
    "Ana": 0,
    "usual": 0,
    "Indeed": 0,
    "Brazilian": 0,
    "##shing": 0,
    "Plants": 0,
    "Coca": 3,
    "millions": 0,
    "disastrous": 0,
    "rehabilitation": 0,
    "chance": 0,
    "FDA": 0,
    "##tated": 0,
    "breaking": 0,
    "reward": 0,
    "centers": 0,
    "cheap": 0,
    "safely": 0,
    "concerns": 0,
    "##tian": 2,
    "bent": 0,
    "##iana": 2,
    "##gn": 0,
    "principle": 0,
    "tooth": 0,
    "##ont": 0,
    "rubber": 0,
    "inserted": 0,
    "M1": 0,
    "##GR": 0,
    "socket": 0,
    "##DA": 11,
    "tire": 0,
    "road": 0,
    "wear": 0,
    "sediment": 0,
    "dwelling": 0,
    "consist": 0,
    "pavement": 0,
    "tires": 0,
    "Subsequent": 0,
    "sediments": 0,
    "aquatic": 0,
    "##read": 0,
    "##ws": 0,
    "##yal": 7,
    "##teca": 1,
    "dub": 0,
    "pose": 0,
    "cannot": 0,
    "restore": 0,
    "##rants": 0,
    "Gold": 0,
    "##rism": 0,
    "##ustic": 0,
    "##amp": 10,
    "##fie": 0,
    "Early": 0,
    "simpler": 0,
    "Traditional": 0,
    "shallow": 0,
    "Hybrid": 0,
    "##lities": 0,
    "improving": 0,
    "Au": 71,
    "amplifier": 0,
    "##spect": 0,
    "centered": 0,
    "wavelength": 0,
    "penetrate": 0,
    "Arte": 0,
    "##TI": 1,
    "##VE": 5,
    "##EA": 49,
    "AND": 0,
    "##TH": 21,
    "##rov": 2,
    "artery": 0,
    "##LT": 0,
    "inspiration": 0,
    "independently": 0,
    "explaining": 0,
    "##US": 3,
    "##ION": 1,
    "understood": 0,
    "##raphic": 0,
    "zinc": 77,
    "patches": 0,
    "lived": 0,
    "shut": 0,
    "probability": 0,
    "dwell": 0,
    "closed": 0,
    "arise": 0,
    "##cover": 0,
    "acidic": 1,
    "Adult": 0,
    "continuation": 0,
    "killed": 0,
    "##une": 0,
    "Key": 0,
    "##hole": 5,
    "limp": 0,
    "##ess": 0,
    "Lac": 7,
    "##anti": 1,
    "Nor": 5,
    "Nothing": 0,
    "confronted": 0,
    "##ulf": 18,
    "race": 4,
    "unexpected": 0,
    "mutual": 0,
    "pocket": 0,
    "Bond": 0,
    "electronic": 0,
    "break": 0,
    "Fuller": 2,
    "electronics": 0,
    "noble": 0,
    "terminated": 0,
    "symmetry": 0,
    "contacts": 0,
    "gained": 0,
    "debate": 0,
    "happen": 0,
    "##tina": 5,
    "##lion": 0,
    "##xon": 15,
    "fails": 0,
    "fault": 0,
    "SV": 0,
    "##gg": 0,
    "##regation": 0,
    "refined": 0,
    "18th": 0,
    "includes": 0,
    "scientists": 0,
    "##ses": 3,
    "thoughts": 0,
    "##pas": 0,
    "comprised": 0,
    "modern": 0,
    "big": 4,
    "appearing": 0,
    "1944": 0,
    "1947": 0,
    "spreading": 0,
    "1932": 0,
    "contemporary": 0,
    "1950": 0,
    "modest": 0,
    "stems": 0,
    "ostensibly": 0,
    "bringing": 0,
    "comments": 0,
    "investigators": 0,
    "actively": 0,
    "engaged": 0,
    "Patch": 0,
    "##ently": 0,
    "resting": 0,
    "progressively": 0,
    "docks": 0,
    "albeit": 0,
    "functionality": 0,
    "Relations": 0,
    "##hips": 0,
    "ever": 0,
    "##yas": 0,
    "expands": 0,
    "similarity": 0,
    "devoid": 0,
    "##gins": 0,
    "diver": 0,
    "moonlight": 0,
    "##ER": 18,
    "##lative": 0,
    "http": 0,
    "collects": 0,
    "organizes": 0,
    "##sse": 0,
    "##minate": 0,
    "updated": 0,
    "web": 0,
    "server": 0,
    "upgraded": 0,
    "Table": 0,
    "Tree": 0,
    "tentatively": 0,
    "pin": 1,
    "##point": 0,
    "##plication": 0,
    "##gin": 7,
    "Another": 0,
    "goals": 0,
    "implement": 0,
    "##ytic": 0,
    "VP": 43,
    "enrolled": 0,
    "##tyn": 0,
    "massive": 0,
    "displays": 0,
    "##ony": 15,
    "Framework": 0,
    "##CH": 15,
    "rank": 0,
    "##iving": 0,
    "Standard": 0,
    "##cribe": 0,
    "posed": 0,
    "changing": 0,
    "introducing": 0,
    "turtles": 0,
    "occupying": 0,
    "niche": 0,
    "##lk": 2,
    "Turtle": 0,
    "toe": 0,
    "##nail": 0,
    "##ely": 0,
    "serpent": 0,
    "Stern": 0,
    "##erus": 0,
    "##atus": 0,
    "geographic": 0,
    "Virginia": 0,
    "USA": 0,
    "turtle": 0,
    "##SE": 2,
    "nail": 0,
    "rose": 0,
    "km": 0,
    "ecology": 0,
    "vast": 0,
    "expanse": 0,
    "posing": 0,
    "varies": 0,
    "conservation": 0,
    "minded": 0,
    "trauma": 0,
    "Trace": 0,
    "removed": 0,
    "gases": 0,
    "protecting": 0,
    "Car": 13,
    "uniquely": 0,
    "grouped": 0,
    "Perhaps": 0,
    "shared": 0,
    "shifts": 0,
    "own": 0,
    "distinctive": 0,
    "##PI": 12,
    "##dan": 7,
    "organic": 1,
    "##bing": 0,
    "##nex": 0,
    "##anne": 0,
    "folded": 0,
    "requiring": 0,
    "unfolded": 0,
    "manage": 0,
    "arises": 0,
    "Melissa": 0,
    "lemon": 0,
    "bags": 0,
    "presenting": 0,
    "quantities": 0,
    "tea": 0,
    "bag": 0,
    "otherwise": 0,
    "109": 0,
    "vine": 0,
    "repeated": 0,
    "##had": 0,
    "##rilla": 0,
    "chilled": 0,
    "##ker": 0,
    "##omb": 0,
    "##rus": 0,
    "unnamed": 0,
    "UN": 0,
    "Conversely": 0,
    "##ficiency": 0,
    "virgin": 0,
    "##rgan": 0,
    "really": 0,
    "eight": 0,
    "beauty": 0,
    "remote": 0,
    "forest": 0,
    "sufficiently": 0,
    "infant": 0,
    "market": 0,
    "##stein": 42,
    "milk": 0,
    "##rgen": 1,
    "pool": 0,
    "Spike": 0,
    "Sugar": 3,
    "chill": 0,
    "stored": 0,
    "##hai": 0,
    "cult": 0,
    "##hong": 0,
    "sensors": 0,
    "##amine": 78,
    "bean": 0,
    "Vic": 0,
    "supplied": 0,
    "removing": 0,
    "##ferred": 0,
    "Gas": 0,
    "##ott": 3,
    "waste": 0,
    "grape": 0,
    "skins": 0,
    "wines": 0,
    "juice": 0,
    "epic": 10,
    "##chin": 16,
    "SBS": 0,
    "##tures": 0,
    "Light": 0,
    "preserving": 0,
    "let": 0,
    "Mini": 0,
    "##RL": 0,
    "darkness": 0,
    "preserved": 0,
    "star": 0,
    "deteriorated": 0,
    "##clusive": 0,
    "##aus": 0,
    "routinely": 0,
    "Women": 0,
    "Health": 0,
    "Initiative": 0,
    "woman": 0,
    "her": 0,
    "applies": 0,
    "focuses": 0,
    "##oring": 0,
    "ultimate": 0,
    "sense": 0,
    "ventral": 0,
    "##IR": 1,
    "concurrent": 0,
    "##quid": 4,
    "shotgun": 0,
    "Typically": 0,
    "employed": 0,
    "merits": 0,
    "##ft": 2,
    "interference": 0,
    "##IM": 0,
    "Kid": 0,
    "##ney": 0,
    "qualified": 0,
    "##be": 1,
    "requires": 0,
    "##stick": 0,
    "195": 0,
    "##uria": 0,
    "freeze": 0,
    "room": 0,
    "Performance": 0,
    "earlier": 0,
    "##tur": 0,
    "concurrently": 0,
    "##xed": 0,
    "schedules": 0,
    "staggered": 0,
    "Cho": 13,
    "inner": 0,
    "##FC": 8,
    "inputs": 0,
    "projections": 0,
    "##hane": 19,
    "##ilo": 3,
    "immediately": 0,
    "600": 0,
    "##FS": 6,
    "Other": 0,
    "900": 0,
    "converts": 0,
    "emotional": 0,
    "Clara": 0,
    "##rated": 3,
    "##ema": 1,
    "trio": 5,
    "tackles": 0,
    "alternate": 0,
    "8th": 0,
    "##dized": 3,
    "compilation": 0,
    "Model": 0,
    "errors": 0,
    "generic": 0,
    "broadly": 0,
    "property": 0,
    "##imation": 0,
    "priorities": 0,
    "Thousands": 0,
    "priority": 0,
    "mapping": 0,
    "trained": 0,
    "232": 0,
    "Reference": 0,
    "Database": 0,
    "Rod": 0,
    "##UR": 0,
    "##hetical": 0,
    "scoring": 0,
    "classification": 0,
    "Office": 0,
    "Programs": 0,
    "differentiated": 0,
    "designated": 0,
    "Cass": 0,
    "##gum": 0,
    "##hol": 4,
    "behind": 0,
    "##EE": 0,
    "##ded": 0,
    "##wire": 0,
    "##conductor": 0,
    "ya": 0,
    "##rns": 0,
    "##ologies": 0,
    "longitudinal": 0,
    "segment": 0,
    "graded": 0,
    "##duct": 1,
    "exciting": 0,
    "textiles": 0,
    "solar": 0,
    "##isms": 0,
    "Graves": 0,
    "##nology": 0,
    "hormones": 0,
    "##ress": 0,
    "presumed": 0,
    "Thereafter": 0,
    "assign": 0,
    "##xial": 0,
    "shell": 0,
    "strained": 0,
    "NW": 0,
    "carry": 0,
    "strains": 0,
    "relax": 0,
    "relief": 0,
    "periodic": 0,
    "110": 0,
    "perfect": 0,
    "glide": 0,
    "{": 2,
    "}": 0,
    "slip": 0,
    "segments": 0,
    "rough": 0,
    "radius": 0,
    "coherent": 0,
    "equilibrium": 0,
    "##zas": 7,
    "native": 0,
    "disco": 0,
    "##nne": 0,
    "Use": 0,
    "##biotics": 0,
    "##balt": 21,
    "leak": 0,
    "modelling": 0,
    "original": 0,
    "mill": 0,
    "retain": 0,
    "displaying": 0,
    "##II": 0,
    "residue": 0,
    "domains": 0,
    "160": 0,
    "##100": 0,
    "conferred": 0,
    "##ras": 1,
    "Rey": 0,
    "##liptic": 0,
    "##ved": 0,
    "restored": 0,
    "##lex": 0,
    "transporting": 0,
    "Organic": 0,
    "transportation": 0,
    "##quencing": 0,
    "550": 0,
    "122": 0,
    "216": 0,
    "73": 0,
    "determines": 0,
    "achievements": 0,
    "existence": 0,
    "search": 0,
    "##elles": 0,
    "engulfed": 0,
    "just": 0,
    "revealing": 0,
    "sought": 0,
    "calculate": 0,
    "##dio": 11,
    "manga": 24,
    "##nese": 25,
    "evolving": 0,
    "##tons": 0,
    "lifetime": 0,
    "coverage": 0,
    "Europe": 0,
    "East": 0,
    "Americas": 0,
    "##roup": 0,
    "restrict": 0,
    "trees": 0,
    "##suming": 0,
    "pair": 0,
    "depth": 0,
    "dated": 0,
    "striking": 0,
    "##lithic": 0,
    "4000": 0,
    "Neolithic": 0,
    "placing": 0,
    "##stic": 0,
    "belong": 0,
    "composed": 0,
    "##ming": 0,
    "heavily": 0,
    "discoveries": 0,
    "Process": 0,
    "onto": 0,
    "launched": 0,
    "##tical": 0,
    "Technology": 0,
    "initiative": 0,
    "applying": 0,
    "multitude": 0,
    "deeper": 0,
    "ale": 4,
    "Seven": 0,
    "operated": 0,
    "##75": 3,
    "eroded": 0,
    "lowered": 0,
    "advantages": 0,
    "drives": 0,
    "bursts": 0,
    "##ffer": 0,
    "gradually": 0,
    "157": 0,
    "##cluded": 0,
    "NAS": 2,
    "decay": 0,
    "Salt": 0,
    "switching": 0,
    "trapping": 0,
    "proximity": 0,
    "rear": 0,
    "##rang": 0,
    "##ement": 0,
    "backbone": 0,
    "opening": 0,
    "fulfill": 0,
    "coordination": 0,
    "Sexual": 0,
    "Organ": 11,
    "##mouth": 0,
    "##lm": 21,
    "August": 0,
    "October": 0,
    "##NE": 4,
    "numbers": 0,
    "##cise": 0,
    "##ud": 1,
    "Sox": 0,
    "Run": 0,
    "##dar": 17,
    "id": 3,
    "##ync": 0,
    "##ratic": 0,
    "##ding": 0,
    "##CO": 18,
    "paranoid": 0,
    "Community": 0,
    "cannabis": 7,
    "##anna": 3,
    "Laboratory": 0,
    "210": 0,
    "ahead": 0,
    "agreement": 0,
    "State": 0,
    "Social": 0,
    "SS": 0,
    "##PS": 11,
    "Hopkins": 0,
    "Task": 0,
    "hi": 13,
    "ABC": 0,
    "##lice": 6,
    "readily": 0,
    "172": 0,
    "108": 0,
    "##ain": 0,
    "##35": 52,
    "##erative": 0,
    "minute": 0,
    "attack": 0,
    "medical": 0,
    "assistance": 0,
    "crosses": 0,
    "correspondence": 0,
    "infection": 0,
    "##ctors": 0,
    "##VI": 4,
    "originating": 0,
    "terminus": 0,
    "essentially": 0,
    "resolve": 0,
    "##tour": 0,
    "slides": 0,
    "disrupted": 0,
    "sliding": 0,
    "Graf": 0,
    "##generate": 0,
    "##zi": 103,
    "##dition": 0,
    "##ulos": 7,
    "meaningful": 0,
    "utilizing": 0,
    "masses": 0,
    "SEC": 0,
    "High": 0,
    "confirming": 0,
    "temporary": 0,
    "bones": 0,
    "traditionally": 0,
    "viewed": 0,
    "infants": 0,
    "temporal": 0,
    "Sr": 16,
    "##eal": 0,
    "Mechanical": 0,
    "##connected": 0,
    "governing": 0,
    "arrangement": 0,
    "##loading": 0,
    "newborn": 0,
    "fluorescent": 0,
    "##hall": 2,
    "directional": 0,
    "shaped": 0,
    "arranged": 0,
    "radiated": 0,
    "Second": 0,
    "Ke": 16,
    "sustaining": 0,
    "Review": 0,
    "survivors": 0,
    "##current": 0,
    "doubt": 0,
    "quick": 0,
    "why": 0,
    "mention": 0,
    "constructing": 0,
    "attach": 0,
    "##EM": 29,
    "DL": 0,
    "##As": 56,
    "##base": 5,
    "counterparts": 0,
    "scale": 0,
    "thirteen": 0,
    "deserve": 0,
    "##48": 28,
    "regeneration": 0,
    "follows": 0,
    "meaning": 0,
    "Name": 0,
    "importantly": 0,
    "guest": 0,
    "assembled": 0,
    "creating": 0,
    "hybrid": 0,
    "interchange": 0,
    "hosts": 0,
    "Specifically": 0,
    "module": 0,
    "##hee": 0,
    "payload": 0,
    "Regarding": 0,
    "##cco": 0,
    "##aman": 2,
    "##yclic": 16,
    "exhibits": 0,
    "SH": 5,
    "lateral": 0,
    "Guam": 0,
    "disputed": 0,
    "Bin": 0,
    "Nevertheless": 0,
    "coin": 0,
    "##vable": 0,
    "ensuing": 0,
    "##iba": 3,
    "GT": 9,
    "##avi": 25,
    "infected": 0,
    "##rca": 2,
    "##EF": 0,
    "eleven": 0,
    "nineteen": 0,
    "##FF": 0,
    "recruits": 0,
    "acceleration": 0,
    "Hard": 0,
    "##BM": 1,
    "hardness": 0,
    "western": 0,
    "belonging": 0,
    "slower": 0,
    "ordered": 0,
    "implies": 0,
    "dust": 0,
    "appetite": 0,
    "Day": 0,
    "biggest": 0,
    "Central": 0,
    "participates": 0,
    "conscious": 0,
    "clusters": 0,
    "##gth": 0,
    "dimensions": 0,
    "fabricated": 0,
    "##astic": 0,
    "top": 2,
    "harness": 0,
    "building": 0,
    "boost": 0,
    "##ices": 0,
    "Alternative": 0,
    "possessing": 0,
    "bears": 0,
    "##ilized": 0,
    "gut": 0,
    "barriers": 0,
    "Initial": 0,
    "dramatically": 0,
    "excellent": 0,
    "connectivity": 0,
    "combat": 0,
    "destroying": 0,
    "fourth": 0,
    "##ition": 0,
    "coefficients": 0,
    "##hore": 0,
    "continues": 0,
    "##iro": 11,
    "Franz": 0,
    "authentic": 0,
    "Excellent": 0,
    "predictable": 0,
    "distant": 0,
    "folds": 0,
    "Zone": 0,
    "releases": 0,
    "compliance": 0,
    "mine": 0,
    "prey": 0,
    "saving": 0,
    "Nobel": 0,
    "prize": 0,
    "scalp": 0,
    "##els": 0,
    "complement": 0,
    "papers": 0,
    "##lle": 0,
    "authors": 0,
    "expect": 0,
    "##etus": 0,
    "Bone": 0,
    "run": 0,
    "Alto": 0,
    "dumb": 0,
    "##ley": 1,
    "##dine": 39,
    "reaching": 0,
    "silicon": 37,
    "attributes": 0,
    "Applications": 0,
    "cool": 0,
    "pepper": 0,
    "##rita": 0,
    "flavor": 0,
    "centuries": 0,
    "bow": 0,
    "cooling": 0,
    "sensation": 0,
    "termed": 0,
    "flux": 0,
    "Aside": 0,
    "capabilities": 0,
    "engages": 0,
    "##with": 0,
    "##standing": 0,
    "brands": 0,
    "##cial": 0,
    "reason": 0,
    "##ao": 2,
    "##ssel": 0,
    "zoo": 0,
    "##lank": 0,
    "Climate": 0,
    "habitats": 0,
    "recurring": 0,
    "outdoor": 0,
    "pond": 0,
    "gradual": 0,
    "##uating": 0,
    "interactive": 0,
    "##bly": 0,
    "Recovery": 0,
    "Competition": 0,
    "ecological": 0,
    "derive": 0,
    "contrasts": 0,
    "##rent": 0,
    "Lot": 0,
    "lakes": 0,
    "Lake": 0,
    "Los": 0,
    "Norway": 0,
    "dominating": 0,
    "##hers": 1,
    "contributors": 0,
    "originated": 0,
    "##back": 0,
    "knockout": 0,
    "##ise": 0,
    "Growth": 0,
    "##uce": 0,
    "242": 0,
    "152": 0,
    "ongoing": 0,
    "##isi": 17,
    "MIT": 0,
    "##IT": 29,
    "MI": 5,
    "attempts": 0,
    "##lve": 0,
    "Ramos": 0,
    "Rush": 0,
    "shrink": 0,
    "collapse": 0,
    "Evolution": 0,
    "##mism": 0,
    "Core": 0,
    "ancestral": 0,
    "modules": 0,
    "emergence": 0,
    "organization": 0,
    "##aque": 0,
    "copies": 0,
    "reveals": 0,
    "became": 0,
    "diversity": 0,
    "tag": 0,
    "##ged": 0,
    "Rapid": 0,
    "soils": 0,
    "take": 0,
    "acquire": 0,
    "##screen": 0,
    "permits": 0,
    "answers": 0,
    "questions": 0,
    "Will": 0,
    "How": 0,
    "instrument": 0,
    "record": 0,
    "noise": 0,
    "applicable": 0,
    "Exchange": 0,
    "##pic": 4,
    "Call": 0,
    "call": 3,
    "##yi": 1,
    "Back": 0,
    "move": 0,
    "ads": 0,
    "kill": 0,
    "##rical": 2,
    "deep": 0,
    "physics": 0,
    "Others": 0,
    "schemes": 0,
    "graphical": 0,
    "rigorous": 0,
    "outstanding": 0,
    "prospective": 0,
    "mechanics": 0,
    "##case": 0,
    "compatible": 0,
    "appointed": 0,
    "accordance": 0,
    "Last": 0,
    "rotation": 0,
    "##ioned": 0,
    "surviving": 0,
    "transformations": 0,
    "Rama": 0,
    "##lis": 1,
    "##hesive": 0,
    "laser": 0,
    "beam": 0,
    "heating": 0,
    "Wild": 0,
    "enlarged": 0,
    "reconcile": 0,
    "handling": 0,
    "Electric": 0,
    "giant": 0,
    "##ivist": 0,
    "splitting": 0,
    "see": 0,
    "Figure": 0,
    "##card": 2,
    "##lma": 1,
    "##KO": 0,
    "##stituted": 0,
    "entirely": 0,
    "accounted": 0,
    "ID": 2,
    "Progress": 0,
    "conditional": 0,
    "##een": 0,
    "Place": 0,
    "bicycle": 0,
    "Ex": 0,
    "overlooked": 0,
    "##ntal": 0,
    "mesh": 0,
    "cooperation": 0,
    "sophisticated": 0,
    "roads": 0,
    "observing": 0,
    "##uded": 0,
    "adopt": 0,
    "##nect": 0,
    "exploits": 0,
    "##arity": 0,
    "integral": 0,
    "details": 0,
    "conductor": 0,
    "iron": 85,
    "##sir": 7,
    "Earlier": 0,
    "nude": 0,
    "Nature": 0,
    "La": 15,
    "##cian": 2,
    "Lewis": 4,
    "ll": 0,
    "2d": 0,
    "atoms": 0,
    "##VS": 0,
    "topology": 0,
    "withdrawing": 0,
    "geometry": 0,
    "denoted": 0,
    "##ination": 0,
    "##uil": 0,
    "Italian": 0,
    "stocks": 0,
    "conjunction": 0,
    "habitat": 0,
    "swimming": 0,
    "Poll": 0,
    "2007": 0,
    "2008": 0,
    "Les": 0,
    "##vere": 0,
    "River": 0,
    "##linity": 0,
    "fishing": 0,
    "bladder": 0,
    "##odes": 0,
    "urban": 0,
    "##fest": 0,
    "exceeded": 0,
    "Though": 0,
    "marginal": 0,
    "contaminated": 0,
    "reserve": 0,
    "sustain": 0,
    "stock": 0,
    "definitive": 0,
    "Multi": 0,
    "Mr": 0,
    "Primary": 0,
    "Pen": 2,
    "Jun": 0,
    "##uck": 0,
    "exist": 0,
    "disappears": 0,
    "##igma": 0,
    "Whether": 0,
    "reflects": 0,
    "DB": 0,
    "abbreviated": 0,
    "doubled": 0,
    "starts": 0,
    "##gol": 6,
    "##eting": 0,
    "surround": 0,
    "Mac": 1,
    "numerical": 0,
    "sir": 11,
    "##pice": 0,
    "Whereas": 0,
    "##rai": 0,
    "answer": 0,
    "OK": 0,
    "dots": 0,
    "printing": 0,
    "##tead": 0,
    "##fast": 0,
    "lose": 0,
    "divisions": 0,
    "immortal": 0,
    "##rog": 5,
    "entire": 0,
    "stalls": 0,
    "##CD": 32,
    "Ah": 7,
    "Access": 0,
    "motifs": 0,
    "dairy": 0,
    "mobility": 0,
    "##vated": 0,
    "##wald": 0,
    "ripe": 0,
    "##use": 17,
    "detachment": 0,
    "kin": 0,
    "removes": 0,
    "##tones": 0,
    "poised": 0,
    "##iae": 0,
    "##son": 4,
    "##ML": 1,
    "##mann": 4,
    "Solid": 0,
    "Gram": 0,
    "concentrated": 0,
    "dissolved": 0,
    "168": 0,
    "freshly": 0,
    "Nine": 0,
    "##teen": 0,
    "##HS": 3,
    "categories": 0,
    "Best": 0,
    "satisfactory": 0,
    "##dance": 0,
    "excluding": 0,
    "recognised": 0,
    "##mise": 0,
    "expand": 0,
    "ensured": 0,
    "obscure": 0,
    "##any": 18,
    "spread": 0,
    "feelings": 0,
    "romantic": 0,
    "suites": 0,
    "mate": 0,
    "preferences": 0,
    "desirable": 0,
    "fitness": 0,
    "invest": 0,
    "investment": 0,
    "fertile": 0,
    "Little": 0,
    "partners": 0,
    "verify": 0,
    "Sam": 0,
    "##ples": 0,
    "felt": 0,
    "partner": 0,
    "faults": 0,
    "closer": 0,
    "satisfied": 0,
    "commitment": 0,
    "intentions": 0,
    "communication": 0,
    "##rup": 0,
    "plaque": 0,
    "pools": 0,
    "runs": 0,
    "simultaneously": 0,
    "promotion": 0,
    "lame": 0,
    "edge": 0,
    "front": 0,
    "orchestrated": 0,
    "associates": 0,
    "assemble": 0,
    "focal": 0,
    "##mos": 1,
    "extensions": 0,
    "recruit": 0,
    "bull": 0,
    "steering": 0,
    "globally": 0,
    "Regular": 0,
    "adaptations": 0,
    "##fueling": 0,
    "##ngo": 13,
    "Go": 3,
    "##gi": 11,
    "relay": 0,
    "Over": 0,
    "competing": 0,
    "##sium": 4,
    "held": 0,
    "Biology": 0,
    "San": 0,
    "Diego": 0,
    "California": 0,
    "April": 0,
    "speakers": 0,
    "##OR": 0,
    "partial": 0,
    "helping": 0,
    "relating": 0,
    "impacts": 0,
    "Real": 4,
    "##hea": 0,
    "##ryn": 1,
    "tons": 0,
    "_": 0,
    "nap": 24,
    "Low": 0,
    "##than": 18,
    "##hana": 2,
    "##gua": 2,
    "recycling": 0,
    "maneuver": 0,
    "proceeds": 0,
    "Mass": 0,
    "trafficking": 0,
    "cassette": 0,
    "Skin": 0,
    "Us": 0,
    "chamber": 0,
    "vector": 0,
    "circulation": 0,
    "ultimately": 0,
    "coordinated": 0,
    "conveyed": 0,
    "imprint": 0,
    "stages": 0,
    "Meg": 0,
    "##nous": 0,
    "Dai": 1,
    "pm": 0,
    "lining": 0,
    "tracts": 0,
    "slowly": 0,
    "limiting": 0,
    "flight": 0,
    "802": 0,
    "minus": 0,
    "##ump": 0,
    "Carrier": 0,
    "Dynamics": 0,
    "Mode": 0,
    "needle": 0,
    "rod": 0,
    "tips": 0,
    "hole": 0,
    "interior": 0,
    "trap": 0,
    "##gonal": 0,
    "Fin": 1,
    "Near": 0,
    "standing": 0,
    "creation": 0,
    "##cite": 0,
    "distributions": 0,
    "whispering": 0,
    "dominate": 0,
    "##rf": 1,
    "zone": 0,
    "electrons": 0,
    "holes": 0,
    "duck": 0,
    "popularly": 0,
    "pertaining": 0,
    "##enan": 3,
    "stinging": 0,
    "##cture": 0,
    "portions": 0,
    "flowering": 0,
    "##stro": 16,
    "Alternatively": 0,
    "frontal": 0,
    "Radio": 3,
    "##liga": 0,
    "##nds": 0,
    "Online": 0,
    "Resource": 0,
    "online": 0,
    "engine": 0,
    "Apart": 0,
    "war": 14,
    "##tel": 1,
    "ways": 0,
    "retrieve": 0,
    "Swiss": 0,
    "name": 0,
    "description": 0,
    "user": 0,
    "Across": 0,
    "##gs": 0,
    "stretches": 0,
    "ice": 0,
    "Silicon": 4,
    "fascinating": 0,
    "attracted": 0,
    "couple": 0,
    "reality": 0,
    "Fund": 0,
    "##ament": 0,
    "tricks": 0,
    "gaining": 0,
    "covers": 0,
    "Tan": 3,
    "##shin": 11,
    "patent": 0,
    "January": 0,
    "2006": 0,
    "##UC": 0,
    "##IA": 7,
    "##hino": 13,
    "Dan": 0,
    "##she": 1,
    "STS": 1,
    "patents": 0,
    "intricate": 0,
    "attempted": 0,
    "overcome": 0,
    "Kai": 2,
    "##ceptive": 0,
    "integration": 0,
    "ecstasy": 18,
    "exploration": 0,
    "aggression": 0,
    "experiencing": 0,
    "took": 0,
    "##asures": 0,
    "##ssler": 0,
    "rating": 0,
    "hostility": 0,
    "items": 0,
    "##rief": 0,
    "Time": 0,
    "Follow": 0,
    "aggressive": 0,
    "suspended": 0,
    "##loaded": 0,
    "##pace": 0,
    "##light": 0,
    "collective": 0,
    "gravitational": 0,
    "roller": 0,
    "expose": 0,
    "##SM": 0,
    "reorganization": 0,
    "destroyed": 0,
    "organized": 0,
    "gravity": 0,
    "##ahl": 0,
    "possessed": 0,
    "cycling": 0,
    "shares": 0,
    "schedule": 0,
    "reinforce": 0,
    "discrete": 0,
    "peaking": 0,
    "Progressive": 0,
    "Brain": 0,
    "##lane": 9,
    "##rage": 0,
    "caps": 14,
    "##aic": 35,
    "##state": 0,
    "Hearts": 0,
    "White": 0,
    "##gh": 2,
    "whilst": 0,
    "##DR": 0,
    "##mote": 0,
    "##pec": 1,
    "islands": 0,
    "streams": 0,
    "##nda": 1,
    "York": 0,
    "Coastal": 0,
    "Plain": 0,
    "Carolina": 0,
    "signatures": 0,
    "##ebrates": 0,
    "consumers": 0,
    "predators": 0,
    "fishes": 0,
    "scrap": 0,
    "filter": 0,
    "Consumer": 0,
    "predatory": 0,
    "taxa": 3,
    "shade": 0,
    "attribute": 0,
    "strictly": 0,
    "terrestrial": 0,
    "##bie": 13,
    "Advances": 0,
    "gather": 0,
    "connections": 0,
    "nodes": 0,
    "capture": 0,
    "foster": 0,
    "track": 0,
    "##von": 2,
    "spear": 0,
    "crisp": 0,
    "il": 2,
    "##eum": 0,
    "Terminal": 0,
    "mounted": 0,
    "##max": 0,
    "##bach": 3,
    "##unds": 0,
    "Taking": 0,
    "lap": 1,
    "associate": 0,
    "axes": 0,
    "tightly": 0,
    "##mentation": 0,
    "raise": 0,
    "##aru": 0,
    "144": 0,
    "Gamma": 1,
    "166": 0,
    "Webster": 0,
    "254": 0,
    "272": 0,
    "247": 0,
    "1923": 0,
    "expecting": 0,
    "muscles": 0,
    "##hima": 2,
    "##uth": 14,
    "mainstream": 0,
    "cubic": 0,
    "serial": 0,
    "##hom": 11,
    "fragments": 0,
    "rounds": 0,
    "yeast": 0,
    "velvet": 0,
    "govern": 0,
    "Fu": 4,
    "##orum": 0,
    "agricultural": 0,
    "threatening": 0,
    "soil": 0,
    "borne": 1,
    "attacks": 0,
    "##ression": 0,
    "access": 0,
    "##chet": 0,
    "Ara": 26,
    "##yang": 1,
    "##inga": 2,
    "gag": 1,
    "Dry": 0,
    "Tamil": 0,
    "Nadu": 0,
    "claim": 0,
    "Metal": 1,
    "rises": 0,
    "incident": 0,
    "registration": 0,
    "images": 0,
    "Student": 0,
    "maps": 0,
    "##aling": 0,
    "preservation": 0,
    "margin": 0,
    "inferior": 0,
    "younger": 0,
    "aka": 0,
    "inability": 0,
    "speed": 0,
    "generator": 0,
    "nest": 0,
    "averages": 0,
    "310": 0,
    "##gratory": 0,
    "binary": 0,
    "EA": 7,
    "occupied": 0,
    "Joint": 0,
    "string": 0,
    "introduced": 0,
    "##borne": 6,
    "ball": 0,
    "Edge": 0,
    "simply": 0,
    "moisture": 0,
    "##join": 0,
    "mining": 0,
    "grade": 0,
    "equation": 0,
    "##viour": 0,
    "parents": 0,
    "teachers": 0,
    "permitted": 0,
    "Home": 0,
    "Environment": 0,
    "mother": 0,
    "education": 0,
    "school": 0,
    "##rricular": 0,
    "Root": 0,
    "Square": 0,
    "##dua": 0,
    "305": 0,
    "184": 0,
    "##work": 0,
    "practices": 0,
    "advocate": 0,
    "##cision": 0,
    "##LS": 0,
    "resemble": 0,
    "##pf": 3,
    "military": 0,
    "civilian": 0,
    "##imes": 0,
    "nevertheless": 0,
    "Theo": 3,
    "##tani": 9,
    "##acy": 14,
    "151": 0,
    "Ka": 1,
    "Jacobs": 0,
    "##ais": 2,
    "##urt": 1,
    "##EX": 6,
    "186": 0,
    "meets": 0,
    "requirement": 0,
    "##marks": 0,
    "transitions": 0,
    "jets": 0,
    "excited": 0,
    "Zero": 0,
    "correction": 0,
    "zero": 0,
    "Emergency": 0,
    "Congress": 0,
    "188": 0,
    "amended": 0,
    "Safe": 0,
    "##ink": 8,
    "serving": 0,
    "vulnerability": 0,
    "circumstances": 0,
    "compromise": 0,
    "reliability": 0,
    "municipal": 0,
    "loads": 0,
    "Iron": 14,
    "##agi": 11,
    "failed": 0,
    "rabbit": 0,
    "eyes": 0,
    "agencies": 0,
    "eye": 0,
    "complaints": 0,
    "discomfort": 0,
    "plans": 0,
    "rabbits": 0,
    "album": 0,
    "##bul": 1,
    "corpus": 0,
    "Bee": 0,
    "##sume": 0,
    "coding": 0,
    "Ethics": 0,
    "Committee": 0,
    "approval": 0,
    "Classification": 0,
    "Disease": 0,
    "Ten": 0,
    "##ision": 0,
    "##naire": 0,
    "salmon": 0,
    "mole": 0,
    "buffer": 0,
    "gave": 0,
    "##trusion": 0,
    "blank": 0,
    "##pment": 0,
    "##med": 4,
    "Report": 0,
    "agitation": 0,
    "managing": 0,
    "Fourteen": 0,
    "ill": 0,
    "##uous": 0,
    "replaced": 0,
    "230": 0,
    "204": 0,
    "223": 0,
    "encouraged": 0,
    "bank": 0,
    "written": 0,
    "stand": 0,
    "format": 5,
    "lists": 0,
    "geometric": 0,
    "distance": 0,
    "center": 0,
    "Kit": 0,
    "##rok": 0,
    "descriptions": 0,
    "Application": 0,
    "##rd": 7,
    "interfering": 0,
    "demonstration": 0,
    "holding": 0,
    "##VC": 3,
    "opener": 0,
    "625": 0,
    "exhibiting": 0,
    "submission": 0,
    "vaccine": 0,
    "worthy": 0,
    "manufacturing": 0,
    "realization": 0,
    "advanced": 0,
    "Translation": 0,
    "##nation": 0,
    "expectations": 0,
    "HIV": 0,
    "enough": 0,
    "Actually": 0,
    "AIDS": 0,
    "transforming": 0,
    "Nr": 0,
    "affiliated": 0,
    "University": 0,
    "diagnosed": 0,
    "##urity": 0,
    "fever": 0,
    "admission": 0,
    "died": 0,
    "##ife": 7,
    "Impact": 0,
    "##tars": 0,
    "pedal": 1,
    "joints": 0,
    "##ceived": 0,
    "fifth": 0,
    "##als": 4,
    "feet": 0,
    "helps": 0,
    "bending": 0,
    "woven": 0,
    "bony": 0,
    "##ische": 0,
    "##lusion": 0,
    "MCA": 0,
    "Small": 0,
    "assists": 0,
    "##uan": 33,
    "##kini": 0,
    "originates": 0,
    "avoided": 0,
    "##cha": 1,
    "##hus": 0,
    "##rten": 0,
    "##rsch": 0,
    "##coa": 2,
    "##rmal": 0,
    "Ye": 0,
    "##ogram": 0,
    "##pies": 0,
    "140": 0,
    "FF": 1,
    "Thin": 0,
    "purity": 0,
    "##each": 0,
    "Disc": 0,
    "##sed": 0,
    "shark": 0,
    "discrimination": 0,
    "##tz": 0,
    "fastest": 0,
    "Nov": 0,
    "435": 0,
    "disappearance": 0,
    "disappeared": 0,
    "giving": 0,
    "Sustainable": 0,
    "lime": 0,
    "Press": 0,
    "sustainable": 0,
    "Introduction": 0,
    "##arate": 0,
    "running": 0,
    "slight": 0,
    "freezing": 0,
    "black": 0,
    "##ruff": 0,
    "frozen": 0,
    "##traction": 0,
    "Fifteen": 0,
    "differed": 0,
    "Vol": 1,
    "deeply": 0,
    "appeared": 0,
    "##xen": 4,
    "##luster": 0,
    "Air": 0,
    "favourable": 0,
    "sun": 1,
    "vol": 2,
    "##ya": 2,
    "NY": 0,
    "##AV": 2,
    "wheat": 0,
    "wine": 0,
    "beverage": 0,
    "sunlight": 0,
    "automatically": 0,
    "##mile": 0,
    "Maple": 0,
    "##lins": 1,
    "maple": 0,
    "syrup": 0,
    "arrested": 0,
    "Hair": 0,
    "residents": 0,
    "Pearl": 0,
    "Guangdong": 0,
    "town": 0,
    "village": 0,
    "vegetables": 0,
    "Daily": 0,
    "routes": 0,
    "##DI": 1,
    "Agricultural": 0,
    "commodities": 0,
    "##aft": 0,
    "dedicated": 0,
    "span": 0,
    "catalog": 0,
    "Codex": 0,
    "Commission": 0,
    "Comprehensive": 0,
    "cab": 0,
    "##bage": 0,
    "French": 0,
    "beans": 0,
    "egg": 0,
    "apple": 0,
    "grapes": 0,
    "clean": 0,
    "afforded": 0,
    "specified": 0,
    "routines": 0,
    "dwarf": 0,
    "elder": 0,
    "pollen": 0,
    "shoots": 0,
    "lacks": 0,
    "detector": 0,
    "UP": 0,
    "##ups": 0,
    "Das": 0,
    "213": 0,
    "pulp": 0,
    "oh": 0,
    "fitted": 0,
    "Value": 0,
    "134": 0,
    "390": 0,
    "##tropy": 0,
    "Pink": 0,
    "wax": 0,
    "##mara": 3,
    "##nse": 8,
    "Blu": 0,
    "Merrill": 0,
    "Perry": 0,
    "compositions": 0,
    "coloured": 0,
    "Colour": 0,
    "coordinates": 0,
    "purple": 0,
    "orange": 0,
    "pink": 0,
    "yellow": 0,
    "278": 0,
    "Medium": 0,
    "structured": 0,
    "##oku": 0,
    "incorporating": 0,
    "bakery": 0,
    "van": 44,
    "fin": 0,
    "##bres": 0,
    "defining": 0,
    "##gall": 5,
    "Generally": 0,
    "##making": 0,
    "##its": 0,
    "olive": 0,
    "sealed": 0,
    "atmospheric": 0,
    "##ruit": 0,
    "beef": 0,
    "connect": 0,
    "tops": 0,
    "realistic": 0,
    "tender": 0,
    "differently": 0,
    "cuts": 0,
    "##inus": 0,
    "##NG": 3,
    "Mobile": 0,
    "pairing": 0,
    "cartridges": 0,
    "check": 0,
    "Lim": 0,
    "incurred": 0,
    "##due": 0,
    "taste": 0,
    "mouth": 0,
    "##mented": 0,
    "##tised": 0,
    "plantations": 0,
    "##tring": 0,
    "##andra": 0,
    "##ris": 5,
    "fused": 1,
    "plausible": 0,
    "Foods": 0,
    "Past": 0,
    "##ches": 0,
    "Hi": 7,
    "104": 0,
    "330": 0,
    "technological": 0,
    "cooking": 0,
    "texture": 0,
    "contrasted": 0,
    "beverages": 0,
    "##bre": 0,
    "##vic": 0,
    "##gel": 0,
    "lenses": 0,
    "drops": 0,
    "Extended": 0,
    "soaking": 0,
    "PBS": 0,
    "##icle": 0,
    "##abi": 5,
    "lens": 0,
    "##CE": 0,
    "tend": 0,
    "inadvertently": 0,
    "carefully": 0,
    "Tri": 17,
    "larvae": 0,
    "##time": 0,
    "prepare": 0,
    "empty": 0,
    "spherical": 0,
    "385": 0,
    "##guchi": 0,
    "enjoys": 0,
    "##ilis": 0,
    "##psis": 0,
    "balancing": 0,
    "202": 0,
    "AN": 1,
    "182": 0,
    "##eat": 0,
    "##gro": 0,
    "banned": 0,
    "tasks": 0,
    "shortly": 0,
    "##rease": 0,
    "##ifies": 0,
    "##rust": 0,
    "##sch": 0,
    "pale": 0,
    "Chu": 0,
    "##mple": 0,
    "broken": 0,
    "##most": 1,
    "##stituting": 0,
    "##ively": 0,
    "##SL": 0,
    "pressures": 0,
    "##ific": 0,
    "prefers": 0,
    "adjacent": 0,
    "##tter": 0,
    "charged": 0,
    "transparent": 0,
    "##bling": 0,
    "valleys": 0,
    "invisible": 0,
    "covered": 0,
    "Free": 0,
    "umbrella": 0,
    "pitch": 0,
    "##gible": 0,
    "overhead": 0,
    "##MM": 7,
    "##BE": 5,
    "SF": 12,
    "##iff": 0,
    "convert": 0,
    "##rill": 2,
    "##iant": 2,
    "Patent": 2,
    "##haven": 0,
    "Currently": 0,
    "firstly": 0,
    "ear": 0,
    "leave": 0,
    "##have": 0,
    "Third": 0,
    "licking": 0,
    "tongue": 0,
    "##rou": 0,
    "reached": 0,
    "##vious": 0,
    "##edly": 0,
    "##sumption": 0,
    "##school": 0,
    "nutrients": 0,
    "155": 0,
    "##mont": 0,
    "##hs": 0,
    "##vik": 0,
    "##care": 0,
    "northern": 0,
    "Age": 0,
    "annual": 0,
    "seal": 0,
    "monthly": 0,
    "wa": 0,
    "participant": 0,
    "interview": 0,
    "bought": 0,
    "Surgery": 0,
    "fist": 0,
    "humour": 0,
    "operative": 0,
    "surgery": 0,
    "groove": 0,
    "stop": 0,
    "hum": 0,
    "nose": 0,
    "Genus": 0,
    "##nale": 0,
    "bite": 0,
    "definite": 0,
    "bites": 0,
    "July": 0,
    "Lankan": 0,
    "hospitals": 0,
    "114": 0,
    "correctly": 0,
    "staff": 0,
    "expert": 0,
    "Pain": 0,
    "fan": 0,
    "marks": 0,
    "bitten": 0,
    "alive": 0,
    "confirms": 0,
    "undertake": 0,
    "##ew": 0,
    "shrub": 0,
    "Andes": 0,
    "Alt": 0,
    "Peruvian": 0,
    "habits": 0,
    "##uds": 0,
    "chewing": 0,
    "##sko": 4,
    "Representative": 0,
    "declining": 0,
    "productivity": 0,
    "billion": 0,
    "dollars": 0,
    "invested": 0,
    "crisis": 0,
    "reasons": 0,
    "entities": 0,
    "packages": 0,
    "million": 0,
    "##asa": 14,
    "Discovery": 0,
    "virtual": 0,
    "##old": 0,
    "vendors": 0,
    "255": 0,
    "aware": 0,
    "fifty": 0,
    "Liga": 0,
    "##mad": 0,
    "planetary": 0,
    "Wet": 0,
    "radioactive": 2,
    "Silk": 0,
    "cart": 0,
    "silk": 0,
    "##nges": 0,
    "##ache": 0,
    "blend": 0,
    "drone": 8,
    "##oned": 1,
    "Shortly": 0,
    "started": 0,
    "birds": 0,
    "Epic": 1,
    "##ators": 0,
    "dog": 0,
    "Sure": 0,
    "##rve": 0,
    "batch": 0,
    "chip": 0,
    "##ove": 0,
    "stressed": 0,
    "##bet": 5,
    "Chip": 0,
    "segregation": 0,
    "mainland": 0,
    "breakfast": 0,
    "pizza": 0,
    "assumptions": 0,
    "censorship": 0,
    "guidance": 0,
    "##eria": 0,
    "producers": 0,
    "subject": 0,
    "kinds": 0,
    "rice": 0,
    "thriving": 0,
    "Spain": 0,
    "##aring": 0,
    "altering": 0,
    "2nd": 0,
    "Science": 0,
    "Conference": 0,
    "Madrid": 0,
    "conference": 0,
    "arguably": 0,
    "popular": 0,
    "##are": 1,
    "tutor": 0,
    "intends": 0,
    "sometimes": 0,
    "perceived": 0,
    "##lars": 2,
    "##23": 13,
    "foot": 0,
    "##bur": 0,
    "membership": 0,
    "metric": 0,
    "problematic": 0,
    "colonization": 0,
    "reproduced": 0,
    "assuming": 0,
    "los": 4,
    "lid": 13,
    "Without": 0,
    "##ln": 7,
    "##weight": 0,
    "Green": 0,
    "volunteer": 0,
    "repetition": 0,
    "inappropriate": 0,
    "submitted": 0,
    "119": 0,
    "preserve": 0,
    "transmitted": 0,
    "Upper": 0,
    "massage": 0,
    "Cory": 0,
    "##actions": 0,
    "couples": 0,
    "##nosis": 0,
    "weakening": 0,
    "searched": 0,
    "keeping": 0,
    "born": 0,
    "1960": 0,
    "1963": 0,
    "Reg": 0,
    "425": 0,
    "opposing": 0,
    "##udi": 0,
    "mind": 0,
    "FM": 1,
    "sixth": 0,
    "##sma": 0,
    "##tch": 0,
    "Dani": 0,
    "##tches": 0,
    "insertion": 0,
    "##tched": 0,
    "##hal": 11,
    "##HT": 30,
    "Instead": 0,
    "##cona": 31,
    "##tras": 1,
    "recognize": 0,
    "ensure": 0,
    "options": 0,
    "ACC": 0,
    "167": 0,
    "hints": 0,
    "##lem": 3,
    "sheer": 0,
    "faithful": 0,
    "reproduce": 0,
    "##nched": 2,
    "breakdown": 0,
    "##rle": 4,
    "resembles": 0,
    "lies": 0,
    "211": 0,
    "##nder": 0,
    "##lich": 0,
    "##rase": 0,
    "##ji": 4,
    "VC": 2,
    "##SV": 1,
    "manufacture": 0,
    "bottles": 0,
    "containers": 0,
    "capturing": 0,
    "##ister": 0,
    "sacrificed": 0,
    "served": 0,
    "##quire": 0,
    "peaked": 0,
    "Principal": 0,
    "##raj": 0,
    "##ector": 0,
    "AFB": 12,
    "plateau": 0,
    "sweet": 0,
    "##ener": 0,
    "tastes": 0,
    "yo": 2,
    "pub": 0,
    "##erty": 0,
    "Man": 6,
    "transported": 0,
    "##plicate": 0,
    "##fy": 0,
    "Alex": 2,
    "Organization": 0,
    "restriction": 0,
    "strands": 0,
    "sides": 0,
    "##dified": 0,
    "recognizes": 0,
    "assemblies": 0,
    "##ok": 0,
    "alternatively": 0,
    "Understanding": 0,
    "weakly": 0,
    "discussing": 0,
    "weaknesses": 0,
    "rendered": 0,
    "##phs": 0,
    "oval": 0,
    "##icles": 0,
    "constituted": 0,
    "Depending": 0,
    "##ises": 0,
    "permanently": 0,
    "##ception": 0,
    "##TA": 19,
    "relieved": 0,
    "gray": 0,
    "ensemble": 0,
    "originate": 0,
    "bandwidth": 0,
    "dash": 0,
    "##shi": 0,
    "notice": 0,
    "spring": 0,
    "##tails": 0,
    "##tail": 0,
    "freely": 0,
    "##hren": 19,
    "outer": 0,
    "stream": 0,
    "weigh": 0,
    "coal": 4,
    "eggs": 0,
    "slide": 0,
    "script": 0,
    "##egan": 0,
    "snapping": 0,
    "##hell": 0,
    "Egg": 0,
    "administer": 0,
    "mast": 1,
    "resident": 0,
    "Mortal": 0,
    "##dden": 0,
    "fatal": 0,
    "sudden": 0,
    "text": 0,
    "think": 0,
    "lifelong": 0,
    "prospect": 0,
    "corrupt": 0,
    "##wes": 0,
    "##mbs": 0,
    "sheep": 0,
    "##nio": 4,
    "1300": 0,
    "scheme": 0,
    "cave": 0,
    "##ish": 0,
    "Australian": 0,
    "Snake": 0,
    "Brown": 0,
    "Note": 0,
    "Rough": 0,
    "Hop": 0,
    "Stephens": 0,
    "headed": 0,
    "instant": 0,
    "incorporate": 0,
    "distorted": 0,
    "distortion": 0,
    "##licity": 0,
    "picking": 0,
    "spanned": 0,
    "##cie": 0,
    "##aster": 1,
    "gathered": 0,
    "##izations": 0,
    "Dunn": 0,
    "121": 0,
    "next": 0,
    "begin": 0,
    "Hopefully": 0,
    "advancement": 0,
    "revolution": 0,
    "##itor": 0,
    "feedback": 0,
    "Experiment": 0,
    "surge": 0,
    "returning": 0,
    "monkey": 0,
    "Focus": 0,
    "##gus": 0,
    "covering": 0,
    "165": 0,
    "plates": 0,
    "straightforward": 0,
    "Cry": 2,
    "##hof": 0,
    "conclusions": 0,
    "mandatory": 0,
    "recommend": 0,
    "##graph": 0,
    "Background": 0,
    "Method": 0,
    "##mand": 0,
    "##orse": 0,
    "173": 0,
    "complained": 0,
    "About": 0,
    "IF": 0,
    "conditioning": 0,
    "dramatic": 0,
    "likewise": 0,
    "margins": 0,
    "calf": 0,
    "edges": 0,
    "##calated": 0,
    "2003": 0,
    "package": 0,
    "##wood": 0,
    "hub": 0,
    "canal": 0,
    "radial": 0,
    "intimate": 0,
    "proportions": 0,
    "Surface": 0,
    "View": 0,
    "##biology": 0,
    "##rave": 0,
    "##lling": 0,
    "##wer": 15,
    "affordable": 0,
    "atmosphere": 0,
    "avoiding": 0,
    "false": 0,
    "afford": 0,
    "huge": 0,
    "demographic": 0,
    "##gence": 0,
    "assume": 0,
    "relies": 0,
    "Bay": 0,
    "Kim": 0,
    "drift": 0,
    "Metropolis": 0,
    "Hastings": 0,
    "Gibbs": 0,
    "posterior": 0,
    "refer": 0,
    "Eva": 0,
    "criterion": 0,
    "198": 0,
    "Mediterranean": 0,
    "Materials": 0,
    "boys": 0,
    "5th": 0,
    "tech": 4,
    "ankles": 0,
    "knees": 0,
    "##ured": 0,
    "##ths": 0,
    "Physical": 0,
    "tune": 0,
    "inspection": 0,
    "interpretations": 0,
    "unmistakable": 0,
    "Pub": 0,
    "naive": 0,
    "##OL": 4,
    "##gnetic": 0,
    "Agents": 0,
    "articles": 0,
    "transit": 0,
    "balloon": 0,
    "interpreted": 0,
    "obviously": 0,
    "press": 0,
    "lever": 0,
    "opera": 0,
    "magazine": 0,
    "presses": 0,
    "entries": 0,
    "earned": 0,
    "fewer": 0,
    "Challenge": 0,
    "recommendations": 0,
    "expanding": 0,
    "##eavor": 0,
    "calls": 0,
    "National": 0,
    "Center": 0,
    "##van": 3,
    "Sciences": 0,
    "Council": 0,
    "UK": 0,
    "company": 0,
    "names": 0,
    "documentation": 0,
    "##itate": 0,
    "gathering": 0,
    "##rred": 0,
    "Section": 0,
    "stained": 0,
    "Evans": 1,
    "##bed": 0,
    "duct": 0,
    "intensely": 0,
    "glowing": 0,
    "brightly": 0,
    "##eries": 0,
    "##rops": 0,
    "Lesser": 0,
    "Saint": 0,
    "Lucia": 0,
    "##iam": 13,
    "##inet": 1,
    "##nacle": 0,
    "washed": 0,
    "love": 0,
    "faces": 0,
    "pictures": 0,
    "undergraduate": 0,
    "students": 0,
    "heightened": 0,
    "happy": 0,
    "disgusted": 0,
    "allocation": 0,
    "motivation": 0,
    "face": 0,
    "1786": 3,
    "##uctive": 0,
    "Album": 0,
    "##ested": 0,
    "routing": 0,
    "nasal": 0,
    "Depression": 0,
    "delivering": 0,
    "vertical": 0,
    "##used": 0,
    "118": 0,
    "208": 0,
    "harmless": 0,
    "plain": 0,
    "lives": 0,
    "128": 0,
    "249": 0,
    "239": 0,
    "##finity": 0,
    "##cca": 5,
    "##aine": 22,
    "casting": 0,
    "##cel": 0,
    "##rie": 5,
    "##rito": 2,
    "embedded": 0,
    "inside": 0,
    "sand": 0,
    "rainbow": 0,
    "trout": 0,
    "waters": 0,
    "impacted": 0,
    "##kis": 3,
    "##ings": 0,
    "Half": 0,
    "inactivated": 0,
    "Aero": 2,
    "generates": 0,
    "Tor": 0,
    "##rn": 1,
    "bath": 0,
    "stacked": 0,
    "pointing": 0,
    "gorge": 0,
    "Thai": 2,
    "tiger": 0,
    "dangerous": 0,
    "Southeast": 0,
    "accidents": 0,
    "fatalities": 0,
    "##ilities": 0,
    "227": 0,
    "strand": 0,
    "deer": 0,
    "##ivable": 0,
    "actually": 0,
    "##ining": 0,
    "##onomy": 0,
    "tribe": 0,
    "Bo": 7,
    "##rda": 1,
    "crossing": 0,
    "1200": 0,
    "##sitive": 0,
    "orders": 0,
    "domestic": 0,
    "buffalo": 0,
    "sister": 0,
    "distances": 0,
    "tribes": 0,
    "##ison": 6,
    "synonym": 0,
    "relegated": 0,
    "subspecies": 0,
    "dating": 0,
    "fossil": 0,
    "##zan": 0,
    "libraries": 0,
    "##die": 2,
    "occupy": 0,
    "fortune": 0,
    "##nac": 2,
    "##avan": 12,
    "##oar": 0,
    "drunken": 0,
    "fitting": 0,
    "interacting": 0,
    "slab": 0,
    "trapped": 0,
    "Typical": 0,
    "vacuum": 0,
    "##imate": 0,
    "beneath": 0,
    "capsule": 0,
    "##different": 0,
    "typing": 0,
    "siblings": 0,
    "288": 0,
    "171": 0,
    "##RO": 1,
    "##MO": 0,
    "##hed": 2,
    "Turn": 0,
    "275": 0,
    "Alone": 0,
    "traffic": 0,
    "cows": 0,
    "Sixteen": 0,
    "##ndi": 3,
    "##nated": 5,
    "##yu": 4,
    "recipients": 0,
    "climate": 0,
    "uncertainty": 0,
    "ERA": 0,
    "historically": 0,
    "managers": 0,
    "conceptual": 0,
    "decisions": 0,
    "ecosystem": 0,
    "services": 0,
    "Fourth": 0,
    "Fifth": 0,
    "Sixth": 0,
    "drivers": 0,
    "Seventh": 0,
    "stakeholders": 0,
    "Top": 0,
    "aided": 0,
    "512": 0,
    "Der": 0,
    "inform": 0,
    "West": 0,
    "exceptional": 0,
    "Computer": 0,
    "RF": 8,
    "Dom": 11,
    "competition": 0,
    "translated": 0,
    "mapped": 0,
    "Site": 0,
    "##works": 0,
    "explicitly": 0,
    "unidentified": 0,
    "considers": 0,
    "searches": 0,
    "boots": 0,
    "##pping": 0,
    "org": 0,
    "shed": 0,
    "built": 0,
    "Web": 0,
    "records": 0,
    "kind": 0,
    "##quiries": 0,
    "Building": 0,
    "aligned": 0,
    "adapted": 0,
    "crown": 1,
    "Crown": 0,
    "##FB": 8,
    "breeding": 0,
    "Does": 0,
    "catch": 0,
    "mates": 0,
    "sire": 0,
    "##mba": 0,
    "##lance": 0,
    "clearing": 0,
    "##versity": 0,
    "##culture": 0,
    "Ha": 1,
    "##lled": 0,
    "Naples": 0,
    "##tist": 0,
    "LSU": 0,
    "depths": 0,
    "reads": 0,
    "##TU": 1,
    "Sang": 0,
    "Read": 0,
    "##lter": 0,
    "notably": 0,
    "totally": 0,
    "emphasized": 0,
    "technical": 0,
    "##cane": 5,
    "##sea": 0,
    "##media": 0,
    "##ugs": 0,
    "##serve": 0,
    "shaping": 0,
    "##aving": 0,
    "clamped": 0,
    "OF": 0,
    "bright": 0,
    "away": 0,
    "bad": 0,
    "infancy": 0,
    "firmly": 0,
    "too": 0,
    "hits": 0,
    "discover": 0,
    "hemisphere": 0,
    "invade": 0,
    "mere": 0,
    "twin": 0,
    "invading": 0,
    "##plain": 0,
    "##chel": 1,
    "##bler": 0,
    "##guous": 0,
    "##ronological": 0,
    "exploring": 0,
    "Merit": 0,
    "returned": 0,
    "Greater": 0,
    "hollow": 0,
    "Charge": 0,
    "charges": 0,
    "cutting": 0,
    "orbital": 0,
    "##ncing": 0,
    "lattice": 0,
    "governed": 0,
    "endure": 0,
    "unsuccessful": 0,
    "premises": 0,
    "traumatic": 0,
    "prospects": 0,
    "ancient": 0,
    "##BI": 1,
    "##IE": 0,
    "Getting": 0,
    "constraints": 0,
    "biologist": 0,
    "addresses": 0,
    "dream": 0,
    "getting": 0,
    "shuttle": 0,
    "allowing": 0,
    "heats": 0,
    "Claus": 0,
    "##ius": 0,
    "##ey": 0,
    "Lang": 0,
    "equations": 0,
    "##utile": 0,
    "##tended": 0,
    "melt": 0,
    "weather": 0,
    "soft": 0,
    "##grade": 0,
    "##gled": 0,
    "professional": 0,
    "##itution": 0,
    "Complex": 0,
    "##rick": 0,
    "##ets": 0,
    "##ick": 0,
    "##amel": 0,
    "inherited": 0,
    "##PR": 0,
    "dental": 0,
    "##inating": 0,
    "arch": 0,
    "##bus": 0,
    "counterpart": 0,
    "Complete": 0,
    "fill": 0,
    "Out": 0,
    "270": 0,
    "Netherlands": 0,
    "digital": 0,
    "morning": 0,
    "night": 0,
    "evening": 0,
    "rope": 0,
    "Penn": 0,
    "painful": 0,
    "liner": 0,
    "foul": 0,
    "readers": 0,
    "performances": 0,
    "rewarded": 0,
    "choose": 0,
    "eliminated": 0,
    "Oro": 0,
    "Rita": 4,
    "##ffing": 0,
    "Switzerland": 0,
    "prescription": 0,
    "recreational": 0,
    "Well": 1,
    "headache": 0,
    "##zzi": 0,
    "arrangements": 0,
    "##roth": 4,
    "##tub": 0,
    "retains": 0,
    "##tta": 0,
    "flanked": 0,
    "executed": 0,
    "Whilst": 0,
    "##nish": 0,
    "Around": 0,
    "Max": 0,
    "locked": 0,
    "euro": 12,
    "570": 0,
    "630": 0,
    "KC": 9,
    "Channel": 0,
    "deaf": 0,
    "hearing": 0,
    "wraps": 0,
    "##dies": 0,
    "##rout": 0,
    "Titan": 4,
    "Gill": 0,
    "video": 0,
    "encounters": 0,
    "contests": 0,
    "contest": 0,
    "defences": 0,
    "UC": 6,
    "quartz": 5,
    "Print": 2,
    "breaks": 0,
    "import": 0,
    "export": 0,
    "appearance": 0,
    "127": 0,
    "melted": 0,
    "rejection": 0,
    "##FI": 0,
    "MAC": 5,
    "hearts": 0,
    "beats": 0,
    "##VD": 5,
    "Pocket": 0,
    "sweat": 0,
    "skilled": 0,
    "Initially": 0,
    "stainless": 0,
    "steel": 2,
    "industries": 0,
    "##tok": 0,
    "analyzing": 0,
    "similarities": 0,
    "footing": 0,
    "unveiled": 0,
    "Moving": 0,
    "Homer": 0,
    "Signal": 0,
    "pockets": 0,
    "developments": 0,
    "interfaces": 0,
    "inquiry": 0,
    "basin": 0,
    "Alberta": 0,
    "cultural": 0,
    "Basin": 0,
    "##waters": 0,
    "Jasper": 0,
    "Park": 0,
    "appealing": 0,
    "##att": 0,
    "hard": 0,
    "discussion": 0,
    "pursued": 0,
    "deployed": 0,
    "##water": 0,
    "##tracted": 0,
    "##gating": 0,
    "appreciation": 0,
    "remove": 0,
    "keys": 0,
    "crossed": 0,
    "copy": 0,
    "cooperative": 0,
    "architectural": 0,
    "compact": 0,
    "Formation": 0,
    "livestock": 0,
    "house": 0,
    "publicly": 0,
    "serves": 0,
    "##pository": 0,
    "provider": 0,
    "accessible": 0,
    "##42": 1,
    "publications": 0,
    "199": 0,
    "compete": 0,
    "stationary": 0,
    "harmonic": 0,
    "jet": 1,
    "rotated": 0,
    "nicely": 0,
    "105": 0,
    "Nat": 0,
    "##dak": 0,
    "##zia": 0,
    "##tip": 1,
    "pursue": 0,
    "locally": 0,
    "Double": 0,
    "Pak": 0,
    "IPA": 6,
    "withstand": 0,
    "Environmental": 0,
    "Protection": 0,
    "Soft": 0,
    "return": 0,
    "##mentary": 0,
    "raising": 0,
    "proceed": 0,
    "exchanges": 0,
    "##sted": 0,
    "##monia": 18,
    "tertiary": 6,
    "remnant": 0,
    "prominence": 0,
    "evolved": 0,
    "careful": 0,
    "##ID": 2,
    "##IG": 2,
    "utilizes": 0,
    "divers": 0,
    "##bone": 0,
    "##delity": 0,
    "editing": 0,
    "wherein": 0,
    "##by": 4,
    "Yong": 0,
    "Okinawa": 0,
    "2009": 0,
    "November": 0,
    "##vary": 0,
    "February": 0,
    "##wning": 0,
    "accordingly": 0,
    "##pion": 0,
    "withdrawn": 0,
    "##graphs": 0,
    "bid": 0,
    "salvage": 0,
    "Try": 4,
    "##stream": 0,
    "##ena": 10,
    "judge": 0,
    "##ailed": 0,
    "##UM": 1,
    "bleeding": 0,
    "sick": 0,
    "##out": 0,
    "civilization": 0,
    "kingdom": 0,
    "##cule": 3,
    "Ng": 0,
    "penetrating": 0,
    "elaborate": 0,
    "coordinate": 0,
    "##LR": 0,
    "wash": 0,
    "Along": 0,
    "Plus": 0,
    "265": 0,
    "regional": 0,
    "Records": 0,
    "construction": 0,
    "map": 6,
    "##ried": 0,
    "Whenever": 0,
    "Find": 0,
    "accepts": 0,
    "placement": 0,
    "download": 0,
    "centralized": 0,
    "automatic": 0,
    "176": 0,
    "175": 0,
    "1830": 0,
    "129": 1,
    "##lique": 0,
    "regularly": 0,
    "databases": 0,
    "##nh": 0,
    "Wang": 0,
    "Yan": 0,
    "Blanco": 0,
    "hot": 0,
    "233": 0,
    "135": 0,
    "greatest": 0,
    "Frank": 0,
    "##ka": 0,
    "agitated": 0,
    "successive": 0,
    "##cola": 0,
    "Northern": 0,
    "Iranian": 0,
    "heated": 0,
    "intense": 0,
    "##fic": 0,
    "pod": 3,
    "##ranged": 0,
    "meal": 0,
    "Rainbow": 0,
    "blending": 0,
    "Film": 0,
    "cast": 0,
    "##ynamic": 0,
    "existed": 0,
    "coffee": 0,
    "Strong": 0,
    "sheet": 0,
    "mask": 0,
    "mushroom": 0,
    "silence": 0,
    "garlic": 0,
    "Golden": 0,
    "Syrian": 0,
    "##quila": 2,
    "Wallis": 0,
    "##ulse": 0,
    "flesh": 0,
    "480": 0,
    "##gration": 0,
    "Production": 0,
    "saturated": 4,
    "coconut": 0,
    "cultivation": 0,
    "Ya": 0,
    "##tica": 1,
    "List": 0,
    "##berries": 0,
    "Concord": 0,
    "Argentina": 0,
    "Emerald": 0,
    "Jewel": 0,
    "varieties": 0,
    "gum": 0,
    "paste": 0,
    "potatoes": 0,
    "##rying": 0,
    "Ken": 0,
    "##grass": 0,
    "Gulf": 0,
    "Mann": 2,
    "##ality": 0,
    "Hal": 1,
    "##heat": 0,
    "hull": 0,
    "Ji": 0,
    "##dong": 0,
    "256": 0,
    "Peterson": 0,
    "interpretation": 0,
    "243": 0,
    "Suit": 0,
    "geographical": 0,
    "Austria": 0,
    "Russia": 0,
    "traces": 0,
    "cake": 0,
    "gastropod": 0,
    "coastline": 0,
    "Trump": 0,
    "shells": 0,
    "Decision": 0,
    "2002": 0,
    "tried": 0,
    "wire": 0,
    "##ograph": 0,
    "abused": 0,
    "##verse": 0,
    "seeing": 0,
    "privilege": 0,
    "broader": 0,
    "delicate": 0,
    "simplified": 0,
    "##riad": 4,
    "##cating": 0,
    "commissioning": 0,
    "ou": 3,
    "##resh": 0,
    "Recordings": 0,
    "notion": 0,
    "Las": 1,
    "shield": 0,
    "##pair": 0,
    "joining": 0,
    "Designer": 0,
    "designer": 0,
    "mirrors": 0,
    "nothing": 0,
    "##valence": 0,
    "extends": 0,
    "Rest": 0,
    "Prof": 0,
    "vision": 0,
    "##dicated": 0,
    "economically": 0,
    "signature": 0,
    "Success": 0,
    "##aid": 2,
    "##pired": 0,
    "extending": 0,
    "Mont": 2,
    "humidity": 0,
    "modeled": 0,
    "humid": 0,
    "Crystal": 0,
    "Shock": 0,
    "minority": 0,
    "attain": 0,
    "illumination": 0,
    "##gger": 0,
    "narrow": 0,
    "width": 0,
    "Letter": 0,
    "stack": 0,
    "dot": 0,
    "##aves": 0,
    "circuits": 0,
    "##GB": 0,
    "141": 0,
    "broadband": 0,
    "antenna": 0,
    "interrogation": 0,
    "##ante": 0,
    "##nna": 0,
    "5000": 0,
    "constantly": 0,
    "besides": 0,
    "accept": 0,
    "##ool": 11,
    "##igo": 0,
    "absolutely": 0,
    "kernel": 0,
    "Minneapolis": 0,
    "Palm": 1,
    "table": 0,
    "##rga": 1,
    "Brass": 0,
    "##ek": 0,
    "lightly": 0,
    "Korea": 0,
    "Chun": 0,
    "geology": 0,
    "statistics": 0,
    "Groups": 0,
    "##loy": 0,
    "certified": 0,
    "flour": 0,
    "furnished": 0,
    "twelve": 0,
    "Palma": 0,
    "Mall": 0,
    "Composition": 0,
    "##rdy": 0,
    "##ceps": 0,
    "southeast": 0,
    "deserves": 0,
    "drinks": 0,
    "##held": 0,
    "strip": 0,
    "approached": 0,
    "##dit": 4,
    "letter": 0,
    "switches": 0,
    "##iator": 0,
    "qualities": 0,
    "##acon": 1,
    "defence": 0,
    "##ats": 0,
    "##lapping": 0,
    "hold": 0,
    "##24": 5,
    "##sus": 0,
    "uncovered": 0,
    "proving": 0,
    "guardian": 0,
    "keep": 0,
    "##uses": 0,
    "XI": 0,
    "PGA": 0,
    "solitary": 0,
    "contexts": 0,
    "NDP": 0,
    "closure": 0,
    "elderly": 0,
    "##CM": 3,
    "warfare": 0,
    "diversion": 0,
    "Guide": 0,
    "Mon": 10,
    "category": 0,
    "weakness": 0,
    "inevitably": 0,
    "wildlife": 0,
    "ensuring": 0,
    "##lication": 0,
    "bottom": 0,
    "##WI": 0,
    "machine": 0,
    "residing": 0,
    "motors": 0,
    "custom": 0,
    "utilities": 0,
    "rules": 0,
    "pursuit": 0,
    "institutions": 0,
    "brake": 0,
    "speculated": 0,
    "vectors": 0,
    "##oration": 0,
    "##ists": 0,
    "apart": 0,
    "precipitation": 0,
    "##ilizer": 0,
    "##bria": 0,
    "##cycle": 5,
    "##pute": 0,
    "##zon": 3,
    "##signed": 0,
    "boiling": 0,
    "neat": 0,
    "##anda": 1,
    "##64": 9,
    "FAA": 0,
    "##sle": 0,
    "anger": 0,
    "criticized": 0,
    "failing": 0,
    "narrative": 0,
    "connection": 0,
    "style": 0,
    "styles": 0,
    "Anger": 0,
    "Birth": 0,
    "Moe": 0,
    "##bius": 0,
    "abortion": 0,
    "236": 0,
    "relying": 0,
    "doubling": 0,
    "injuries": 0,
    "Sai": 0,
    "##kot": 0,
    "bore": 0,
    "##RB": 3,
    "##pont": 0,
    "Newton": 0,
    "Polar": 0,
    "sweep": 0,
    "disk": 0,
    "Wei": 0,
    "##bull": 0,
    "foundations": 0,
    "marketing": 0,
    "sales": 0,
    "marketed": 0,
    "persons": 0,
    "unrest": 0,
    "packaging": 0,
    "ink": 0,
    "TX": 1,
    "##and": 9,
    "##gne": 3,
    "hardly": 0,
    "alternatives": 0,
    "Indians": 0,
    "lifestyle": 0,
    "Forty": 0,
    "Known": 0,
    "altogether": 0,
    "##rel": 16,
    "denied": 0,
    "##ceive": 0,
    "415": 0,
    "unavailable": 0,
    "##ntin": 6,
    "Child": 0,
    "##hood": 0,
    "moral": 0,
    "professionals": 0,
    "themes": 0,
    "Seeing": 0,
    "##elf": 0,
    "emerges": 0,
    "difficulty": 0,
    "##ceiving": 0,
    "representations": 0,
    "doctor": 0,
    "viewpoint": 0,
    "walled": 0,
    "devices": 0,
    "##band": 0,
    "Hubbard": 0,
    "Hamilton": 0,
    "Beth": 0,
    "##WC": 0,
    "explains": 0,
    "reservoir": 0,
    "guests": 0,
    "attachment": 0,
    "Natural": 0,
    "##nity": 0,
    "##rable": 0,
    "formidable": 0,
    "views": 0,
    "economical": 0,
    "expensive": 0,
    "See": 0,
    "harvest": 0,
    "harsh": 0,
    "##tility": 0,
    "farming": 0,
    "##listic": 0,
    "playing": 0,
    "botanical": 0,
    "intent": 0,
    "knot": 0,
    "stranded": 0,
    "considerations": 0,
    "reader": 0,
    "vibrant": 0,
    "private": 0,
    "clinics": 0,
    "##mizing": 0,
    "##feit": 0,
    "##iled": 0,
    "boiled": 0,
    "herbs": 0,
    "save": 0,
    "labor": 0,
    "##flower": 0,
    "tailored": 0,
    "branching": 0,
    "vinyl": 4,
    "brushes": 0,
    "Lay": 0,
    "Mixed": 0,
    "smart": 0,
    "resolved": 0,
    "##eous": 0,
    "golden": 0,
    "colored": 0,
    "##nating": 0,
    "##akes": 0,
    "hosted": 0,
    "apply": 0,
    "angular": 0,
    "agrees": 0,
    "spot": 0,
    "##itte": 2,
    "Ray": 0,
    "##leigh": 0,
    "radiating": 0,
    "##mme": 0,
    "##adia": 0,
    "waves": 0,
    "Once": 0,
    "##block": 0,
    "sticky": 0,
    "employ": 0,
    "commence": 0,
    "lone": 0,
    "adding": 0,
    "##cede": 0,
    "irrelevant": 0,
    "##39": 8,
    "##ils": 2,
    "combustion": 0,
    "Wilson": 0,
    "##FM": 3,
    "Texas": 2,
    "Phase": 0,
    "spotted": 0,
    "movements": 0,
    "##changing": 0,
    "everywhere": 0,
    "660": 0,
    "filled": 0,
    "##ult": 0,
    "commodity": 0,
    "XIII": 0,
    "thicker": 0,
    "##wine": 0,
    "dense": 0,
    "##zam": 3,
    "##fit": 7,
    "##enter": 0,
    "annually": 0,
    "Indo": 6,
    "##leam": 3,
    "##ika": 4,
    "army": 0,
    "##worm": 0,
    "diamond": 1,
    "moth": 0,
    "specialized": 0,
    "##30": 3,
    "Ai": 0,
    "##ush": 0,
    "repaired": 0,
    "##mell": 0,
    "190": 0,
    "##sent": 7,
    "Map": 5,
    "strokes": 0,
    "##ogies": 0,
    "1970": 0,
    "rejected": 0,
    "grounds": 0,
    "sewage": 0,
    "facts": 0,
    "blinding": 0,
    "operator": 0,
    "Bud": 0,
    "##lish": 0,
    "imposed": 0,
    "##uddin": 0,
    "render": 0,
    "onward": 0,
    "adjust": 0,
    "personality": 0,
    "##versing": 0,
    "shear": 0,
    "##ssi": 1,
    "##pation": 0,
    "tension": 0,
    "compression": 0,
    "inclined": 0,
    "notch": 0,
    "Nonetheless": 0,
    "##gara": 0,
    "##rya": 1,
    "uniform": 0,
    "Johnson": 0,
    "quest": 0,
    "mysterious": 0,
    "brought": 0,
    "pioneering": 0,
    "Paul": 0,
    "##lynn": 0,
    "colleagues": 0,
    "6th": 0,
    "hereditary": 0,
    "##gia": 0,
    "seemingly": 0,
    "mutually": 0,
    "exclusive": 0,
    "mystery": 0,
    "satisfying": 0,
    "enterprise": 0,
    "pay": 0,
    "divide": 0,
    "Fen": 0,
    "rescuing": 0,
    "granted": 0,
    "oz": 7,
    "exaggerated": 0,
    "defeat": 0,
    "##otion": 0,
    "##scence": 0,
    "defeated": 0,
    "brown": 0,
    "tide": 0,
    "hatch": 0,
    "heartbeat": 0,
    "##gt": 0,
    "interim": 0,
    "anticipated": 0,
    "positioning": 0,
    "##lee": 0,
    "GE": 6,
    "203": 0,
    "projected": 0,
    "##SN": 1,
    "##vos": 6,
    "symmetric": 0,
    "##iling": 0,
    "##oat": 5,
    "choke": 0,
    "Department": 0,
    "Poland": 0,
    "differs": 0,
    "berries": 0,
    "twist": 0,
    "attracting": 0,
    "reportedly": 0,
    "##onium": 4,
    "submit": 0,
    "provoked": 0,
    "tracks": 0,
    "trajectory": 0,
    "arising": 0,
    "intriguing": 0,
    "##page": 0,
    "register": 0,
    "##cription": 0,
    "##ear": 2,
    "Trial": 0,
    "##aire": 0,
    "Stop": 0,
    "##UI": 0,
    "replaces": 0,
    "Year": 0,
    "Change": 0,
    "Fitness": 0,
    "Adults": 0,
    "Look": 0,
    "gift": 0,
    "##flections": 0,
    "essays": 0,
    "essay": 0,
    "##ave": 0,
    "tapes": 0,
    "learned": 0,
    "Robert": 0,
    "George": 0,
    "##hmann": 0,
    "mold": 0,
    "career": 0,
    "eternal": 0,
    "grateful": 0,
    "always": 0,
    "##tech": 0,
    "continue": 0,
    "##chemist": 0,
    "solving": 0,
    "feeds": 0,
    "##tock": 0,
    "thorough": 0,
    "elementary": 0,
    "Theory": 0,
    "paths": 0,
    "decisive": 0,
    "distinctly": 0,
    "disadvantage": 0,
    "##eves": 0,
    "offered": 0,
    "wise": 0,
    "truly": 0,
    "##det": 3,
    "Stokes": 0,
    "faced": 0,
    "Fresh": 0,
    "foe": 0,
    "##DF": 0,
    "insects": 0,
    "Essential": 0,
    "##putation": 0,
    "Amy": 0,
    "aluminium": 15,
    "uranium": 11,
    "Female": 0,
    "##mani": 0,
    "she": 0,
    "##hur": 1,
    "Twelve": 0,
    "fourteen": 0,
    "Combined": 0,
    "Selena": 1,
    "seldom": 0,
    "@": 0,
    "merit": 0,
    "proves": 0,
    "ancestors": 0,
    "proposal": 0,
    "pendant": 0,
    "kits": 0,
    "rays": 0,
    "eminent": 0,
    "motivated": 0,
    "engineer": 0,
    "##cier": 0,
    "drain": 0,
    "slope": 0,
    "##VO": 6,
    "tolerate": 0,
    "Tang": 0,
    "endangered": 0,
    "orchid": 0,
    "Hai": 0,
    "concentrate": 0,
    "Benz": 9,
    "prototypes": 0,
    "Dex": 5,
    "Tax": 3,
    "##list": 11,
    "Certain": 0,
    "##beth": 0,
    "##gical": 0,
    "##hesia": 0,
    "intensified": 0,
    "##bine": 21,
    "minimize": 0,
    "veins": 0,
    "260": 0,
    "fire": 0,
    "##fly": 0,
    "picked": 0,
    "panels": 0,
    "instrumental": 0,
    "guiding": 0,
    "##lanted": 0,
    "enclosed": 0,
    "Variations": 0,
    "spines": 0,
    "presently": 0,
    "arrival": 0,
    "##ulture": 0,
    "preparing": 0,
    "thereafter": 0,
    "##kling": 0,
    "##kles": 0,
    "##grading": 0,
    "##uxe": 0,
    "Baltic": 0,
    "##KE": 0,
    "##quence": 0,
    "comprises": 0,
    "bird": 0,
    "abandoning": 0,
    "nests": 0,
    "Wood": 0,
    "ducks": 0,
    "clutch": 0,
    "wood": 0,
    "##ishing": 0,
    "##kar": 0,
    "##yotes": 0,
    "mirror": 0,
    "Integration": 0,
    "Electrical": 0,
    "experimentation": 0,
    "accomplish": 0,
    "##mata": 0,
    "adopting": 0,
    "boundary": 0,
    "##aal": 0,
    "stretching": 0,
    "2011": 0,
    "610": 0,
    "106": 0,
    "650": 0,
    "illuminated": 0,
    "want": 0,
    "delivers": 0,
    "##rica": 1,
    "staging": 0,
    "##rion": 0,
    "##code": 1,
    "proposes": 0,
    "rendering": 0,
    "wrapped": 0,
    "##lose": 0,
    "##Vs": 0,
    "believe": 0,
    "replace": 0,
    "Reporter": 0,
    "##inator": 0,
    "##tium": 3,
    "Any": 0,
    "##itors": 0,
    "RB": 6,
    "640": 0,
    "Domain": 0,
    "scratch": 0,
    "##color": 0,
    "guides": 0,
    "incoming": 0,
    "Afterward": 0,
    "##keeper": 0,
    "##zac": 1,
    "row": 0,
    "properly": 0,
    "Better": 0,
    "##wo": 0,
    "##rz": 2,
    "##BF": 3,
    "thanks": 0,
    "Care": 0,
    "##ful": 3,
    "tuning": 0,
    "Semi": 0,
    "continuously": 0,
    "exceptionally": 0,
    "Applied": 0,
    "objects": 0,
    "Order": 0,
    "convenient": 0,
    "magnet": 0,
    "##ods": 0,
    "hydraulic": 0,
    "Hagen": 0,
    "packed": 0,
    "beds": 0,
    "manners": 0,
    "ends": 0,
    "##nath": 0,
    "Pan": 0,
    "##zaki": 0,
    "Prefecture": 0,
    "dam": 2,
    "##ik": 17,
    "##tsu": 17,
    "Rd": 0,
    "prefecture": 0,
    "decided": 0,
    "wing": 0,
    "##ians": 0,
    "ONE": 0,
    "Especially": 0,
    "Fischer": 0,
    "##ided": 0,
    "laws": 0,
    "void": 0,
    "Very": 0,
    "verge": 0,
    "Contact": 0,
    "angles": 0,
    "words": 0,
    "##uring": 0,
    "fuel": 0,
    "countless": 0,
    "convenience": 0,
    "postgraduate": 0,
    "expenses": 0,
    "friends": 0,
    "campus": 0,
    "marital": 0,
    "Advanced": 0,
    "##llis": 0,
    "Cooperative": 0,
    "Region": 0,
    "Augsburg": 0,
    "participated": 0,
    "##chal": 0,
    "ethnicity": 0,
    "Race": 0,
    "##mith": 0,
    "Triangle": 0,
    "##iance": 0,
    "Prospect": 0,
    "Walter": 0,
    "killer": 0,
    "Platform": 0,
    "##aca": 1,
    "##tives": 0,
    "GO": 0,
    "##note": 0,
    "##stics": 0,
    "##vice": 0,
    "concludes": 0,
    "charging": 0,
    "RAF": 0,
    "375": 0,
    "flank": 0,
    "370": 0,
    "picture": 0,
    "breakthrough": 0,
    "succeeded": 0,
    "Oh": 0,
    "pillar": 1,
    "##AB": 4,
    "220": 0,
    "pillars": 0,
    "motion": 0,
    "Charlie": 0,
    "resemblance": 0,
    "##pole": 3,
    "tunic": 1,
    "##nica": 0,
    "creep": 0,
    "Yo": 0,
    "##inia": 0,
    "translate": 0,
    "innovation": 0,
    "moving": 0,
    "organize": 0,
    "Thanks": 0,
    "occupation": 0,
    "lying": 0,
    "325": 0,
    "Medici": 0,
    "liter": 0,
    "highlighting": 0,
    "##IX": 3,
    "employs": 0,
    "breathing": 0,
    "reacted": 0,
    "##nose": 14,
    "##coming": 0,
    "repairs": 0,
    "##gging": 0,
    "Ok": 0,
    "##aki": 1,
    "suggestion": 0,
    "Ms": 0,
    "bypass": 0,
    "##ssion": 0,
    "incorporates": 0,
    "edit": 0,
    "##bella": 0,
    "characters": 0,
    "##ynx": 0,
    "collision": 0,
    "temperate": 0,
    "encoded": 0,
    "arms": 0,
    "sleeping": 0,
    "northeast": 0,
    "northeastern": 0,
    "German": 1,
    "Stockholm": 0,
    "May": 0,
    "perennial": 0,
    "coloring": 0,
    "Lead": 0,
    "derives": 0,
    "nominal": 0,
    "bouts": 0,
    "episodes": 0,
    "cup": 0,
    "##voking": 0,
    "##anger": 0,
    "eventual": 0,
    "donors": 0,
    "captured": 0,
    "goose": 0,
    "Raw": 0,
    "206": 0,
    "##logue": 0,
    "Engineering": 0,
    "vehicles": 0,
    "coat": 0,
    "physically": 0,
    "mirrored": 0,
    "320": 0,
    "labelled": 0,
    "Star": 0,
    "hampered": 0,
    "reinforced": 0,
    "immense": 0,
    "specification": 0,
    "provision": 0,
    "advised": 0,
    "visit": 0,
    "620": 0,
    "262": 0,
    "285": 0,
    "intention": 0,
    "deaths": 0,
    "##sting": 0,
    "##ared": 0,
    "##ndas": 0,
    "Zhao": 0,
    "Gus": 0,
    "##fs": 0,
    "##gman": 0,
    "##gren": 0,
    "twisted": 0,
    "harvesting": 0,
    "##uts": 0,
    "Arizona": 0,
    "Dust": 0,
    "reactor": 0,
    "rods": 0,
    "conservative": 0,
    "checking": 0,
    "confined": 0,
    "invariant": 0,
    "security": 0,
    "##tending": 0,
    "solely": 0,
    "Thought": 0,
    "##licing": 0,
    "universe": 0,
    "bordering": 0,
    "##rand": 0,
    "Cole": 6,
    "Therapy": 0,
    "145": 0,
    "191": 0,
    "##BS": 1,
    "lightweight": 0,
    "NFC": 0,
    "renewable": 0,
    "bubbles": 0,
    "collapsing": 0,
    "seated": 0,
    "##esign": 0,
    "surprisingly": 0,
    "##hara": 1,
    "##pate": 0,
    "Ion": 0,
    "##wash": 0,
    "##ifiable": 0,
    "brushing": 0,
    "averaging": 0,
    "##ended": 0,
    "##right": 1,
    "1986": 0,
    "Put": 0,
    "Virtual": 0,
    "##unting": 0,
    "wrong": 0,
    "choosing": 0,
    "WR": 0,
    "stall": 0,
    "Werner": 0,
    "Bloom": 0,
    "Art": 0,
    "##ado": 11,
    "##classified": 0,
    "##ail": 4,
    "organised": 0,
    "##ails": 0,
    "tell": 0,
    "tale": 0,
    "##post": 0,
    "Canary": 0,
    "viola": 0,
    "##nde": 0,
    "##500": 0,
    "##elli": 2,
    "Got": 0,
    "Cairo": 0,
    "Egypt": 0,
    "##arm": 0,
    "borders": 0,
    "assure": 0,
    "documents": 0,
    "discretion": 0,
    "Bristol": 0,
    "Myers": 0,
    "##bb": 0,
    "rule": 0,
    "combines": 0,
    "ballistic": 0,
    "365": 0,
    "moments": 0,
    "breakup": 0,
    "Universal": 0,
    "steal": 0,
    "enormous": 0,
    "turning": 0,
    "perpendicular": 0,
    "##quatorial": 0,
    "spins": 0,
    "whenever": 0,
    "donor": 0,
    "mix": 0,
    "##unts": 0,
    "sensations": 0,
    "leg": 0,
    "##suse": 0,
    "##utrition": 0,
    "implementing": 0,
    "tape": 0,
    "1984": 0,
    "SSR": 4,
    "Mali": 0,
    "Sit": 0,
    "magic": 0,
    "spinning": 0,
    "resort": 0,
    "consuming": 0,
    "reconstructed": 0,
    "##stable": 0,
    "confinement": 0,
    "selfish": 0,
    "jumping": 0,
    "tails": 0,
    "##vision": 0,
    "opened": 0,
    "##tata": 0,
    "Off": 0,
    "maturity": 0,
    "##ching": 0,
    "laying": 0,
    "fled": 0,
    "Few": 0,
    "layered": 0,
    "##thest": 0,
    "manufacturer": 0,
    "logic": 0,
    "Van": 8,
    "Short": 0,
    "##eas": 0,
    "aggressively": 0,
    "##llars": 0,
    "heights": 0,
    "Wen": 0,
    "##zel": 0,
    "Cassie": 0,
    "Baxter": 0,
    "sharp": 0,
    "places": 0,
    "calculating": 0,
    "unable": 0,
    "##ordination": 0,
    "##tl": 0,
    "malaria": 0,
    "Venus": 0,
    "NSA": 0,
    "##plating": 0,
    "vernacular": 0,
    "meant": 0,
    "inspire": 0,
    "reading": 0,
    "desperately": 0,
    "radios": 0,
    "Capt": 2,
    "##lal": 3,
    "formats": 0,
    "##lak": 1,
    "contracting": 0,
    "beat": 0,
    "rhythmic": 0,
    "beating": 0,
    "game": 0,
    "##uted": 0,
    "Mt": 0,
    "Rabbit": 0,
    "began": 0,
    "cotton": 0,
    "textile": 0,
    "forearm": 0,
    "penetrated": 0,
    "##NR": 0,
    "roughly": 0,
    "periphery": 0,
    "##firmed": 0,
    "##lein": 0,
    "##wy": 0,
    "##upation": 0,
    "Jin": 0,
    "##vide": 0,
    "Shi": 0,
    "disposal": 0,
    "Arabian": 0,
    "##nius": 0,
    "arena": 0,
    "predator": 0,
    "alarm": 0,
    "dragon": 0,
    "chasing": 0,
    "responded": 0,
    "drifting": 0,
    "motionless": 0,
    "speeds": 0,
    "School": 0,
    "nearest": 0,
    "neighbour": 0,
    "Stream": 0,
    "##lined": 0,
    "versions": 0,
    "devised": 0,
    "##GM": 8,
    "repetitive": 0,
    "##dence": 0,
    "##gram": 0,
    "Serbian": 0,
    "##cacia": 0,
    "Robin": 0,
    "##thus": 0,
    "##ago": 0,
    "##eed": 0,
    "rape": 0,
    "##gau": 0,
    "Basel": 0,
    "alternating": 0,
    "##tted": 0,
    "Testing": 0,
    "##gill": 0,
    "##xia": 0,
    "##ique": 1,
    "petroleum": 4,
    "dubious": 0,
    "credible": 0,
    "Examples": 0,
    "incorrect": 0,
    "##roper": 0,
    "##hu": 0,
    "##pio": 0,
    "Ground": 0,
    "drove": 0,
    "injured": 0,
    "Like": 0,
    "mud": 0,
    "snail": 0,
    "Bull": 0,
    "##innamon": 0,
    "cum": 0,
    "##ree": 0,
    "##usage": 0,
    "Albion": 0,
    "tendencies": 0,
    "Final": 0,
    "1988": 0,
    "descending": 0,
    "196": 0,
    "##hou": 0,
    "##ach": 0,
    "Spin": 1,
    "researcher": 0,
    "Tai": 0,
    "Irwin": 0,
    "##wang": 0,
    "##itt": 0,
    "##Pad": 0,
    "Origin": 0,
    "Sigma": 0,
    "IBM": 0,
    "Statistics": 0,
    "pointed": 0,
    "Spanish": 0,
    "exclude": 0,
    "basically": 0,
    "brand": 0,
    "##dating": 0,
    "Rice": 0,
    "Search": 0,
    "Normal": 0,
    "FIA": 0,
    "merging": 0,
    "zones": 0,
    "##ifications": 0,
    "rpm": 0,
    "3000": 0,
    "cleaned": 0,
    "##mable": 0,
    "compatibility": 0,
    "Images": 0,
    "Safety": 0,
    "Botanical": 0,
    "##run": 20,
    "Sudan": 5,
    "##ell": 0,
    "Lorenzo": 0,
    "Mira": 0,
    "crushed": 0,
    "Canon": 0,
    "fraud": 0,
    "roll": 0,
    "bounce": 0,
    "shields": 0,
    "virtually": 0,
    "Luc": 2,
    "accomplished": 0,
    "##usion": 0,
    "##pts": 0,
    "tuberculosis": 0,
    "digit": 0,
    "price": 0,
    "economy": 0,
    "lavish": 0,
    "##trata": 0,
    "##ke": 0,
    "##pticism": 0,
    "justify": 0,
    "Where": 0,
    "viruses": 0,
    "ladder": 0,
    "arbitrary": 0,
    "Secret": 0,
    "frontier": 0,
    "uncommon": 0,
    "questioning": 0,
    "People": 0,
    "Republic": 0,
    "Garden": 0,
    "##ctus": 0,
    "##uy": 0,
    "rub": 0,
    "##rae": 0,
    "Angelica": 0,
    "##allo": 1,
    "claims": 0,
    "162": 0,
    "238": 0,
    "##GI": 0,
    "designs": 0,
    "490": 0,
    "304": 0,
    "attendant": 0,
    "hurdles": 0,
    "upwards": 0,
    "explores": 0,
    "suite": 0,
    "differing": 0,
    "##ike": 0,
    "prohibit": 0,
    "installed": 0,
    "admitted": 0,
    "matches": 0,
    "##rik": 0,
    "##oshi": 0,
    "intermittent": 0,
    "intervened": 0,
    "##uren": 2,
    "controversy": 0,
    "concepts": 0,
    "lifted": 0,
    "accepting": 0,
    "transfers": 0,
    "##pulsion": 0,
    "tip": 0,
    "##nae": 0,
    "emerald": 0,
    "rock": 0,
    "##cchi": 0,
    "Station": 0,
    "Scott": 0,
    "Base": 0,
    "fort": 0,
    "##night": 0,
    "##oke": 0,
    "Pig": 0,
    "##smatic": 0,
    "pace": 0,
    "##maker": 0,
    "clock": 0,
    "Number": 0,
    "airborne": 0,
    "Invasion": 0,
    "Toward": 0,
    "flowing": 0,
    "Fuji": 1,
    "manufactured": 0,
    "mortar": 0,
    "uneven": 0,
    "##olio": 1,
    "instrumentation": 0,
    "operates": 0,
    "builds": 0,
    "tensions": 0,
    "##uter": 6,
    "##otes": 5,
    "meanwhile": 0,
    "projects": 0,
    "mantle": 0,
    "Media": 0,
    "Assembly": 0,
    "ribbons": 0,
    "tunnel": 0,
    "Rosa": 0,
    "buried": 0,
    "##fan": 1,
    "Son": 0,
    "perch": 0,
    "##ku": 0,
    "Historic": 0,
    "Nova": 0,
    "Scotia": 0,
    "crust": 0,
    "exceeds": 0,
    "Tests": 0,
    "filtered": 0,
    "momentum": 0,
    "bare": 0,
    "shapes": 0,
    "Compton": 0,
    "LED": 0,
    "read": 0,
    "##outs": 0,
    "realize": 0,
    "replacing": 0,
    "aren": 6,
    "proceeded": 0,
    "today": 0,
    "Hook": 0,
    "resided": 0,
    "##fle": 0,
    "finite": 0,
    "##lov": 3,
    "glasses": 0,
    "internet": 0,
    "##Os": 3,
    "denotes": 0,
    "tap": 0,
    "##tile": 0,
    "suffers": 0,
    "tiny": 0,
    "chips": 0,
    "pie": 0,
    "##zor": 0,
    "individually": 0,
    "suspected": 0,
    "seeded": 0,
    "##lius": 1,
    "Madagascar": 0,
    "Forest": 0,
    "mall": 2,
    "frost": 0,
    "propelled": 0,
    "repeatedly": 0,
    "jump": 0,
    "Frost": 0,
    "spreads": 0,
    "respects": 0,
    "Copper": 14,
    "##kes": 0,
    "carpet": 0,
    "##ada": 3,
    "enduring": 0,
    "rim": 7,
    "##ward": 0,
    "##mount": 0,
    "exceeding": 0,
    "##nage": 0,
    "develops": 0,
    "sensible": 0,
    "1989": 0,
    "renewed": 0,
    "expertise": 0,
    "##mist": 0,
    "compelling": 0,
    "##ux": 3,
    "##vet": 2,
    "stir": 2,
    "sparse": 0,
    "vacancy": 0,
    "demonstrations": 0,
    "##chor": 0,
    "softer": 0,
    "entered": 0,
    "attract": 0,
    "brings": 0,
    "sustainability": 0,
    "mankind": 0,
    "urgency": 0,
    "humanity": 0,
    "1800": 0,
    "accessed": 0,
    "sheath": 0,
    "trimmed": 0,
    "##like": 0,
    "Distribution": 0,
    "desert": 0,
    "##boa": 0,
    "seasons": 0,
    "kiss": 0,
    "Middle": 0,
    "Atlas": 0,
    "mountain": 0,
    "autumn": 0,
    "arc": 1,
    "Living": 0,
    "realizing": 0,
    "restart": 0,
    "##nte": 2,
    "Full": 0,
    "Una": 0,
    "##atory": 0,
    "Toy": 0,
    "##lade": 2,
    "##cting": 0,
    "##elling": 0,
    "carries": 0,
    "finds": 0,
    "Suzuki": 0,
    "install": 0,
    "soon": 0,
    "exams": 0,
    "blast": 0,
    "addressing": 0,
    "engines": 0,
    "springs": 0,
    "hotter": 0,
    "Calvin": 0,
    "resurrected": 0,
    "synonymous": 0,
    "##boe": 0,
    "##mbo": 0,
    "##wei": 0,
    "##bina": 0,
    "##gat": 21,
    "##rud": 0,
    "##inae": 0,
    "##ogue": 0,
    "Split": 0,
    "bounds": 0,
    "engage": 0,
    "Which": 0,
    "you": 0,
    "steaming": 0,
    "##view": 0,
    "propeller": 0,
    "solved": 0,
    "crowd": 0,
    "quartet": 0,
    "regards": 0,
    "##rse": 1,
    "calling": 0,
    "algorithms": 0,
    "creates": 0,
    "inheritance": 0,
    "confident": 0,
    "##rge": 0,
    "Must": 0,
    "Hudson": 0,
    "##born": 0,
    "grass": 0,
    "king": 0,
    "queen": 0,
    "latitude": 0,
    "##dina": 6,
    "moist": 0,
    "attraction": 0,
    "filling": 0,
    "##pores": 0,
    "grazing": 0,
    "grasp": 0,
    "pulling": 0,
    "lays": 0,
    "foundation": 0,
    "peculiar": 0,
    "edged": 0,
    "Tobacco": 0,
    "airs": 0,
    "sing": 0,
    "directing": 0,
    "##cademia": 0,
    "surveys": 0,
    "harbour": 0,
    "von": 0,
    "##edia": 0,
    "locate": 0,
    "229": 0,
    "Probably": 0,
    "equipped": 0,
    "favors": 0,
    "Ada": 0,
    "##urn": 0,
    "flattened": 0,
    "##organisation": 0,
    "Tam": 8,
    "##kawa": 0,
    "scattered": 0,
    "Poor": 0,
    "definitions": 0,
    "threaten": 0,
    "laps": 0,
    "doing": 0,
    "clearer": 0,
    "GDP": 2,
    "mines": 0,
    "##umes": 0,
    "##aven": 0,
    "fires": 0,
    "reactors": 0,
    "ammunition": 0,
    "accidental": 0,
    "personnel": 0,
    "cleared": 0,
    "disagreement": 0,
    "158": 0,
    "Journal": 0,
    "publication": 0,
    "2013": 0,
    "doi": 0,
    "103": 0,
    "##menclature": 0,
    "Until": 0,
    "##oman": 1,
    "confusion": 0,
    "chart": 0,
    "formerly": 0,
    "Bart": 0,
    "housed": 0,
    "Profile": 0,
    "Generation": 0,
    "`": 0,
    "Technologies": 0,
    "mater": 0,
    "outline": 0,
    "Cup": 0,
    "Ann": 0,
    "##llen": 0,
    "ash": 0,
    "##nical": 0,
    "##umatic": 0,
    "##iano": 0,
    "mock": 0,
    "suicide": 0,
    "Bari": 0,
    "Literature": 0,
    "Knowledge": 0,
    "Google": 0,
    "Scholar": 0,
    "Tin": 0,
    "figure": 0,
    "World": 0,
    "thousand": 0,
    "eighty": 0,
    "##powder": 0,
    "floral": 0,
    "##ires": 0,
    "##row": 0,
    "wires": 0,
    "manipulated": 0,
    "##ermined": 0,
    "Advancement": 0,
    "feminine": 0,
    "##ygiene": 0,
    "##sons": 0,
    "infectious": 0,
    "dead": 0,
    "wounds": 0,
    "climbing": 0,
    "grows": 0,
    "moss": 0,
    "trunks": 0,
    "##hop": 1,
    "##hady": 0,
    "boulders": 0,
    "Gender": 0,
    "urges": 0,
    "##fining": 0,
    "resolutions": 0,
    "noises": 0,
    "artifacts": 0,
    "##lvin": 0,
    "artifact": 0,
    "topography": 0,
    "##gies": 0,
    "Mine": 0,
    "earth": 0,
    "##sley": 0,
    "laid": 0,
    "strengthened": 0,
    "unfortunately": 0,
    "clues": 0,
    "##lge": 0,
    "translates": 0,
    "transmitting": 0,
    "casualties": 0,
    "disaster": 0,
    "dissolve": 0,
    "207": 0,
    "1700": 0,
    "1620": 0,
    "motions": 0,
    "Him": 1,
    "him": 2,
    "Has": 0,
    "compensate": 0,
    "##isa": 6,
    "Weeks": 0,
    "Week": 0,
    "##iter": 0,
    "encouragement": 0,
    "sandwich": 0,
    "planned": 0,
    "##ede": 0,
    "##ditions": 0,
    "##aud": 0,
    "wider": 0,
    "exit": 0,
    "Space": 0,
    "221": 0,
    "factory": 0,
    "reel": 0,
    "Hall": 0,
    "##passing": 0,
    "approaching": 0,
    "write": 0,
    "masks": 0,
    "##zzle": 0,
    "##venting": 0,
    "##hium": 37,
    "grand": 0,
    "forth": 0,
    "transforms": 0,
    "Alba": 1,
    "Pierre": 0,
    "##fluenza": 0,
    "205": 0,
    "##yke": 0,
    "Algerian": 0,
    "stood": 0,
    "##geny": 0,
    "Natal": 0,
    "witnessed": 0,
    "1993": 0,
    "pharmacy": 0,
    "office": 0,
    "readings": 0,
    "depiction": 0,
    "##cist": 0,
    "Selection": 0,
    "justification": 0,
    "Fuel": 0,
    "177": 0,
    "campaign": 0,
    "hit": 0,
    "##sets": 0,
    "allocated": 0,
    "Chow": 0,
    "regain": 0,
    "##poradic": 0,
    "##struction": 0,
    "bundled": 0,
    "tubes": 0,
    "counting": 0,
    "Memorial": 0,
    "Sloan": 0,
    "##ttering": 0,
    "##rrence": 0,
    "197": 0,
    "##core": 0,
    "##gion": 0,
    "boundaries": 0,
    "Rao": 0,
    "##rah": 0,
    "Inspired": 0,
    "fading": 0,
    "Damn": 0,
    "damned": 0,
    "don": 0,
    "accompanying": 0,
    "Sung": 0,
    "CDP": 0,
    "sponsor": 0,
    "Exploration": 0,
    "reef": 0,
    "Cook": 0,
    "Pacific": 0,
    "nations": 0,
    "1994": 0,
    "disturbed": 0,
    "reefs": 0,
    "##sai": 0,
    "Port": 0,
    "##sight": 0,
    "horses": 0,
    "god": 0,
    "Except": 0,
    "Costa": 0,
    "Rican": 0,
    "eastern": 0,
    "##tles": 0,
    "1865": 0,
    "Cam": 0,
    "##dius": 0,
    "##ops": 0,
    "##erd": 0,
    "tags": 0,
    "Talon": 0,
    "cane": 0,
    "contracted": 0,
    "501": 0,
    "superficial": 0,
    "unified": 0,
    "Majority": 0,
    "Oil": 0,
    "migrated": 0,
    "decorated": 0,
    "proposing": 0,
    "Eastern": 0,
    "##brook": 0,
    "elongated": 0,
    "rounded": 0,
    "corresponds": 0,
    "fins": 0,
    "##hh": 0,
    "##ez": 7,
    "Tad": 2,
    "##git": 1,
    "simplicity": 0,
    "Leaf": 0,
    "##ather": 0,
    "##aldo": 0,
    "##sang": 0,
    "Hour": 0,
    "Youth": 0,
    "youth": 0,
    "Latino": 0,
    "126": 0,
    "Transport": 0,
    "Solar": 0,
    "##sad": 1,
    "encourage": 0,
    "##ogel": 0,
    "Members": 0,
    "universally": 0,
    "Intel": 0,
    "##ligent": 0,
    "moves": 0,
    "taxi": 0,
    "##ski": 6,
    "Isle": 0,
    "##roved": 0,
    "trade": 0,
    "spiral": 0,
    "justified": 0,
    "Marine": 0,
    "Pit": 0,
    "##grove": 0,
    "weakened": 0,
    "##them": 0,
    "constitutional": 0,
    "connector": 0,
    "gateway": 0,
    "trader": 0,
    "journal": 0,
    "declared": 0,
    "prolific": 0,
    "CBE": 0,
    "orchestra": 0,
    "producer": 0,
    "##wan": 0,
    "Sky": 0,
    "##rlin": 0,
    "amongst": 0,
    "Yes": 0,
    "##locating": 0,
    "RC": 1,
    "##rates": 0,
    "##tling": 0,
    "NL": 0,
    "##runk": 0,
    "1990": 0,
    "##VB": 0,
    "Platinum": 1,
    "Almost": 0,
    "Cooke": 0,
    "Stewart": 0,
    "430": 0,
    "1969": 0,
    "1976": 0,
    "rotate": 0,
    "NHS": 0,
    "Did": 1,
    "##came": 5,
    "##lemma": 0,
    "Viola": 0,
    "##mei": 0,
    "Wan": 0,
    "Ventura": 0,
    "inhabit": 0,
    "abandoned": 0,
    "erosion": 0,
    "Mia": 0,
    "Forget": 0,
    "!": 0,
    "cured": 0,
    "219": 0,
    "193": 0,
    "demanding": 0,
    "recycled": 0,
    "Amor": 0,
    "Chemistry": 0,
    "naked": 0,
    "interests": 0,
    "##cologist": 0,
    "realized": 0,
    "defensive": 0,
    "dealing": 0,
    "##emon": 0,
    "Lou": 0,
    "##coe": 0,
    "##OW": 0,
    "THE": 0,
    "continent": 0,
    "Federal": 0,
    "Rio": 0,
    "Janeiro": 0,
    "UFC": 0,
    "answered": 0,
    "inquired": 0,
    "Approximately": 0,
    "instructed": 0,
    "told": 0,
    "Clinic": 0,
    "Nate": 8,
    "##cursion": 0,
    "Associated": 0,
    "word": 0,
    "##rams": 0,
    "responding": 0,
    "operate": 0,
    "Dock": 0,
    "grid": 0,
    "##iger": 0,
    "capped": 0,
    "dei": 0,
    "##onized": 0,
    "Organisation": 0,
    "Economic": 0,
    "Population": 0,
    "Cage": 0,
    "permitting": 0,
    "assignment": 0,
    "traced": 0,
    "Regardless": 0,
    "abrupt": 0,
    "slipping": 0,
    "pinned": 0,
    "stick": 0,
    "rip": 0,
    "detached": 0,
    "##dging": 0,
    "Roe": 0,
    "##hul": 1,
    "##0s": 0,
    "1100": 0,
    "Mountain": 0,
    "Commercial": 0,
    "146": 0,
    "124": 0,
    "newer": 0,
    "##uing": 0,
    "surveillance": 0,
    "commentary": 0,
    "ample": 0,
    "##xes": 0,
    "rival": 0,
    "shortest": 0,
    "##rew": 3,
    "inclusive": 0,
    "aura": 2,
    "keeps": 0,
    "Unable": 0,
    "Open": 0,
    "##fted": 0,
    "##having": 0,
    "Bedford": 0,
    "Harbor": 0,
    "inhabited": 0,
    "Kill": 0,
    "Creek": 0,
    "##nged": 0,
    "execution": 0,
    "##holding": 0,
    "stalled": 0,
    "Operational": 0,
    "pricing": 0,
    "Government": 0,
    "branded": 0,
    "dubbed": 0,
    "operational": 0,
    "valued": 0,
    "societal": 0,
    "proposals": 0,
    "judgement": 0,
    "monetary": 0,
    "negotiation": 0,
    "instances": 0,
    "##rily": 0,
    "unpublished": 0,
    "##racy": 1,
    "contacted": 0,
    "Creative": 0,
    "##yam": 4,
    "unity": 0,
    "machines": 0,
    "blinking": 0,
    "never": 0,
    "brightness": 0,
    "transparency": 0,
    "biodiversity": 0,
    "html": 0,
    "##group": 0,
    "matters": 0,
    "tilted": 0,
    "twisting": 0,
    "Against": 0,
    "LLC": 0,
    "Fly": 0,
    "famous": 0,
    "##ots": 0,
    "Classical": 0,
    "obscured": 0,
    "southeastern": 0,
    "Bing": 0,
    "Eat": 0,
    "eating": 0,
    "urge": 0,
    "programmes": 0,
    "mandated": 0,
    "Eli": 0,
    "##HL": 1,
    "sharply": 0,
    "emitted": 0,
    "phones": 0,
    "Communication": 0,
    "Talk": 0,
    "phenomena": 0,
    "Viper": 0,
    "Gray": 0,
    "1849": 0,
    "Basic": 0,
    "responsibility": 0,
    "pains": 0,
    "##taking": 0,
    "insisted": 0,
    "government": 0,
    "financing": 0,
    "Support": 0,
    "visibility": 0,
    "sponsors": 0,
    "physicians": 0,
    "principally": 0,
    "Veronica": 0,
    "##tana": 0,
    "cheese": 0,
    "refrigerator": 0,
    "Hot": 0,
    "##ggins": 0,
    "screw": 0,
    "##truder": 0,
    "encouraging": 0,
    "occasion": 0,
    "Examination": 0,
    "Survey": 0,
    "##ffy": 0,
    "##rix": 0,
    "Period": 0,
    "##pore": 0,
    "treasure": 0,
    "aux": 0,
    "Fox": 0,
    "Shri": 0,
    "##nking": 0,
    "achievement": 0,
    "Mimi": 0,
    "##cking": 0,
    "horizontal": 0,
    "Normally": 0,
    "183": 0,
    "grew": 0,
    "War": 1,
    "##aj": 0,
    "Crow": 0,
    "computing": 0,
    "##ggle": 0,
    "spectacle": 0,
    "Pharmacy": 0,
    "obligations": 0,
    "shortages": 0,
    "215": 0,
    "##cribing": 0,
    "physician": 0,
    "retail": 0,
    "operations": 0,
    "behalf": 0,
    "clients": 0,
    "##aa": 0,
    "##uto": 1,
    "retrieved": 0,
    "looking": 0,
    "Index": 0,
    "absorbing": 0,
    "##rth": 0,
    "assistant": 0,
    "precious": 0,
    "landmark": 0,
    "##geons": 0,
    "Apr": 2,
    "##oka": 2,
    "categorized": 0,
    "superiority": 0,
    "inventions": 0,
    "solve": 0,
    "##lev": 0,
    "178": 0,
    "156": 0,
    "##zal": 2,
    "ordering": 0,
    "##arte": 1,
    "organizing": 0,
    "##anga": 1,
    "inclination": 0,
    "relaxing": 0,
    "##ilt": 0,
    "tilt": 0,
    "manipulate": 0,
    "Too": 0,
    "breeds": 0,
    "lagoon": 0,
    "Yellow": 0,
    "caught": 0,
    "##borg": 0,
    "Sweden": 0,
    "Swedish": 0,
    "coast": 0,
    "lay": 0,
    "groundwater": 0,
    "##rgus": 0,
    "Henry": 0,
    "##wai": 0,
    "storing": 0,
    "collector": 0,
    "impressive": 0,
    "950": 0,
    "fade": 0,
    "Band": 0,
    "emissions": 0,
    "470": 0,
    "chess": 0,
    "##board": 0,
    "discount": 0,
    "preferring": 0,
    "rewards": 0,
    "Whatever": 0,
    "Regional": 0,
    "Valley": 0,
    "wind": 0,
    "depressed": 0,
    "phased": 0,
    "##low": 0,
    "kills": 0,
    "equipment": 0,
    "Darwin": 0,
    "Shannon": 0,
    "Language": 0,
    "Silver": 5,
    "##weed": 0,
    "paints": 0,
    "damages": 0,
    "scarcely": 0,
    "Arch": 0,
    "##imed": 0,
    "til": 0,
    "blended": 0,
    "triangular": 0,
    "Far": 1,
    "Worldwide": 0,
    "##come": 0,
    "completing": 0,
    "piano": 0,
    "stool": 0,
    "Bergen": 0,
    "shoot": 0,
    "Heavy": 0,
    "crab": 0,
    "lake": 0,
    "Chennai": 0,
    "receives": 0,
    "##raw": 0,
    "pumping": 0,
    "resisting": 0,
    "inspired": 0,
    "Beside": 0,
    "Born": 0,
    "##heimer": 0,
    "Technical": 0,
    "ensures": 0,
    "intersection": 0,
    "##fies": 0,
    "diagonal": 0,
    "Giant": 0,
    "orbit": 0,
    "##ahn": 0,
    "Tell": 0,
    "Close": 0,
    "Phi": 0,
    "flip": 0,
    "reasoned": 0,
    "##definite": 0,
    "Length": 0,
    "constellation": 0,
    "##actor": 0,
    "Animals": 0,
    "communicate": 0,
    "Hood": 0,
    "##rdon": 0,
    "Authority": 0,
    "##rida": 0,
    "burn": 0,
    "##burn": 0,
[...]
