{
  "O": {
    "@": 2000,
    "p": 147,
    "##aul": 4,
    "##walk": 3,
    "It": 97,
    "'": 1391,
    "s": 590,
    "the": 1123,
    "view": 4,
    "from": 128,
    "where": 24,
    "I": 1179,
    "m": 271,
    "living": 7,
    "for": 541,
    "two": 29,
    "weeks": 30,
    ".": 5608,
    "Empire": 2,
    "State": 1,
    "Building": 0,
    "=": 42,
    "E": 82,
    "##SB": 2,
    "Pretty": 7,
    "bad": 29,
    "storm": 3,
    "here": 45,
    "last": 73,
    "evening": 10,
    "From": 11,
    "Green": 3,
    "News": 7,
    "##fe": 13,
    "##ed": 58,
    ":": 2622,
    "A": 163,
    "##HF": 2,
    "##A": 207,
    "extends": 2,
    "deadline": 3,
    "Sage": 1,
    "Award": 2,
    "to": 1089,
    "Nov": 11,
    "5": 71,
    "http": 943,
    "/": 3064,
    "tiny": 29,
    "##ur": 58,
    "##l": 323,
    "com": 149,
    "24": 19,
    "##ag": 10,
    "##j": 140,
    "##38": 4,
    "P": 88,
    "##xley": 1,
    "##es": 44,
    "Top": 8,
    "50": 20,
    "Photography": 4,
    "Contest": 2,
    "Pictures": 4,
    "of": 447,
    "August": 6,
    "2010": 44,
    "bit": 187,
    "l": 368,
    "##y": 516,
    "b": 152,
    "##g": 203,
    "##C": 153,
    "##Z": 129,
    "##0": 126,
    "#": 801,
    "photography": 2,
    "today": 237,
    "is": 429,
    "my": 374,
    "day": 291,
    "at": 406,
    "office": 13,
    "4": 91,
    "##D": 214,
    "##bling": 0,
    "place": 18,
    "til": 13,
    "mon": 40,
    "##day": 69,
    ",": 1311,
    "party": 35,
    "&": 327,
    "##t": 525,
    ";": 405,
    "3": 132,
    "watching": 14,
    "V": 50,
    "##MA": 16,
    "pre": 8,
    "-": 731,
    "show": 55,
    "again": 52,
    "lo": 105,
    "it": 506,
    "was": 172,
    "n": 99,
    "t": 941,
    "even": 46,
    "a": 994,
    "good": 89,
    "first": 44,
    "time": 267,
    "so": 170,
    "bored": 6,
    "!": 1614,
    "27": 16,
    "followers": 15,
    "30": 50,
    "goal": 6,
    "This": 56,
    "2nd": 32,
    "hospital": 4,
    "i": 397,
    "##ve": 38,
    "been": 83,
    "in": 586,
    "but": 171,
    "just": 178,
    "seen": 15,
    "doctor": 6,
    "who": 64,
    "an": 86,
    "older": 2,
    "version": 3,
    "##in": 123,
    ")": 389,
    "Friday": 107,
    "Night": 10,
    "Eat": 2,
    "##s": 649,
    "##wi": 62,
    "##pic": 23,
    "2": 196,
    "##p": 338,
    "##d": 218,
    "##v": 166,
    "##tr": 6,
    "Gotta": 8,
    "dress": 5,
    "up": 192,
    "##ndon": 2,
    "fashion": 2,
    "week": 148,
    "and": 610,
    "style": 3,
    "Su": 6,
    "##zie": 3,
    "##55": 5,
    "whispering": 1,
    "cause": 9,
    "may": 156,
    "have": 234,
    "had": 67,
    "1": 125,
    "too": 54,
    "many": 11,
    "vodka": 0,
    "night": 96,
    "am": 197,
    "##il": 27,
    "fragile": 1,
    "hold": 6,
    "me": 306,
    "?": 485,
    "NFL": 4,
    "Week": 25,
    "picks": 2,
    "blog": 13,
    "on": 510,
    "The": 162,
    "_": 364,
    "Score": 2,
    "website": 4,
    "blogs": 4,
    "##sco": 5,
    "##re": 30,
    "##f": 187,
    "09": 15,
    "17": 34,
    "##iz": 17,
    "##zo": 7,
    "##law": 4,
    "##2": 131,
    "like": 132,
    "Soul": 6,
    "##ja": 16,
    "##B": 216,
    "##oy": 9,
    "songs": 5,
    "after": 91,
    "few": 30,
    "drinks": 6,
    "asked": 10,
    "question": 3,
    "once": 10,
    "no": 93,
    "You": 88,
    "ask": 20,
    "about": 101,
    "fucking": 10,
    "don": 84,
    "##uts": 3,
    "you": 641,
    "##ut": 15,
    "nice": 18,
    "every": 41,
    "year": 77,
    "your": 168,
    "\"": 338,
    "best": 28,
    "##friend": 8,
    "get": 182,
    "yo": 15,
    "ass": 13,
    "trouble": 4,
    "##m": 224,
    "##dh": 3,
    "doi": 5,
    "##n": 202,
    "##me": 15,
    "R": 780,
    "##T": 996,
    "mid": 5,
    "##get": 3,
    "##gs": 13,
    "hate": 31,
    "people": 55,
    "write": 9,
    "drunk": 6,
    "status": 5,
    "must": 16,
    "be": 350,
    "having": 18,
    "great": 37,
    "if": 85,
    "sat": 15,
    "writing": 3,
    "face": 19,
    "##book": 3,
    "Mr": 4,
    "##z": 154,
    "##E": 277,
    "##ndy": 2,
    "##ru": 13,
    "le": 15,
    "##avi": 3,
    "Tuesday": 35,
    "guys": 15,
    "are": 124,
    "cooking": 4,
    "dozen": 1,
    "pizza": 4,
    "our": 71,
    "house": 14,
    "tail": 6,
    "##gate": 5,
    "tonight": 214,
    "Nonetheless": 1,
    "smells": 1,
    "fresh": 11,
    "this": 229,
    "heart": 17,
    "Park": 3,
    "(": 229,
    "ing": 4,
    "Day": 69,
    "Photo": 16,
    "meter": 1,
    "shark": 1,
    "##Q": 123,
    "##un": 25,
    "##1": 158,
    "##b": 208,
    "how": 49,
    "everyone": 22,
    "goin": 7,
    "Phoebe": 1,
    "also": 12,
    "loved": 6,
    "years": 67,
    "euro": 1,
    "##vision": 1,
    "entry": 1,
    "hop": 3,
    "##pa": 9,
    "##a": 208,
    "they": 94,
    "were": 40,
    "cool": 17,
    "Metro": 0,
    "##PC": 2,
    "##S": 238,
    "has": 66,
    "worst": 6,
    "customer": 4,
    "service": 7,
    "ve": 67,
    "experienced": 1,
    "months": 16,
    "trying": 12,
    "help": 19,
    "someone": 31,
    "order": 5,
    "phone": 13,
    "metro": 1,
    "##cs": 10,
    "fail": 5,
    "x": 114,
    "##op": 15,
    "##hi": 9,
    "##e": 179,
    "##x": 241,
    "He": 32,
    "habit": 2,
    "##weet": 55,
    "##ing": 116,
    "same": 25,
    "as": 94,
    "T": 189,
    "##R": 222,
    "##UE": 8,
    "friend": 11,
    "walks": 3,
    "when": 301,
    "everybody": 4,
    "else": 10,
    "out": 183,
    "Ya": 11,
    "pen": 3,
    "##guin": 3,
    "coming": 28,
    "see": 81,
    "next": 78,
    "plotting": 2,
    "now": 103,
    "mist": 2,
    "##er": 93,
    "##cor": 6,
    "*": 88,
    "Smile": 1,
    "him": 47,
    "Can": 29,
    "we": 142,
    "sit": 5,
    "together": 7,
    "while": 9,
    "before": 90,
    "round": 9,
    "tears": 2,
    "gone": 12,
    "feeling": 18,
    "still": 45,
    "stay": 17,
    "B": 157,
    "##ie": 53,
    "##ber": 44,
    "##gy": 13,
    "##pt": 14,
    "got": 85,
    "some": 89,
    "news": 10,
    "Yeah": 10,
    "can": 160,
    "come": 59,
    "meeting": 10,
    "tomorrow": 234,
    "S": 142,
    "##med": 2,
    "##ic": 29,
    "missing": 4,
    "autumn": 1,
    "because": 27,
    "work": 68,
    "into": 32,
    "forests": 1,
    "Fell": 2,
    "##as": 48,
    "Do": 22,
    "lick": 3,
    "##uss": 5,
    "##Y": 323,
    "L": 114,
    "##O": 282,
    "##VE": 34,
    "IT": 25,
    "enjoy": 10,
    "u": 192,
    "married": 5,
    "preacher": 2,
    "said": 31,
    "kiss": 5,
    "bride": 2,
    "Sex": 7,
    "##stro": 8,
    "##logy": 9,
    "Pi": 10,
    "##ces": 9,
    "tend": 4,
    "escape": 3,
    "fantasy": 4,
    "dreams": 8,
    "There": 17,
    "free": 26,
    "wait": 37,
    "r": 54,
    "##aven": 4,
    "game": 52,
    "go": 140,
    "ray": 2,
    "rice": 0,
    "took": 25,
    "When": 68,
    "mom": 23,
    "makes": 13,
    "live": 31,
    "with": 228,
    "dad": 18,
    "Sc": 8,
    "##oot": 9,
    "Braun": 0,
    "life": 52,
    "Part": 17,
    "7": 62,
    "Try": 22,
    "##r": 214,
    "miss": 24,
    "being": 23,
    "able": 8,
    "run": 14,
    "dance": 14,
    "around": 27,
    "all": 175,
    "instead": 10,
    "catch": 14,
    "breath": 2,
    "five": 10,
    "minutes": 13,
    "##no": 11,
    "##og": 5,
    "hey": 11,
    "wife": 3,
    "Cat": 2,
    "##h": 177,
    "any": 29,
    "chance": 16,
    "shout": 5,
    "her": 67,
    "Today": 44,
    "promotion": 1,
    "going": 88,
    "home": 51,
    "Wisconsin": 0,
    "days": 73,
    "So": 56,
    "content": 2,
    "right": 39,
    "##W": 222,
    "##EE": 26,
    "##jos": 2,
    "##ep": 6,
    "##hs": 11,
    "Em": 3,
    "##ls": 28,
    "Month": 3,
    "Deborah": 0,
    "Speech": 4,
    "Path": 1,
    "##ologist": 1,
    "Children": 1,
    "Re": 23,
    "##hab": 7,
    "Patricia": 0,
    "M": 76,
    "##fer": 3,
    "##ral": 3,
    "Au": 5,
    "##th": 15,
    "##pec": 4,
    "Women": 3,
    "Care": 3,
    "Lil": 10,
    "##st": 27,
    "want": 64,
    "back": 70,
    "Us": 1,
    "##tre": 6,
    "##am": 35,
    "later": 22,
    "Really": 7,
    "hope": 35,
    "g": 126,
    "##las": 8,
    "##go": 10,
    "##w": 186,
    "##film": 3,
    "Winter": 3,
    "Bone": 0,
    "need": 67,
    "job": 19,
    "applications": 2,
    "then": 48,
    "Trail": 4,
    "##U": 146,
    "##lum": 8,
    "We": 75,
    "##F": 173,
    "##or": 31,
    "##J": 143,
    "##nn": 9,
    "##4": 155,
    "##ee": 38,
    "fun": 25,
    "##nies": 3,
    "photo": 7,
    "AL": 19,
    "##L": 230,
    "##IM": 12,
    "eaten": 3,
    "large": 1,
    "quantity": 1,
    "orange": 1,
    "Bon": 2,
    "##fire": 2,
    "ton": 22,
    "##ite": 22,
    "All": 21,
    "welcome": 6,
    "j": 125,
    "##oe": 19,
    "included": 2,
    "K": 44,
    "##FS": 5,
    "##H": 227,
    "totally": 6,
    "w": 100,
    "o": 104,
    "phones": 1,
    "or": 78,
    "computer": 3,
    "myself": 10,
    "God": 7,
    "Bring": 8,
    "peace": 6,
    "bath": 5,
    "do": 139,
    "shut": 4,
    "sa": 39,
    "##te": 39,
    "tan": 8,
    "##ya": 20,
    "will": 177,
    "10": 72,
    "away": 24,
    "mean": 5,
    "What": 51,
    "F": 146,
    "Rabbi": 1,
    "Before": 10,
    "After": 29,
    "Yo": 12,
    "Ki": 9,
    "##pp": 23,
    "Ask": 5,
    "Five": 7,
    "En": 12,
    "##light": 8,
    "##en": 46,
    "via": 35,
    "SF": 7,
    "##ood": 4,
    "Not": 19,
    "only": 36,
    "Battle": 4,
    "##star": 3,
    "##G": 224,
    "##ala": 10,
    "##ctic": 2,
    "32nd": 2,
    "Anniversary": 7,
    "3rd": 20,
    "season": 21,
    "premiere": 6,
    "Star": 3,
    "##ars": 4,
    "##lone": 1,
    "off": 72,
    "al": 17,
    "##der": 8,
    "##wood": 1,
    "ya": 37,
    "hopefully": 8,
    "co": 543,
    "##dy": 17,
    "##po": 18,
    "mail": 2,
    "##li": 20,
    "##ter": 18,
    "##i": 153,
    "##mei": 3,
    "##je": 19,
    "##ree": 5,
    "net": 5,
    "e": 57,
    "br": 27,
    "##ui": 9,
    "##k": 172,
    "##bar": 5,
    "tip": 5,
    "van": 7,
    "##eman": 3,
    "die": 15,
    "v": 55,
    "##ori": 5,
    "##ge": 10,
    "beg": 6,
    "##on": 72,
    "##nen": 3,
    "met": 9,
    "##hisky": 3,
    "##die": 11,
    "##et": 18,
    "hi": 14,
    "##u": 131,
    "da": 55,
    "##gen": 6,
    "k": 71,
    "Its": 23,
    "stupid": 6,
    "attitude": 1,
    "pp": 13,
    "##us": 29,
    "try": 27,
    "##na": 22,
    "shit": 25,
    "W": 146,
    "##TF": 6,
    "mad": 13,
    "d": 94,
    "##nt": 19,
    "talk": 15,
    "Damn": 8,
    "##een": 15,
    "##uo": 71,
    "##tes": 16,
    "remember": 23,
    "age": 6,
    "##pen": 3,
    "##cer": 0,
    "##ar": 25,
    "##ly": 38,
    "Crazy": 1,
    "Steve": 1,
    "Carly": 0,
    "Megan": 0,
    "Josh": 3,
    "fat": 3,
    "damn": 7,
    "##teen": 3,
    "##q": 122,
    "Last": 9,
    "stop": 17,
    "thank": 12,
    "god": 7,
    "##dd": 11,
    "H": 91,
    "Plus": 2,
    "##RD": 8,
    "##ke": 13,
    "##ving": 5,
    "im": 66,
    "getting": 25,
    "mine": 11,
    "Fan": 2,
    "##cy": 5,
    "##flow": 1,
    "hair": 20,
    "salon": 1,
    "its": 80,
    "packed": 3,
    "ne": 16,
    "##iman": 1,
    "##M": 154,
    "##cus": 2,
    "##20": 19,
    "##3": 126,
    "Where": 4,
    "##have": 1,
    "##su": 7,
    "##per": 8,
    "##power": 2,
    "##ogue": 3,
    "##lam": 5,
    "##GI": 7,
    "##RL": 9,
    "Ah": 13,
    "know": 104,
    "She": 19,
    "simply": 3,
    "Sept": 25,
    "Issue": 1,
    "My": 50,
    "boyfriend": 3,
    "aunt": 3,
    "worked": 1,
    "Anna": 0,
    "Win": 7,
    "##tor": 7,
    "NY": 2,
    "gotta": 9,
    "let": 28,
    "em": 15,
    "stick": 3,
    "lot": 14,
    "showing": 5,
    "their": 44,
    "iPhone": 0,
    "such": 8,
    "really": 50,
    "not": 149,
    "that": 268,
    "interesting": 2,
    "In": 32,
    "##fa": 13,
    "##mous": 1,
    "Kid": 1,
    "always": 34,
    "problems": 3,
    "##thin": 2,
    "didn": 18,
    "cut": 7,
    "ha": 62,
    "For": 31,
    "code": 2,
    "written": 4,
    "since": 22,
    "delay": 3,
    "between": 8,
    "commit": 3,
    "SC": 14,
    "running": 8,
    "hardware": 2,
    "AND": 21,
    "##TH": 18,
    "##ING": 36,
    "YOU": 33,
    "ST": 15,
    "##AN": 25,
    "##OR": 48,
    "##UR": 22,
    "##NS": 4,
    "ON": 26,
    "TO": 54,
    "SP": 7,
    "##IT": 20,
    "##HA": 35,
    "##AP": 13,
    "##P": 141,
    "##EN": 37,
    "##EC": 10,
    "##OM": 17,
    "THE": 32,
    "MA": 19,
    "##IN": 38,
    "##CE": 6,
    "OF": 16,
    "##ER": 34,
    "PA": 15,
    "kids": 16,
    "AC": 2,
    "Large": 1,
    "Group": 1,
    "University": 0,
    "Cathedral": 0,
    "Learning": 0,
    "G": 69,
    "##24": 6,
    "##pm": 40,
    "Be": 25,
    "sure": 29,
    "check": 26,
    "WA": 24,
    "##K": 208,
    "##at": 9,
    "##ta": 30,
    "##cks": 4,
    "follow": 22,
    "already": 29,
    "one": 112,
    "call": 27,
    "thirst": 1,
    "##ma": 50,
    "##o": 224,
    "##ck": 23,
    "team": 16,
    "##kat": 3,
    "##sta": 5,
    "##bit": 3,
    "##ch": 34,
    "them": 52,
    "##aine": 5,
    "Who": 22,
    "Hawaii": 0,
    "chin": 3,
    "##ese": 2,
    "food": 10,
    "arch": 1,
    "##ery": 4,
    "range": 1,
    "either": 3,
    "sun": 41,
    "St": 16,
    "##rig": 3,
    "##bt": 5,
    "ain": 13,
    "##tree": 1,
    "Played": 5,
    "table": 4,
    "tennis": 3,
    "store": 6,
    "impressed": 3,
    "Did": 12,
    "analogue": 2,
    "controller": 2,
    "Lu": 8,
    "Co": 24,
    "##mbs": 1,
    "Fun": 5,
    "thing": 26,
    "heard": 8,
    "Wing": 1,
    "tell": 25,
    "wood": 1,
    "scared": 5,
    "##ow": 28,
    "Cowboy": 2,
    "cheer": 5,
    "went": 19,
    "awful": 6,
    "awesome": 16,
    "moment": 8,
    "realized": 2,
    "did": 36,
    "class": 21,
    "Time": 35,
    "Warner": 0,
    "Cable": 0,
    "Boy": 6,
    "##cott": 3,
    "##pi": 4,
    "Movie": 3,
    "Channel": 2,
    "Because": 2,
    "Deal": 14,
    "With": 14,
    "Netflix": 0,
    "##c": 169,
    "Fresh": 2,
    "ps": 5,
    "##ych": 2,
    "ward": 1,
    "finally": 11,
    "relax": 9,
    "##tter": 14,
    "45": 13,
    "##8": 146,
    "0": 37,
    "hours": 10,
    "49": 9,
    "seconds": 7,
    "Find": 11,
    "yours": 10,
    "se": 27,
    "##oc": 8,
    "##ode": 6,
    "org": 12,
    "##time": 8,
    "pu": 14,
    "##nc": 5,
    "##tu": 18,
    "##ality": 1,
    "used": 9,
    "guy": 11,
    "honestly": 4,
    "haze": 1,
    "Just": 43,
    "surprise": 4,
    "pet": 6,
    "kit": 6,
    "##ten": 3,
    "J": 85,
    "owners": 2,
    "informed": 2,
    "double": 8,
    "##awed": 2,
    "##oly": 3,
    "##da": 19,
    "##ct": 15,
    "##yl": 7,
    "which": 11,
    "form": 7,
    "re": 111,
    "##tar": 15,
    "##dation": 2,
    "animal": 3,
    "kingdom": 2,
    "|": 50,
    "##nd": 17,
    "##ay": 45,
    "De": 19,
    "Way": 3,
    "stores": 7,
    "About": 9,
    "online": 8,
    "diet": 4,
    "##ici": 6,
    "##an": 39,
    "thinner": 2,
    "stool": 2,
    "than": 37,
    "usual": 4,
    "identified": 2,
    "removed": 7,
    "ago": 34,
    "c": 111,
    "##GB": 5,
    "##MB": 7,
    "##ill": 8,
    "##iam": 5,
    "Here": 13,
    "DC": 1,
    "rest": 10,
    "Looking": 6,
    "forward": 11,
    "Yes": 16,
    "sir": 3,
    "big": 25,
    "questions": 3,
    "new": 58,
    "Twitter": 2,
    "PS": 8,
    "ll": 93,
    "responding": 1,
    "his": 61,
    "own": 17,
    "account": 6,
    "Make": 10,
    "##yr": 7,
    "##inge": 1,
    "anything": 10,
    "switch": 3,
    "till": 15,
    "noon": 2,
    "anyone": 14,
    "high": 16,
    "fly": 4,
    "FA": 16,
    "##CT": 5,
    "comfortable": 2,
    "yourself": 12,
    "nothing": 13,
    "matters": 2,
    "nobody": 4,
    "Lindsay": 0,
    "Lo": 23,
    "##han": 6,
    "allegedly": 2,
    "failed": 6,
    "drug": 10,
    "test": 11,
    "fetch": 2,
    "Quick": 4,
    "put": 14,
    "shocked": 2,
    "faces": 8,
    "23": 17,
    "th": 32,
    "##ii": 17,
    "##is": 25,
    "strong": 5,
    "h": 52,
    "##unch": 1,
    "Adam": 0,
    "story": 17,
    "##ulp": 1,
    "##ED": 17,
    "##NE": 15,
    "##SD": 9,
    "N": 57,
    "##ES": 30,
    "CR": 5,
    "UP": 10,
    "AT": 12,
    "VI": 5,
    "##SI": 4,
    "##ON": 44,
    "##UN": 26,
    "##GE": 9,
    "18": 29,
    "+": 29,
    "NO": 18,
    "CO": 21,
    "##LL": 20,
    "##EG": 8,
    "ID": 6,
    "NE": 19,
    "LA": 11,
    "##DI": 4,
    "##RE": 29,
    "11": 36,
    "##PM": 8,
    "247": 1,
    "##ST": 24,
    "HK": 2,
    "angel": 5,
    "##port": 2,
    "##ug": 6,
    "##ues": 8,
    "##ir": 17,
    "Episode": 1,
    "Little": 4,
    "Lia": 0,
    "##rs": 22,
    "air": 8,
    "UK": 2,
    "October": 22,
    "Loser": 2,
    "##face": 1,
    "Laura": 1,
    "mi": 17,
    "lets": 3,
    "might": 19,
    "Such": 3,
    "shiny": 1,
    "morning": 26,
    "Love": 26,
    "Anyway": 2,
    "very": 23,
    "busy": 12,
    "Born": 2,
    "##his": 4,
    "##aby": 8,
    "y": 52,
    "##hu": 10,
    "monster": 3,
    "##love": 10,
    "made": 33,
    "D": 173,
    "Why": 16,
    "somebody": 6,
    "doing": 26,
    "well": 54,
    "say": 49,
    "move": 11,
    "[": 41,
    "Hate": 2,
    "kill": 12,
    "]": 44,
    "cu": 20,
    "loser": 3,
    "If": 45,
    "staying": 5,
    "##aines": 0,
    "##ville": 1,
    "Costa": 2,
    "Lounge": 0,
    "##NI": 20,
    "##HT": 26,
    "Say": 5,
    "ca": 20,
    "##lient": 2,
    "f": 162,
    "##V": 97,
    "##9": 181,
    "jack": 2,
    "##jo": 16,
    "##hn": 11,
    "##son": 9,
    "official": 8,
    "set": 18,
    "list": 14,
    "Berkeley": 0,
    "Oct": 10,
    "6th": 11,
    "Check": 17,
    "video": 26,
    "Three": 3,
    "Days": 5,
    "Grace": 2,
    "Break": 4,
    "Official": 5,
    "Music": 6,
    "Video": 14,
    "HQ": 2,
    "GO": 26,
    "##CL": 6,
    "##tub": 10,
    "Ha": 26,
    "##ha": 69,
    "egg": 2,
    "called": 8,
    "foot": 7,
    "cheese": 2,
    "##rate": 3,
    "found": 19,
    "proper": 5,
    "##lar": 8,
    "##ious": 5,
    "##rida": 43,
    "missions": 1,
    "##gues": 1,
    "school": 63,
    "oh": 33,
    "##22": 9,
    "Hopefully": 3,
    "Force": 3,
    "Padres": 0,
    "win": 22,
    "##ome": 11,
    "##uns": 3,
    "start": 38,
    "old": 24,
    "15": 34,
    "enough": 7,
    "##he": 30,
    "##N": 182,
    "##ear": 8,
    "##est": 17,
    "##xi": 2,
    "er": 5,
    "##sal": 3,
    "Good": 43,
    "Morning": 9,
    "Have": 27,
    "pleasant": 3,
    "happy": 30,
    "##co": 24,
    "##si": 9,
    "##mps": 4,
    "##ams": 4,
    "##rm": 12,
    "Kay": 1,
    "sorry": 10,
    "Well": 20,
    "les": 1,
    "issues": 4,
    "held": 5,
    "knife": 1,
    "##IL": 15,
    "OH": 8,
    "Power": 5,
    "nap": 9,
    "stress": 10,
    "##ful": 12,
    "excited": 30,
    "##mas": 12,
    "##night": 9,
    "9": 82,
    "Wow": 5,
    "saw": 18,
    "pictures": 4,
    "Robert": 0,
    "spent": 7,
    "##roke": 2,
    "perfect": 7,
    "rock": 4,
    "##fu": 8,
    "##cker": 2,
    "##ak": 14,
    "done": 28,
    "leave": 17,
    "alone": 7,
    "regret": 2,
    "Sometimes": 4,
    "something": 36,
    "turn": 12,
    "dumb": 3,
    "things": 18,
    "And": 46,
    "he": 105,
    "pro": 13,
    "##bal": 3,
    "completely": 1,
    "different": 6,
    "Hope": 18,
    "##vin": 10,
    "step": 7,
    "closer": 1,
    "kitchen": 1,
    "chose": 1,
    "maker": 1,
    "measurements": 1,
    "taken": 6,
    "##fo": 25,
    "##lu": 12,
    "coup": 3,
    "##rin": 5,
    "##cess": 1,
    "Please": 10,
    "vote": 3,
    "Pro": 11,
    "Chicago": 1,
    "November": 8,
    "##X": 120,
    "##OL": 47,
    "SA": 8,
    "z": 26,
    "##OT": 21,
    "join": 5,
    "make": 52,
    "Dana": 1,
    "##ni": 15,
    "##lle": 4,
    "wa": 21,
    "##zz": 10,
    "##up": 17,
    "con": 25,
    "##gra": 11,
    "##ts": 24,
    "Terry": 1,
    "##sa": 17,
    "##girl": 10,
    "love": 73,
    "##fy": 6,
    "though": 24,
    "wanna": 20,
    "give": 21,
    "privacy": 1,
    "But": 24,
    "episode": 6,
    "should": 39,
    "One": 17,
    "gonna": 48,
    "slap": 2,
    "Show": 7,
    "Tonight": 20,
    "Local": 2,
    "Native": 0,
    "##ox": 12,
    "##LA": 17,
    "##rim": 1,
    "Club": 4,
    "##oki": 2,
    "Marina": 2,
    "Diamonds": 1,
    "El": 4,
    "##ey": 13,
    "##heat": 2,
    "Mystery": 0,
    "Jets": 0,
    "##rou": 6,
    "##bad": 1,
    "##our": 9,
    "##cene": 1,
    "##eek": 3,
    "##ware": 2,
    "Somehow": 1,
    "##Pad": 6,
    "Air": 3,
    "##plane": 1,
    "mode": 4,
    "problem": 10,
    "connecting": 1,
    "internet": 4,
    "wipe": 1,
    "down": 28,
    "##grade": 1,
    "listened": 3,
    "kid": 7,
    "##apa": 2,
    "won": 20,
    "national": 4,
    "flat": 1,
    "picking": 1,
    "championship": 1,
    "flipping": 1,
    "amazing": 22,
    "au": 3,
    "##gus": 3,
    "rush": 2,
    "##ale": 4,
    "Wanna": 3,
    "meet": 14,
    "##ess": 5,
    "##ej": 2,
    "##ane": 7,
    "##ile": 1,
    "##ys": 15,
    "##tee": 1,
    "##le": 25,
    "ka": 42,
    "##yd": 8,
    "##ross": 0,
    "Come": 21,
    "Body": 1,
    "Heat": 0,
    "signing": 6,
    "Hu": 11,
    "##ler": 3,
    "Hollywood": 0,
    "Sep": 8,
    "23rd": 4,
    "8": 52,
    "##gg": 18,
    "##ress": 3,
    "##ive": 9,
    "Kids": 4,
    "AD": 6,
    "##HD": 3,
    "May": 45,
    "Need": 9,
    "Anti": 4,
    "##psy": 3,
    "##cho": 10,
    "##tic": 6,
    "Me": 20,
    "##ds": 17,
    "Kiss": 2,
    "##AS": 10,
    "birthday": 32,
    "##aka": 7,
    "##lock": 9,
    "##10": 27,
    "##17": 10,
    "GE": 14,
    "106": 6,
    "##OK": 13,
    "AR": 12,
    "Y": 42,
    "##AL": 28,
    "AB": 6,
    "##UT": 38,
    "ME": 32,
    "##I": 121,
    "##KE": 25,
    "SH": 14,
    "##TY": 11,
    "000": 19,
    "##UP": 15,
    "##PL": 7,
    "election": 2,
    "means": 9,
    "head": 18,
    "lots": 8,
    "meetings": 3,
    "shall": 4,
    "tough": 5,
    "looking": 16,
    "Toby": 1,
    "##yme": 1,
    "##hit": 10,
    "##tier": 2,
    "public": 2,
    "bus": 6,
    "C": 47,
    "##iro": 3,
    "month": 22,
    "money": 11,
    "worth": 6,
    "Toy": 0,
    "lawn": 1,
    "Storm": 4,
    "Cal": 2,
    "waiting": 10,
    "extra": 6,
    "##ID": 10,
    "##EA": 36,
    "everything": 18,
    "super": 10,
    "expensive": 2,
    "AAA": 1,
    "##AA": 11,
    "freaking": 2,
    "##out": 13,
    "##kh": 4,
    "laughing": 2,
    "translations": 1,
    "Mark": 2,
    "14": 17,
    "says": 21,
    "crow": 2,
    "never": 27,
    "proud": 5,
    "Dr": 7,
    "##uba": 2,
    "##val": 4,
    "##ua": 11,
    "long": 53,
    "responded": 3,
    "angry": 4,
    "card": 3,
    "##iol": 3,
    "##ogist": 2,
    "whom": 3,
    "known": 6,
    "spit": 2,
    "venom": 2,
    "newspaper": 3,
    "Soo": 4,
    "Glad": 5,
    "Finally": 3,
    "slow": 7,
    "Movies": 2,
    "Is": 31,
    "cricket": 2,
    "killed": 3,
    "20": 36,
    "laundry": 2,
    "room": 10,
    "past": 13,
    "##ian": 6,
    "##nu": 6,
    "##al": 24,
    "Hour": 3,
    "Prayer": 1,
    "Focus": 2,
    "Saturday": 54,
    "13": 17,
    "00": 41,
    "pm": 18,
    "Date": 19,
    "ni": 33,
    "Q": 27,
    "hurt": 7,
    "Apparently": 2,
    "40": 8,
    "hour": 13,
    "min": 11,
    "36": 8,
    "Having": 6,
    "coffee": 4,
    "way": 32,
    "through": 21,
    "wonder": 9,
    "football": 8,
    "forget": 15,
    "wear": 14,
    "glasses": 5,
    "eye": 5,
    "hit": 12,
    "##ice": 4,
    "##dra": 3,
    "##gon": 1,
    "How": 28,
    "updates": 5,
    "created": 2,
    "log": 3,
    "automatically": 2,
    "##dn": 8,
    "##oli": 3,
    "##tics": 1,
    "Al": 5,
    "##ah": 27,
    "##om": 14,
    "Blair": 0,
    "Pope": 0,
    "Brown": 2,
    "sleep": 30,
    "##GS": 2,
    "An": 6,
    "entire": 3,
    "stack": 1,
    "papers": 1,
    "disappeared": 1,
    "think": 63,
    "sign": 3,
    "wrap": 3,
    "Best": 11,
    "pop": 7,
    "##sy": 10,
    "##cle": 2,
    "Vic": 2,
    "##aph": 3,
    "##ad": 16,
    "il": 6,
    "##ike": 8,
    "kn": 9,
    "why": 27,
    "hell": 6,
    "##ht": 8,
    "over": 48,
    "##ean": 3,
    "##mit": 3,
    "##be": 11,
    "q": 67,
    "##ass": 7,
    "ho": 20,
    "Ball": 6,
    "Go": 22,
    "##wn": 7,
    "##coming": 4,
    "Belle": 1,
    "easy": 10,
    "shine": 6,
    "star": 6,
    "basic": 1,
    "tricks": 1,
    "##nce": 4,
    "##ko": 17,
    "##ol": 8,
    "##uz": 5,
    "kinda": 4,
    "corn": 2,
    "##gh": 18,
    "##va": 14,
    "fin": 1,
    "##mma": 6,
    "yelled": 1,
    "Big": 10,
    "X": 41,
    "##hh": 40,
    "dude": 5,
    "choir": 2,
    "teacher": 3,
    "interviewed": 2,
    "gave": 6,
    "us": 48,
    "dig": 7,
    "si": 12,
    "##mm": 20,
    "##ons": 6,
    "##ali": 10,
    "##cious": 8,
    "driving": 10,
    "truck": 8,
    "drinking": 4,
    "Coke": 0,
    "##IA": 6,
    "Mi": 7,
    "Li": 6,
    "##ife": 14,
    "##ize": 5,
    "##oll": 7,
    "##ns": 5,
    "##oo": 70,
    "##osh": 7,
    "##num": 1,
    "##fan": 9,
    "okay": 11,
    "works": 4,
    "##SU": 6,
    "##PP": 6,
    "##BI": 8,
    "##BE": 10,
    "##au": 12,
    "##ra": 14,
    "##the": 14,
    "##ny": 14,
    "book": 15,
    "missed": 10,
    "800": 3,
    "miles": 2,
    "clients": 1,
    "ACC": 1,
    "candidate": 2,
    "commissioner": 1,
    "press": 4,
    "release": 5,
    "making": 12,
    "PR": 11,
    "##IC": 17,
    "##EL": 11,
    "battle": 3,
    "song": 5,
    "Brothers": 2,
    "sisters": 2,
    "war": 4,
    "##RA": 20,
    "O": 85,
    "~": 27,
    "shoe": 2,
    "##box": 10,
    "Happy": 41,
    "Birthday": 11,
    "what": 83,
    "Doc": 0,
    "Lewis": 1,
    "Fantasy": 1,
    "##ro": 25,
    "offers": 1,
    "100": 17,
    "%": 25,
    "Match": 3,
    "$": 62,
    "credits": 1,
    "each": 10,
    "refer": 1,
    "Must": 5,
    "deposit": 1,
    "by": 91,
    "ET": 3,
    "Sunday": 90,
    "19th": 2,
    "neck": 1,
    "hurts": 4,
    "schedule": 4,
    "##cup": 2,
    "##cture": 1,
    "massage": 1,
    "##bie": 22,
    "Step": 3,
    "##ever": 6,
    "##idge": 1,
    "would": 57,
    "mind": 12,
    "##yk": 2,
    "##aling": 1,
    "sleeve": 1,
    "shirt": 7,
    "##pe": 15,
    "tall": 0,
    "ship": 0,
    "Silva": 0,
    "Still": 6,
    "tickets": 5,
    "available": 5,
    "Rain": 4,
    "ready": 31,
    "sail": 1,
    "103": 4,
    "PM": 47,
    "depart": 1,
    "Ho": 10,
    "Lin": 6,
    "##do": 19,
    "Per": 5,
    "Un": 10,
    "Touch": 2,
    "Abu": 1,
    "##rri": 2,
    "##mie": 9,
    "##nto": 2,
    "Playboy": 0,
    "Slovenia": 2,
    "##ne": 24,
    "138": 4,
    "pages": 3,
    "PDF": 3,
    "39": 11,
    "##ted": 10,
    "City": 3,
    "Z": 33,
    "Host": 1,
    "By": 10,
    "Beautiful": 7,
    "Ladies": 7,
    "##cco": 2,
    "##unts": 1,
    "Pay": 2,
    "##able": 4,
    "Coordinator": 1,
    "North": 1,
    "York": 2,
    "37": 3,
    "Con": 14,
    "##tract": 1,
    "Location": 1,
    "Toronto": 0,
    "Ontario": 0,
    "CA": 11,
    "##NA": 10,
    "##DA": 43,
    "##7": 140,
    "jobs": 5,
    "##pent": 2,
    "##king": 4,
    "##ret": 5,
    "##ting": 7,
    "Some": 3,
    "pick": 11,
    "slack": 2,
    "Belfast": 0,
    "weekend": 38,
    "Bo": 11,
    "##tani": 0,
    "Taste": 1,
    "drink": 9,
    "painting": 2,
    "etc": 2,
    "Should": 8,
    "Sa": 18,
    "Sun": 14,
    "overheard": 1,
    "subway": 1,
    "elbows": 1,
    "sweat": 3,
    "happens": 8,
    "##ram": 3,
    "turns": 9,
    "bites": 2,
    "stand": 4,
    "despite": 2,
    "Getting": 6,
    "##eva": 1,
    "##tin": 16,
    "##und": 3,
    "##ert": 6,
    "##hed": 2,
    "##ry": 20,
    "Own": 1,
    "Trying": 2,
    "info": 8,
    "town": 9,
    "##and": 18,
    "##LC": 1,
    "##lot": 4,
    "##hing": 8,
    "Easy": 3,
    "tally": 1,
    "##uise": 3,
    "ill": 8,
    "window": 5,
    "dressed": 2,
    "##lut": 4,
    "##zy": 16,
    "girl": 14,
    "rather": 3,
    "##ast": 11,
    "##ory": 1,
    "wrote": 7,
    "74": 1,
    "words": 6,
    "February": 25,
    "##ho": 20,
    "##heist": 3,
    "choose": 7,
    "moral": 3,
    "##rre": 6,
    "frowning": 3,
    "child": 7,
    "abuse": 3,
    "wit": 12,
    "please": 22,
    "hurry": 3,
    "##jon": 20,
    "##ev": 5,
    "Concert": 5,
    "control": 4,
    "Charles": 0,
    "charge": 1,
    "def": 3,
    "##OS": 11,
    "##man": 16,
    "##tha": 3,
    "##aa": 26,
    "Up": 13,
    "du": 4,
    "early": 17,
    "##RI": 32,
    "83": 1,
    "##ib": 5,
    "black": 10,
    "##hol": 5,
    "##ida": 6,
    "National": 4,
    "she": 52,
    "speed": 3,
    "##13": 13,
    "Hmm": 4,
    "maybe": 15,
    "download": 3,
    "movie": 12,
    "Zombie": 2,
    "Nice": 6,
    "Florida": 0,
    "heat": 2,
    "Oscar": 1,
    "favorite": 11,
    "pass": 4,
    "fast": 13,
    "end": 20,
    "another": 17,
    "yelling": 2,
    "##uh": 12,
    "##eria": 1,
    "##tric": 1,
    "reflect": 1,
    "working": 11,
    "hearts": 3,
    "acts": 1,
    "Jewish": 2,
    "friends": 26,
    "ones": 7,
    "##sp": 9,
    "##ame": 7,
    "##lea": 2,
    "##se": 9,
    "ye": 22,
    "1st": 48,
    "Presbyterian": 0,
    "take": 31,
    "moments": 3,
    "research": 3,
    "answer": 2,
    "IS": 17,
    "Java": 1,
    "##key": 8,
    "GT": 1,
    "Jan": 45,
    "Brewer": 0,
    "##head": 4,
    "##ings": 5,
    "##BM": 3,
    "sense": 1,
    "real": 12,
    "trauma": 2,
    "often": 2,
    "drain": 1,
    "energy": 5,
    "withdraw": 1,
    "##ka": 18,
    "##mo": 20,
    "##27": 5,
    "short": 14,
    "experience": 3,
    "en": 29,
    "##tend": 3,
    "intended": 2,
    "dinner": 14,
    "Man": 14,
    "swear": 6,
    "bought": 7,
    "outfits": 1,
    "cold": 6,
    "dresses": 2,
    "worn": 1,
    "Hugh": 0,
    "Don": 23,
    "##vy": 3,
    "pots": 1,
    "intricate": 1,
    "illuminated": 1,
    "Persian": 1,
    "books": 7,
    "Fi": 6,
    "##tz": 5,
    "##will": 3,
    "Greek": 2,
    "Festival": 7,
    "Johns": 0,
    "AS": 8,
    "Bel": 4,
    "##bin": 1,
    "##ina": 5,
    "##MG": 22,
    "MI": 9,
    "##ION": 3,
    "repeat": 2,
    "yesterday": 23,
    "lesson": 1,
    "hang": 8,
    "##za": 8,
    "Going": 12,
    "ate": 2,
    "Whitney": 0,
    "three": 8,
    "John": 5,
    "##ort": 3,
    "tea": 5,
    "anxiety": 1,
    "far": 11,
    "haven": 14,
    "panic": 2,
    "attack": 4,
    "Home": 11,
    "Online": 2,
    "6": 53,
    "End": 19,
    "U": 44,
    "##AV": 14,
    "EA": 3,
    "##RP": 4,
    "##SS": 17,
    "DR": 4,
    "##VI": 11,
    "##NG": 21,
    "Excuse": 6,
    "SM": 6,
    "Now": 18,
    "##shi": 6,
    "##down": 11,
    "Ghost": 2,
    "##vent": 2,
    "##ures": 2,
    "starts": 14,
    "paranormal": 1,
    "fire": 8,
    "man": 28,
    "##rill": 3,
    "under": 9,
    "unit": 1,
    "On": 28,
    "happier": 4,
    "note": 4,
    "Katie": 1,
    "Work": 8,
    "They": 19,
    "mood": 8,
    "due": 10,
    "##eel": 4,
    "##ong": 6,
    "Melbourne": 1,
    "##omo": 1,
    "##rrow": 1,
    "##ona": 4,
    "##bro": 8,
    "##ther": 2,
    "concert": 18,
    "crazy": 16,
    "ch": 35,
    "##ica": 3,
    "Hey": 13,
    "there": 88,
    "Woman": 6,
    "anymore": 3,
    "Gen": 5,
    "##uin": 3,
    "Will": 10,
    "seeing": 10,
    "type": 3,
    "##amo": 5,
    "##eau": 4,
    "##ty": 22,
    "happening": 3,
    "Fly": 1,
    "##igh": 2,
    "cough": 2,
    "##mot": 2,
    "wishing": 1,
    "except": 1,
    "bi": 16,
    "##eb": 18,
    "##ers": 15,
    "##wa": 9,
    "##lie": 3,
    "word": 16,
    "believe": 17,
    "doesn": 12,
    "look": 30,
    "library": 3,
    "closes": 2,
    "##ff": 16,
    "son": 9,
    "##ng": 23,
    "goes": 15,
    "rich": 0,
    "##mond": 1,
    "##rons": 4,
    "mess": 6,
    "eternal": 2,
    "Great": 12,
    "##bu": 9,
    "##isch": 1,
    "gets": 17,
    "FF": 14,
    "##wes": 7,
    "half": 17,
    "yes": 20,
    "Coca": 2,
    "##ine": 8,
    "##os": 25,
    "Money": 5,
    "That": 23,
    "Other": 2,
    "Shit": 1,
    "Winner": 2,
    "chosen": 1,
    "Monday": 44,
    "Get": 18,
    "cap": 3,
    "##tion": 13,
    "funny": 8,
    "contest": 3,
    "Na": 10,
    "##dal": 4,
    "Novak": 0,
    "tub": 4,
    "Thanksgiving": 3,
    "eating": 6,
    "unless": 2,
    "dishes": 2,
    "Let": 22,
    "road": 3,
    "inscribed": 1,
    "##mar": 14,
    "Cha": 4,
    "##ti": 16,
    "##mah": 2,
    "To": 16,
    "##ip": 6,
    "##pur": 2,
    "57": 5,
    "Called": 1,
    "door": 3,
    "could": 31,
    "Secrets": 0,
    "Thursday": 19,
    "Hood": 1,
    "##ats": 5,
    "##eed": 3,
    "##ove": 13,
    "Twins": 1,
    "Vikings": 0,
    "Lights": 1,
    "Joe": 1,
    "##ien": 3,
    "##kowski": 1,
    "harsh": 1,
    "remind": 3,
    "true": 6,
    "nature": 2,
    "came": 15,
    "person": 4,
    "Jesus": 0,
    "Christ": 0,
    "Over": 8,
    "House": 3,
    "Toni": 4,
    "Thing": 2,
    "##RT": 9,
    "##ssa": 1,
    "Mir": 1,
    "jam": 5,
    "##lo": 21,
    "##but": 6,
    "##ban": 3,
    "##oka": 3,
    "per": 13,
    "eh": 3,
    "##vu": 3,
    "Teen": 3,
    "waking": 6,
    "middle": 4,
    "knowing": 3,
    "more": 62,
    "teen": 2,
    "##thing": 3,
    "##with": 7,
    "summer": 9,
    "bed": 16,
    "##quin": 1,
    "images": 2,
    "fan": 10,
    "##pop": 5,
    "photos": 8,
    "390": 1,
    "##00": 9,
    "Edward": 1,
    "virgin": 1,
    "series": 2,
    "##37": 4,
    "##64": 5,
    "510": 1,
    "75": 2,
    "##5": 122,
    "Samuel": 0,
    "##vo": 5,
    "##fair": 1,
    "Williams": 0,
    "Po": 9,
    "##bell": 1,
    "Lincoln": 0,
    "IL": 3,
    "##MF": 5,
    "##gi": 10,
    "rising": 1,
    "senior": 1,
    "Op": 6,
    "##rah": 4,
    "Leadership": 2,
    "Academy": 1,
    "##onia": 1,
    "##dea": 3,
    "##dly": 3,
    "www": 20,
    "watch": 22,
    "IN": 15,
    "##IF": 7,
    "comment": 2,
    "sub": 3,
    "##cribe": 3,
    "##eu": 7,
    "##6": 102,
    "glass": 5,
    "waves": 4,
    "flu": 5,
    "##ffy": 1,
    "powder": 1,
    "neither": 4,
    "New": 32,
    "Post": 3,
    "Bey": 0,
    "##ce": 17,
    "Am": 7,
    "Yours": 2,
    "Play": 6,
    "##list": 6,
    "Featured": 1,
    "##VO": 2,
    "Live": 10,
    "pat": 3,
    "##ate": 7,
    "ma": 62,
    "di": 25,
    "ou": 4,
    "thought": 14,
    "##ede": 2,
    "##rsen": 0,
    "Hang": 0,
    "##ela": 2,
    "Fulham": 0,
    "##burn": 4,
    "##rove": 1,
    "Vin": 1,
    "##tage": 2,
    "sports": 4,
    "cars": 4,
    "capture": 1,
    "earlier": 7,
    "##BO": 7,
    "classic": 3,
    "left": 15,
    "lost": 13,
    "Michael": 0,
    "forever": 5,
    "Vanessa": 2,
    "##SC": 6,
    "Ok": 6,
    "Look": 3,
    "post": 20,
    "math": 2,
    "games": 10,
    "site": 5,
    "smart": 1,
    "##board": 3,
    "##MX": 1,
    "##hane": 3,
    "##eil": 1,
    "Another": 8,
    "skating": 2,
    "starting": 8,
    "##illa": 2,
    "ice": 8,
    "la": 26,
    "##tte": 4,
    "##lix": 5,
    "##46": 6,
    "##OH": 4,
    "dislike": 1,
    "Early": 3,
    "Decision": 1,
    "most": 20,
    "Action": 2,
    "thoughtfully": 1,
    "admissions": 1,
    "colleges": 1,
    "fed": 1,
    "jail": 4,
    "terms": 1,
    "probation": 1,
    "##UI": 7,
    "case": 9,
    "laid": 1,
    "##oi": 9,
    "Twenty": 2,
    "Seven": 1,
    "##par": 5,
    "parents": 4,
    "homework": 6,
    "learned": 5,
    "overnight": 3,
    "##hey": 2,
    "##OW": 28,
    "batteries": 1,
    "remote": 1,
    "dead": 6,
    "push": 2,
    "buttons": 2,
    "harder": 1,
    "Si": 7,
    "##TI": 17,
    "courtesy": 5,
    "talking": 6,
    "Ra": 3,
    "##sha": 6,
    "No": 41,
    "cares": 2,
    "Rap": 2,
    "##ig": 6,
    "##udi": 0,
    "happen": 11,
    "musical": 3,
    "personal": 4,
    "city": 5,
    "##of": 8,
    "##cal": 4,
    "##gar": 5,
    "Free": 13,
    "swimming": 2,
    "golf": 4,
    "Sports": 3,
    "Canada": 0,
    "nuts": 2,
    "##hell": 1,
    "##bus": 1,
    "blind": 2,
    "##ducing": 1,
    "teachers": 1,
    "##away": 3,
    "##att": 6,
    "##lly": 8,
    "##hil": 4,
    "##llin": 1,
    "skin": 3,
    "##blin": 1,
    "nose": 1,
    "lush": 3,
    "keep": 9,
    "hurting": 2,
    "feelings": 6,
    "Chin": 2,
    "##AM": 12,
    "un": 24,
    "##rac": 1,
    "##tive": 2,
    "underway": 2,
    "Anything": 1,
    "fair": 4,
    "radio": 9,
    "##oa": 9,
    "##UC": 20,
    "5000": 1,
    "Amazon": 1,
    "Off": 9,
    "##ering": 3,
    "##TC": 2,
    "Desire": 0,
    "Watching": 3,
    "Room": 0,
    "fifth": 1,
    "Tommy": 0,
    "##seau": 0,
    "genius": 1,
    "##room": 5,
    "##mmy": 3,
    "##wise": 1,
    "CH": 14,
    "Da": 15,
    "##ught": 3,
    "knew": 2,
    "joke": 4,
    "##FL": 3,
    "posted": 6,
    "Sorry": 9,
    "##ou": 22,
    "MR": 2,
    "##PR": 6,
    "##ET": 17,
    "##KA": 4,
    "##ND": 14,
    "##azi": 1,
    "ii": 4,
    "DE": 17,
    "agree": 2,
    "##enia": 1,
    "85": 3,
    "##row": 5,
    "performing": 2,
    "somewhere": 4,
    "July": 12,
    "practice": 9,
    "##ish": 5,
    "Nothing": 2,
    "su": 13,
    "sake": 1,
    "fix": 3,
    "Summer": 4,
    "innocent": 2,
    "Wake": 2,
    "September": 25,
    "ends": 5,
    "Recording": 1,
    "vocals": 1,
    "bout": 8,
    "##gie": 5,
    "actress": 3,
    "Every": 5,
    "seven": 1,
    "lose": 6,
    "replace": 3,
    "Maybe": 8,
    "##pu": 9,
    "##ary": 5,
    "unemployed": 1,
    "wrestler": 2,
    "act": 6,
    "total": 3,
    "tool": 1,
    "##py": 7,
    "Jess": 0,
    "##um": 24,
    "Question": 2,
    "te": 23,
    "side": 4,
    "##kick": 1,
    "Yesterday": 5,
    "results": 3,
    "##rog": 7,
    "mm": 2,
    "##eo": 5,
    "##oh": 15,
    "##hee": 4,
    "ah": 17,
    "troll": 1,
    "spell": 1,
    "prop": 1,
    "##ud": 4,
    "hard": 16,
    "inspired": 2,
    "yet": 20,
    "share": 6,
    "testimony": 1,
    "underwater": 1,
    "brought": 2,
    "AG": 10,
    "Jennifer": 1,
    "##nist": 1,
    "quote": 2,
    "##gio": 1,
    "looks": 11,
    "63": 8,
    "##av": 9,
    "wore": 1,
    "socks": 2,
    "second": 12,
    "row": 1,
    "##IP": 6,
    "##od": 23,
    "##iac": 13,
    "##acts": 13,
    "As": 16,
    "find": 22,
    "thoughts": 3,
    "racing": 2,
    "Ely": 1,
    "Mat": 1,
    "##ern": 2,
    "##ity": 6,
    "wish": 11,
    "Ka": 9,
    "##sper": 1,
    "##van": 3,
    "de": 34,
    "theater": 2,
    "##tour": 3,
    "##nde": 1,
    "##gt": 6,
    "##iet": 2,
    "##jn": 1,
    "pan": 4,
    "##ok": 14,
    "op": 5,
    "##ium": 1,
    "Ko": 8,
    "Gary": 1,
    "hot": 9,
    "Lady": 1,
    "Gaga": 2,
    "##25": 6,
    "record": 6,
    "save": 7,
    "much": 41,
    "heading": 5,
    "Grand": 1,
    "Ma": 7,
    "##sque": 2,
    "##rade": 2,
    "Carolyn": 2,
    "##pin": 11,
    "##ion": 6,
    "oldest": 2,
    "soap": 2,
    "54": 6,
    "##LD": 8,
    "stopped": 5,
    "turning": 3,
    "million": 9,
    "viewers": 3,
    "virtual": 2,
    "##tti": 3,
    "interviews": 1,
    "wanted": 8,
    "Full": 8,
    "goodness": 6,
    "Claire": 1,
    "does": 12,
    "least": 11,
    "Thanks": 21,
    "Inner": 2,
    "##izer": 5,
    "##rez": 5,
    "##rl": 10,
    "##ated": 2,
    "##joy": 5,
    "safe": 5,
    "Jenny": 1,
    "##eron": 1,
    "##has": 2,
    "posed": 1,
    "Our": 16,
    "Favorite": 10,
    "YouTube": 3,
    "Drama": 8,
    "Edition": 9,
    "Had": 13,
    "epic": 8,
    "melt": 6,
    "cry": 11,
    "##yt": 12,
    "##hr": 23,
    "shift": 4,
    "Oh": 21,
    "Jersey": 0,
    "Shore": 0,
    "current": 1,
    "plan": 9,
    "shelves": 1,
    "holds": 1,
    "bookstore": 2,
    "Rep": 3,
    "##lace": 3,
    "##ment": 9,
    "Animal": 2,
    "rescue": 2,
    "##IG": 15,
    "##US": 27,
    "##ae": 5,
    "##IS": 20,
    "SE": 13,
    "##KS": 8,
    "##EF": 9,
    "##AT": 15,
    "##istic": 2,
    "nightmare": 1,
    "##itte": 1,
    "attendance": 2,
    "discover": 3,
    "car": 12,
    "plastic": 1,
    "Apple": 1,
    "Il": 5,
    "##uli": 6,
    "cook": 3,
    "thanks": 11,
    "port": 1,
    "##ava": 1,
    "##ffe": 2,
    "cow": 3,
    "##kers": 5,
    "pleased": 3,
    "shooting": 4,
    "emails": 2,
    "Greatest": 3,
    "seems": 7,
    "against": 16,
    "airplane": 3,
    "takes": 11,
    "wind": 4,
    "pink": 4,
    "##bi": 4,
    "##ker": 5,
    "##ph": 11,
    "Working": 3,
    "BA": 12,
    "130": 1,
    "##nso": 1,
    "More": 33,
    "secrets": 1,
    "Copa": 3,
    "##lem": 5,
    "##AR": 22,
    "##WA": 7,
    "##LT": 9,
    "art": 5,
    "At": 12,
    "Tomorrow": 25,
    "Fuck": 8,
    "##we": 17,
    "Ch": 5,
    "##ea": 11,
    "Cho": 1,
    "##osy": 1,
    "##tted": 2,
    "Di": 18,
    "##aper": 1,
    "Review": 2,
    "##if": 2,
    "##ger": 7,
    "Clark": 0,
    "Duke": 0,
    "##ath": 4,
    "watched": 4,
    "machine": 1,
    "Funny": 4,
    "film": 5,
    "Quite": 3,
    "enjoyable": 1,
    "Want": 6,
    "floor": 2,
    "police": 3,
    "##hem": 1,
    "during": 19,
    "incident": 1,
    "dragon": 1,
    "couldn": 7,
    "notice": 2,
    "uncomfortable": 1,
    "walk": 7,
    "guessing": 2,
    "##rf": 5,
    "##vid": 4,
    "white": 4,
    "boy": 13,
    "wasted": 6,
    "USA": 2,
    "recognizes": 1,
    "##cognition": 1,
    "##isi": 5,
    "read": 15,
    "President": 3,
    "Any": 5,
    "##body": 2,
    "waits": 1,
    "until": 26,
    "##FT": 6,
    "item": 3,
    "scanned": 1,
    "calculated": 1,
    "Visa": 0,
    "##ima": 2,
    "##rte": 3,
    "##ll": 31,
    "index": 1,
    "##hp": 6,
    "wonderful": 10,
    "better": 36,
    "Te": 9,
    "##mpest": 1,
    "considered": 1,
    "oil": 2,
    "dirty": 2,
    "Joaquin": 0,
    "Phoenix": 0,
    "Modern": 2,
    "Andy": 0,
    "Kaufman": 0,
    "bizarre": 2,
    "events": 4,
    "leading": 2,
    "##DE": 10,
    "##OD": 13,
    "##MM": 7,
    "##SE": 9,
    "Uh": 1,
    "Looks": 6,
    "leaving": 9,
    "Inspired": 2,
    "##ob": 21,
    "little": 20,
    "Strike": 1,
    "reverse": 2,
    "##ld": 5,
    "##hl": 5,
    "##ss": 20,
    "##ind": 4,
    "##ex": 8,
    "##finger": 1,
    "##int": 5,
    "##hea": 3,
    "^": 9,
    "10th": 4,
    "##ji": 8,
    "England": 0,
    "Think": 4,
    "Tell": 3,
    "Punch": 1,
    "Line": 3,
    "Wrong": 1,
    "point": 3,
    "mobile": 2,
    "exactly": 4,
    "Sophie": 2,
    "Cause": 3,
    "suck": 3,
    "bowler": 2,
    "##hat": 11,
    "##lover": 1,
    "Been": 6,
    "copy": 3,
    "##stal": 1,
    "##gia": 1,
    "##llis": 1,
    "##fra": 2,
    "##mpt": 1,
    "uk": 4,
    "listening": 6,
    "lies": 2,
    "truth": 2,
    "Corey": 1,
    "##lor": 4,
    "##ock": 4,
    "Chinese": 3,
    "##ver": 14,
    "foolish": 3,
    "brilliant": 3,
    "##point": 5,
    "tag": 2,
    "Round": 5,
    "##house": 4,
    "formal": 1,
    "##ities": 3,
    "photograph": 2,
    "midway": 2,
    "lights": 2,
    "casually": 1,
    "stalking": 2,
    "Cheryl": 0,
    "Der": 0,
    "Rob": 2,
    "Also": 5,
    "Matt": 2,
    "saying": 5,
    "##RO": 17,
    "##corn": 3,
    "Constitution": 3,
    "Matters": 1,
    "Things": 3,
    "Contact": 2,
    "Professional": 2,
    "##grapher": 1,
    "liked": 7,
    "possibly": 4,
    "Alright": 2,
    "add": 7,
    "pin": 6,
    "22": 19,
    "##AF": 2,
    "##36": 6,
    "80": 7,
    "started": 13,
    "videos": 5,
    "sharing": 1,
    "menu": 1,
    "play": 26,
    "##yo": 12,
    "##food": 4,
    "##ico": 4,
    "##tta": 2,
    "##berries": 1,
    "honey": 3,
    "cc": 5,
    "Danielle": 1,
    "tied": 1,
    "5th": 11,
    "band": 6,
    "compete": 2,
    "South": 0,
    "107": 0,
    "Band": 1,
    "spot": 6,
    "open": 12,
    "##cu": 7,
    "joined": 2,
    "sweet": 8,
    "Dave": 0,
    "gives": 4,
    "sport": 1,
    "##19": 14,
    "Hell": 1,
    "Schedule": 2,
    "Unless": 1,
    "##ust": 11,
    "tired": 24,
    "seem": 8,
    "awake": 5,
    "Cancer": 2,
    "Due": 4,
    "paid": 3,
    "Better": 5,
    "##ix": 8,
    "nine": 1,
    "AN": 9,
    "##date": 3,
    "Report": 3,
    "##ailed": 4,
    "Her": 2,
    "Drug": 4,
    "Test": 3,
    "##lated": 1,
    "Resources": 1,
    "inspiration": 3,
    "95": 4,
    "Morgan": 0,
    "Le": 11,
    "Fay": 0,
    "##say": 5,
    "US": 7,
    "reported": 2,
    "##nk": 8,
    "wearing": 7,
    "Weekend": 6,
    "Football": 7,
    "sad": 6,
    "Mouth": 1,
    "Ai": 1,
    "##ani": 8,
    "##flower": 2,
    "##12": 13,
    "ordered": 5,
    "CD": 4,
    "idea": 8,
    "Political": 2,
    "Wire": 1,
    "Bonus": 3,
    "favourite": 4,
    "knit": 2,
    "babies": 1,
    "Nope": 3,
    "##my": 17,
    "##line": 11,
    "##chi": 5,
    "##ller": 1,
    "##ich": 4,
    "##gu": 11,
    "Queen": 3,
    "insists": 1,
    "cigarettes": 1,
    "Holy": 1,
    "##roo": 0,
    "##ouse": 3,
    "staff": 4,
    "smile": 17,
    "raised": 1,
    "eyebrow": 1,
    "##ot": 10,
    "easier": 1,
    "##uk": 6,
    "picture": 8,
    "Ad": 8,
    "Dry": 2,
    "shape": 3,
    "red": 4,
    "##rots": 1,
    "##lla": 4,
    "surprised": 3,
    "sent": 5,
    "request": 2,
    "hadn": 1,
    "ta": 21,
    "##ked": 3,
    "address": 5,
    "##lma": 1,
    "##rt": 16,
    "Trey": 1,
    "suppose": 3,
    "##ryl": 0,
    "deck": 2,
    "##yn": 4,
    "##ave": 4,
    "Jo": 14,
    "##les": 8,
    "##bian": 1,
    "teams": 5,
    "everyday": 7,
    "confirmed": 3,
    "Jorge": 0,
    "playing": 15,
    "Devils": 0,
    "Art": 5,
    "Words": 2,
    "Wine": 1,
    "Aye": 4,
    "modern": 3,
    "##paper": 1,
    "##des": 4,
    "##abulous": 3,
    "##pet": 3,
    "split": 1,
    "San": 1,
    "Mateo": 0,
    "magazine": 1,
    "article": 4,
    "rumor": 1,
    "touch": 3,
    "dear": 4,
    "##load": 2,
    "##rr": 10,
    "prefer": 1,
    "GA": 3,
    "announcement": 1,
    "recording": 2,
    "soon": 14,
    "fans": 13,
    "Listen": 3,
    "28": 18,
    "retrospective": 1,
    "Hal": 1,
    "franchise": 4,
    "along": 8,
    "load": 2,
    "other": 26,
    "drive": 4,
    "bug": 0,
    "ji": 6,
    "group": 8,
    "##una": 3,
    "##hala": 1,
    "Anyone": 6,
    "times": 11,
    "smoke": 4,
    "hook": 3,
    "mix": 2,
    "cm": 4,
    "center": 1,
    "##rb": 11,
    "Willow": 0,
    "Smith": 0,
    "Mama": 1,
    "Benjamin": 0,
    "##ton": 7,
    "disease": 1,
    "##OP": 15,
    "##GA": 10,
    "Sarah": 2,
    "Jessica": 1,
    "Parker": 0,
    "Gwen": 0,
    "Stefan": 0,
    "##rap": 7,
    "Success": 2,
    "Fashion": 8,
    "filmed": 1,
    "sex": 7,
    "##log": 10,
    "##sh": 22,
    "##TL": 2,
    "##tra": 4,
    "supposed": 9,
    "rain": 15,
    "Bay": 0,
    "weather": 6,
    "shower": 6,
    "Whatever": 1,
    "Sony": 5,
    "Bud": 3,
    "Light": 11,
    "3D": 4,
    "parties": 5,
    "Auburn": 0,
    "es": 7,
    "Abby": 0,
    "##dre": 7,
    "##ake": 13,
    "##hic": 3,
    "##ks": 10,
    "actually": 15,
    "##had": 5,
    "##ija": 1,
    "##ent": 6,
    "##ini": 5,
    "##ws": 11,
    "Ni": 3,
    "##bs": 19,
    "front": 8,
    "Watch": 4,
    "##ader": 1,
    "example": 5,
    "Raven": 1,
    "##laws": 1,
    "spoke": 4,
    "##rook": 1,
    "7th": 7,
    "Business": 3,
    "Alliance": 0,
    "importantly": 1,
    "match": 2,
    "##kt": 4,
    "matter": 6,
    "Kim": 3,
    "##berley": 1,
    "DVD": 5,
    "Out": 7,
    "25th": 7,
    "Sea": 0,
    "##hawk": 0,
    "dirt": 1,
    "##bag": 3,
    "celebrating": 3,
    "meaningful": 1,
    "##about": 1,
    "##birth": 1,
    "##con": 7,
    "##tro": 6,
    "Late": 7,
    "respect": 1,
    "des": 3,
    "##bish": 3,
    "pretty": 16,
    "borne": 2,
    "replies": 2,
    "complete": 6,
    "blank": 3,
    "clay": 1,
    "##yx": 4,
    "##BA": 12,
    "Ohio": 2,
    "coach": 4,
    "Frank": 0,
    "Sol": 1,
    "knows": 6,
    "special": 8,
    "Long": 10,
    "Always": 4,
    "wondered": 1,
    "species": 1,
    "highest": 5,
    "bio": 2,
    "##mass": 1,
    "Nat": 2,
    "##act": 4,
    "world": 22,
    "term": 5,
    "##ites": 2,
    "##wei": 2,
    "##che": 9,
    "##ap": 8,
    "##shot": 1,
    "DJ": 5,
    "Mai": 4,
    "Tai": 2,
    "Beach": 0,
    "considering": 3,
    "##IE": 9,
    "tie": 3,
    "Bye": 2,
    "French": 2,
    "IV": 2,
    "embarrassed": 1,
    "BP": 1,
    "##ada": 4,
    "##cki": 2,
    "##90": 3,
    "wedding": 2,
    "studio": 2,
    "couple": 8,
    "##nx": 2,
    "These": 2,
    "normally": 3,
    "poor": 3,
    "Probably": 6,
    "goodbye": 1,
    "##ura": 2,
    "##bla": 1,
    "worse": 3,
    "WWE": 1,
    "ONE": 3,
    "##VS": 1,
    "David": 1,
    "##ema": 4,
    "Like": 11,
    "Radio": 4,
    "##trar": 1,
    "##ens": 3,
    "Science": 5,
    "##ingham": 0,
    "probe": 1,
    "remarkable": 2,
    "##TT": 7,
    "##BR": 9,
    "wished": 2,
    "Dad": 1,
    "Legend": 1,
    "88": 4,
    "visit": 7,
    "quiet": 2,
    "##cha": 12,
    "##rra": 2,
    "Harrison": 0,
    "guess": 7,
    "Told": 4,
    "scheduled": 5,
    "pay": 5,
    "weak": 2,
    "Yu": 2,
    "##ub": 8,
    "feel": 36,
    "sheer": 1,
    "bliss": 1,
    "ever": 24,
    "cute": 9,
    "comes": 14,
    "##icles": 3,
    "Cooper": 0,
    "Welcome": 1,
    "dart": 1,
    "##hine": 1,
    "Okay": 6,
    "shopping": 4,
    "lunch": 9,
    "dream": 13,
    "six": 4,
    "buy": 10,
    "##ball": 3,
    "##oon": 7,
    "##ight": 11,
    "eagle": 2,
    "##CC": 3,
    "##AD": 12,
    "##wig": 2,
    "##gas": 2,
    "plans": 10,
    "Bet": 1,
    "Elements": 0,
    "##uff": 9,
    "Said": 2,
    "Paul": 1,
    "##ones": 4,
    "del": 8,
    "##oso": 1,
    "Your": 17,
    "shrink": 1,
    "temporarily": 1,
    "extending": 1,
    "Bush": 0,
    "tax": 6,
    "cuts": 2,
    "slips": 1,
    "Was": 8,
    "mother": 4,
    "further": 2,
    "##more": 2,
    "appointment": 3,
    "Kent": 0,
    "college": 3,
    "tuition": 1,
    "average": 1,
    "salary": 1,
    "insane": 1,
    "##uke": 3,
    "##ym": 9,
    "##oor": 3,
    "Dear": 6,
    "rape": 2,
    "##fs": 8,
    "##tars": 3,
    "##tron": 1,
    "##omer": 2,
    "##ith": 2,
    "##ord": 7,
    "broadcasters": 1,
    "Moon": 4,
    "viewing": 1,
    "##DF": 3,
    "##cas": 1,
    "impression": 1,
    "80s": 2,
    "NYC": 1,
    "Central": 1,
    "dark": 5,
    "lucky": 6,
    "alive": 4,
    "Katherine": 1,
    "renew": 2,
    "luck": 13,
    "Tom": 6,
    "##ise": 3,
    "Brazil": 0,
    "actor": 4,
    "Knight": 0,
    "fuck": 11,
    "eyes": 9,
    "line": 8,
    "full": 15,
    "##uc": 5,
    "offer": 2,
    "advice": 1,
    "Sunshine": 0,
    "rent": 1,
    "surfing": 1,
    "fishing": 2,
    "##bing": 2,
    "fall": 11,
    "Rod": 0,
    "##ant": 5,
    "##com": 10,
    "##As": 8,
    "##xy": 4,
    "Chelsea": 1,
    "Hand": 2,
    "##ren": 6,
    "Gemini": 2,
    "##eg": 6,
    "##ating": 5,
    "responsibilities": 1,
    "Lissa": 1,
    "breathe": 3,
    "##ingly": 1,
    "Torre": 0,
    "Dodgers": 0,
    "manager": 2,
    "sitting": 3,
    "water": 11,
    "arm": 5,
    "rebel": 1,
    "care": 11,
    "##less": 19,
    "careful": 2,
    "daughter": 2,
    "##orn": 6,
    "movies": 5,
    "##wind": 1,
    "immediately": 1,
    "puts": 3,
    "clothes": 3,
    "Ta": 8,
    "##kin": 8,
    "##pine": 1,
    "tight": 2,
    "beach": 3,
    "sand": 4,
    "forgot": 5,
    "Pure": 1,
    "##rage": 1,
    "bright": 7,
    "yellow": 1,
    "blue": 7,
    "Vegas": 0,
    "Starting": 1,
    "##hand": 5,
    "third": 5,
    "mac": 3,
    "##well": 2,
    "landed": 1,
    "anybody": 2,
    "##kening": 1,
    "thinking": 9,
    "rocking": 1,
    "part": 8,
    "##TE": 30,
    "##MS": 3,
    "violating": 1,
    "##rdes": 1,
    "##air": 5,
    "##aj": 4,
    "##de": 17,
    "kinds": 2,
    "reactions": 1,
    "verdict": 1,
    "enjoying": 2,
    "wine": 4,
    "##udge": 2,
    "delivery": 2,
    "showed": 4,
    "##ca": 13,
    "Brian": 2,
    "Isn": 1,
    "hear": 6,
    "compliment": 1,
    "stranger": 1,
    "outfit": 3,
    "walked": 1,
    "Black": 7,
    "##hawks": 0,
    "general": 2,
    "Stan": 0,
    "Bowman": 0,
    "##risto": 0,
    "NHL": 1,
    "smiling": 2,
    "beautiful": 8,
    "Very": 2,
    "articles": 3,
    "publishing": 1,
    "afraid": 2,
    "Ju": 7,
    "event": 8,
    "delayed": 1,
    "prostitute": 1,
    "##ung": 10,
    "jump": 4,
    "common": 2,
    "cost": 1,
    "rubber": 1,
    "breaks": 3,
    "screwed": 1,
    "Kristen": 0,
    "fixed": 1,
    "Feeling": 3,
    "offices": 1,
    "kick": 7,
    "AM": 51,
    "##eric": 1,
    "flight": 3,
    "pants": 5,
    "shorts": 4,
    "officially": 4,
    "pump": 1,
    "beers": 1,
    "##CM": 8,
    "enter": 8,
    "speak": 7,
    "crap": 5,
    "MC": 2,
    "Cricket": 2,
    "##ul": 4,
    "wickets": 1,
    "Pakistan": 0,
    "beat": 7,
    "##uters": 1,
    "Um": 3,
    "boilers": 0,
    "tasting": 3,
    "Sick": 3,
    "Rowan": 0,
    "Novel": 0,
    "##HL": 5,
    "##name": 2,
    "##rave": 2,
    "sky": 1,
    "##ki": 16,
    "##ris": 13,
    "##hame": 1,
    "##lis": 4,
    "phenomena": 1,
    "fact": 3,
    "##11": 9,
    "##far": 2,
    "Text": 2,
    "messages": 2,
    "##rem": 5,
    "##lins": 5,
    "Keep": 4,
    "proceed": 2,
    "caution": 1,
    "midnight": 5,
    "talent": 2,
    "agreed": 3,
    "statement": 4,
    "caught": 5,
    "flag": 1,
    "##ged": 1,
    "Christmas": 11,
    "##nta": 3,
    "26": 14,
    "##rom": 4,
    "task": 1,
    "##real": 5,
    "500": 8,
    "plane": 1,
    "chapter": 3,
    "CE": 2,
    "##LE": 13,
    "##mber": 9,
    "trip": 9,
    "##riz": 3,
    "upper": 2,
    "##case": 3,
    "##ec": 10,
    "##ines": 4,
    "##pas": 1,
    "##tom": 2,
    "pig": 2,
    "##ata": 5,
    "##ack": 8,
    "Eli": 1,
    "##16": 2,
    "140": 3,
    "##hou": 5,
    "auction": 1,
    "Dream": 3,
    "##rg": 10,
    "Lodge": 0,
    "bra": 7,
    "##ised": 1,
    "##ri": 22,
    "##bo": 12,
    "squash": 1,
    "##ott": 2,
    "##du": 14,
    "marketing": 3,
    "##it": 22,
    "girlfriend": 4,
    "##group": 1,
    "##hay": 2,
    "##den": 5,
    "##imo": 1,
    "##ols": 3,
    "##tered": 1,
    "unsure": 1,
    "Haven": 2,
    "slept": 2,
    "decided": 6,
    "filming": 4,
    "##fic": 5,
    "##ryn": 3,
    "Session": 1,
    "sunny": 1,
    "Major": 3,
    "giving": 6,
    "Tex": 1,
    "##ade": 7,
    "##dos": 3,
    "Came": 1,
    "##ttle": 0,
    "Bit": 3,
    "Val": 0,
    "##ba": 12,
    "93": 2,
    "top": 10,
    "Buy": 4,
    "99": 5,
    "##hout": 5,
    "Harry": 5,
    "##ei": 8,
    "following": 10,
    "##emon": 2,
    "Trust": 3,
    "bringing": 2,
    "music": 16,
    "pure": 2,
    "freestyle": 2,
    "Moe": 1,
    "Plan": 6,
    "Baseball": 1,
    "Hit": 3,
    "##roach": 2,
    "Flame": 1,
    "select": 2,
    "league": 3,
    "baseball": 2,
    "Follow": 15,
    "##ez": 5,
    "scouts": 1,
    "necessary": 3,
    "listen": 6,
    "lyrics": 3,
    "##ucci": 1,
    "nod": 1,
    "##res": 4,
    "##pect": 6,
    "fights": 1,
    "shoes": 4,
    "exercise": 3,
    "Miss": 5,
    "TV": 7,
    "Mixed": 2,
    "Ba": 9,
    "##anda": 4,
    "##ido": 1,
    "##see": 1,
    "shattered": 1,
    "lay": 1,
    "##oz": 5,
    "amusing": 3,
    "dozens": 1,
    "journalists": 1,
    "##cin": 2,
    "Even": 6,
    "Led": 1,
    "##hos": 4,
    "led": 1,
    "delicious": 2,
    "foreign": 1,
    "borrow": 1,
    "single": 6,
    "disturb": 1,
    "fl": 8,
    "##ook": 3,
    "##olar": 1,
    "Bear": 1,
    "##H1": 3,
    "Tunnel": 1,
    "Carnegie": 1,
    "##rae": 1,
    "Aberdeen": 1,
    "breaking": 2,
    "yoga": 4,
    "##ved": 3,
    "##mont": 1,
    "Frost": 1,
    "effect": 1,
    "##tl": 6,
    "Alt": 2,
    "includes": 1,
    "gym": 7,
    "facial": 2,
    "##uy": 8,
    "driver": 2,
    "VIP": 2,
    "##ME": 12,
    "##oth": 5,
    "stumble": 1,
    "both": 6,
    "learn": 7,
    "mistakes": 1,
    "Facebook": 0,
    "Job": 8,
    "Hunting": 2,
    "Branch": 2,
    "Rai": 2,
    "##ses": 4,
    "Million": 2,
    "##cc": 5,
    "##el": 9,
    "Super": 11,
    "Angels": 1,
    "##ole": 4,
    "across": 3,
    "London": 3,
    "killer": 4,
    "##work": 2,
    "blown": 2,
    "OR": 2,
    "dam": 1,
    "##yan": 3,
    "Republic": 0,
    "excuse": 1,
    "goddamn": 1,
    "banjo": 2,
    "##BL": 10,
    "##NU": 2,
    "Guitar": 2,
    "##ews": 5,
    "Rock": 5,
    "Read": 6,
    "17th": 5,
    "Less": 6,
    "Articles": 2,
    "##ln": 3,
    "Information": 2,
    "Underground": 2,
    "para": 3,
    "##so": 8,
    "##fast": 1,
    "##ado": 3,
    "prospects": 1,
    "##gat": 1,
    "##ran": 9,
    "FDA": 1,
    "##ests": 1,
    "##fi": 6,
    "##ote": 2,
    "mouth": 4,
    "hand": 6,
    "bag": 6,
    "##ism": 1,
    "##color": 1,
    "Bad": 8,
    "##lex": 2,
    "##ander": 1,
    "sighs": 1,
    "Study": 3,
    "exam": 1,
    "##LS": 4,
    "text": 15,
    "arrive": 4,
    "##ew": 9,
    "drop": 8,
    "Ben": 1,
    "##rch": 3,
    "Tim": 1,
    "##mer": 3,
    "likelihood": 1,
    "detail": 1,
    "##ual": 5,
    "summit": 1,
    "blur": 1,
    "without": 8,
    "makeup": 2,
    "punch": 1,
    "wrong": 12,
    "Know": 1,
    "walls": 1,
    "##tore": 3,
    "reason": 7,
    "dog": 3,
    "comfort": 2,
    "Author": 1,
    "Unknown": 1,
    "##ste": 3,
    "company": 6,
    "generating": 1,
    "sales": 6,
    "bring": 10,
    "training": 3,
    "speaker": 1,
    "media": 4,
    "Under": 2,
    "headline": 4,
    "China": 0,
    "needs": 5,
    "elaborate": 1,
    "Robin": 2,
    "ban": 2,
    "##smo": 5,
    "Pat": 2,
    "Ten": 4,
    "##to": 17,
    "##iff": 3,
    "##rax": 1,
    "suffered": 1,
    "era": 3,
    "##SM": 2,
    "popularity": 1,
    "est": 9,
    "##ia": 21,
    "##yi": 4,
    "admit": 2,
    "Alex": 2,
    "sounds": 5,
    "talks": 1,
    "span": 1,
    "Alejandro": 0,
    "Cover": 2,
    "depends": 3,
    "Leo": 2,
    "##mp": 17,
    "Lions": 0,
    "Change": 3,
    "Plans": 1,
    "Glover": 0,
    "farmers": 1,
    "market": 9,
    "favorites": 2,
    "flavor": 1,
    "Kathy": 1,
    "freedom": 1,
    "California": 0,
    "Die": 3,
    "##cci": 1,
    "##dent": 1,
    "Hours": 1,
    "Class": 7,
    "court": 5,
    "fitted": 1,
    "forgotten": 3,
    "register": 2,
    "fitting": 1,
    "##ops": 5,
    "Turn": 2,
    "##dock": 2,
    "##ett": 3,
    "Although": 3,
    "probably": 9,
    "figure": 3,
    "fore": 4,
    "##runch": 1,
    "##em": 11,
    "##14": 11,
    "##coach": 1,
    "##ney": 6,
    "Nina": 0,
    "Sweet": 6,
    "surprises": 1,
    "Mandy": 0,
    "Mile": 0,
    "upgrade": 2,
    "Real": 10,
    "##hali": 3,
    "smacked": 1,
    "Link": 3,
    "Ever": 3,
    "##rat": 1,
    "##ched": 3,
    "Fe": 5,
    "IF": 10,
    "hands": 5,
    "dying": 1,
    "definitely": 8,
    "gloves": 1,
    "planet": 4,
    "##ward": 7,
    "USS": 1,
    "##utt": 5,
    "##ky": 9,
    "Ana": 3,
    "Loyola": 0,
    "Alexei": 0,
    "Philadelphia": 0,
    "Eagles": 1,
    "Donovan": 0,
    "##ab": 6,
    "trade": 3,
    "less": 12,
    "##af": 7,
    "##eli": 4,
    "##ai": 7,
    "##aro": 3,
    "##tos": 2,
    "Milk": 1,
    "Cory": 1,
    "##rar": 1,
    "positive": 4,
    "buddy": 2,
    "medicine": 1,
    "these": 15,
    "afternoon": 8,
    "##ivers": 0,
    "Pink": 2,
    "rapper": 2,
    "rap": 2,
    "actual": 3,
    "##NT": 15,
    "##rimal": 0,
    "##coe": 1,
    "##das": 1,
    "##rama": 1,
    "Taking": 2,
    "Names": 1,
    "67": 1,
    "223": 4,
    "59": 5,
    "##id": 5,
    "##ding": 2,
    "Elgin": 0,
    "Wild": 1,
    "##cat": 1,
    "Stadium": 0,
    "straight": 3,
    "losses": 2,
    "##dates": 1,
    "##hon": 3,
    "Euro": 2,
    "##VP": 4,
    "celebrates": 1,
    "Year": 11,
    "Promotion": 1,
    "VP": 3,
    "steal": 3,
    "##ron": 8,
    "##urn": 4,
    "stairwell": 1,
    "##fly": 4,
    "told": 7,
    "anyway": 5,
    "Past": 1,
    "gross": 1,
    "family": 8,
    "##awa": 1,
    "##over": 6,
    "awards": 2,
    "boss": 3,
    "sound": 5,
    "2002": 1,
    "##lik": 4,
    "rocky": 0,
    "horror": 0,
    "stock": 5,
    "##ender": 1,
    "tuned": 1,
    "Herb": 0,
    "Freddie": 0,
    "##end": 2,
    "##all": 5,
    "enjoyed": 4,
    "tour": 2,
    "coaches": 1,
    "escort": 1,
    "Chapel": 0,
    "Hill": 1,
    "Small": 2,
    "Tech": 7,
    "Tour": 7,
    "Launch": 3,
    "##IR": 13,
    "features": 5,
    "America": 3,
    "##MP": 6,
    "Pre": 10,
    "##venting": 1,
    "Public": 3,
    "Health": 2,
    "Disaster": 1,
    "##ump": 5,
    "Earlier": 1,
    "Commissioner": 1,
    "Margaret": 0,
    "Hamburg": 1,
    "present": 4,
    "Eye": 0,
    "##ope": 6,
    "##ner": 4,
    "vs": 13,
    "##yers": 2,
    "##uid": 3,
    "##dit": 6,
    "cheap": 3,
    "##oom": 3,
    "Rams": 2,
    "Ari": 3,
    "romance": 4,
    "taking": 8,
    "chances": 4,
    "exploring": 3,
    "keeping": 5,
    "import": 1,
    "within": 3,
    "##lect": 3,
    "##ronic": 2,
    "basically": 3,
    "email": 9,
    "##erina": 2,
    "##aker": 2,
    "location": 2,
    "theory": 1,
    "somehow": 1,
    "Larry": 0,
    "Bird": 0,
    "bending": 1,
    "changed": 5,
    "reduce": 1,
    "required": 1,
    "provide": 3,
    "solutions": 1,
    "##ash": 3,
    "auto": 3,
    "##ening": 1,
    "SD": 1,
    "saves": 2,
    "steps": 1,
    "links": 1,
    "48": 4,
    "bell": 1,
    "mansion": 0,
    "Coffee": 1,
    "lake": 1,
    "tram": 6,
    "##pled": 6,
    "Justin": 3,
    "##iu": 13,
    "wake": 12,
    "##ze": 7,
    "##ju": 9,
    "bumper": 1,
    "Faye": 0,
    "County": 0,
    "death": 3,
    "Hello": 4,
    "##chel": 1,
    "##by": 10,
    "Pick": 3,
    "Del": 2,
    "##iver": 1,
    "Dayton": 0,
    "NJ": 1,
    "Metal": 0,
    "##tain": 1,
    "Mickey": 2,
    "Rourke": 2,
    "58": 4,
    "tumbled": 2,
    "##omb": 2,
    "cigarette": 2,
    "##ih": 3,
    "##hua": 4,
    "puppy": 3,
    "Companies": 1,
    "fixing": 1,
    "wholly": 1,
    "fault": 1,
    "calling": 1,
    "insult": 1,
    "injury": 1,
    "clearly": 2,
    "Stop": 4,
    "Then": 4,
    "Service": 3,
    "Drive": 1,
    "Window": 1,
    "chill": 6,
    "winning": 3,
    "respected": 1,
    "##uki": 2,
    "mg": 6,
    "##oing": 3,
    "soul": 2,
    "##boy": 8,
    "##tel": 3,
    "##ga": 18,
    "Blessed": 1,
    "exact": 2,
    "tee": 5,
    "shows": 9,
    "hood": 3,
    "##ies": 12,
    "jeans": 3,
    "##ledge": 2,
    "Old": 4,
    "Baby": 3,
    "Hip": 4,
    "Stephen": 0,
    "Intel": 1,
    "##hes": 1,
    "bet": 6,
    "design": 4,
    "covers": 3,
    "judge": 3,
    "cover": 3,
    "par": 4,
    "twin": 2,
    "eat": 11,
    "glad": 8,
    "males": 1,
    "cross": 2,
    "legs": 2,
    "Got": 7,
    "Fall": 0,
    "baby": 17,
    "##old": 3,
    "RA": 5,
    "##CH": 3,
    "paradise": 1,
    "Princess": 0,
    "Lover": 0,
    "##VA": 9,
    "tease": 1,
    "yeah": 19,
    "Benedict": 0,
    "Henry": 0,
    "Newman": 0,
    "toward": 3,
    "saint": 1,
    "##hood": 1,
    "XVI": 0,
    "Jim": 0,
    "sorting": 1,
    "pope": 1,
    "##rming": 1,
    "##ham": 6,
    "stuff": 12,
    "ok": 13,
    "assignment": 2,
    "medical": 2,
    "illustration": 1,
    "surgeon": 1,
    "##ple": 3,
    "##FF": 4,
    "dare": 1,
    "bitch": 4,
    "waste": 2,
    "clown": 1,
    "web": 5,
    "##cam": 3,
    "enters": 1,
    "kisses": 2,
    "##bers": 1,
    "born": 7,
    "rainy": 1,
    "heaven": 1,
    "crying": 3,
    "##ynn": 3,
    "##cial": 1,
    "Ex": 13,
    "##clusive": 1,
    "King": 4,
    "Obama": 3,
    "##are": 3,
    "Tea": 2,
    "Party": 6,
    "inclusion": 1,
    "Amendment": 2,
    "Beauty": 4,
    "den": 6,
    "##tist": 3,
    "lady": 4,
    "spilling": 1,
    "chair": 2,
    "Lou": 1,
    "Ling": 1,
    "##erie": 1,
    "four": 5,
    "##ring": 7,
    "##GP": 4,
    "##isco": 0,
    "Jun": 2,
    "##iper": 0,
    "route": 1,
    "largest": 2,
    "wireless": 2,
    "61": 2,
    "resting": 3,
    "##rock": 7,
    "appreciate": 1,
    "condom": 1,
    "cheaper": 1,
    "guns": 1,
    "##OX": 6,
    "interview": 3,
    "shoot": 8,
    "Marie": 0,
    "Clair": 0,
    "##EM": 9,
    "Sleeping": 2,
    "smaller": 4,
    "##TU": 2,
    "iTunes": 1,
    "##dr": 3,
    "ash": 2,
    "##brook": 1,
    "nasty": 2,
    "##rist": 6,
    "truly": 2,
    "Hat": 1,
    "##ties": 0,
    "##burg": 0,
    "Lots": 2,
    "19": 14,
    "arts": 1,
    "BBC": 3,
    "##adi": 3,
    "somewhat": 1,
    "##zzi": 2,
    "##ac": 8,
    "##vance": 2,
    "mark": 5,
    "anniversary": 4,
    "##cula": 0,
    "elsewhere": 1,
    "throughout": 2,
    "region": 1,
    "marked": 1,
    "Honor": 1,
    "Double": 1,
    "##ao": 6,
    "Bloom": 0,
    "daughters": 2,
    "stage": 4,
    "pulling": 1,
    "approaching": 2,
    "##page": 2,
    "Tri": 1,
    "Paris": 0,
    "loves": 2,
    "##cite": 4,
    "Town": 0,
    "worry": 4,
    "country": 5,
    "religion": 2,
    "marginal": 1,
    "##ized": 2,
    "printed": 1,
    "anywhere": 1,
    "ring": 4,
    "usually": 5,
    "confirm": 1,
    "Nokia": 0,
    "580": 0,
    "tried": 7,
    "##bet": 2,
    "##ener": 0,
    "entirely": 1,
    "felt": 2,
    "thou": 1,
    "soccer": 1,
    "leads": 2,
    "scores": 4,
    "princess": 2,
    "filled": 2,
    "2d": 3,
    "name": 10,
    "sister": 4,
    "##ates": 2,
    "Dog": 2,
    "Food": 3,
    "brands": 1,
    "social": 6,
    "networks": 1,
    "Face": 2,
    "late": 17,
    "Peace": 3,
    "green": 1,
    "##zone": 1,
    "sharks": 0,
    "bench": 2,
    "Thought": 3,
    "Rocks": 1,
    "unseen": 2,
    "##47": 6,
    "##la": 15,
    "holy": 3,
    "##how": 4,
    "06": 15,
    "08": 18,
    "104": 2,
    "##ark": 7,
    "51": 4,
    "##wai": 1,
    "Marcus": 0,
    "Bentley": 0,
    "##maker": 2,
    "##take": 3,
    "id": 2,
    "cutting": 3,
    "close": 12,
    "Fed": 0,
    "demo": 2,
    "Passion": 1,
    "##art": 7,
    "##EI": 3,
    "Ann": 2,
    "##nces": 2,
    "Release": 5,
    "Net": 0,
    "##WS": 4,
    "Simon": 0,
    "Schuster": 0,
    "announced": 5,
    "March": 13,
    "Mac": 3,
    "##bee": 1,
    "##ods": 1,
    "birds": 2,
    "jealous": 2,
    "##ush": 3,
    "##lay": 9,
    "stars": 3,
    "##rie": 3,
    "Sometime": 1,
    "beginning": 1,
    "Eastern": 0,
    "Bloc": 0,
    "kicking": 1,
    "using": 3,
    "asking": 2,
    "##esta": 3,
    "##ley": 11,
    "##inn": 4,
    "forms": 1,
    "ale": 6,
    "##als": 3,
    "##hin": 3,
    "##mb": 8,
    "##ling": 6,
    "##ps": 16,
    "messed": 3,
    "Of": 9,
    "course": 5,
    "stunned": 2,
    "##mate": 1,
    "object": 1,
    "Mosque": 1,
    "Trip": 4,
    "Through": 1,
    "Islamic": 1,
    "bathroom": 2,
    "##used": 2,
    "##tok": 2,
    "##lus": 7,
    "##rough": 3,
    "##ody": 3,
    "##im": 12,
    "minute": 1,
    "##vable": 2,
    "sin": 3,
    "Thank": 10,
    "wasn": 11,
    "expecting": 1,
    "84": 2,
    "##ken": 3,
    "##eld": 1,
    "##cht": 2,
    "gel": 1,
    "##oof": 2,
    "##aar": 3,
    "##itz": 3,
    "##ending": 1,
    "##mist": 2,
    "##rand": 2,
    "Marcel": 1,
    "##az": 5,
    "honest": 2,
    "##red": 3,
    "##ator": 1,
    "##48": 7,
    "children": 5,
    "WR": 2,
    "##nda": 3,
    "Redskins": 1,
    "major": 1,
    "##nel": 2,
    "##gna": 1,
    "##bb": 4,
    "Dollar": 4,
    "steady": 3,
    "versus": 3,
    "wary": 3,
    "intervention": 3,
    "dollar": 3,
    "near": 8,
    "respond": 2,
    "##ami": 2,
    "##IVE": 7,
    "##MO": 8,
    "16": 21,
    "##men": 4,
    "element": 1,
    "database": 3,
    "flash": 3,
    "Security": 1,
    "Are": 8,
    "##hall": 1,
    "##wan": 2,
    "##udo": 2,
    "fox": 2,
    "##cot": 3,
    "##30": 8,
    "##nge": 5,
    "##coat": 1,
    "##rump": 2,
    "bloody": 2,
    "##ging": 5,
    "suggest": 2,
    "Gay": 2,
    "##oss": 4,
    "##lop": 1,
    "slightly": 3,
    "requests": 1,
    "wouldn": 5,
    "stops": 3,
    "33": 6,
    "##yper": 1,
    "##39": 5,
    "TD": 3,
    "Jake": 0,
    "##nea": 4,
    "##ino": 3,
    "tastes": 1,
    "especially": 1,
    "laugh": 10,
    "##hom": 4,
    "##mor": 5,
    "##ning": 6,
    "woke": 3,
    "Gonna": 9,
    "study": 5,
    "exams": 1,
    "examinations": 1,
    "Performing": 2,
    "Student": 2,
    "Centre": 1,
    "Centennial": 0,
    "College": 2,
    "Progress": 0,
    "Campus": 0,
    "Scarborough": 0,
    "##sai": 1,
    "Punk": 1,
    "knocks": 1,
    "ground": 2,
    "steals": 2,
    "purse": 2,
    "41": 9,
    "##15": 23,
    "Dancing": 0,
    "Copenhagen": 0,
    "Album": 3,
    "choice": 4,
    "fits": 1,
    "perfectly": 2,
    "##ggle": 1,
    "Layla": 2,
    "Irish": 1,
    "programme": 3,
    "##fight": 1,
    "gate": 1,
    "##ddy": 2,
    "jar": 4,
    "##let": 9,
    "concerts": 3,
    "kings": 0,
    "queen": 1,
    "##ifications": 2,
    "##alo": 3,
    "rat": 6,
    "##tle": 6,
    "##nac": 3,
    "greatest": 5,
    "hasn": 5,
    "tapping": 2,
    "gods": 4,
    "shining": 4,
    "##mic": 2,
    "Sleep": 3,
    "See": 11,
    "bye": 2,
    "Daisy": 1,
    "##age": 7,
    "##ci": 6,
    "##ist": 6,
    "Answer": 3,
    "Heart": 2,
    "##ick": 9,
    "##eor": 1,
    "##dam": 2,
    "82": 2,
    "young": 7,
    "suit": 1,
    "25": 27,
    "##ydro": 1,
    "dancing": 1,
    "Echo": 0,
    "Use": 4,
    "Shopping": 3,
    "##33": 7,
    "Next": 13,
    "Gardens": 0,
    "joining": 4,
    "forces": 1,
    "Zhou": 1,
    "##aret": 2,
    "##TR": 3,
    "Mrs": 2,
    "##vie": 3,
    "hanging": 3,
    "annoying": 2,
    "race": 3,
    "kind": 6,
    "helps": 3,
    "human": 1,
    "##mper": 4,
    "##fect": 3,
    "dated": 1,
    "Shut": 1,
    "JR": 4,
    "Train": 4,
    "HC": 0,
    "People": 7,
    "##ilia": 3,
    "Years": 1,
    "Most": 3,
    "lucrative": 1,
    "search": 2,
    "products": 3,
    "CB": 4,
    "mall": 6,
    "church": 4,
    "challenge": 3,
    "encounter": 1,
    "hilt": 0,
    "blow": 2,
    "camera": 5,
    "earn": 2,
    "feed": 2,
    "Ali": 3,
    "Ain": 1,
    "Carole": 1,
    "##ubi": 1,
    "Model": 1,
    "Right": 2,
    "##ous": 3,
    "##sef": 0,
    "War": 2,
    "became": 2,
    "chief": 1,
    "minister": 1,
    "Civil": 0,
    "April": 12,
    "business": 6,
    "productive": 4,
    "Iron": 2,
    "isn": 11,
    "Babe": 1,
    "##IX": 2,
    "##NC": 8,
    "##mos": 3,
    "hub": 4,
    "##bari": 1,
    "##ssing": 1,
    "##rium": 1,
    "ticket": 3,
    "##land": 7,
    "Observatory": 0,
    "extended": 1,
    "demand": 1,
    "sell": 2,
    "##sdale": 2,
    "##ppe": 1,
    "##iger": 1,
    "Chi": 6,
    "##21": 6,
    "pierced": 1,
    "WHO": 4,
    "Cobra": 1,
    "##mand": 2,
    "precious": 2,
    "collapse": 2,
    "pair": 1,
    "contributed": 1,
    "downfall": 1,
    "Count": 2,
    "smiles": 1,
    "Lennon": 0,
    "quotes": 1,
    "traveling": 1,
    "knee": 1,
    "surgery": 4,
    "##aq": 2,
    "Chile": 0,
    "Mike": 2,
    "Davis": 0,
    "Texas": 0,
    "wide": 5,
    "receiver": 1,
    "ruled": 1,
    "##lya": 1,
    "Arizona": 0,
    "##hy": 3,
    "##gal": 3,
    "sly": 1,
    "hat": 3,
    "##boe": 1,
    "##ms": 7,
    "##erd": 1,
    "toe": 2,
    "##ilo": 1,
    "##iel": 3,
    "begin": 4,
    "##kill": 1,
    "vacation": 4,
    "Cebu": 0,
    "roommate": 1,
    "boxers": 1,
    "rules": 5,
    "Whole": 2,
    "##zed": 0,
    "##fused": 0,
    "rooftop": 1,
    "plaza": 1,
    "30th": 4,
    "cosmic": 2,
    "##ble": 5,
    "Edmonton": 0,
    "dealers": 1,
    "raise": 1,
    "320": 1,
    "Special": 5,
    "Olympics": 1,
    "Yi": 0,
    "Journal": 0,
    "03": 18,
    "##llo": 2,
    "##ue": 6,
    "rejects": 1,
    "global": 2,
    "warming": 1,
    "favors": 1,
    "climate": 1,
    "disruption": 1,
    "Platinum": 1,
    "Games": 1,
    "Van": 1,
    "##quis": 0,
    "Xbox": 1,
    "360": 3,
    "##ail": 4,
    "author": 1,
    "##CP": 5,
    "##iture": 1,
    "crew": 2,
    "##TV": 5,
    "Start": 4,
    "##XT": 8,
    "Dub": 1,
    "##eat": 3,
    "gossip": 2,
    "reporters": 2,
    "latest": 5,
    "loose": 1,
    "lips": 4,
    "ball": 4,
    "lovely": 10,
    "##cate": 1,
    "bid": 1,
    "##dies": 1,
    "##inger": 4,
    "obsession": 3,
    "##tah": 1,
    "print": 1,
    "march": 3,
    "##nation": 1,
    "##working": 1,
    "##her": 6,
    "tackles": 1,
    "intent": 1,
    "lack": 2,
    "Colin": 0,
    "Bill": 0,
    "##iard": 0,
    "##ita": 2,
    "celebrate": 9,
    "toast": 2,
    "##uche": 1,
    "##ov": 3,
    "##lich": 0,
    "uses": 1,
    "language": 2,
    "##ask": 3,
    "##ept": 1,
    "nickname": 1,
    "looked": 2,
    "theatre": 1,
    "snap": 1,
    "##ye": 8,
    "##llow": 5,
    "##sad": 2,
    "##dress": 2,
    "Game": 9,
    "##former": 0,
    "corrected": 1,
    "label": 1,
    "printing": 2,
    "rocket": 1,
    "moon": 1,
    "##cis": 3,
    "um": 5,
    "low": 7,
    "main": 2,
    "##ara": 4,
    "##oro": 4,
    "secretly": 3,
    "serious": 3,
    "##dell": 1,
    "grin": 2,
    "##ore": 2,
    "##yle": 3,
    "engagement": 1,
    "Ke": 4,
    "delighted": 1,
    "worried": 5,
    "initial": 1,
    "muted": 1,
    "response": 1,
    "Finn": 1,
    "Feel": 1,
    "Hurt": 1,
    "hungry": 2,
    "Taliban": 2,
    "##won": 4,
    "##mat": 2,
    "##32": 4,
    "Celebration": 1,
    "shaken": 1,
    "ought": 1,
    "##ins": 3,
    "Conan": 0,
    "Jack": 4,
    "Mostly": 2,
    "clear": 3,
    "Sunny": 1,
    "86": 1,
    "Pet": 2,
    "Spa": 3,
    "Event": 3,
    "##green": 0,
    "Sub": 0,
    "##aru": 1,
    "##wall": 2,
    "fails": 2,
    "reports": 1,
    "Several": 1,
    "websites": 1,
    "##ans": 6,
    "##hal": 2,
    "ancient": 1,
    "change": 11,
    "perfection": 1,
    "##ache": 4,
    "##outs": 2,
    "Reading": 1,
    "bar": 12,
    "##hare": 2,
    "Renee": 0,
    "Or": 5,
    "describe": 2,
    "##cut": 3,
    "Ducks": 0,
    "extension": 1,
    "Jose": 0,
    "Mercury": 0,
    "##ucks": 3,
    "Beginning": 1,
    "relationship": 3,
    "Since": 6,
    "Les": 1,
    "SK": 3,
    "##ffles": 3,
    "##mon": 5,
    "##smus": 2,
    "##eur": 4,
    "boots": 3,
    "Leon": 1,
    "##ype": 4,
    "suggestions": 1,
    "success": 4,
    "mothers": 1,
    "greeting": 1,
    "cards": 1,
    "Sur": 4,
    "##nded": 1,
    "Mother": 1,
    "##ead": 5,
    "Conor": 2,
    "played": 7,
    "##70": 5,
    "##40": 2,
    "those": 10,
    "hero": 1,
    "remembered": 6,
    "worthy": 1,
    "upon": 6,
    "Mario": 1,
    "##BB": 3,
    "##MC": 3,
    "##oto": 2,
    "##graphs": 4,
    "plenty": 4,
    "programmes": 1,
    "piss": 2,
    "winter": 3,
    "almost": 12,
    "##OC": 6,
    "vol": 4,
    "huh": 3,
    "sucks": 5,
    "bike": 2,
    "bikes": 1,
    "Lines": 1,
    "Burn": 0,
    "##ink": 4,
    "lines": 1,
    "drops": 1,
    "##cock": 2,
    "spend": 9,
    "233": 2,
    "##ben": 3,
    "que": 9,
    "danger": 1,
    "el": 12,
    "##mbre": 1,
    "disco": 1,
    "##rry": 6,
    "Brand": 0,
    "Leaving": 2,
    "##sko": 2,
    "Mass": 3,
    "Nor": 2,
    "##ggy": 5,
    "##ows": 3,
    "##50": 7,
    "##UM": 6,
    "##PI": 2,
    "AI": 7,
    "##RB": 1,
    "noticed": 3,
    "beside": 1,
    "invited": 2,
    "sticks": 1,
    "tongue": 1,
    "porch": 2,
    "highly": 1,
    "unusual": 1,
    "##gan": 9,
    "##voking": 1,
    "Never": 3,
    "onwards": 1,
    "upwards": 1,
    "drivers": 3,
    "younger": 3,
    "##lub": 4,
    "club": 2,
    "##isa": 6,
    "##ool": 2,
    "reminded": 2,
    "Surely": 1,
    "feature": 1,
    "mandated": 2,
    "Ash": 4,
    "##lava": 5,
    "193": 2,
    "Doing": 4,
    "spring": 1,
    "cleaning": 6,
    "storage": 1,
    "tank": 2,
    "size": 4,
    "capacity": 1,
    "technology": 5,
    "##erve": 2,
    "##tem": 1,
    "var": 2,
    "##iar": 2,
    "##kes": 4,
    "##ays": 2,
    "important": 5,
    "Run": 3,
    "samples": 2,
    "##nie": 5,
    "##ahl": 3,
    "##berg": 5,
    "date": 8,
    "mentioned": 1,
    "Once": 3,
    "twice": 5,
    "Bed": 1,
    "sleepy": 1,
    "##function": 1,
    "dancer": 1,
    "worship": 1,
    "##uta": 2,
    "Stanford": 0,
    "Lau": 0,
    "##lin": 2,
    "Nobel": 1,
    "Physics": 1,
    "explanation": 2,
    "Ms": 6,
    "restraint": 1,
    "##nte": 0,
    "##ndo": 1,
    "lied": 4,
    "Wolves": 0,
    "host": 3,
    "##wash": 3,
    "chips": 2,
    "Verde": 1,
    "Done": 2,
    "teaching": 1,
    "##iera": 1,
    "eats": 1,
    "swing": 4,
    "##hman": 1,
    "realised": 1,
    "longer": 1,
    "Sam": 2,
    "trust": 3,
    "wink": 1,
    "blood": 4,
    "flowing": 1,
    "wax": 1,
    "##rome": 1,
    "##din": 1,
    "##beat": 1,
    "Hi": 7,
    "Sikh": 1,
    "followed": 2,
    "circus": 1,
    "Travel": 1,
    "light": 5,
    "ft": 3,
    "empty": 1,
    "based": 3,
    "suitcase": 2,
    "##gor": 0,
    "Spanish": 1,
    "director": 2,
    "##ena": 1,
    "directed": 1,
    "Mar": 1,
    "Aden": 0,
    "Inside": 0,
    "Rachel": 0,
    "Wei": 0,
    "##sz": 3,
    "##itt": 4,
    "deal": 5,
    "Save": 5,
    "arrival": 1,
    "scrap": 1,
    "##oke": 4,
    "Girl": 4,
    "Santa": 0,
    "Only": 7,
    "Word": 1,
    "accused": 1,
    "Wednesday": 29,
    "genes": 1,
    "broke": 2,
    "##play": 6,
    "zombie": 3,
    "link": 8,
    "title": 3,
    "mum": 2,
    "voice": 3,
    "Angie": 1,
    "Je": 8,
    "attending": 2,
    "Mexican": 2,
    "parade": 3,
    "Chuck": 1,
    "likely": 2,
    "update": 6,
    "future": 6,
    "symbol": 1,
    "##pot": 4,
    "uh": 3,
    "html": 3,
    "buying": 3,
    "chip": 0,
    "awkward": 2,
    "bait": 1,
    "BR": 7,
    "female": 2,
    "thinks": 2,
    "Jackie": 1,
    "joins": 3,
    "campaign": 3,
    "AP": 9,
    "Campaign": 1,
    "buzz": 2,
    "disaster": 1,
    "relief": 1,
    "12": 43,
    "Sign": 2,
    "shop": 2,
    "local": 8,
    "unique": 1,
    "##ique": 2,
    "opening": 3,
    "HD": 3,
    "Safety": 2,
    "Self": 2,
    "Defense": 2,
    "Present": 1,
    "##ation": 7,
    "Adult": 1,
    "shades": 1,
    "winner": 2,
    "##aris": 1,
    "background": 2,
    "Found": 2,
    "##unds": 1,
    "52": 1,
    "##water": 1,
    "##bre": 2,
    "batch": 1,
    "Exodus": 0,
    "Porter": 0,
    "exclusively": 1,
    "edition": 2,
    "tackle": 1,
    "Dan": 2,
    "Gold": 3,
    "Weeks": 1,
    "##rip": 1,
    "Sasha": 1,
    "##rey": 2,
    "Parade": 1,
    "Maine": 1,
    "Shot": 1,
    "Jay": 3,
    "##bil": 5,
    "designed": 1,
    "General": 0,
    "Hospital": 0,
    "##iler": 1,
    "##pf": 3,
    "touring": 1,
    "loyal": 1,
    "ally": 1,
    "grand": 5,
    "##ruff": 1,
    "finds": 2,
    "rarely": 1,
    "##tts": 1,
    "self": 3,
    "##sus": 2,
    "##mi": 9,
    "sending": 2,
    "##escu": 1,
    "turf": 1,
    "grass": 1,
    "##eration": 1,
    "oversee": 1,
    "Atlanta": 0,
    "Georgia": 0,
    "evaluation": 1,
    "planning": 4,
    "##ure": 3,
    "strike": 2,
    "MW": 1,
    "otherwise": 1,
    "pumped": 1,
    "lonely": 1,
    "perhaps": 3,
    "folks": 3,
    "gallery": 1,
    "helpful": 1,
    "use": 6,
    "George": 1,
    "Parks": 0,
    "dies": 1,
    "performance": 3,
    "dire": 2,
    "worries": 1,
    "witness": 1,
    "frustration": 1,
    "moving": 5,
    "guest": 5,
    "server": 0,
    "2008": 2,
    "strange": 2,
    "lock": 2,
    "##gets": 1,
    "Popular": 2,
    "pool": 2,
    "##rad": 4,
    "Liam": 1,
    "##cking": 2,
    "La": 4,
    "Fu": 3,
    "owner": 1,
    "##uti": 1,
    "murder": 2,
    "Teenage": 0,
    "##mind": 2,
    "workshops": 1,
    "small": 2,
    "exempt": 1,
    "First": 14,
    "Detroit": 0,
    "Register": 1,
    "Bar": 2,
    "##ping": 5,
    "##uck": 10,
    "##pack": 2,
    "##ama": 3,
    "Low": 3,
    "##yla": 2,
    "##zza": 2,
    "action": 3,
    "southern": 1,
    "Sacramento": 0,
    "feels": 2,
    "Subway": 0,
    "sandwich": 2,
    "Ready": 6,
    "Road": 4,
    "snow": 4,
    "expected": 2,
    "Milford": 0,
    "Rd": 1,
    "##dis": 0,
    "Pass": 1,
    "Arthur": 0,
    "warnings": 1,
    "Desert": 1,
    "##kas": 1,
    "##lic": 2,
    "carry": 1,
    "rage": 1,
    "luggage": 1,
    "rip": 3,
    "belt": 1,
    "##ain": 3,
    "##mine": 1,
    "##yah": 1,
    "##eds": 1,
    "##ster": 3,
    "Shaw": 2,
    "##ana": 7,
    "##path": 1,
    "##rst": 2,
    "##rd": 6,
    "##lm": 3,
    "AA": 2,
    "Someone": 6,
    "copied": 1,
    "##ax": 3,
    "Manager": 1,
    "2011": 4,
    "PC": 1,
    "interest": 1,
    "consideration": 1,
    "brother": 3,
    "Capitol": 0,
    "building": 1,
    "rear": 1,
    "##view": 3,
    "mirror": 1,
    "##DC": 3,
    "fish": 1,
    "##iva": 2,
    "flying": 2,
    "fantastic": 2,
    "none": 2,
    "dragged": 1,
    "Wu": 1,
    "##tie": 2,
    "album": 10,
    "debuted": 1,
    "popular": 2,
    "Wait": 2,
    "##lee": 3,
    "##rice": 0,
    "Personal": 4,
    "Finance": 2,
    "Books": 1,
    "##fusion": 1,
    "Two": 5,
    "apple": 1,
    "struggled": 1,
    "##cating": 1,
    "parent": 1,
    "closed": 2,
    "##nna": 3,
    "und": 2,
    "##ying": 1,
    "Des": 4,
    "bullshit": 3,
    "##zin": 1,
    "recovering": 1,
    "##RS": 12,
    "fight": 2,
    "biggest": 1,
    "lazy": 1,
    "Comet": 1,
    "circle": 1,
    "universe": 1,
    "hundred": 1,
    "progress": 1,
    "rag": 3,
    "travel": 6,
    "mug": 1,
    "Yan": 0,
    "Sad": 2,
    "Valley": 1,
    "##mme": 2,
    "##verty": 2,
    "##fall": 1,
    "Alpha": 0,
    "Omega": 1,
    "##ira": 4,
    "##mise": 0,
    "client": 3,
    "board": 1,
    "member": 1,
    "Chris": 0,
    "final": 7,
    "scene": 2,
    "edit": 1,
    "organized": 1,
    "picnic": 1,
    "Pack": 0,
    "##ach": 2,
    "reserve": 1,
    "##eni": 5,
    "##lynn": 1,
    "bottle": 4,
    "Won": 1,
    "Water": 1,
    "Testing": 1,
    "##cel": 3,
    "joking": 1,
    "shouldn": 2,
    "girls": 8,
    "ocean": 1,
    "spirit": 1,
    "Saint": 1,
    "Anita": 1,
    "##31": 2,
    "##4th": 1,
    "##lyn": 1,
    "##di": 15,
    "Cleveland": 0,
    "Browns": 0,
    "Site": 2,
    "doubtful": 1,
    "prison": 2,
    "##vani": 1,
    "Speaking": 1,
    "##vanna": 1,
    "budget": 1,
    "##not": 1,
    "##bra": 10,
    "entered": 1,
    "USB": 1,
    "tech": 2,
    "##spect": 1,
    "##ics": 9,
    "clean": 3,
    "rehearsal": 3,
    "whatever": 4,
    "pull": 4,
    "customers": 1,
    "##ente": 4,
    "##cos": 5,
    "##tum": 1,
    "##cre": 8,
    "Bull": 2,
    "##ets": 7,
    "Danger": 1,
    "True": 3,
    "Lives": 1,
    "Ice": 2,
    "Tulsa": 1,
    "Yet": 1,
    "##gers": 1,
    "Social": 3,
    "Media": 2,
    "prosperity": 1,
    "joy": 4,
    "ad": 10,
    "##versity": 1,
    "consider": 1,
    "##ias": 2,
    "Autumn": 1,
    "Network": 1,
    "Mix": 7,
    "Dick": 0,
    "Car": 4,
    "constant": 2,
    "Men": 5,
    "Crown": 0,
    "support": 10,
    "##ray": 7,
    "##lini": 1,
    "##amp": 2,
    "Orange": 2,
    "Blue": 4,
    "faculty": 1,
    "immediate": 1,
    "families": 1,
    "musicians": 2,
    "artists": 3,
    "showcased": 1,
    "Lim": 0,
    "##ght": 4,
    "Mary": 0,
    "Amazing": 2,
    "encouraging": 1,
    "Susannah": 1,
    "downloads": 1,
    "VA": 2,
    "health": 2,
    "records": 1,
    "Mall": 0,
    "Syrian": 1,
    "woman": 4,
    "##mu": 8,
    "##bur": 1,
    "##det": 1,
    "Important": 1,
    "Election": 1,
    "##rc": 7,
    "##har": 4,
    "##rona": 2,
    "##ngle": 1,
    "sea": 1,
    "##lat": 2,
    "gained": 1,
    "muscle": 1,
    "weight": 2,
    "Sean": 1,
    "relaxing": 2,
    "BS": 1,
    "pillows": 1,
    "Se": 5,
    "##lling": 3,
    "##gies": 1,
    "selling": 1,
    "Denise": 0,
    "##aman": 1,
    "housing": 1,
    "spider": 2,
    "appeared": 1,
    "nowhere": 3,
    "##ius": 4,
    "##mini": 1,
    "Those": 1,
    "sadly": 2,
    "turned": 4,
    "##leader": 2,
    "hall": 1,
    "Made": 3,
    "asleep": 2,
    "##haw": 0,
    "##sun": 3,
    "speech": 1,
    "amazement": 1,
    "Luke": 1,
    "emergency": 1,
    "department": 1,
    "approximately": 1,
    "lives": 4,
    "nights": 2,
    "substitute": 1,
    "##llon": 1,
    "rot": 3,
    "boys": 2,
    "Shane": 0,
    "Jonah": 0,
    "Gina": 1,
    "Shi": 1,
    "##stad": 1,
    "Haas": 1,
    "##lev": 1,
    "##eer": 3,
    "##lio": 1,
    "##ek": 2,
    "boom": 2,
    "##esign": 1,
    "Talk": 2,
    "##del": 4,
    "Port": 1,
    "released": 5,
    "97": 5,
    "##ik": 7,
    "##off": 3,
    "honor": 2,
    "##dog": 2,
    "AU": 3,
    "##GC": 2,
    "daily": 2,
    "minimum": 1,
    "Len": 1,
    "camp": 3,
    "camping": 1,
    "bay": 0,
    "##min": 4,
    "Seeing": 1,
    "behavior": 1,
    "token": 1,
    "price": 2,
    "##car": 5,
    "##toon": 2,
    "##ify": 1,
    "Jeff": 0,
    "places": 2,
    "Boston": 1,
    "accent": 1,
    "arrived": 4,
    "junior": 2,
    "Lea": 3,
    "##rned": 1,
    "changes": 3,
    "unnecessary": 1,
    "necessarily": 1,
    "zone": 2,
    "quick": 5,
    "tries": 2,
    "Field": 3,
    "##tri": 2,
    "power": 5,
    "trend": 3,
    "##ssy": 2,
    "Support": 3,
    "Shop": 2,
    "##raw": 2,
    "history": 4,
    "Charlie": 1,
    "Chaplin": 0,
    "tape": 1,
    "##she": 1,
    "##ute": 3,
    "##bert": 1,
    "infamous": 1,
    "##core": 1,
    "lieu": 1,
    "333": 4,
    "talked": 1,
    "approx": 1,
    "Random": 2,
    "wakes": 1,
    "##sted": 1,
    "Younger": 0,
    "Brother": 0,
    "##sford": 0,
    "##space": 0,
    "page": 5,
    "##que": 2,
    "mosaic": 1,
    "Ellen": 1,
    "##osa": 1,
    "##ose": 3,
    "Approximately": 1,
    "thirds": 1,
    "##evo": 3,
    "##lution": 1,
    "Dark": 1,
    "##tal": 5,
    "##kra": 1,
    "##dio": 1,
    "revolution": 3,
    "Much": 2,
    "rough": 1,
    "Dortmund": 0,
    "##rod": 2,
    "##eep": 2,
    "Son": 1,
    "popping": 1,
    "##bol": 1,
    "Newcastle": 0,
    "Youth": 0,
    "U2": 0,
    "04": 15,
    "##cio": 2,
    "##iza": 2,
    "rub": 2,
    "44": 4,
    "texts": 1,
    "##mins": 4,
    "preview": 2,
    "Criminal": 1,
    "Mind": 0,
    "##iti": 0,
    "mention": 2,
    "Fr": 5,
    "##ied": 1,
    "##eese": 1,
    "OK": 5,
    "earth": 3,
    "dramatic": 1,
    "Bros": 1,
    "sons": 1,
    "Sing": 1,
    "SEC": 2,
    "204": 2,
    "Marvin": 0,
    "finished": 3,
    "Blood": 2,
    "novels": 1,
    "##MI": 5,
    "High": 5,
    "##tail": 3,
    "Cy": 2,
    "Ark": 1,
    "##liance": 1,
    "##vant": 2,
    "##ages": 3,
    "##vil": 2,
    "##ege": 4,
    "Identity": 1,
    "Davidson": 0,
    "Charlotte": 0,
    "NC": 1,
    "2012": 2,
    "Tyler": 1,
    "contact": 2,
    "began": 1,
    "UN": 5,
    "devil": 1,
    "##lina": 2,
    "sum": 4,
    "steak": 2,
    "Hitchcock": 0,
    "Magazine": 0,
    "Founder": 1,
    "96": 3,
    "June": 5,
    "1914": 1,
    "249": 1,
    "##rz": 4,
    "##hot": 2,
    "Mo": 10,
    "cafe": 0,
    "##lge": 1,
    "##iving": 1,
    "##woman": 2,
    "##raz": 4,
    "speeding": 1,
    "highway": 1,
    "waving": 2,
    "bat": 2,
    "##rsten": 0,
    "calls": 2,
    "break": 6,
    "Joel": 0,
    "Ward": 0,
    "hockey": 2,
    "##made": 5,
    "cream": 4,
    "flights": 1,
    "chef": 2,
    "creations": 1,
    "##iri": 3,
    "World": 6,
    "Lord": 0,
    "directing": 1,
    "effort": 2,
    "##zine": 3,
    "##ryan": 2,
    "Ce": 4,
    "##ony": 2,
    "Britain": 1,
    "stuck": 3,
    "Has": 2,
    "pushed": 2,
    "pain": 2,
    "wed": 2,
    "##nes": 2,
    "meal": 4,
    "##worm": 1,
    "##rank": 2,
    "##hales": 1,
    "mob": 1,
    "Jed": 2,
    "LL": 3,
    "##CO": 5,
    "##lash": 5,
    "Ser": 0,
    "Left": 1,
    "##overs": 1,
    "Lex": 1,
    "##ell": 3,
    "Wes": 1,
    "received": 1,
    "died": 2,
    "21": 14,
    "clock": 4,
    "sang": 1,
    "meat": 0,
    "Emma": 1,
    "Dude": 1,
    "##uch": 3,
    "##oma": 2,
    "Pa": 7,
    "##ati": 3,
    "weigh": 1,
    "pound": 2,
    "alcohol": 1,
    "##dding": 1,
    "crisp": 1,
    "chocolate": 2,
    "12th": 7,
    "bird": 1,
    "force": 1,
    "dominate": 1,
    "700": 2,
    "dreaming": 3,
    "mate": 3,
    "##cing": 3,
    "seriously": 7,
    "##bearable": 1,
    "Give": 8,
    "Mack": 0,
    "Ku": 3,
    "Lois": 1,
    "Miranda": 2,
    "severe": 3,
    "##sique": 1,
    "##people": 2,
    "blond": 1,
    "##uf": 5,
    "##fie": 1,
    "shield": 1,
    "nest": 1,
    "Honestly": 1,
    "cane": 1,
    "stalked": 1,
    "opened": 3,
    "flip": 1,
    "crowd": 1,
    "{": 2,
    "}": 2,
    "Creative": 1,
    "invitation": 1,
    "situations": 1,
    "wishes": 3,
    "##rag": 2,
    "bars": 4,
    "##nko": 1,
    "##44": 2,
    "beer": 4,
    "spin": 2,
    "##MR": 3,
    "##lan": 3,
    "cherry": 1,
    "whites": 1,
    "excuses": 1,
    "##iness": 2,
    "pointed": 2,
    "readers": 1,
    "Canadian": 1,
    "Markets": 1,
    "opportunity": 1,
    "Gabriel": 0,
    "shares": 1,
    "Romania": 0,
    "lecture": 2,
    "##ele": 4,
    "##ford": 3,
    "plus": 3,
    "apples": 1,
    "Farm": 0,
    "mighty": 1,
    "fine": 7,
    "##aldo": 1,
    "Sal": 2,
    "babe": 3,
    "##yas": 1,
    "warmer": 1,
    "depressed": 2,
    "random": 3,
    "##wo": 9,
    "Christine": 1,
    "pray": 3,
    "promise": 4,
    "rooted": 1,
    "auditions": 2,
    "chat": 5,
    "Kyle": 0,
    "##hill": 1,
    "joint": 2,
    "Teddy": 0,
    "##cca": 3,
    "Matter": 1,
    "Than": 3,
    "##media": 1,
    "Leroy": 0,
    "Jenkins": 0,
    "##balt": 1,
    "##rain": 1,
    "Lead": 1,
    "##oda": 1,
    "##nti": 1,
    "leaders": 2,
    "blame": 3,
    "mistake": 2,
    "Maria": 1,
    "whole": 2,
    "##rising": 1,
    "##hrill": 1,
    "HP": 3,
    "##meyer": 1,
    "##ems": 2,
    "##ference": 1,
    "##EP": 3,
    "Yellow": 1,
    "Lot": 1,
    "15th": 6,
    "invisible": 1,
    "dry": 1,
    "Levin": 0,
    "##abi": 2,
    "##chu": 1,
    "canceled": 2,
    "street": 3,
    "Mu": 4,
    "##rk": 3,
    "##owski": 0,
    "dump": 1,
    "reportedly": 1,
    "ahead": 5,
    "AK": 1,
    "Salt": 2,
    "##sey": 1,
    "Johnson": 0,
    "necklace": 1,
    "Korean": 1,
    "spy": 1,
    "rival": 1,
    "##ries": 1,
    "##sist": 1,
    "60": 6,
    "Far": 1,
    "noting": 1,
    "##FB": 6,
    "lone": 1,
    "##some": 2,
    "##ria": 5,
    "##any": 1,
    "loop": 2,
    "Private": 2,
    "Practice": 0,
    "Dee": 2,
    "tests": 2,
    "essay": 1,
    "backpack": 1,
    "##aya": 3,
    "##ural": 1,
    "##uan": 6,
    "##abe": 2,
    "Everything": 3,
    "cleared": 1,
    "lab": 1,
    "##mes": 3,
    "##anger": 2,
    "household": 1,
    "items": 2,
    "##olo": 1,
    "Head": 8,
    "gum": 1,
    "##aba": 1,
    "producer": 1,
    "##pool": 1,
    "costume": 1,
    "giant": 1,
    "body": 2,
    "confused": 2,
    "##SO": 5,
    "unfortunately": 2,
    "##came": 1,
    "NZ": 2,
    "km": 2,
    "south": 2,
    "west": 2,
    "Christchurch": 0,
    "265": 1,
    "##nz": 3,
    "Ultimate": 1,
    "Magic": 1,
    "##test": 2,
    "Mom": 2,
    "antenna": 2,
    "connected": 2,
    "Standard": 0,
    "Shreveport": 0,
    "Lake": 0,
    "##MT": 3,
    "slab": 1,
    "02": 22,
    "CW": 2,
    "complain": 4,
    "brings": 3,
    "##gger": 3,
    "belief": 2,
    "Amber": 0,
    "Giles": 0,
    "Deacon": 0,
    "endless": 2,
    "##kie": 2,
    "daytime": 2,
    "drag": 2,
    "gay": 1,
    "cocktail": 3,
    "Laurel": 1,
    "##uxe": 2,
    "##eri": 4,
    "##nis": 1,
    "audio": 1,
    "Sales": 4,
    "Dec": 19,
    "invest": 1,
    "Fox": 2,
    "##hoe": 2,
    "##ef": 7,
    "inside": 2,
    "##thy": 1,
    "taught": 1,
    "ears": 2,
    "pulled": 1,
    "claws": 1,
    "Micah": 1,
    "##ard": 7,
    "Israel": 0,
    "halt": 2,
    "##rn": 6,
    "##idy": 1,
    "naturally": 1,
    "curly": 1,
    "##band": 1,
    "travelling": 1,
    "Astros": 0,
    "lineup": 2,
    "##pping": 2,
    "sits": 1,
    "Downs": 0,
    "plays": 2,
    "bats": 1,
    "##foot": 1,
    "##CS": 2,
    "Yahoo": 0,
    "option": 2,
    "1960": 2,
    "pregnant": 4,
    "##quel": 1,
    "critic": 2,
    "fellow": 1,
    "desert": 1,
    "dwell": 1,
    "Barbara": 0,
    "Box": 0,
    "Dinner": 3,
    "Take": 6,
    "antique": 2,
    "et": 7,
    "bitter": 2,
    "Reach": 2,
    "##dial": 1,
    "##don": 2,
    "##ald": 1,
    "rose": 1,
    "Driving": 2,
    "Phil": 2,
    "##sty": 4,
    "Society": 0,
    "Mining": 0,
    "##rgy": 0,
    "Engineers": 0,
    "##aux": 1,
    "##lena": 1,
    "Nick": 2,
    "Jonas": 0,
    "##igan": 1,
    "walking": 2,
    "##lump": 1,
    "appears": 1,
    "##cky": 2,
    "##cap": 1,
    "cum": 1,
    "##asi": 1,
    "##keeping": 1,
    "Family": 1,
    "Guy": 0,
    "Songs": 1,
    "Named": 1,
    "##Ps": 3,
    "loss": 2,
    "greater": 2,
    "process": 1,
    "wings": 1,
    "Twilight": 1,
    "##nee": 1,
    "##zes": 1,
    "ten": 1,
    "Eduardo": 0,
    "##uda": 1,
    "Designer": 1,
    "Mini": 1,
    "##mal": 7,
    "Web": 4,
    "Design": 1,
    "##wy": 3,
    "Jeremiah": 1,
    "##ond": 6,
    "deserve": 2,
    "##itch": 1,
    "Du": 3,
    "shot": 5,
    "##tch": 4,
    "Columbus": 1,
    "mixing": 1,
    "throw": 4,
    "##backs": 1,
    "eighty": 1,
    "##rsa": 5,
    "##isan": 2,
    "##shin": 1,
    "Nashville": 0,
    "ships": 2,
    "episodes": 3,
    "##FM": 5,
    "##liche": 1,
    "wants": 9,
    "hates": 1,
    "##ial": 5,
    "##xin": 2,
    "birth": 2,
    "Gallery": 0,
    "socially": 1,
    "relevant": 1,
    "comic": 1,
    "designs": 3,
    "##aja": 1,
    "##anne": 2,
    "##lair": 2,
    "MAC": 1,
    "##eas": 3,
    "obsessed": 3,
    "AFL": 1,
    "gotten": 2,
    "Open": 5,
    "##cion": 1,
    "Ye": 4,
    "outside": 1,
    "Neil": 2,
    "position": 1,
    "Manchester": 0,
    "29": 6,
    "Barbados": 0,
    "managed": 1,
    "weights": 2,
    "Catch": 4,
    "##git": 4,
    "##ros": 3,
    "##iers": 1,
    "##come": 3,
    "##uve": 1,
    "`": 5,
    "##dge": 0,
    "Sky": 0,
    "##lists": 2,
    "Fry": 0,
    "explain": 2,
    "launch": 2,
    "dropping": 1,
    "##can": 4,
    "##raft": 2,
    "Each": 2,
    "include": 2,
    "donate": 1,
    "##eding": 1,
    "mill": 1,
    "blessed": 1,
    "pets": 1,
    "Shooting": 1,
    "sunset": 1,
    "laps": 2,
    "Inter": 1,
    "##lain": 2,
    "campus": 0,
    "cookies": 3,
    "Killing": 1,
    "Voice": 1,
    "weird": 3,
    "Hyde": 0,
    "Corner": 0,
    "cannot": 1,
    "send": 9,
    "supportive": 1,
    "jerk": 1,
    "lying": 1,
    "##ril": 1,
    "##uit": 1,
    "messing": 1,
    "cotton": 2,
    "bleeding": 1,
    "##obe": 2,
    "Nik": 1,
    "##hm": 3,
    "hunger": 2,
    "##use": 3,
    "cracks": 1,
    "faster": 1,
    "ran": 3,
    "Rick": 0,
    "Ross": 0,
    "Drake": 0,
    "locations": 1,
    "teenage": 1,
    "Wan": 3,
    "##dering": 1,
    "##yu": 7,
    "shaped": 1,
    "hole": 2,
    "tune": 1,
    "31st": 5,
    "annual": 2,
    "##yang": 2,
    "horrible": 3,
    "featured": 2,
    "Team": 8,
    "##udd": 1,
    "Factory": 1,
    "##hor": 3,
    "reading": 3,
    "periods": 1,
    "Christian": 2,
    "##roll": 1,
    "dessert": 2,
    "wines": 1,
    "convert": 1,
    "Prince": 1,
    "##oppy": 1,
    "gentleman": 1,
    "lipstick": 1,
    "kissing": 2,
    "##sie": 1,
    "ages": 3,
    "non": 3,
    "##dar": 1,
    "##chess": 1,
    "##nar": 2,
    "98": 6,
    "Bari": 1,
    "##ista": 1,
    "milk": 1,
    "kept": 1,
    "touching": 3,
    "Jam": 3,
    "realise": 1,
    "prove": 2,
    "##nse": 2,
    "fairies": 1,
    "fairy": 1,
    "forced": 2,
    "ads": 2,
    "ng": 7,
    "outstanding": 1,
    "##ete": 3,
    "apps": 1,
    "iOS": 0,
    "devices": 1,
    "Karl": 1,
    "Collier": 1,
    "NBC": 2,
    "details": 2,
    "grow": 5,
    "bust": 2,
    "county": 1,
    "West": 4,
    "Nile": 1,
    "##WI": 3,
    "##SN": 1,
    "##FA": 2,
    "utter": 1,
    "given": 2,
    "##kins": 2,
    "##ered": 1,
    "vintage": 2,
    "Back": 9,
    "##gro": 1,
    "##shirt": 1,
    "Fest": 2,
    "Forgotten": 0,
    "Door": 0,
    "##rcia": 1,
    "grave": 1,
    "dim": 3,
    "Brady": 0,
    "himself": 2,
    "smell": 1,
    "##tip": 1,
    "ram": 2,
    "wins": 1,
    "mineral": 1,
    "##rda": 2,
    "roughly": 1,
    "Tony": 1,
    "##nife": 1,
    "heavy": 2,
    "rains": 1,
    "Simone": 1,
    "raid": 1,
    "##diction": 1,
    "##TS": 5,
    "meant": 4,
    "##reak": 2,
    "##rent": 1,
    "##nor": 3,
    "putting": 2,
    "releases": 3,
    "decent": 2,
    "##ict": 1,
    "sick": 4,
    "needed": 1,
    "junk": 2,
    "CDs": 1,
    "neighbours": 1,
    "90": 7,
    "volunteer": 2,
    "##ota": 6,
    "excellent": 2,
    "distinctly": 1,
    "recall": 1,
    "piece": 2,
    "##rell": 2,
    "throws": 2,
    "lemon": 2,
    "Coach": 0,
    "German": 1,
    "Hai": 0,
    "Burr": 0,
    "damage": 1,
    "according": 1,
    "Jason": 1,
    "Mad": 1,
    "clips": 1,
    "exhaust": 1,
    "sexy": 2,
    "Betty": 1,
    "reach": 4,
    "sweep": 1,
    "##DS": 1,
    "mere": 2,
    "##uman": 1,
    "##chet": 1,
    "##iji": 1,
    "##nh": 1,
    "compared": 2,
    "Las": 3,
    "picked": 4,
    "Complete": 2,
    "useless": 1,
    "dates": 1,
    "Internet": 2,
    "tattoo": 2,
    "Which": 1,
    "character": 1,
    "##cast": 2,
    "##unt": 2,
    "floors": 1,
    "scrub": 1,
    "urban": 1,
    "##tur": 1,
    "##bang": 2,
    "##ono": 1,
    "scream": 1,
    "##hone": 1,
    "commander": 1,
    "##ari": 5,
    "18th": 5,
    "Hotel": 0,
    "##egan": 1,
    "Style": 0,
    "##rush": 1,
    "##fit": 2,
    "##word": 2,
    "PhD": 1,
    "field": 1,
    "Remember": 3,
    "##own": 4,
    "specific": 1,
    "reasons": 4,
    "Might": 2,
    "finish": 7,
    "ignoring": 1,
    "doll": 1,
    "follows": 1,
    "wild": 3,
    "gun": 1,
    "relentless": 1,
    "##23": 5,
    "Middle": 0,
    "East": 0,
    "voices": 1,
    "##tino": 2,
    "Stupid": 1,
    "##cent": 1,
    "wears": 1,
    "Luc": 1,
    "Playing": 3,
    "Austin": 0,
    "Inn": 0,
    "careers": 1,
    "Greenville": 1,
    "Consul": 1,
    "##tant": 1,
    "##iba": 1,
    "flow": 3,
    "Buck": 0,
    "mountain": 0,
    "hiking": 1,
    "##aid": 1,
    "1997": 2,
    "##AB": 4,
    "lid": 1,
    "##nado": 1,
    "Tau": 4,
    "##rus": 5,
    "falling": 1,
    "surge": 1,
    "##sla": 2,
    "##nger": 1,
    "Naples": 0,
    "others": 3,
    "MTV": 2,
    "Stars": 0,
    "##borg": 0,
    "##anna": 1,
    "tone": 1,
    "names": 4,
    "13th": 1,
    "teenager": 1,
    "Except": 2,
    "##oar": 2,
    "##dman": 2,
    "points": 2,
    "na": 37,
    "wet": 2,
    "students": 2,
    "pissed": 5,
    "Min": 1,
    "literally": 4,
    "laughed": 2,
    "loud": 1,
    "reaction": 2,
    "continue": 5,
    "editing": 1,
    "##league": 2,
    "qualifiers": 1,
    "NBA": 2,
    "League": 1,
    "withdrawal": 1,
    "symptoms": 1,
    "weeds": 1,
    "graduating": 1,
    "doctors": 1,
    "app": 7,
    "Were": 1,
    "understand": 2,
    "##irt": 2,
    "##sin": 2,
    "disagree": 1,
    "finale": 1,
    "argue": 1,
    "stories": 1,
    "splendid": 1,
    "Anya": 0,
    "Kamen": 0,
    "##zilla": 1,
    "Drum": 1,
    "community": 1,
    "education": 1,
    "24th": 2,
    "bands": 2,
    "##way": 1,
    "Timothy": 1,
    "weren": 3,
    "ignored": 1,
    "Grammar": 1,
    "Camp": 1,
    "graders": 1,
    "8th": 5,
    "Grade": 1,
    "project": 1,
    "##aws": 5,
    "penis": 1,
    "brush": 1,
    "cup": 2,
    "pillow": 1,
    "warm": 2,
    "sleeping": 4,
    "##fiction": 1,
    "laptop": 4,
    "settle": 1,
    "skirt": 1,
    "coast": 2,
    "Glen": 0,
    "##agh": 0,
    "park": 0,
    "picturesque": 1,
    "mile": 1,
    "riding": 1,
    "Comic": 1,
    "List": 2,
    "Ralph": 0,
    "Lauren": 1,
    "Ren": 0,
    "Weir": 1,
    "Chan": 0,
    "Realm": 1,
    "##achi": 1,
    "Sir": 1,
    "##ont": 3,
    "##rack": 1,
    "successful": 2,
    "combine": 1,
    "##FI": 3,
    "##CI": 5,
    "Russian": 1,
    "navy": 0,
    "##lit": 4,
    "Dance": 3,
    "Institution": 1,
    "lifts": 1,
    "##OA": 3,
    "Mariano": 0,
    "discovered": 2,
    "##olt": 1,
    "freak": 1,
    "##ables": 1,
    "tasted": 1,
    "chalk": 1,
    "Pac": 0,
    "roof": 1,
    "rack": 1,
    "Fritz": 1,
    "treasures": 1,
    "India": 1,
    "retired": 1,
    "glowing": 1,
    "corner": 2,
    "Kirk": 0,
    "romantic": 2,
    "Shan": 0,
    "##rance": 4,
    "##one": 3,
    "banks": 1,
    "commentary": 1,
    "##lson": 2,
    "##ils": 3,
    "seat": 4,
    "Roger": 0,
    "Waters": 0,
    "British": 1,
    "calm": 2,
    "crisis": 3,
    "##lou": 2,
    "150": 4,
    "booth": 1,
    "91": 2,
    "81": 2,
    "Everyone": 1,
    "voters": 2,
    "avoid": 2,
    "possible": 4,
    "cat": 3,
    "##rophe": 1,
    "##gos": 2,
    "standards": 1,
    "Sydney": 0,
    "stone": 2,
    "Danny": 0,
    "Chef": 3,
    "##ieri": 1,
    "tournament": 2,
    "benefit": 3,
    "Penny": 0,
    "Mesa": 1,
    "transplant": 1,
    "##ance": 1,
    "Above": 1,
    "Beyond": 1,
    "Around": 0,
    "Guest": 0,
    "##family": 1,
    "##ync": 4,
    "nervous": 1,
    "Events": 2,
    "##bow": 6,
    "##ski": 4,
    "Matthews": 0,
    "Latin": 1,
    "lively": 1,
    "##lve": 2,
    "hitting": 2,
    "##wolf": 2,
    "sessions": 1,
    "Walls": 1,
    "painted": 1,
    "hung": 1,
    "backdrop": 1,
    "system": 3,
    "normal": 1,
    "Holiday": 3,
    "station": 3,
    "number": 6,
    "vacancy": 1,
    "vocal": 1,
    "solo": 1,
    "attention": 2,
    "deficit": 1,
    "##rated": 1,
    "Mira": 1,
    "##rea": 8,
    "target": 1,
    "##side": 1,
    "foundation": 1,
    "key": 3,
    "massive": 2,
    "##onic": 1,
    "07": 12,
    "guarantee": 1,
    "##ixel": 1,
    "precise": 1,
    "output": 1,
    "MS": 6,
    "Pain": 2,
    "##raction": 1,
    "##lal": 4,
    "115": 1,
    "saved": 1,
    "although": 1,
    "##hel": 3,
    "pastor": 1,
    "gathering": 2,
    "Life": 3,
    "NL": 1,
    "ed": 1,
    "##rya": 1,
    "Guess": 2,
    "fake": 2,
    "Seriously": 2,
    "cycling": 2,
    "##llen": 3,
    "passing": 2,
    "Devil": 1,
    "ideas": 2,
    "##rouch": 1,
    "kidding": 1,
    "published": 1,
    "smack": 1,
    "##around": 2,
    "dem": 1,
    "thee": 2,
    "pairs": 3,
    "lame": 1,
    "Hot": 4,
    "##wife": 1,
    "Max": 3,
    "##arte": 1,
    "##lette": 2,
    "frightening": 1,
    "##chy": 2,
    "##urs": 3,
    "##stic": 1,
    "Kai": 2,
    "Roman": 2,
    "##throp": 1,
    "##tails": 1,
    "##vos": 1,
    "##AC": 5,
    "##TA": 5,
    "DL": 1,
    "##pers": 3,
    "suspect": 2,
    "manual": 1,
    "##reis": 1,
    "Mitchell": 0,
    "##lue": 2,
    "##pruce": 1,
    "rule": 2,
    "causes": 2,
    "Pizza": 1,
    "##fin": 2,
    "deliver": 1,
    "Drop": 1,
    "Eric": 3,
    "##sch": 1,
    "Army": 1,
    "Ottawa": 1,
    "##uiz": 1,
    "custom": 1,
    "##nts": 1,
    "bare": 2,
    "terrible": 1,
    "indeed": 3,
    "legged": 1,
    "##ssie": 3,
    "##wang": 1,
    "flirting": 1,
    "fortunate": 1,
    "incredible": 1,
    "##pper": 2,
    "##sen": 2,
    "##ief": 1,
    "gut": 1,
    "mental": 1,
    "stimulus": 1,
    "Weston": 1,
    "planned": 2,
    "Valentine": 1,
    "FL": 4,
    "##lew": 0,
    "Zach": 1,
    "##arm": 3,
    "##bei": 1,
    "occasions": 1,
    "train": 1,
    "Membership": 1,
    "##oint": 1,
    "##ette": 3,
    "Revolution": 1,
    "##JP": 1,
    "Jump": 4,
    "commission": 1,
    "##ncy": 2,
    "##rini": 1,
    "sink": 1,
    "thread": 1,
    "visual": 1,
    "##yeh": 0,
    "grace": 2,
    "Tu": 4,
    "bore": 1,
    "grocery": 1,
    "carries": 1,
    "##ide": 0,
    "Kind": 1,
    "Catherine": 0,
    "Olson": 0,
    "Custom": 3,
    "confusing": 1,
    "##hra": 2,
    "##sing": 2,
    "ben": 2,
    "##uni": 2,
    "footage": 1,
    "Belgium": 1,
    "##CU": 4,
    "##rka": 1,
    "##ahi": 0,
    "##DM": 3,
    "##vi": 4,
    "Land": 0,
    "Minneapolis": 0,
    "Avenue": 1,
    "Entry": 1,
    "Morton": 0,
    "motto": 1,
    "Murphy": 1,
    "Law": 3,
    "##resh": 3,
    "January": 79,
    "##jak": 1,
    "valley": 2,
    "##nin": 1,
    "##laus": 1,
    "increasing": 1,
    "prices": 2,
    "##bones": 1,
    "Hung": 1,
    "##uma": 3,
    "##60": 3,
    "someday": 2,
    "##29": 6,
    "##RC": 4,
    "Season": 4,
    "opener": 1,
    "Bradley": 0,
    "Soccer": 1,
    "##tt": 6,
    "##broken": 1,
    "##ivo": 0,
    "##var": 1,
    "##tised": 1,
    "shudder": 1,
    "##aged": 1,
    "Didn": 1,
    "Does": 1,
    "authors": 1,
    "telling": 2,
    "##ayne": 2,
    "manage": 2,
    "##nky": 1,
    "follower": 2,
    "##ggs": 1,
    "inappropriate": 2,
    "Rs": 2,
    "gas": 3,
    "Walking": 2,
    "##olin": 1,
    "Kill": 0,
    "ended": 3,
    "paced": 1,
    "prayer": 2,
    "##gin": 2,
    "##ners": 1,
    "Guide": 2,
    "##wl": 4,
    "600": 2,
    "2000": 2,
    "Dylan": 0,
    "refuses": 1,
    "crash": 5,
    "Disney": 0,
    "Annual": 5,
    "seating": 1,
    "communal": 1,
    "tables": 2,
    "62": 2,
    "Vivian": 1,
    "##sca": 3,
    "lashes": 1,
    "fell": 3,
    "Rebellion": 1,
    "woods": 1,
    "##lent": 2,
    "master": 2,
    "Dev": 1,
    "simple": 1,
    "films": 2,
    "pushes": 1,
    "limit": 5,
    "Tao": 0,
    "DD": 1,
    "##berry": 0,
    "\\": 7,
    "monkey": 1,
    "review": 1,
    "##18": 4,
    "##ded": 2,
    "added": 1,
    "stalk": 1,
    "##sman": 1,
    "##ynamite": 0,
    "papal": 1,
    "##41": 8,
    "##PA": 4,
    "Vega": 1,
    "Tam": 3,
    "##ales": 2,
    "Fort": 2,
    "Mason": 0,
    "fully": 1,
    "expect": 3,
    "shrimp": 1,
    "butter": 1,
    "spill": 2,
    "repaired": 1,
    "religious": 1,
    "division": 1,
    "tolerance": 1,
    "leadership": 2,
    "Soft": 2,
    "Hannah": 1,
    "##opping": 3,
    "Kerr": 0,
    "mutant": 1,
    "headed": 2,
    "tree": 3,
    "hug": 2,
    "Sit": 2,
    "##35": 10,
    "Trent": 1,
    "overs": 1,
    "superior": 1,
    "roll": 3,
    "Beer": 2,
    "White": 1,
    "Eagle": 0,
    "##loc": 3,
    "Prison": 2,
    "##ign": 2,
    "shame": 2,
    "beans": 1,
    "fancy": 3,
    "secret": 1,
    "Flash": 2,
    "##back": 6,
    "##rue": 4,
    "huge": 5,
    "imagination": 1,
    "##gli": 1,
    "##ere": 3,
    "Aaron": 1,
    "manages": 1,
    "Riley": 0,
    "Apollo": 0,
    "##une": 4,
    "Rally": 1,
    "exists": 1,
    "Mum": 1,
    "##rene": 1,
    "Awards": 2,
    "##pid": 1,
    "buyers": 1,
    "##ashi": 4,
    "instructor": 1,
    "cope": 1,
    "singing": 2,
    "men": 8,
    "##inas": 1,
    "##ais": 2,
    "##tarian": 1,
    "##bul": 1,
    "worrying": 1,
    "rated": 1,
    "Screen": 1,
    "##ranged": 1,
    "##hen": 1,
    "hatred": 1,
    "##iv": 3,
    "sharply": 1,
    "##bloid": 1,
    "##watch": 2,
    "Daily": 2,
    "Mail": 3,
    "predictable": 1,
    "halfway": 1,
    "##Vs": 2,
    "Tara": 1,
    "##ula": 3,
    "lounge": 1,
    "hoping": 2,
    "consumers": 1,
    "claiming": 1,
    "payments": 1,
    "reality": 1,
    "charging": 1,
    "##fty": 2,
    "fee": 1,
    "##ilton": 1,
    "##els": 3,
    "soup": 1,
    "interested": 3,
    "##FP": 2,
    "Jupiter": 0,
    "Close": 3,
    "Nearly": 2,
    "202": 1,
    "Capt": 2,
    "##ured": 2,
    "Single": 2,
    "Expo": 4,
    "##sure": 2,
    "##graph": 2,
    "Carr": 1,
    "message": 4,
    "driven": 1,
    "crime": 2,
    "serve": 2,
    "horn": 2,
    "##era": 3,
    "Ion": 0,
    "ride": 3,
    "furniture": 2,
    "paintings": 1,
    "##uro": 1,
    "Alley": 1,
    "##evity": 1,
    "lung": 2,
    "cancer": 2,
    "strokes": 0,
    "##rth": 1,
    "##eim": 0,
    "bark": 1,
    "##GR": 4,
    "sunshine": 2,
    "stays": 1,
    "career": 6,
    "##utes": 1,
    "##yes": 3,
    "Labour": 1,
    "Market": 2,
    "Ed": 1,
    "odds": 1,
    "shortened": 1,
    "significantly": 1,
    "##ssin": 2,
    "likes": 2,
    "prince": 0,
    "##hani": 2,
    "flipped": 1,
    "##ffle": 1,
    "Seattle": 1,
    "##rak": 1,
    "##lein": 1,
    "eve": 1,
    "apologize": 2,
    "Hero": 1,
    "din": 4,
    "Conflict": 0,
    "Case": 1,
    "Materials": 0,
    "##yer": 3,
    "##smith": 1,
    "01": 15,
    "##mir": 3,
    "##io": 6,
    "sooner": 1,
    "##phere": 1,
    "Fruit": 1,
    "fishes": 1,
    "lived": 2,
    "deeply": 1,
    "##lapping": 1,
    "Peter": 1,
    "89": 3,
    "##uel": 2,
    "##rick": 1,
    "##bies": 1,
    "stream": 1,
    "suffer": 2,
    "Warrior": 1,
    "Pub": 0,
    "Jones": 1,
    "##ft": 2,
    "chamber": 1,
    "##mus": 4,
    "##tura": 1,
    "69": 3,
    "##mother": 1,
    "dick": 2,
    "##stick": 2,
    "torment": 1,
    "distance": 1,
    "slammed": 1,
    "Denver": 0,
    "return": 1,
    "Breaking": 0,
    "##tering": 0,
    "##slav": 0,
    "Odyssey": 0,
    "Coming": 3,
    "PlayStation": 0,
    "Bowl": 5,
    "Island": 0,
    "Ave": 1,
    "Patch": 1,
    "##26": 5,
    "software": 2,
    "airports": 1,
    "conferences": 1,
    "Oakland": 0,
    "##pha": 2,
    "##city": 1,
    "definitions": 1,
    "Tessa": 0,
    "##bot": 1,
    "alright": 1,
    "purchase": 3,
    "seller": 1,
    "dedicated": 1,
    "quite": 3,
    "useful": 1,
    "##wave": 1,
    "##rix": 0,
    "Same": 2,
    "silly": 2,
    "Romeo": 0,
    "Jul": 1,
    "Dawn": 0,
    "Return": 2,
    "Vancouver": 1,
    "11th": 5,
    "Shay": 1,
    "Software": 1,
    "Freedom": 1,
    "##lim": 2,
    "admission": 1,
    "##phi": 6,
    "Castle": 0,
    "##tas": 2,
    "presents": 1,
    "Luna": 0,
    "setting": 2,
    "moonlight": 1,
    "##dt": 1,
    "##stant": 1,
    "Search": 1,
    "developer": 1,
    "##dia": 2,
    "71": 4,
    "Fear": 2,
    "golden": 1,
    "##school": 1,
    "Bottom": 1,
    "aren": 1,
    "Polar": 2,
    "Hurricane": 1,
    "Earl": 1,
    "respective": 1,
    "Blade": 1,
    "Travis": 0,
    "Too": 3,
    "4th": 10,
    "Ban": 1,
    "##tam": 1,
    "Draft": 1,
    "olds": 3,
    "remain": 3,
    "##xe": 2,
    "##SF": 2,
    "passed": 1,
    "lifting": 1,
    "##inga": 1,
    "drove": 2,
    "##card": 1,
    "Heroes": 0,
    "Jazz": 3,
    "##rlene": 0,
    "Jill": 0,
    "##lene": 0,
    "pushing": 1,
    "##life": 3,
    "##eal": 1,
    "greatly": 1,
    "enhanced": 1,
    "confidence": 1,
    "seminar": 1,
    "Fair": 2,
    "##lica": 0,
    "cock": 1,
    "eyed": 1,
    "competition": 2,
    "Paige": 1,
    "festival": 1,
    "Rican": 2,
    "##unk": 1,
    "Indies": 0,
    "##ige": 1,
    "track": 3,
    "production": 1,
    "Bills": 1,
    "##LM": 3,
    "hurling": 2,
    "##thi": 4,
    "Elliot": 1,
    "Mine": 1,
    "count": 1,
    "throwing": 1,
    "writer": 1,
    "##writing": 3,
    "##written": 1,
    "##rber": 1,
    "exceeded": 1,
    "limits": 1,
    "##ness": 4,
    "Tori": 1,
    "##tia": 1,
    "succeeded": 1,
    "##erry": 1,
    "Bold": 0,
    "Father": 1,
    "draw": 1,
    "scan": 1,
    "##odles": 2,
    "##dela": 2,
    "##ket": 3,
    "##llie": 2,
    "##bis": 4,
    "Table": 2,
    "##quist": 1,
    "qualifying": 1,
    "##sar": 1,
    "solid": 1,
    "Swift": 1,
    "randomly": 1,
    "sing": 2,
    "Basic": 1,
    "Thinking": 2,
    "Making": 2,
    "Key": 3,
    "subject": 1,
    "Soldiers": 1,
    "##lia": 2,
    "preserve": 1,
    "affordable": 1,
    "##rille": 1,
    "fried": 1,
    "Derek": 0,
    "accurate": 1,
    "Wasn": 1,
    "##pling": 1,
    "program": 2,
    "##rite": 3,
    "##sume": 1,
    "Being": 1,
    "Fire": 2,
    "resume": 4,
    "fired": 1,
    "Put": 2,
    "Boogie": 1,
    "Shoes": 2,
    "Down": 1,
    "KC": 0,
    "Dallas": 0,
    "##rud": 1,
    "ski": 1,
    "##ids": 7,
    "Half": 2,
    "baked": 0,
    "##san": 3,
    "##noy": 1,
    "slapped": 2,
    "JP": 0,
    "candy": 1,
    "individual": 1,
    "Patty": 1,
    "Red": 9,
    "##uce": 2,
    "##dium": 2,
    "labels": 2,
    "sodium": 1,
    "original": 2,
    "serving": 1,
    "posts": 1,
    "wall": 4,
    "Knowing": 1,
    "##ily": 0,
    "rod": 0,
    "1000": 4,
    "Code": 1,
    "Fantastic": 1,
    "Place": 1,
    "##vey": 2,
    "donated": 1,
    "35": 3,
    "state": 3,
    "chairman": 1,
    "investigating": 1,
    "explosion": 1,
    "##run": 2,
    "##ire": 3,
    "defend": 1,
    "duck": 1,
    "session": 4,
    "Cromwell": 1,
    "chick": 4,
    "bomb": 3,
    "Wish": 2,
    "selection": 1,
    "##ady": 1,
    "dating": 1,
    "og": 1,
    "##och": 4,
    "##tres": 1,
    "102": 1,
    "American": 2,
    "Association": 0,
    "draft": 1,
    "Brett": 0,
    "##ves": 2,
    "Serie": 1,
    "continues": 1,
    "graduate": 1,
    "student": 2,
    "lord": 1,
    "Para": 1,
    "Act": 0,
    "##ivity": 0,
    "requesting": 1,
    "area": 2,
    "Thousands": 2,
    "mast": 1,
    "##bat": 1,
    "##ors": 2,
    "marched": 1,
    "Donnell": 0,
    "plot": 1,
    "Into": 2,
    "Something": 2,
    "##oni": 2,
    "Route": 1,
    "66": 2,
    "##zan": 3,
    "Ride": 1,
    "##MD": 3,
    "##iga": 2,
    "Broken": 1,
    "Protection": 1,
    "Scheme": 1,
    "protection": 1,
    "scheme": 1,
    "##ku": 10,
    "zombies": 1,
    "##iq": 2,
    "shortly": 1,
    "twenty": 1,
    "##aly": 1,
    "##logue": 1,
    "Ginger": 1,
    "##each": 4,
    "recipe": 1,
    "Colorado": 1,
    "##ades": 1,
    "Spot": 4,
    "Jimmie": 0,
    "skinny": 1,
    "fit": 1,
    "31": 16,
    "Sin": 1,
    "##vat": 4,
    "slowly": 1,
    "observing": 1,
    "actions": 1,
    "clearing": 1,
    "throat": 1,
    "MD": 1,
    "Executive": 1,
    "Ph": 1,
    "##arma": 1,
    "##cist": 1,
    "##loat": 0,
    "taxi": 1,
    "paying": 2,
    "Blake": 0,
    "##hurst": 0,
    "410": 1,
    "32": 9,
    "##34": 5,
    "solve": 1,
    "sober": 1,
    "##roid": 0,
    "device": 1,
    "desire": 2,
    "galaxy": 1,
    "critical": 1,
    "mass": 2,
    "commercial": 1,
    "television": 1,
    "Interview": 1,
    "##obia": 1,
    "Aria": 1,
    "##met": 1,
    "bubble": 1,
    "Ava": 0,
    "Rex": 0,
    "Ryan": 1,
    "offense": 1,
    "##oit": 1,
    "##nap": 2,
    "Disc": 1,
    "Blu": 1,
    "##mbo": 2,
    "Digital": 1,
    "Starr": 2,
    "Jr": 1,
    "army": 1,
    "Deep": 1,
    "##hop": 5,
    "Split": 1,
    "fabric": 1,
    "space": 3,
    "##umi": 0,
    "decisions": 2,
    "bottom": 1,
    "Perhaps": 1,
    "Donald": 0,
    "Trump": 0,
    "Estate": 2,
    "Cap": 1,
    "exist": 2,
    "##omi": 1,
    "Sitting": 1,
    "hay": 1,
    "Aragon": 0,
    "Spain": 0,
    "##boro": 0,
    "Casey": 0,
    "Stone": 0,
    "tripped": 2,
    "friendly": 1,
    "ironic": 1,
    "Role": 2,
    "property": 2,
    "Consider": 1,
    "ranked": 2,
    "golfer": 1,
    "Tiger": 0,
    "Woods": 0,
    "billion": 2,
    "dollars": 1,
    "94": 2,
    "Lancashire": 0,
    "Powell": 0,
    "Dare": 1,
    "bail": 1,
    "Ham": 0,
    "darkness": 1,
    "##yler": 1,
    "##mana": 1,
    "##pal": 3,
    "demonstrate": 1,
    "reliability": 1,
    "source": 1,
    "knowledge": 2,
    "##aria": 1,
    "##mith": 2,
    "##tone": 1,
    "Saw": 1,
    "Death": 1,
    "symbols": 1,
    "Hong": 0,
    "Kong": 0,
    "twentieth": 1,
    "century": 3,
    "Section": 1,
    "##ago": 1,
    "Martin": 1,
    "##43": 3,
    "Prophet": 0,
    "Muhammad": 0,
    "blessing": 2,
    "Allah": 1,
    "advantage": 1,
    "A2": 1,
    "Till": 1,
    "SS": 1,
    "Doctor": 5,
    "Recently": 1,
    "appreciated": 1,
    "Partner": 1,
    "hunt": 1,
    "Pepper": 0,
    "jury": 1,
    "duty": 1,
    "willing": 2,
    "guides": 1,
    "##rge": 1,
    "sued": 2,
    "tips": 4,
    "##feld": 1,
    "##uca": 2,
    "financial": 1,
    "##rating": 1,
    "##gging": 2,
    "##read": 4,
    "Sand": 0,
    "Slim": 0,
    "Richard": 0,
    "seek": 1,
    "understood": 1,
    "##hun": 3,
    "figured": 1,
    "predator": 1,
    "##lah": 2,
    "das": 2,
    "von": 2,
    "##ude": 1,
    "jet": 4,
    "grade": 6,
    "##ulu": 2,
    "convincing": 1,
    "carried": 1,
    "##bble": 1,
    "marathon": 1,
    "encouraged": 1,
    "attend": 2,
    "memorial": 1,
    "jazz": 1,
    "Baptist": 0,
    "Harvard": 0,
    "Musical": 1,
    "celebration": 2,
    "scroll": 2,
    "tap": 3,
    "Ram": 1,
    "squared": 1,
    "December": 57,
    "advise": 1,
    "Simpson": 0,
    "barely": 1,
    "##rien": 1,
    "##lick": 1,
    "Det": 1,
    "##ails": 1,
    "SAT": 7,
    "complained": 1,
    "Museum": 0,
    "artist": 2,
    "##data": 2,
    "##mba": 0,
    "Portland": 0,
    "Mississippi": 0,
    "Studios": 0,
    "sneak": 3,
    "finding": 1,
    "slide": 2,
    "powerful": 2,
    "##lide": 1,
    "##ssi": 2,
    "##hale": 2,
    "worker": 1,
    "anytime": 1,
    "##hai": 2,
    "##kha": 4,
    "##pologies": 1,
    "##ired": 1,
    "##hus": 2,
    "Released": 1,
    "##ctions": 1,
    "Qualifying": 1,
    "PD": 1,
    "Wireless": 0,
    "tent": 1,
    "bottles": 1,
    "##HS": 1,
    "foam": 1,
    "finger": 1,
    "Cam": 2,
    "##ocks": 1,
    "intense": 1,
    "curl": 1,
    "Sabrina": 0,
    "sacrificed": 1,
    "denied": 1,
    "harvested": 1,
    "Page": 2,
    "opposite": 1,
    "##lli": 0,
    "School": 3,
    "graduates": 1,
    "bone": 1,
    "der": 4,
    "##vis": 2,
    "faced": 1,
    "broken": 1,
    "hardest": 1,
    "Cyrus": 0,
    "##alk": 1,
    "Hilton": 0,
    "##ito": 3,
    "##itor": 1,
    "everywhere": 2,
    "Golf": 1,
    "Trophy": 0,
    "##win": 2,
    "##nett": 0,
    "325": 1,
    "Spirit": 2,
    "Picture": 3,
    "##eda": 1,
    "##sm": 3,
    "##chemical": 1,
    "##roma": 1,
    "jacket": 2,
    "advance": 1,
    "bound": 1,
    "verb": 1,
    "fund": 2,
    "##raiser": 1,
    "Inc": 1,
    "##ives": 2,
    "##fle": 2,
    "access": 1,
    "constantly": 1,
    "drowning": 1,
    "246": 1,
    "nearly": 5,
    "wicked": 2,
    "chicken": 1,
    "rises": 2,
    "##reta": 1,
    "##42": 3,
    "Human": 1,
    "Jackson": 1,
    "memory": 1,
    "expression": 1,
    "transforming": 1,
    "##ven": 3,
    "thousands": 2,
    "##onized": 1,
    "Swedish": 1,
    "Pioneer": 1,
    "diverse": 1,
    "Parts": 2,
    "Cool": 1,
    "surf": 1,
    "##kini": 1,
    "phase": 1,
    "Liz": 2,
    "become": 3,
    "##ier": 2,
    "##nat": 1,
    "guilt": 1,
    "Irvine": 0,
    "##ghan": 1,
    "peak": 1,
    "Francisco": 0,
    "nm": 3,
    "Wonder": 1,
    "Pen": 2,
    "Joy": 1,
    "Huh": 0,
    "stayed": 2,
    "##lint": 1,
    "Australia": 0,
    "installed": 1,
    "filter": 2,
    "taste": 1,
    "Tin": 1,
    "stood": 1,
    "properly": 1,
    "Board": 1,
    "##erland": 3,
    "Leigh": 1,
    "ladies": 1,
    "##lake": 0,
    "Until": 1,
    "glory": 2,
    "invented": 1,
    "Triple": 1,
    "##llas": 2,
    "##ruk": 1,
    "several": 1,
    "infant": 1,
    "unknown": 1,
    "Aug": 1,
    "Stay": 3,
    "BC": 0,
    "feat": 1,
    "Bliss": 1,
    "##akes": 2,
    "Second": 2,
    "Powers": 0,
    "Jacob": 0,
    "Lacey": 0,
    "Manning": 0,
    "Both": 1,
    "bill": 3,
    "sixteen": 1,
    "Vista": 0,
    "Lance": 0,
    "Georg": 1,
    "Grey": 2,
    "Dani": 1,
    "obviously": 2,
    "##iest": 3,
    "releasing": 1,
    "##ser": 0,
    "##haus": 1,
    "surprisingly": 1,
    "mat": 4,
    "##aw": 5,
    "Hendrix": 0,
    "Electric": 0,
    "Guinness": 0,
    "##zzle": 2,
    "##cid": 1,
    "##ilt": 1,
    "answers": 1,
    "Sweden": 0,
    "male": 2,
    "##lt": 5,
    "##rive": 1,
    "Treasury": 0,
    "deprived": 1,
    "Rani": 1,
    "disappointed": 1,
    "His": 1,
    "Twice": 0,
    "Kat": 1,
    "box": 2,
    "##ishi": 1,
    "##KO": 4,
    "Penguin": 0,
    "Drawing": 1,
    "Snow": 2,
    "##vial": 1,
    "##icious": 2,
    "straightened": 1,
    "##rdy": 1,
    "player": 3,
    "Nate": 0,
    "rid": 1,
    "65": 2,
    "spending": 2,
    "asks": 1,
    "States": 0,
    "playground": 1,
    "noises": 1,
    "##front": 1,
    "tendencies": 1,
    "Nike": 1,
    "cassette": 1,
    "tapes": 1,
    "Gilbert": 0,
    "cart": 2,
    "Burning": 1,
    "132": 2,
    "Highway": 1,
    "42": 4,
    "##65": 2,
    "149": 2,
    "34": 5,
    "women": 5,
    "below": 1,
    "wasting": 1,
    "##jou": 2,
    "##rne": 1,
    "bump": 1,
    "##ime": 1,
    "audition": 2,
    "Bennett": 0,
    "compare": 1,
    "reminder": 1,
    "Sara": 0,
    "##eh": 4,
    "##ost": 3,
    "##nya": 1,
    "##lls": 1,
    "happiness": 3,
    "##vention": 0,
    "opens": 2,
    "Singapore": 0,
    "facility": 1,
    "201": 4,
    "whale": 1,
    "fossil": 1,
    "gothic": 1,
    "##SP": 3,
    "contributions": 1,
    "##ited": 1,
    "blast": 2,
    "350": 1,
    "journal": 1,
    "##ject": 1,
    "trophy": 1,
    "refused": 1,
    "Jen": 3,
    "impossible": 2,
    "1988": 1,
    "##ux": 6,
    "sees": 2,
    "Famous": 1,
    "forgive": 1,
    "Wide": 0,
    "flashback": 1,
    "sophomore": 1,
    "lie": 4,
    "beats": 1,
    "choices": 1,
    "Muslim": 1,
    "organisations": 1,
    "behind": 2,
    "racism": 1,
    "##ascism": 1,
    "Islam": 1,
    "##bia": 1,
    "146": 1,
    "##lug": 2,
    "Cloud": 3,
    "64": 3,
    "Buffalo": 0,
    "Municipal": 0,
    "Airport": 0,
    "Wind": 5,
    "humidity": 1,
    "68": 2,
    "Updated": 1,
    "dread": 1,
    "twist": 1,
    "reggae": 1,
    "##rley": 1,
    "brand": 1,
    "cracked": 1,
    "Used": 1,
    "complaining": 1,
    "sword": 1,
    "Sprint": 2,
    "trailers": 1,
    "Scotland": 0,
    "waited": 1,
    "Scott": 1,
    "Speed": 1,
    "Gus": 1,
    "fathers": 1,
    "Fish": 1,
    "Fathers": 2,
    "##dence": 1,
    "Bears": 0,
    "demolished": 1,
    "1985": 1,
    "superb": 1,
    "define": 2,
    "Wayne": 0,
    "Dyer": 0,
    "29th": 2,
    "##ugs": 1,
    "boot": 1,
    "freeze": 2,
    "250": 1,
    "Industry": 1,
    "oak": 1,
    "##lip": 2,
    "user": 1,
    "screaming": 1,
    "boiled": 1,
    "##weiler": 1,
    "##aco": 1,
    "##horn": 2,
    "gear": 1,
    "sofa": 1,
    "mini": 3,
    "silent": 1,
    "##iek": 1,
    "heel": 1,
    "pride": 2,
    "Ken": 1,
    "uploaded": 1,
    "##cke": 3,
    "tube": 1,
    "channel": 4,
    "greet": 3,
    "Waiting": 1,
    "garden": 0,
    "grove": 0,
    "Mann": 1,
    "##rma": 0,
    "Justice": 0,
    "Constitutional": 1,
    "Protected": 1,
    "Atlas": 0,
    "##esh": 2,
    "9th": 4,
    "##mington": 0,
    "##fest": 1,
    "##cchi": 0,
    "Italian": 0,
    "##usage": 0,
    "Swiss": 0,
    "Tomatoes": 0,
    "sizes": 1,
    "Ashley": 1,
    "##kal": 1,
    "Cats": 1,
    "lbs": 1,
    "supplies": 2,
    "##game": 2,
    "talented": 1,
    "grandparents": 1,
    "Tournament": 1,
    "Champions": 1,
    "##ules": 1,
    "exclusive": 1,
    "remix": 1,
    "##wed": 2,
    "##fia": 0,
    "Miami": 0,
    "##yed": 1,
    "Cherry": 1,
    "##PS": 1,
    "##Ds": 3,
    "##NF": 4,
    "tested": 1,
    "cocaine": 1,
    "sources": 1,
    "##lbert": 1,
    "stressed": 2,
    "##apon": 1,
    "filthy": 2,
    "Bond": 2,
    "Street": 2,
    "Yep": 1,
    "MIT": 1,
    "SL": 1,
    "##PO": 5,
    "Medical": 3,
    "CT": 1,
    "TX": 2,
    "Worth": 1,
    "physicians": 1,
    "advances": 1,
    "Houston": 0,
    "Fight": 1,
    "Thai": 1,
    "470": 1,
    "neon": 1,
    "##kos": 2,
    "##51": 2,
    "CC": 0,
    "science": 2,
    "participates": 1,
    "Walk": 1,
    "##sol": 3,
    "##dier": 1,
    "Drew": 2,
    "speaking": 1,
    "eastern": 1,
    "211": 1,
    "147": 1,
    "##ckey": 1,
    "##chan": 1,
    "meets": 1,
    "expectations": 1,
    "##oped": 1,
    "scored": 2,
    "##otic": 1,
    "##style": 2,
    "feedback": 1,
    "Boris": 1,
    "##cover": 1,
    "Collector": 1,
    "fills": 2,
    "200": 3,
    "sets": 1,
    "spanning": 1,
    "shy": 2,
    "disguised": 1,
    "helping": 1,
    "allowing": 1,
    "Friends": 1,
    "networking": 1,
    "users": 2,
    "Rat": 1,
    "bang": 1,
    "##gn": 2,
    "53": 3,
    "38": 5,
    "recently": 1,
    "completed": 1,
    "stint": 1,
    "pot": 1,
    "##holes": 1,
    "outrage": 1,
    "improve": 1,
    "situation": 1,
    "##jay": 2,
    "color": 1,
    "##lant": 1,
    "##86": 1,
    "leg": 3,
    "stare": 1,
    "reply": 2,
    "Fen": 0,
    "##ulo": 2,
    "Upon": 0,
    "Tyne": 0,
    "Feb": 15,
    "##ration": 2,
    "publish": 2,
    "debates": 1,
    "punt": 1,
    "Stakes": 1,
    "##ntly": 1,
    "hint": 2,
    "criteria": 1,
    "##qi": 2,
    "##heses": 1,
    "Many": 1,
    "fi": 2,
    "Rose": 0,
    "Press": 2,
    "edible": 1,
    "flowers": 1,
    "##due": 2,
    "##nas": 1,
    "##CA": 1,
    "##Es": 2,
    "##rp": 3,
    "Hari": 1,
    "depict": 1,
    "Neo": 1,
    "famous": 3,
    "Kris": 1,
    "##eye": 3,
    "travels": 1,
    "Mauritius": 1,
    "330": 1,
    "113": 1,
    "##nch": 0,
    "reunion": 2,
    "Verona": 0,
    "tracks": 1,
    "##ried": 2,
    "Technology": 2,
    "summers": 1,
    "##til": 1,
    "swift": 2,
    "chilled": 1,
    "##ison": 0,
    "Teacher": 1,
    "loads": 1,
    "checking": 1,
    "pronunciation": 1,
    "##boo": 1,
    "Sant": 0,
    "Elvis": 0,
    "adorable": 1,
    "##OE": 4,
    "wrapped": 1,
    "weekends": 1,
    "Salem": 0,
    "Choice": 1,
    "##poon": 0,
    "NW": 3,
    "Cara": 1,
    "##sul": 1,
    "##uay": 1,
    "##yna": 0,
    "Brad": 0,
    "tear": 1,
    "Natalie": 1,
    "Govt": 1,
    "Reg": 1,
    "makers": 1,
    "##eus": 1,
    "dorm": 1,
    "##idas": 1,
    "##eno": 1,
    "22nd": 3,
    "calculation": 1,
    "advanced": 2,
    "Center": 0,
    "Theater": 1,
    "Film": 2,
    "fines": 0,
    "homage": 1,
    "##linity": 1,
    "##fish": 1,
    "existed": 1,
    "2007": 1,
    "pale": 2,
    "##ologists": 1,
    "iron": 1,
    "wash": 1,
    "soft": 1,
    "##ella": 1,
    "windows": 0,
    "anti": 1,
    "##virus": 1,
    "forcing": 1,
    "Kick": 1,
    "tempting": 1,
    "Few": 1,
    "MP": 1,
    "pressure": 1,
    "daddy": 1,
    "blink": 3,
    "introduced": 1,
    "##dai": 3,
    "##yric": 1,
    "slim": 1,
    "Gang": 1,
    "bank": 1,
    "##via": 2,
    "Summit": 0,
    "##idian": 1,
    "Worst": 1,
    "Interest": 2,
    "firm": 2,
    "Maya": 1,
    "Doom": 1,
    "##qui": 1,
    "snapped": 1,
    "instantly": 1,
    "##tat": 6,
    "Rush": 0,
    "Microsoft": 0,
    "provided": 1,
    "champagne": 2,
    "spa": 2,
    "Actually": 2,
    "orders": 1,
    "swim": 1,
    "occasionally": 1,
    "Google": 2,
    "Label": 1,
    "Alternative": 1,
    "##eran": 1,
    "Doyle": 1,
    "lent": 1,
    "aft": 1,
    "##bri": 1,
    "Hayes": 1,
    "sorted": 1,
    "informing": 1,
    "NPR": 1,
    "Song": 1,
    "##lon": 0,
    "Different": 0,
    "experiencing": 1,
    "Japan": 0,
    "spoiled": 1,
    "Sul": 1,
    "closest": 1,
    "approach": 1,
    "Camera": 2,
    "GB": 1,
    "Record": 1,
    "FM": 1,
    "While": 1,
    "Stock": 2,
    "##jar": 2,
    "##uckle": 1,
    "heads": 1,
    "##eak": 2,
    "Cafe": 0,
    "Roy": 1,
    "Greg": 0,
    "clicked": 1,
    "International": 1,
    "##BF": 1,
    "##uld": 1,
    "##leg": 2,
    "Staff": 2,
    "agency": 1,
    "##cation": 1,
    "##VR": 3,
    "counting": 2,
    "Wright": 0,
    "Halloween": 1,
    "Lisa": 1,
    "manufacturers": 1,
    "timing": 1,
    "IP": 1,
    "collection": 1,
    "divine": 1,
    "##ffed": 1,
    "sour": 1,
    "##ional": 1,
    "21st": 3,
    "##pace": 1,
    "##SA": 4,
    "robots": 1,
    "diary": 1,
    "toes": 1,
    "Stoke": 1,
    "##mash": 1,
    "##rgen": 2,
    "##urt": 1,
    "##eve": 2,
    "##last": 2,
    "##words": 1,
    "Indian": 0,
    "##ulge": 1,
    "hosted": 1,
    "Hudson": 0,
    "Square": 0,
    "##von": 0,
    "Newport": 0,
    "Away": 1,
    "MLB": 1,
    "Odd": 2,
    "##rky": 2,
    "Gun": 1,
    "Especially": 2,
    "tourists": 1,
    "Sunset": 0,
    "##pelled": 1,
    "Safe": 2,
    "holiday": 1,
    "##hashi": 2,
    "##jan": 3,
    "##wana": 0,
    "constituency": 1,
    "Final": 4,
    "grades": 1,
    "Disco": 1,
    "Downtown": 0,
    "Grange": 0,
    "Chocolate": 1,
    "lb": 2,
    "##SV": 2,
    "##vor": 2,
    "Jordan": 0,
    "##itrus": 1,
    "2015": 90,
    "120": 1,
    "##dl": 5,
    "##01": 2,
    "losing": 2,
    "##reate": 1,
    "##its": 2,
    "https": 16,
    "relay": 2,
    "races": 1,
    "##bon": 2,
    "hind": 3,
    "05": 17,
    "Fund": 1,
    "Scientific": 1,
    "Research": 1,
    "Lafayette": 0,
    "Urban": 0,
    "Ministry": 0,
    "##serve": 2,
    "Ghent": 1,
    "Apr": 1,
    "gigs": 2,
    "RB": 1,
    "named": 2,
    "##ense": 1,
    "fiscal": 1,
    "condition": 1,
    "ups": 1,
    "##wing": 2,
    "##pio": 4,
    "##LF": 2,
    "Strong": 2,
    "##anu": 2,
    "2014": 55,
    "##state": 1,
    "null": 21,
    "Climate": 1,
    "currently": 1,
    "Ground": 0,
    "##aga": 0,
    "rate": 1,
    "##master": 1,
    "##gami": 1,
    "##rich": 2,
    "##olic": 2,
    "Book": 2,
    "boxes": 1,
    "ensure": 1,
    "##ature": 3,
    "clouds": 1,
    "##NR": 2,
    "##bby": 2,
    "90s": 1,
    "##actor": 1,
    "Mountain": 0,
    "##field": 1,
    "Kung": 3,
    "##usk": 2,
    "une": 3,
    "##sse": 2,
    "##mble": 1,
    "##rop": 1,
    "ex": 4,
    "##urer": 1,
    "##led": 0,
    "##bound": 1,
    "triple": 2,
    "111": 1,
    "Suns": 2,
    "##Os": 2,
    "cardboard": 1,
    "Sandra": 0,
    "schedules": 1,
    "investment": 1,
    "##II": 4,
    "##press": 1,
    "##cz": 1,
    "Mechanical": 1,
    "keyboards": 1,
    "prohibit": 1,
    "##ively": 1,
    "##hole": 2,
    "keyboard": 1,
    "##pad": 0,
    "##dler": 2,
    "##rets": 1,
    "strength": 1,
    "William": 1,
    "Shakespeare": 0,
    "Lang": 1,
    "##asa": 2,
    "##dan": 2,
    "##DR": 3,
    "Silk": 1,
    "##orm": 1,
    "240": 1,
    "##witch": 1,
    "deals": 1,
    "Xi": 1,
    "##was": 2,
    "aged": 1,
    "savage": 1,
    "centre": 1,
    "gains": 1,
    "Cade": 0,
    "Dennis": 0,
    "dos": 1,
    "##rana": 0,
    "Recovery": 0,
    "pillar": 1,
    "Happiness": 1,
    "##dine": 1,
    "##llan": 1,
    "nak": 2,
    "quarter": 2,
    "56": 1,
    "Lee": 2,
    "sculpture": 1,
    "Wood": 1,
    "ul": 4,
    "##ech": 1,
    "funds": 1,
    "affect": 1,
    "investments": 1,
    "corporations": 1,
    "RS": 3,
    "affiliate": 1,
    "theaters": 1,
    "##llar": 0,
    "##jack": 1,
    "bias": 2,
    "##pressed": 2,
    "Reality": 1,
    "##CR": 5,
    "Fine": 2,
    "##qua": 7,
    "concern": 2,
    "##80": 3,
    "Weather": 4,
    "##eca": 4,
    "##aring": 1,
    "Mint": 0,
    "Extra": 1,
    "47": 3,
    "animals": 1,
    "Mon": 6,
    "2017": 2,
    "Tyrone": 1,
    "lad": 1,
    "functional": 1,
    "##bility": 1,
    "Taylor": 0,
    "trademark": 1,
    "Beat": 2,
    "##YP": 3,
    "46": 6,
    "Set": 1,
    "Elsa": 0,
    "Olaf": 0,
    "Doll": 0,
    "281": 1,
    "M1": 0,
    "Linux": 0,
    "##sons": 1,
    "Los": 3,
    "Penguins": 0,
    "quasi": 1,
    "AHL": 1,
    "issue": 1,
    "Tampa": 0,
    "Bishop": 0,
    "Styles": 2,
    "hello": 2,
    "##long": 2,
    "264": 1,
    "Citizens": 0,
    "Earth": 1,
    "Steam": 1,
    "20th": 5,
    "Hawk": 0,
    "ODI": 1,
    "Target": 1,
    "300": 2,
    "Pak": 1,
    "189": 1,
    "##nus": 1,
    "##rid": 1,
    "mentions": 1,
    "Pont": 2,
    "##iana": 2,
    "##enter": 3,
    "yards": 2,
    "Raw": 1,
    "14th": 8,
    "##ified": 5,
    "##lk": 1,
    "athletic": 1,
    "African": 1,
    "NWA": 1,
    "Roads": 1,
    "checked": 2,
    "drifting": 1,
    "##aries": 1,
    "professional": 1,
    "English": 1,
    "##graphers": 1,
    "##elly": 2,
    "rim": 1,
    "perception": 1,
    "differ": 1,
    "##len": 1,
    "##cie": 3,
    "disc": 1,
    "##ille": 2,
    "##graphic": 1,
    "sale": 4,
    "regular": 1,
    "priced": 1,
    "Kitty": 0,
    "##rga": 2,
    "Nah": 1,
    "Egypt": 0,
    "exchange": 1,
    "loses": 1,
    "227": 1,
    "Egyptian": 0,
    "Exchange": 0,
    "trading": 1,
    "triggered": 1,
    "sanctions": 2,
    "Iran": 1,
    "Clifford": 1,
    "##imes": 1,
    "James": 1,
    "emotions": 1,
    "apparent": 1,
    "##QL": 3,
    "Gunner": 1,
    "Arsenal": 0,
    "Monaco": 1,
    "Emirates": 1,
    "AFC": 3,
    "decline": 1,
    "Kern": 0,
    "Diego": 0,
    "sore": 1,
    "##esi": 1,
    "Germany": 0,
    "Oman": 1,
    "Dolly": 0,
    "Block": 1,
    "lining": 1,
    "whistle": 1,
    "lead": 1,
    "##nsley": 0,
    "advent": 1,
    "Eddie": 0,
    "Barry": 1,
    "reflex": 1,
    "healing": 1,
    "realize": 2,
    "##litz": 1,
    "Beast": 1,
    "##ang": 1,
    "##iya": 2,
    "Steelers": 0,
    "ponytail": 1,
    "booked": 1,
    "##ough": 2,
    "boycott": 1,
    "runs": 2,
    "Harper": 0,
    "##poli": 1,
    "##dir": 2,
    "##PD": 1,
    "43": 2,
    "snack": 1,
    "block": 1,
    "2020": 1,
    "Robinson": 0,
    "assists": 1,
    "rebounds": 1,
    "Episcopal": 0,
    "##lique": 2,
    "warning": 1,
    "similar": 2,
    "##zen": 1,
    "##sation": 1,
    "##luck": 2,
    "##ossa": 1,
    "Ella": 1,
    "Que": 1,
    "sur": 2,
    "guide": 1,
    "theatrical": 1,
    "##ait": 2,
    "##ili": 2,
    "##eta": 2,
    "##wal": 1,
    "Sale": 1,
    "##ssel": 1,
    "Neck": 1,
    "matching": 1,
    "##BC": 4,
    "Hop": 1,
    "Rainbow": 1,
    "Singers": 1,
    "Clan": 1,
    "Level": 1,
    "##oons": 1,
    "competitions": 1,
    "Would": 3,
    "bitten": 1,
    "##urus": 1,
    "Common": 2,
    "##gram": 0,
    "Colts": 1,
    "GP": 1,
    "##EX": 3,
    "Cure": 2,
    "Korea": 1,
    "##anga": 1,
    "##iki": 2,
    "##ika": 2,
    "dir": 1,
    "##uka": 1,
    "##alan": 1,
    "Master": 1,
    "87": 2,
    "timeline": 1,
    "ESPN": 2,
    "Hassan": 0,
    "rating": 1,
    "##bor": 1,
    "semester": 6,
    "Akron": 0,
    "password": 2,
    "bald": 1,
    "Seahawks": 1,
    "Hard": 1,
    "##wick": 1,
    "##FC": 8,
    "technically": 1,
    "mit": 3,
    "##grass": 2,
    "variety": 1,
    "interests": 1,
    "tailed": 1,
    "##ael": 1,
    "Jon": 1,
    "##abby": 1,
    "##ibe": 1,
    "Amy": 0,
    "Adams": 0,
    "##NL": 2,
    "Olympic": 1,
    "Champion": 1,
    "Brendan": 0,
    "Connolly": 0,
    "finest": 1,
    "Advisory": 1,
    "issued": 4,
    "areas": 1,
    "Washington": 0,
    "Cascade": 0,
    "Effect": 1,
    "figuring": 2,
    "poll": 1,
    "##rest": 1,
    "Lausanne": 0,
    "Flood": 1,
    "Warning": 2,
    "CS": 6,
    "NASCAR": 0,
    "Regional": 2,
    "Series": 2,
    "ACT": 1,
    "Help": 2,
    "Race": 2,
    "##BS": 1,
    "Zen": 1,
    "capable": 1,
    "ourselves": 1,
    "Thomas": 0,
    "Edison": 0,
    "Age": 1,
    "Control": 1,
    "##fort": 1,
    "##dian": 1,
    "Tan": 3,
    "125": 1,
    "Oz": 2,
    "##cum": 1,
    "Department": 1,
    "##dder": 0,
    "Company": 0,
    "##LR": 1,
    "Emmanuel": 1,
    "##leo": 1,
    "##kla": 1,
    "##bay": 2,
    "##ather": 1,
    "nor": 1,
    "east": 1,
    "##TM": 2,
    "previous": 2,
    "Premier": 1,
    "appearances": 1,
    "Everton": 0,
    "Guild": 1,
    "hum": 1,
    "Homer": 1,
    "##iter": 2,
    "Circle": 1,
    "26th": 2,
    "Boxing": 2,
    "##rius": 4,
    "##rians": 0,
    "reveal": 1,
    "inner": 1,
    "##most": 1,
    "persuade": 1,
    "Meg": 1,
    "##otion": 1,
    "##hur": 3,
    "acting": 1,
    "##TO": 6,
    "Manila": 0,
    "##ova": 2,
    "##park": 1,
    "Cowboys": 1,
    "Production": 1,
    "Titan": 1,
    "balls": 1,
    "strikes": 1,
    "Steven": 0,
    "Player": 1,
    "promising": 1,
    "returns": 2,
    "Bernard": 0,
    "safer": 1,
    "##print": 1,
    "Janet": 1,
    "Schmidt": 1,
    "##mart": 0,
    "Savings": 1,
    "Orlando": 0,
    "##xa": 4,
    "##mobile": 1,
    "27th": 1,
    "##ift": 1,
    "##patrick": 1,
    "Temple": 0,
    "##rung": 1,
    "Pan": 1,
    "HM": 0,
    "##VC": 1,
    "Sound": 0,
    "##non": 2,
    "##gawa": 1,
    "awe": 1,
    "BT": 1,
    "Performance": 1,
    "##rts": 2,
    "Could": 1,
    "Sai": 1,
    "Venice": 0,
    "##mee": 1,
    "Comedy": 1,
    "501": 0,
    "mounting": 0,
    "plate": 0,
    "Omaha": 0,
    "arrested": 1,
    "Strange": 1,
    "Nebraska": 0,
    "vivid": 1,
    "visions": 1,
    "ragged": 1,
    "##gle": 1,
    "Ming": 2,
    "##eti": 2,
    "##sional": 1,
    "Tito": 1,
    "Groups": 1,
    "Sue": 1,
    "1980": 1,
    "existence": 1,
    "##post": 1,
    "vision": 1,
    "document": 1,
    "Delhi": 0,
    "polls": 1,
    "vine": 3,
    "Logan": 0,
    "Susan": 1,
    "##dom": 2,
    "##nial": 1,
    "##child": 1,
    "gorgeous": 2,
    "Guitars": 0,
    "veteran": 1,
    "nurse": 1,
    "receive": 1,
    "France": 0,
    "##kan": 1,
    "Order": 4,
    "185": 4,
    "SMS": 6,
    "512": 4,
    "bowl": 2,
    "##aud": 1,
    "NFC": 2,
    "absolutely": 2,
    "besides": 1,
    "artwork": 2,
    "Bean": 0,
    "##town": 0,
    "Core": 0,
    "percent": 1,
    "grown": 1,
    "easily": 1,
    "Resident": 1,
    "Officer": 1,
    "NSW": 1,
    "attempt": 1,
    "##lify": 1,
    "complex": 1,
    "dynamics": 1,
    "sums": 1,
    "Quarter": 2,
    "Ravens": 2,
    "discovery": 1,
    "##lass": 2,
    "##ification": 1,
    "Bob": 2,
    "##ML": 1,
    "##Ms": 3,
    "##cue": 1,
    "##rdo": 1,
    "##gee": 1,
    "Albert": 0,
    "Einstein": 0,
    "HBO": 2,
    "Send": 2,
    "spread": 2,
    "Eve": 2,
    "Mexico": 0,
    "confess": 1,
    "crimes": 1,
    "Domestic": 1,
    "debate": 4,
    "immigration": 1,
    "yell": 1,
    "sneaking": 1,
    "##zi": 1,
    "Patriots": 1,
    "Serena": 0,
    "Hale": 0,
    "WTA": 1,
    "Finals": 1,
    "##agi": 2,
    "##nal": 1,
    "manifest": 1,
    "vary": 1,
    "##ores": 1,
    "##kari": 0,
    "eventually": 1,
    "##fine": 1,
    "lessons": 1,
    "rode": 2,
    "##ugh": 1,
    "##stock": 1,
    "##bes": 1,
    "treat": 2,
    "##hound": 0,
    "Carmel": 1,
    "##mel": 1,
    "Girls": 1,
    "basketball": 2,
    "defeats": 1,
    "##flections": 1,
    "##enne": 1,
    "##sbury": 2,
    "Loves": 0,
    "##tory": 0,
    "Kathryn": 1,
    "History": 1,
    "Olivia": 1,
    "aloud": 1,
    "deposition": 1,
    "##hum": 1,
    "##low": 1,
    "##eth": 1,
    "##ric": 1,
    "Egg": 1,
    "betting": 1,
    "##dic": 1,
    "duel": 1,
    "##lder": 1,
    "##iner": 1,
    "##vers": 3,
    "##zac": 1,
    "##nga": 1,
    "idol": 1,
    "latter": 1,
    "Africa": 0,
    "##bate": 1,
    "topic": 1,
    "##ability": 1,
    "overcome": 2,
    "Fred": 0,
    "##rik": 0,
    "lit": 1,
    "##jer": 2,
    "Silver": 1,
    "##bial": 1,
    "Col": 2,
    "##lage": 1,
    "oz": 1,
    "Note": 1,
    "##mers": 1,
    "Gala": 1,
    "##rease": 0,
    "favor": 1,
    "##dle": 1,
    "##igi": 1,
    "##tero": 0,
    "Wichita": 0,
    "DB": 2,
    "Ernie": 1,
    "Banks": 0,
    "header": 1,
    "##hip": 3,
    "worldwide": 1,
    "Phyllis": 1,
    "Industries": 0,
    "Hold": 1,
    "Meeting": 1,
    "##holders": 1,
    "directly": 1,
    "prompting": 1,
    "mutually": 1,
    "beneficial": 1,
    "##bio": 1,
    "##sis": 1,
    "Ascension": 0,
    "##MU": 1,
    "alumni": 1,
    "Peyton": 0,
    "eclipse": 1,
    "Boss": 1,
    "##ices": 1,
    "Willie": 0,
    "Mae": 0,
    "Thornton": 0,
    "1926": 1,
    "##kim": 0,
    "##tan": 1,
    "Airlines": 1,
    "fuel": 1,
    "passengers": 1,
    "Weekly": 1,
    "acknowledge": 1,
    "challenges": 1,
    "Union": 1,
    "flood": 3,
    "##esan": 1,
    "award": 2,
    "Dean": 1,
    "##oman": 1,
    "map": 1,
    "Their": 1,
    "coverage": 1,
    "PP": 1,
    "Panthers": 0,
    "##HC": 3,
    "wolf": 1,
    "launching": 1,
    "II": 0,
    "Treatment": 0,
    "UV": 2,
    "Hay": 1,
    "##hana": 1,
    "Galaxy": 1,
    "##ero": 1,
    "allow": 1,
    "Johnny": 0,
    "Heinz": 1,
    "##sat": 2,
    "university": 1,
    "##boards": 1,
    "##nam": 1,
    "Continuing": 1,
    "produced": 1,
    "central": 1,
    "midfield": 1,
    "international": 1,
    "penalty": 1,
    "vibrant": 1,
    "presence": 1,
    "##VD": 2,
    "operation": 1,
    "##ggins": 1,
    "##tag": 3,
    "Brighton": 0,
    "Walton": 0,
    "Hughes": 0,
    "##GM": 1,
    "connection": 1,
    "genuine": 1,
    "butterflies": 1,
    "Australian": 1,
    "exciting": 1,
    "organize": 1,
    "Ulysses": 1,
    "twelve": 1,
    "tribes": 1,
    "tribe": 1,
    "##nds": 0,
    "Duo": 1,
    "Muse": 0,
    "politics": 1,
    "activities": 1,
    "pad": 2,
    "##week": 2,
    "lift": 1,
    "higher": 1,
    "Mina": 0,
    "##pra": 0,
    "technical": 1,
    "Israeli": 1,
    "##cts": 1,
    "##cript": 0,
    "Editorial": 1,
    "tornado": 1,
    "visible": 1,
    "satellite": 1,
    "image": 1,
    "Via": 2,
    "##reen": 1,
    "approved": 1,
    "Paradise": 1,
    "Residents": 1,
    "Nan": 0,
    "border": 0,
    "struggle": 1,
    "rebuild": 1,
    "clashes": 1,
    "yard": 1,
    "mornings": 3,
    "burn": 1,
    "Luckily": 1,
    "##vila": 1,
    "Elmer": 1,
    "##lmer": 1,
    "Horn": 1,
    "Beverly": 0,
    "Hills": 0,
    "##ague": 2,
    "##Dowell": 0,
    "##por": 1,
    "##oop": 2,
    "melting": 1,
    "allows": 1,
    "correct": 3,
    "errors": 1,
    "desk": 1,
    "vicar": 1,
    "##iously": 1,
    "dean": 2,
    "territory": 1,
    "Classic": 1,
    "Standing": 1,
    "Tall": 1,
    "Fellow": 1,
    "gifts": 1,
    "210": 1,
    "##heads": 1,
    "whatsoever": 1,
    "Utah": 0,
    "law": 2,
    "##makers": 1,
    "legislative": 1,
    "agenda": 2,
    "preparing": 1,
    "comeback": 1,
    "Madrid": 0,
    "##villa": 0,
    "##mis": 1,
    "##IB": 4,
    "RC": 1,
    "motivated": 1,
    "shake": 1,
    "##IO": 2,
    "snail": 1,
    "Honey": 0,
    "Brooks": 1,
    "arena": 1,
    "brothers": 1,
    "fool": 2,
    "Louis": 2,
    "Missouri": 0,
    "1964": 1,
    "Berlin": 0,
    "streams": 1,
    "##iche": 1,
    "##tude": 1,
    "##gnetic": 1,
    "Smart": 2,
    "##umour": 1,
    "existing": 1,
    "118": 1,
    "##iden": 1,
    "##uen": 2,
    "##lase": 1,
    "Rare": 1,
    "Sultan": 0,
    "evidence": 1,
    "hid": 1,
    "##HP": 1,
    "##zu": 2,
    "##lore": 1,
    "##cend": 1,
    "launched": 1,
    "mentally": 1,
    "prepared": 1,
    "topics": 1,
    "70s": 1,
    "decades": 1,
    "Junction": 0,
    "##sses": 1,
    "Form": 1,
    "##nent": 1,
    "Senate": 1,
    "admitted": 1,
    "##yun": 1,
    "##ington": 1,
    "Schools": 1,
    "concerned": 2,
    "executing": 1,
    "Jakarta": 0,
    "Generation": 0,
    "leather": 1,
    "premier": 1,
    "Deck": 1,
    "halls": 1,
    "burden": 1,
    "chimney": 1,
    "cloud": 1,
    "Democracy": 1,
    "Lay": 1,
    "Forget": 1,
    "Iowa": 1,
    "classes": 1,
    "skip": 1,
    "Dom": 1,
    "Carolina": 0,
    "Jong": 0,
    "EU": 0,
    "Ukraine": 0,
    "proposals": 1,
    "economic": 1,
    "measures": 1,
    "Arm": 1,
    "Kiev": 1,
    "capitals": 1,
    "Teachers": 1,
    "Evening": 1,
    "learning": 1,
    "museum": 1,
    "##roy": 1,
    "Kit": 1,
    "##citing": 1,
    "Cape": 0,
    "##rito": 1,
    "##rban": 1,
    "las": 1,
    "##uth": 1,
    "##uri": 2,
    "##nja": 1,
    "##lag": 1,
    "holding": 1,
    "Convention": 0,
    "Growing": 5,
    "Bordeaux": 0,
    "poem": 1,
    "Poetry": 1,
    "Challenge": 1,
    "##born": 0,
    "Luther": 1,
    "Jai": 1,
    "Merry": 2,
    "Roll": 1,
    "UC": 2,
    "##rows": 2,
    "Babu": 1,
    "##tation": 1,
    "laser": 1,
    "##berto": 1,
    "Jean": 0,
    "recover": 1,
    "sickness": 1,
    "SR": 1,
    "Otis": 0,
    "Earle": 0,
    "drafted": 1,
    "overall": 2,
    "FC": 1,
    "cell": 2,
    "##rer": 1,
    "Dirty": 1,
    "##nock": 1,
    "FBI": 0,
    "Meet": 1,
    "##reet": 1,
    "performances": 1,
    "sponsorship": 1,
    "Saudi": 0,
    "Arabia": 0,
    "deaths": 1,
    "Ocean": 1,
    "Explorer": 1,
    "##tina": 0,
    "Space": 1,
    "Gray": 1,
    "1925": 1,
    "##rel": 4,
    "consciously": 1,
    "Tier": 1,
    "cities": 1,
    "thus": 1,
    "##aca": 3,
    "MG": 1,
    "pour": 1,
    "invite": 1,
    "##uveau": 2,
    "##ager": 1,
    "##oter": 1,
    "##good": 2,
    "##rang": 1,
    "Virtual": 1,
    "##dice": 1,
    "##owa": 1,
    "Others": 1,
    "##ards": 0,
    "trailer": 1,
    "rabbit": 1,
    "##acon": 1,
    "##ience": 1,
    "Jaime": 2,
    "##ques": 1,
    "##nnes": 1,
    "conversations": 1,
    "portable": 1,
    "Phi": 0,
    "Sessions": 1,
    "1994": 1,
    "narrative": 1,
    "##ders": 1,
    "Nobody": 1,
    "Resource": 1,
    "Investment": 1,
    "Conference": 2,
    "investors": 1,
    "Cambridge": 1,
    "accident": 1,
    "colors": 1,
    "weed": 1,
    "View": 1,
    "Aside": 1,
    "Evan": 0,
    "Peters": 0,
    "thrill": 2,
    "motion": 1,
    "segment": 1,
    "dull": 1,
    "##ritic": 1,
    "##rong": 1,
    "broad": 1,
    "##ficient": 1,
    "mainly": 1,
    "Han": 1,
    "##aire": 1,
    "Attack": 1,
    "condemned": 1,
    "deadly": 1,
    "##ego": 1,
    "70": 2,
    "combined": 1,
    "Montreal": 0,
    "##aver": 1,
    "combination": 1,
    "tin": 2,
    "##lang": 2,
    "##bas": 2,
    "##edd": 1,
    "listing": 1,
    "Bank": 0,
    "Rate": 1,
    "tells": 1,
    "##block": 1,
    "signed": 1,
    "##SL": 1,
    "##dek": 1,
    "scale": 2,
    "recommend": 1,
    "restaurants": 1,
    "261": 1,
    "##ped": 3,
    "1984": 1,
    "Brunei": 1,
    "keen": 1,
    "Wikipedia": 1,
    "##pit": 0,
    "##yon": 1,
    "Hindi": 1,
    "thief": 1,
    "destroy": 2,
    "abundant": 1,
    "sucked": 1,
    "blunt": 0,
    "kicked": 1,
    "anime": 1,
    "swords": 1,
    "edge": 1,
    "Holt": 0,
    "allowed": 1,
    "Daphne": 0,
    "Lyrics": 1,
    "Produced": 1,
    "Emergency": 0,
    "Soon": 1,
    "##ila": 1,
    "##pes": 1,
    "Android": 0,
    "tablets": 1,
    "scare": 1,
    "Alberto": 0,
    "Moreno": 0,
    "fitness": 1,
    "Liverpool": 0,
    "Independent": 1,
    "float": 1,
    "Mt": 1,
    "overly": 1,
    "demons": 1,
    "political": 1,
    "##storm": 1,
    "schools": 2,
    "Fourteen": 1,
    "chapters": 1,
    "conquer": 1,
    "##stop": 1,
    "78": 2,
    "Samsung": 0,
    "Young": 3,
    "##45": 1,
    "economy": 1,
    "grows": 1,
    "fastest": 1,
    "quarterly": 1,
    "growth": 2,
    "2003": 1,
    "Commerce": 0,
    "##Net": 1,
    "##works": 1,
    "Mental": 1,
    "##lov": 2,
    "paper": 2,
    "##eng": 2,
    "reference": 2,
    "Fletcher": 0,
    "##zad": 1,
    "gal": 1,
    "##ora": 3,
    "Yun": 1,
    "##ano": 2,
    "begun": 1,
    "Harris": 0,
    "##vre": 1,
    "159": 1,
    "Fate": 1,
    "loft": 1,
    "players": 1,
    "##ots": 1,
    "##mark": 1,
    "##cia": 2,
    "##gic": 1,
    "languages": 2,
    "unconscious": 1,
    "personality": 1,
    "##vern": 0,
    "##orra": 1,
    "Baltimore": 0,
    "##champ": 0,
    "shoulder": 1,
    "##crates": 1,
    "##edar": 1,
    "pedestrian": 1,
    "struck": 1,
    "vehicle": 1,
    "ABC": 2,
    "corridor": 1,
    "scenes": 1,
    "corridors": 1,
    "robot": 1,
    "costumes": 1,
    "##posed": 1,
    "rise": 1,
    "Faculty": 1,
    "Cry": 1,
    "Rising": 1,
    "##care": 2,
    "##sts": 1,
    "##phones": 1,
    "owe": 1,
    "paradigm": 1,
    "Holding": 1,
    "Organizations": 1,
    "Jeremy": 1,
    "perform": 1,
    "Kansas": 0,
    "Area": 1,
    "Director": 1,
    "Publisher": 1,
    "950": 1,
    "Fast": 1,
    "##ckling": 1,
    "winners": 1,
    "##AG": 1,
    "Kuwait": 0,
    "coastline": 1,
    "1991": 1,
    "Owen": 0,
    "##wu": 1,
    "Armand": 1,
    "##vier": 1,
    "##zer": 1,
    "Carlo": 1,
    "##ours": 1,
    "##ittle": 1,
    "Esther": 0,
    "bunch": 1,
    "fury": 1,
    "Sport": 1,
    "Viola": 0,
    "Hartford": 0,
    "##WC": 2,
    "Priest": 0,
    "##TP": 2,
    "fear": 1,
    "Gale": 0,
    "Hawthorne": 0,
    "##worth": 2,
    "##inet": 1,
    "parks": 1,
    "Duty": 1,
    "consultation": 1,
    "guidance": 1,
    "##tus": 1,
    "##mada": 1,
    "pod": 1,
    "##bill": 1,
    "##active": 1,
    "cells": 1,
    "tide": 1,
    "falls": 1,
    "swell": 1,
    "Sustainable": 1,
    "Spring": 2,
    "ensemble": 1,
    "230": 1,
    "530": 1,
    "Times": 1,
    "Watson": 0,
    "Witch": 1,
    "atmosphere": 1,
    "bridge": 1,
    "PT": 2,
    "##aan": 3,
    "##nier": 1,
    "ability": 1,
    "hide": 1,
    "Lola": 0,
    "Dong": 1,
    "77": 1,
    "penny": 1,
    "Direction": 1,
    "##gel": 1,
    "##vide": 1,
    "##mill": 1,
    "sight": 1,
    "stumbled": 1,
    "bass": 1,
    "inn": 1,
    "underground": 1,
    "conclusions": 2,
    "assuming": 2,
    "font": 1,
    "Country": 1,
    "##anti": 1,
    "Apocalypse": 1,
    "Toulouse": 0,
    "wisdom": 1,
    "king": 1,
    "##tein": 1,
    "extremely": 1,
    "blocked": 1,
    "pack": 1,
    "gentlemen": 1,
    "lands": 1,
    "newspapers": 1,
    "##rro": 1,
    "speaks": 1,
    "conference": 1,
    "announces": 1,
    "sweeping": 1,
    "Cuba": 0,
    "relations": 1,
    "Fin": 1,
    "partnership": 1,
    "129": 1,
    "Grande": 0,
    "styling": 1,
    "##romatic": 1,
    "materials": 1,
    "pH": 1,
    "400": 1,
    "Captain": 1,
    "CF": 1,
    "Lamb": 0,
    "Mei": 1,
    "sq": 1,
    "pretend": 1,
    "##mail": 1,
    "hotel": 1,
    "##pus": 1,
    "aware": 1,
    "McCartney": 0,
    "fort": 1,
    "dub": 1,
    "Secret": 0,
    "Wars": 0,
    "Avengers": 0,
    "Infinity": 0,
    "rally": 1,
    "##eux": 0,
    "Noel": 0,
    "##mote": 1,
    "##onda": 0,
    "##race": 0,
    "Caesar": 0,
    "CEO": 2,
    "replaced": 1,
    "##iss": 0,
    "UCLA": 0,
    "Kentucky": 0,
    "##oney": 0,
    "tier": 1,
    "hip": 1,
    "sensible": 1,
    "##grim": 1,
    "Survey": 2,
    "EP": 0,
    "erratic": 1,
    "outs": 1,
    "92": 1,
    "lesbian": 1,
    "##rew": 1,
    "Parliament": 1,
    "delivering": 1,
    "nation": 1,
    "Cabinet": 1,
    "Assessment": 0,
    "value": 1,
    "trap": 1,
    "Upper": 0,
    "relieve": 1,
    "finals": 1,
    "Jamie": 1,
    "whoever": 1,
    "pocket": 1,
    "absent": 2,
    "pneumonia": 1,
    "festivities": 1,
    "decree": 1,
    "##ended": 1,
    "promote": 1,
    "blade": 0,
    "175": 2,
    "Height": 1,
    "160": 1,
    "Weight": 1,
    "Hair": 1,
    "Type": 1,
    "CBS": 1,
    "##ports": 1,
    "Rodgers": 0,
    "Leave": 1,
    "##ule": 1,
    "Lakers": 0,
    "conversation": 2,
    "##ular": 1,
    "##wright": 1,
    "##coon": 1,
    "##bine": 1,
    "armed": 1,
    "security": 1,
    "guard": 1,
    "##NP": 2,
    "Senior": 1,
    "##itis": 1,
    "Luck": 1,
    "Nash": 0,
    "happened": 1,
    "Call": 1,
    "Wolf": 0,
    "##nter": 1,
    "##mons": 1,
    "throne": 1,
    "legal": 1,
    "representation": 1,
    "##gong": 1,
    "adventures": 1,
    "##jk": 1,
    "##ffer": 1,
    "##nut": 1,
    "Plays": 0,
    "sold": 1,
    "128": 1,
    "Sen": 1,
    "veterans": 1,
    "grant": 1,
    "Dead": 1,
    "unhappy": 1,
    "Rama": 1,
    "##sik": 1,
    "##pan": 3,
    "Constantine": 1,
    "punk": 1,
    "##kara": 1,
    "Comes": 0,
    "farmer": 1,
    "##dah": 1,
    "##uga": 1,
    "##ante": 1,
    "##umba": 0,
    "##dus": 1,
    "OS": 1,
    "##rot": 1,
    "Jared": 1,
    "##eto": 1,
    "Russia": 0,
    "intimacy": 1,
    "signs": 2,
    "consist": 1,
    "forgetting": 1,
    "sigh": 1,
    "##sang": 1,
    "asylum": 1,
    "comedy": 1,
    "democracy": 1,
    "Railroad": 0,
    "Stage": 1,
    "##LP": 1,
    "237": 1,
    "1983": 1,
    "Marvel": 0,
    "risk": 2,
    "inform": 1,
    "##ative": 1,
    "thousand": 1,
    "entries": 1,
    "##break": 1,
    "##pion": 1,
    "Bolton": 0,
    "Reds": 0,
    "score": 1,
    "##sian": 1,
    "temper": 1,
    "ultimately": 1,
    "showcase": 1,
    "Tristan": 0,
    "Bates": 0,
    "Theatre": 0,
    "Clarke": 0,
    "Sawyer": 0,
    "##izing": 2,
    "Former": 1,
    "Opera": 1,
    "Viva": 0,
    "Users": 1,
    "##wirl": 1,
    "athletics": 1,
    "bronze": 1,
    "medal": 1,
    "Heritage": 1,
    "Current": 1,
    "##ditions": 2,
    "Clear": 1,
    "Already": 1,
    "government": 2,
    "states": 1,
    "Cyclone": 1,
    "string": 2,
    "Card": 0,
    "Future": 1,
    "Romney": 0,
    "2013": 1,
    "conform": 1,
    "Total": 1,
    "Georgie": 0,
    "Simmons": 0,
    "16th": 1,
    "Bangkok": 0,
    "Thailand": 0,
    "moves": 1,
    "Television": 1,
    "consume": 1,
    "##nay": 1,
    "Forever": 1,
    "Coastal": 1,
    "Lakes": 1,
    "Transportation": 1,
    "uncertain": 1,
    "Visual": 1,
    "seed": 1,
    "jets": 0,
    "marks": 0,
    "##anche": 0,
    "##28": 1,
    "Skin": 1,
    "Equipment": 1,
    "Multi": 1,
    "##ction": 1,
    "Machine": 1,
    "##rica": 2,
    "Pamela": 1,
    "Impact": 1,
    "##lizzard": 1,
    "Fifth": 1,
    "elderly": 1,
    "relative": 1,
    "adult": 1,
    "##ult": 1,
    "##WR": 2,
    "Championship": 1,
    "passion": 1,
    "gain": 1,
    "classics": 1,
    "committed": 2,
    "Republicans": 1,
    "marriage": 1,
    "##quire": 1,
    "accounts": 1,
    "idiot": 1,
    "##cked": 1,
    "thirty": 1,
    "Warm": 1,
    "Regarding": 1,
    "unlock": 1,
    "begins": 1,
    "##cine": 1,
    "##pole": 1,
    "##quence": 1,
    "Southampton": 0,
    "pointless": 1,
    "concerns": 2,
    "Village": 1,
    "##vel": 1,
    "##rca": 1,
    "##ughty": 2,
    "##rds": 1,
    "Madonna": 0,
    "Grammy": 1,
    "1810": 1,
    "closet": 1,
    "funeral": 1,
    "Wildlife": 1,
    "corrupt": 1,
    "permits": 1,
    "Zimbabwe": 0,
    "attacks": 1,
    "elephants": 1,
    "collector": 1,
    "119": 1,
    "sadness": 1,
    "weakness": 1,
    "Madness": 1,
    "##mans": 1,
    "Nr": 1,
    "societal": 1,
    "advancement": 1,
    "technological": 1,
    "Shawn": 0,
    "##dez": 0,
    "stronger": 1,
    "##rima": 1,
    "##ffington": 0,
    "##ths": 1,
    "wavy": 1,
    "studying": 1,
    "squad": 1,
    "72": 0,
    "Marco": 0,
    "Spurs": 0,
    "Nigeria": 0,
    "Arena": 0,
    "Distance": 1,
    "Ray": 0,
    "##sk": 1,
    "Kiran": 0,
    "##suse": 1,
    "guards": 1,
    "##war": 1,
    "Congressman": 1,
    "Grimm": 0,
    "pleaded": 1,
    "guilty": 1,
    "##vas": 1,
    "resign": 1,
    "Nation": 1,
    "Vol": 1,
    "dip": 1,
    "Midnight": 1,
    "Jonathan": 0,
    "Pastor": 1,
    "DNA": 2,
    "##aging": 1,
    "##riot": 0,
    "rooms": 1,
    "terrorism": 1,
    "finance": 1,
    "Ogden": 0,
    "Seems": 1,
    "typical": 1,
    "1874": 1,
    "##wich": 1,
    "Training": 1,
    "Bengals": 0,
    "##offs": 1,
    "##oes": 1,
    "striker": 1,
    "desperately": 1,
    "Located": 1,
    "##mona": 0,
    "Near": 1,
    "142": 1,
    "Tag": 0,
    "LSU": 1,
    "chest": 1,
    "pains": 1,
    "##rum": 1,
    "Holly": 1,
    "degrees": 1,
    "suicide": 1,
    "Mackenzie": 1,
    "Barrow": 0,
    "United": 0,
    "offering": 1,
    "HIV": 1,
    "##dition": 1,
    "touches": 1,
    "softball": 1,
    "GM": 1,
    "UTC": 1
  },
  "B-person": {
    "@": 6,
    "p": 2,
    "##aul": 1,
    "##walk": 0,
    "It": 0,
    "'": 2,
    "s": 4,
    "the": 1,
    "view": 0,
    "from": 0,
    "where": 0,
    "I": 0,
    "m": 1,
    "living": 0,
    "for": 0,
    "two": 0,
    "weeks": 0,
    ".": 4,
    "Empire": 0,
    "State": 0,
    "Building": 0,
    "=": 0,
    "E": 5,
    "##SB": 0,
    "Pretty": 0,
    "bad": 0,
    "storm": 0,
    "here": 0,
    "last": 0,
    "evening": 0,
    "From": 0,
    "Green": 0,
    "News": 0,
    "##fe": 0,
    "##ed": 0,
    ":": 0,
    "A": 2,
    "##HF": 0,
    "##A": 7,
    "extends": 0,
    "deadline": 0,
    "Sage": 0,
    "Award": 0,
    "to": 1,
    "Nov": 0,
    "5": 0,
    "http": 0,
    "/": 1,
    "tiny": 0,
    "##ur": 0,
    "##l": 4,
    "com": 0,
    "24": 0,
    "##ag": 0,
    "##j": 1,
    "##38": 0,
    "P": 2,
    "##xley": 0,
    "##es": 0,
    "Top": 0,
    "50": 1,
    "Photography": 0,
    "Contest": 0,
    "Pictures": 0,
    "of": 0,
    "August": 2,
    "2010": 0,
    "bit": 0,
    "l": 2,
    "##y": 10,
    "b": 1,
    "##g": 0,
    "##C": 1,
    "##Z": 0,
    "##0": 0,
    "#": 4,
    "photography": 0,
    "today": 0,
    "is": 0,
    "my": 0,
    "day": 0,
    "at": 0,
    "office": 0,
    "4": 1,
    "##D": 3,
    "##bling": 1,
    "place": 0,
    "til": 0,
    "mon": 0,
    "##day": 0,
    ",": 1,
    "party": 0,
    "&": 0,
    "##t": 0,
    ";": 0,
    "3": 0,
    "watching": 0,
    "V": 3,
    "##MA": 0,
    "pre": 0,
    "-": 9,
    "show": 0,
    "again": 0,
    "lo": 1,
    "it": 0,
    "was": 0,
    "n": 0,
    "t": 2,
    "even": 0,
    "a": 0,
    "good": 0,
    "first": 0,
    "time": 0,
    "so": 0,
    "bored": 0,
    "!": 0,
    "27": 0,
    "followers": 0,
    "30": 0,
    "goal": 0,
    "This": 0,
    "2nd": 0,
    "hospital": 0,
    "i": 0,
    "##ve": 2,
    "been": 0,
    "in": 0,
    "but": 0,
    "just": 7,
    "seen": 0,
    "doctor": 0,
    "who": 0,
    "an": 1,
    "older": 0,
    "version": 0,
    "##in": 8,
    ")": 0,
    "Friday": 0,
    "Night": 0,
    "Eat": 0,
    "##s": 3,
    "##wi": 1,
    "##pic": 0,
    "2": 0,
    "##p": 0,
    "##d": 1,
    "##v": 0,
    "##tr": 0,
    "Gotta": 0,
    "dress": 0,
    "up": 0,
    "##ndon": 0,
    "fashion": 0,
    "week": 0,
    "and": 0,
    "style": 0,
    "Su": 0,
    "##zie": 1,
    "##55": 0,
    "whispering": 0,
    "cause": 0,
    "may": 0,
    "have": 0,
    "had": 0,
    "1": 0,
    "too": 0,
    "many": 0,
    "vodka": 0,
    "night": 0,
    "am": 0,
    "##il": 0,
    "fragile": 0,
    "hold": 0,
    "me": 0,
    "?": 0,
    "NFL": 0,
    "Week": 0,
    "picks": 0,
    "blog": 0,
    "on": 0,
    "The": 2,
    "_": 2,
    "Score": 0,
    "website": 0,
    "blogs": 0,
    "##sco": 0,
    "##re": 0,
    "##f": 1,
    "09": 0,
    "17": 0,
    "##iz": 0,
    "##zo": 0,
    "##law": 0,
    "##2": 0,
    "like": 0,
    "Soul": 5,
    "##ja": 6,
    "##B": 2,
    "##oy": 0,
    "songs": 0,
    "after": 0,
    "few": 0,
    "drinks": 0,
    "asked": 0,
    "question": 0,
    "once": 0,
    "no": 0,
    "You": 0,
    "ask": 0,
    "about": 0,
    "fucking": 0,
    "don": 0,
    "##uts": 0,
    "you": 0,
    "##ut": 0,
    "nice": 0,
    "every": 0,
    "year": 0,
    "your": 0,
    "\"": 0,
    "best": 0,
    "##friend": 0,
    "get": 0,
    "yo": 0,
    "ass": 0,
    "trouble": 0,
    "##m": 5,
    "##dh": 1,
    "doi": 0,
    "##n": 8,
    "##me": 0,
    "R": 6,
    "##T": 2,
    "mid": 0,
    "##get": 0,
    "##gs": 0,
    "hate": 0,
    "people": 0,
    "write": 0,
    "drunk": 0,
    "status": 0,
    "must": 0,
    "be": 0,
    "having": 0,
    "great": 0,
    "if": 0,
    "sat": 0,
    "writing": 0,
    "face": 0,
    "##book": 0,
    "Mr": 3,
    "##z": 4,
    "##E": 1,
    "##ndy": 0,
    "##ru": 0,
    "le": 0,
    "##avi": 0,
    "Tuesday": 0,
    "guys": 0,
    "are": 0,
    "cooking": 0,
    "dozen": 0,
    "pizza": 0,
    "our": 0,
    "house": 0,
    "tail": 0,
    "##gate": 0,
    "tonight": 0,
    "Nonetheless": 0,
    "smells": 0,
    "fresh": 0,
    "this": 0,
    "heart": 0,
    "Park": 0,
    "(": 0,
    "ing": 0,
    "Day": 0,
    "Photo": 0,
    "meter": 0,
    "shark": 0,
    "##Q": 0,
    "##un": 1,
    "##1": 0,
    "##b": 0,
    "how": 0,
    "everyone": 0,
    "goin": 0,
    "Phoebe": 0,
    "also": 0,
    "loved": 0,
    "years": 0,
    "euro": 0,
    "##vision": 0,
    "entry": 0,
    "hop": 0,
    "##pa": 0,
    "##a": 13,
    "they": 0,
    "were": 0,
    "cool": 0,
    "Metro": 0,
    "##PC": 0,
    "##S": 0,
    "has": 0,
    "worst": 0,
    "customer": 0,
    "service": 0,
    "ve": 0,
    "experienced": 0,
    "months": 0,
    "trying": 0,
    "help": 0,
    "someone": 0,
    "order": 0,
    "phone": 0,
    "metro": 0,
    "##cs": 0,
    "fail": 0,
    "x": 0,
    "##op": 1,
    "##hi": 0,
    "##e": 4,
    "##x": 0,
    "He": 0,
    "habit": 0,
    "##weet": 0,
    "##ing": 0,
    "same": 0,
    "as": 0,
    "T": 1,
    "##R": 1,
    "##UE": 0,
    "friend": 0,
    "walks": 0,
    "when": 0,
    "everybody": 0,
    "else": 0,
    "out": 0,
    "Ya": 0,
    "pen": 0,
    "##guin": 0,
    "coming": 0,
    "see": 0,
    "next": 0,
    "plotting": 0,
    "now": 0,
    "mist": 0,
    "##er": 8,
    "##cor": 0,
    "*": 1,
    "Smile": 0,
    "him": 0,
    "Can": 0,
    "we": 0,
    "sit": 0,
    "together": 0,
    "while": 0,
    "before": 0,
    "round": 0,
    "tears": 0,
    "gone": 0,
    "feeling": 0,
    "still": 0,
    "stay": 0,
    "B": 5,
    "##ie": 4,
    "##ber": 0,
    "##gy": 1,
    "##pt": 0,
    "got": 0,
    "some": 0,
    "news": 0,
    "Yeah": 0,
    "can": 0,
    "come": 0,
    "meeting": 0,
    "tomorrow": 0,
    "S": 1,
    "##med": 0,
    "##ic": 0,
    "missing": 0,
    "autumn": 0,
    "because": 0,
    "work": 0,
    "into": 0,
    "forests": 0,
    "Fell": 0,
    "##as": 1,
    "Do": 0,
    "lick": 0,
    "##uss": 0,
    "##Y": 2,
    "L": 2,
    "##O": 0,
    "##VE": 0,
    "IT": 0,
    "enjoy": 0,
    "u": 0,
    "married": 0,
    "preacher": 0,
    "said": 0,
    "kiss": 0,
    "bride": 0,
    "Sex": 0,
    "##stro": 0,
    "##logy": 0,
    "Pi": 0,
    "##ces": 0,
    "tend": 0,
    "escape": 0,
    "fantasy": 0,
    "dreams": 0,
    "There": 0,
    "free": 0,
    "wait": 0,
    "r": 2,
    "##aven": 1,
    "game": 0,
    "go": 1,
    "ray": 1,
    "rice": 0,
    "took": 0,
    "When": 0,
    "mom": 0,
    "makes": 0,
    "live": 0,
    "with": 0,
    "dad": 0,
    "Sc": 5,
    "##oot": 5,
    "Braun": 0,
    "life": 0,
    "Part": 0,
    "7": 0,
    "Try": 0,
    "##r": 2,
    "miss": 0,
    "being": 0,
    "able": 0,
    "run": 0,
    "dance": 0,
    "around": 0,
    "all": 0,
    "instead": 0,
    "catch": 0,
    "breath": 0,
    "five": 0,
    "minutes": 0,
    "##no": 1,
    "##og": 0,
    "hey": 0,
    "wife": 0,
    "Cat": 0,
    "##h": 1,
    "any": 0,
    "chance": 0,
    "shout": 0,
    "her": 0,
    "Today": 0,
    "promotion": 0,
    "going": 0,
    "home": 0,
    "Wisconsin": 0,
    "days": 0,
    "So": 0,
    "content": 0,
    "right": 0,
    "##W": 2,
    "##EE": 0,
    "##jos": 0,
    "##ep": 0,
    "##hs": 0,
    "Em": 1,
    "##ls": 2,
    "Month": 0,
    "Deborah": 1,
    "Speech": 0,
    "Path": 0,
    "##ologist": 0,
    "Children": 0,
    "Re": 1,
    "##hab": 0,
    "Patricia": 1,
    "M": 3,
    "##fer": 0,
    "##ral": 0,
    "Au": 0,
    "##th": 0,
    "##pec": 0,
    "Women": 0,
    "Care": 0,
    "Lil": 1,
    "##st": 0,
    "want": 0,
    "back": 0,
    "Us": 0,
    "##tre": 0,
    "##am": 0,
    "later": 0,
    "Really": 0,
    "hope": 0,
    "g": 3,
    "##las": 0,
    "##go": 0,
    "##w": 0,
    "##film": 0,
    "Winter": 0,
    "Bone": 0,
    "need": 0,
    "job": 0,
    "applications": 0,
    "then": 0,
    "Trail": 0,
    "##U": 0,
    "##lum": 0,
    "We": 0,
    "##F": 5,
    "##or": 2,
    "##J": 3,
    "##nn": 0,
    "##4": 0,
    "##ee": 0,
    "fun": 0,
    "##nies": 0,
    "photo": 0,
    "AL": 0,
    "##L": 3,
    "##IM": 1,
    "eaten": 0,
    "large": 0,
    "quantity": 0,
    "orange": 0,
    "Bon": 2,
    "##fire": 0,
    "ton": 0,
    "##ite": 2,
    "All": 0,
    "welcome": 0,
    "j": 7,
    "##oe": 2,
    "included": 0,
    "K": 4,
    "##FS": 0,
    "##H": 0,
    "totally": 0,
    "w": 0,
    "o": 1,
    "phones": 0,
    "or": 0,
    "computer": 0,
    "myself": 0,
    "God": 11,
    "Bring": 0,
    "peace": 0,
    "bath": 0,
    "do": 0,
    "shut": 0,
    "sa": 6,
    "##te": 1,
    "tan": 1,
    "##ya": 2,
    "will": 0,
    "10": 0,
    "away": 0,
    "mean": 0,
    "What": 0,
    "F": 1,
    "Rabbi": 0,
    "Before": 0,
    "After": 0,
    "Yo": 1,
    "Ki": 1,
    "##pp": 0,
    "Ask": 0,
    "Five": 0,
    "En": 0,
    "##light": 0,
    "##en": 7,
    "via": 0,
    "SF": 0,
    "##ood": 0,
    "Not": 0,
    "only": 0,
    "Battle": 0,
    "##star": 0,
    "##G": 2,
    "##ala": 0,
    "##ctic": 0,
    "32nd": 0,
    "Anniversary": 0,
    "3rd": 0,
    "season": 0,
    "premiere": 0,
    "Star": 0,
    "##ars": 0,
    "##lone": 0,
    "off": 0,
    "al": 1,
    "##der": 0,
    "##wood": 1,
    "ya": 0,
    "hopefully": 0,
    "co": 0,
    "##dy": 0,
    "##po": 0,
    "mail": 0,
    "##li": 1,
    "##ter": 0,
    "##i": 4,
    "##mei": 0,
    "##je": 0,
    "##ree": 0,
    "net": 0,
    "e": 0,
    "br": 1,
    "##ui": 1,
    "##k": 0,
    "##bar": 0,
    "tip": 0,
    "van": 0,
    "##eman": 0,
    "die": 0,
    "v": 0,
    "##ori": 0,
    "##ge": 2,
    "beg": 0,
    "##on": 6,
    "##nen": 0,
    "met": 0,
    "##hisky": 0,
    "##die": 0,
    "##et": 0,
    "hi": 0,
    "##u": 1,
    "da": 0,
    "##gen": 0,
    "k": 2,
    "Its": 0,
    "stupid": 0,
    "attitude": 0,
    "pp": 0,
    "##us": 1,
    "try": 0,
    "##na": 4,
    "shit": 0,
    "W": 2,
    "##TF": 0,
    "mad": 1,
    "d": 2,
    "##nt": 0,
    "talk": 0,
    "Damn": 0,
    "##een": 0,
    "##uo": 0,
    "##tes": 0,
    "remember": 0,
    "age": 0,
    "##pen": 1,
    "##cer": 1,
    "##ar": 3,
    "##ly": 0,
    "Crazy": 1,
    "Steve": 4,
    "Carly": 1,
    "Megan": 1,
    "Josh": 2,
    "fat": 0,
    "damn": 0,
    "##teen": 0,
    "##q": 0,
    "Last": 0,
    "stop": 0,
    "thank": 0,
    "god": 0,
    "##dd": 0,
    "H": 2,
    "Plus": 0,
    "##RD": 0,
    "##ke": 1,
    "##ving": 0,
    "im": 0,
    "getting": 0,
    "mine": 0,
    "Fan": 0,
    "##cy": 0,
    "##flow": 0,
    "hair": 0,
    "salon": 0,
    "its": 0,
    "packed": 0,
    "ne": 0,
    "##iman": 1,
    "##M": 0,
    "##cus": 0,
    "##20": 0,
    "##3": 1,
    "Where": 0,
    "##have": 0,
    "##su": 0,
    "##per": 1,
    "##power": 0,
    "##ogue": 0,
    "##lam": 0,
    "##GI": 1,
    "##RL": 0,
    "Ah": 0,
    "know": 0,
    "She": 0,
    "simply": 0,
    "Sept": 0,
    "Issue": 0,
    "My": 0,
    "boyfriend": 0,
    "aunt": 0,
    "worked": 0,
    "Anna": 1,
    "Win": 0,
    "##tor": 0,
    "NY": 0,
    "gotta": 0,
    "let": 0,
    "em": 3,
    "stick": 0,
    "lot": 0,
    "showing": 0,
    "their": 0,
    "iPhone": 0,
    "such": 0,
    "really": 0,
    "not": 0,
    "that": 0,
    "interesting": 0,
    "In": 0,
    "##fa": 0,
    "##mous": 0,
    "Kid": 1,
    "always": 0,
    "problems": 0,
    "##thin": 0,
    "didn": 0,
    "cut": 0,
    "ha": 0,
    "For": 0,
    "code": 0,
    "written": 0,
    "since": 0,
    "delay": 0,
    "between": 0,
    "commit": 0,
    "SC": 1,
    "running": 0,
    "hardware": 0,
    "AND": 0,
    "##TH": 0,
    "##ING": 0,
    "YOU": 0,
    "ST": 0,
    "##AN": 0,
    "##OR": 2,
    "##UR": 0,
    "##NS": 0,
    "ON": 0,
    "TO": 0,
    "SP": 0,
    "##IT": 0,
    "##HA": 0,
    "##AP": 0,
    "##P": 0,
    "##EN": 2,
    "##EC": 0,
    "##OM": 0,
    "THE": 0,
    "MA": 1,
    "##IN": 1,
    "##CE": 0,
    "OF": 0,
    "##ER": 0,
    "PA": 0,
    "kids": 0,
    "AC": 0,
    "Large": 0,
    "Group": 0,
    "University": 0,
    "Cathedral": 0,
    "Learning": 0,
    "G": 4,
    "##24": 0,
    "##pm": 0,
    "Be": 0,
    "sure": 0,
    "check": 0,
    "WA": 0,
    "##K": 5,
    "##at": 1,
    "##ta": 0,
    "##cks": 1,
    "follow": 0,
    "already": 0,
    "one": 0,
    "call": 0,
    "thirst": 0,
    "##ma": 0,
    "##o": 6,
    "##ck": 0,
    "team": 0,
    "##kat": 0,
    "##sta": 0,
    "##bit": 0,
    "##ch": 0,
    "them": 0,
    "##aine": 0,
    "Who": 0,
    "Hawaii": 0,
    "chin": 0,
    "##ese": 0,
    "food": 0,
    "arch": 0,
    "##ery": 0,
    "range": 0,
    "either": 0,
    "sun": 0,
    "St": 0,
    "##rig": 0,
    "##bt": 0,
    "ain": 0,
    "##tree": 0,
    "Played": 0,
    "table": 0,
    "tennis": 0,
    "store": 0,
    "impressed": 0,
    "Did": 0,
    "analogue": 0,
    "controller": 0,
    "Lu": 1,
    "Co": 1,
    "##mbs": 0,
    "Fun": 0,
    "thing": 0,
    "heard": 0,
    "Wing": 1,
    "tell": 0,
    "wood": 0,
    "scared": 0,
    "##ow": 1,
    "Cowboy": 0,
    "cheer": 0,
    "went": 0,
    "awful": 0,
    "awesome": 0,
    "moment": 0,
    "realized": 0,
    "did": 0,
    "class": 0,
    "Time": 0,
    "Warner": 0,
    "Cable": 0,
    "Boy": 0,
    "##cott": 0,
    "##pi": 0,
    "Movie": 0,
    "Channel": 0,
    "Because": 0,
    "Deal": 0,
    "With": 0,
    "Netflix": 0,
    "##c": 2,
    "Fresh": 0,
    "ps": 0,
    "##ych": 0,
    "ward": 0,
    "finally": 0,
    "relax": 0,
    "##tter": 0,
    "45": 0,
    "##8": 0,
    "0": 0,
    "hours": 0,
    "49": 0,
    "seconds": 0,
    "Find": 0,
    "yours": 0,
    "se": 0,
    "##oc": 0,
    "##ode": 0,
    "org": 0,
    "##time": 0,
    "pu": 0,
    "##nc": 0,
    "##tu": 0,
    "##ality": 0,
    "used": 0,
    "guy": 0,
    "honestly": 0,
    "haze": 0,
    "Just": 0,
    "surprise": 0,
    "pet": 1,
    "kit": 0,
    "##ten": 0,
    "J": 17,
    "owners": 0,
    "informed": 0,
    "double": 0,
    "##awed": 0,
    "##oly": 0,
    "##da": 0,
    "##ct": 0,
    "##yl": 2,
    "which": 0,
    "form": 0,
    "re": 0,
    "##tar": 0,
    "##dation": 0,
    "animal": 0,
    "kingdom": 0,
    "|": 0,
    "##nd": 1,
    "##ay": 0,
    "De": 0,
    "Way": 0,
    "stores": 0,
    "About": 0,
    "online": 0,
    "diet": 0,
    "##ici": 0,
    "##an": 1,
    "thinner": 0,
    "stool": 0,
    "than": 0,
    "usual": 0,
    "identified": 0,
    "removed": 0,
    "ago": 0,
    "c": 0,
    "##GB": 0,
    "##MB": 0,
    "##ill": 0,
    "##iam": 0,
    "Here": 0,
    "DC": 0,
    "rest": 0,
    "Looking": 0,
    "forward": 0,
    "Yes": 0,
    "sir": 0,
    "big": 0,
    "questions": 0,
    "new": 0,
    "Twitter": 0,
    "PS": 0,
    "ll": 0,
    "responding": 0,
    "his": 0,
    "own": 0,
    "account": 0,
    "Make": 0,
    "##yr": 0,
    "##inge": 0,
    "anything": 0,
    "switch": 0,
    "till": 0,
    "noon": 0,
    "anyone": 0,
    "high": 0,
    "fly": 0,
    "FA": 0,
    "##CT": 0,
    "comfortable": 0,
    "yourself": 0,
    "nothing": 0,
    "matters": 0,
    "nobody": 0,
    "Lindsay": 12,
    "Lo": 5,
    "##han": 3,
    "allegedly": 0,
    "failed": 0,
    "drug": 0,
    "test": 0,
    "fetch": 0,
    "Quick": 1,
    "put": 0,
    "shocked": 0,
    "faces": 0,
    "23": 0,
    "th": 0,
    "##ii": 0,
    "##is": 1,
    "strong": 0,
    "h": 0,
    "##unch": 0,
    "Adam": 2,
    "story": 0,
    "##ulp": 0,
    "##ED": 1,
    "##NE": 0,
    "##SD": 0,
    "N": 0,
    "##ES": 1,
    "CR": 0,
    "UP": 0,
    "AT": 0,
    "VI": 0,
    "##SI": 0,
    "##ON": 0,
    "##UN": 0,
    "##GE": 0,
    "18": 0,
    "+": 0,
    "NO": 0,
    "CO": 0,
    "##LL": 3,
    "##EG": 0,
    "ID": 0,
    "NE": 0,
    "LA": 1,
    "##DI": 1,
    "##RE": 0,
    "11": 0,
    "##PM": 0,
    "247": 0,
    "##ST": 1,
    "HK": 0,
    "angel": 0,
    "##port": 0,
    "##ug": 0,
    "##ues": 0,
    "##ir": 0,
    "Episode": 0,
    "Little": 0,
    "Lia": 0,
    "##rs": 0,
    "air": 0,
    "UK": 0,
    "October": 0,
    "Loser": 0,
    "##face": 0,
    "Laura": 0,
    "mi": 1,
    "lets": 0,
    "might": 0,
    "Such": 0,
    "shiny": 0,
    "morning": 0,
    "Love": 0,
    "Anyway": 0,
    "very": 0,
    "busy": 0,
    "Born": 0,
    "##his": 0,
    "##aby": 0,
    "y": 0,
    "##hu": 0,
    "monster": 0,
    "##love": 0,
    "made": 0,
    "D": 0,
    "Why": 0,
    "somebody": 0,
    "doing": 0,
    "well": 0,
    "say": 0,
    "move": 0,
    "[": 0,
    "Hate": 0,
    "kill": 0,
    "]": 0,
    "cu": 0,
    "loser": 0,
    "If": 0,
    "staying": 0,
    "##aines": 0,
    "##ville": 0,
    "Costa": 0,
    "Lounge": 0,
    "##NI": 0,
    "##HT": 1,
    "Say": 0,
    "ca": 0,
    "##lient": 0,
    "f": 0,
    "##V": 1,
    "##9": 1,
    "jack": 1,
    "##jo": 0,
    "##hn": 0,
    "##son": 0,
    "official": 0,
    "set": 0,
    "list": 0,
    "Berkeley": 0,
    "Oct": 0,
    "6th": 0,
    "Check": 0,
    "video": 0,
    "Three": 0,
    "Days": 0,
    "Grace": 0,
    "Break": 0,
    "Official": 0,
    "Music": 0,
    "Video": 0,
    "HQ": 0,
    "GO": 0,
    "##CL": 0,
    "##tub": 0,
    "Ha": 0,
    "##ha": 0,
    "egg": 0,
    "called": 0,
    "foot": 0,
    "cheese": 0,
    "##rate": 0,
    "found": 0,
    "proper": 0,
    "##lar": 0,
    "##ious": 0,
    "##rida": 0,
    "missions": 0,
    "##gues": 0,
    "school": 0,
    "oh": 0,
    "##22": 0,
    "Hopefully": 0,
    "Force": 0,
    "Padres": 0,
    "win": 0,
    "##ome": 0,
    "##uns": 0,
    "start": 0,
    "old": 0,
    "15": 0,
    "enough": 0,
    "##he": 0,
    "##N": 2,
    "##ear": 0,
    "##est": 0,
    "##xi": 1,
    "er": 0,
    "##sal": 0,
    "Good": 1,
    "Morning": 0,
    "Have": 0,
    "pleasant": 0,
    "happy": 0,
    "##co": 1,
    "##si": 1,
    "##mps": 0,
    "##ams": 0,
    "##rm": 0,
    "Kay": 1,
    "sorry": 0,
    "Well": 0,
    "les": 0,
    "issues": 0,
    "held": 0,
    "knife": 0,
    "##IL": 0,
    "OH": 0,
    "Power": 0,
    "nap": 0,
    "stress": 0,
    "##ful": 0,
    "excited": 0,
    "##mas": 0,
    "##night": 0,
    "9": 0,
    "Wow": 0,
    "saw": 0,
    "pictures": 0,
    "Robert": 4,
    "spent": 0,
    "##roke": 0,
    "perfect": 0,
    "rock": 0,
    "##fu": 0,
    "##cker": 0,
    "##ak": 1,
    "done": 0,
    "leave": 0,
    "alone": 0,
    "regret": 0,
    "Sometimes": 0,
    "something": 0,
    "turn": 0,
    "dumb": 0,
    "things": 0,
    "And": 0,
    "he": 0,
    "pro": 0,
    "##bal": 1,
    "completely": 0,
    "different": 0,
    "Hope": 0,
    "##vin": 0,
    "step": 0,
    "closer": 0,
    "kitchen": 0,
    "chose": 0,
    "maker": 0,
    "measurements": 0,
    "taken": 0,
    "##fo": 0,
    "##lu": 1,
    "coup": 0,
    "##rin": 0,
    "##cess": 0,
    "Please": 0,
    "vote": 0,
    "Pro": 0,
    "Chicago": 0,
    "November": 0,
    "##X": 0,
    "##OL": 0,
    "SA": 0,
    "z": 0,
    "##OT": 1,
    "join": 0,
    "make": 0,
    "Dana": 0,
    "##ni": 2,
    "##lle": 0,
    "wa": 0,
    "##zz": 0,
    "##up": 0,
    "con": 0,
    "##gra": 0,
    "##ts": 0,
    "Terry": 1,
    "##sa": 0,
    "##girl": 0,
    "love": 0,
    "##fy": 0,
    "though": 0,
    "wanna": 0,
    "give": 0,
    "privacy": 0,
    "But": 0,
    "episode": 0,
    "should": 0,
    "One": 0,
    "gonna": 0,
    "slap": 0,
    "Show": 0,
    "Tonight": 0,
    "Local": 0,
    "Native": 0,
    "##ox": 0,
    "##LA": 0,
    "##rim": 0,
    "Club": 0,
    "##oki": 0,
    "Marina": 0,
    "Diamonds": 0,
    "El": 0,
    "##ey": 2,
    "##heat": 0,
    "Mystery": 0,
    "Jets": 0,
    "##rou": 0,
    "##bad": 0,
    "##our": 1,
    "##cene": 0,
    "##eek": 0,
    "##ware": 0,
    "Somehow": 0,
    "##Pad": 0,
    "Air": 0,
    "##plane": 0,
    "mode": 0,
    "problem": 0,
    "connecting": 0,
    "internet": 0,
    "wipe": 0,
    "down": 0,
    "##grade": 0,
    "listened": 0,
    "kid": 0,
    "##apa": 0,
    "won": 0,
    "national": 0,
    "flat": 0,
    "picking": 0,
    "championship": 0,
    "flipping": 0,
    "amazing": 0,
    "au": 0,
    "##gus": 0,
    "rush": 0,
    "##ale": 2,
    "Wanna": 0,
    "meet": 0,
    "##ess": 1,
    "##ej": 1,
    "##ane": 1,
    "##ile": 1,
    "##ys": 1,
    "##tee": 1,
    "##le": 1,
    "ka": 1,
    "##yd": 1,
    "##ross": 1,
    "Come": 0,
    "Body": 0,
    "Heat": 0,
    "signing": 0,
    "Hu": 0,
    "##ler": 0,
    "Hollywood": 0,
    "Sep": 0,
    "23rd": 0,
    "8": 0,
    "##gg": 0,
    "##ress": 0,
    "##ive": 0,
    "Kids": 0,
    "AD": 0,
    "##HD": 0,
    "May": 0,
    "Need": 0,
    "Anti": 0,
    "##psy": 0,
    "##cho": 0,
    "##tic": 0,
    "Me": 0,
    "##ds": 0,
    "Kiss": 0,
    "##AS": 0,
    "birthday": 0,
    "##aka": 0,
    "##lock": 0,
    "##10": 0,
    "##17": 0,
    "GE": 0,
    "106": 0,
    "##OK": 0,
    "AR": 0,
    "Y": 1,
    "##AL": 0,
    "AB": 0,
    "##UT": 1,
    "ME": 0,
    "##I": 0,
    "##KE": 1,
    "SH": 1,
    "##TY": 0,
    "000": 0,
    "##UP": 0,
    "##PL": 0,
    "election": 0,
    "means": 0,
    "head": 0,
    "lots": 0,
    "meetings": 0,
    "shall": 0,
    "tough": 0,
    "looking": 0,
    "Toby": 1,
    "##yme": 0,
    "##hit": 0,
    "##tier": 0,
    "public": 0,
    "bus": 0,
    "C": 3,
    "##iro": 0,
    "month": 0,
    "money": 0,
    "worth": 0,
    "Toy": 0,
    "lawn": 0,
    "Storm": 1,
    "Cal": 1,
    "waiting": 0,
    "extra": 0,
    "##ID": 0,
    "##EA": 0,
    "everything": 0,
    "super": 0,
    "expensive": 0,
    "AAA": 0,
    "##AA": 0,
    "freaking": 0,
    "##out": 0,
    "##kh": 0,
    "laughing": 0,
    "translations": 0,
    "Mark": 4,
    "14": 0,
    "says": 0,
    "crow": 0,
    "never": 0,
    "proud": 0,
    "Dr": 0,
    "##uba": 0,
    "##val": 0,
    "##ua": 0,
    "long": 0,
    "responded": 0,
    "angry": 0,
    "card": 0,
    "##iol": 0,
    "##ogist": 0,
    "whom": 0,
    "known": 0,
    "spit": 0,
    "venom": 0,
    "newspaper": 0,
    "Soo": 0,
    "Glad": 0,
    "Finally": 0,
    "slow": 0,
    "Movies": 0,
    "Is": 0,
    "cricket": 0,
    "killed": 0,
    "20": 0,
    "laundry": 0,
    "room": 0,
    "past": 0,
    "##ian": 0,
    "##nu": 0,
    "##al": 0,
    "Hour": 0,
    "Prayer": 0,
    "Focus": 0,
    "Saturday": 0,
    "13": 0,
    "00": 0,
    "pm": 0,
    "Date": 0,
    "ni": 1,
    "Q": 0,
    "hurt": 0,
    "Apparently": 0,
    "40": 0,
    "hour": 0,
    "min": 0,
    "36": 0,
    "Having": 0,
    "coffee": 0,
    "way": 0,
    "through": 0,
    "wonder": 0,
    "football": 0,
    "forget": 0,
    "wear": 0,
    "glasses": 0,
    "eye": 0,
    "hit": 0,
    "##ice": 1,
    "##dra": 0,
    "##gon": 0,
    "How": 0,
    "updates": 0,
    "created": 0,
    "log": 0,
    "automatically": 0,
    "##dn": 0,
    "##oli": 0,
    "##tics": 0,
    "Al": 1,
    "##ah": 0,
    "##om": 0,
    "Blair": 1,
    "Pope": 11,
    "Brown": 1,
    "sleep": 0,
    "##GS": 0,
    "An": 1,
    "entire": 0,
    "stack": 0,
    "papers": 0,
    "disappeared": 0,
    "think": 0,
    "sign": 0,
    "wrap": 0,
    "Best": 0,
    "pop": 0,
    "##sy": 0,
    "##cle": 0,
    "Vic": 0,
    "##aph": 0,
    "##ad": 0,
    "il": 0,
    "##ike": 0,
    "kn": 0,
    "why": 0,
    "hell": 0,
    "##ht": 0,
    "over": 0,
    "##ean": 0,
    "##mit": 0,
    "##be": 1,
    "q": 0,
    "##ass": 0,
    "ho": 0,
    "Ball": 0,
    "Go": 1,
    "##wn": 0,
    "##coming": 0,
    "Belle": 0,
    "easy": 0,
    "shine": 0,
    "star": 0,
    "basic": 0,
    "tricks": 0,
    "##nce": 1,
    "##ko": 0,
    "##ol": 0,
    "##uz": 0,
    "kinda": 0,
    "corn": 0,
    "##gh": 0,
    "##va": 0,
    "fin": 0,
    "##mma": 1,
    "yelled": 0,
    "Big": 0,
    "X": 1,
    "##hh": 0,
    "dude": 0,
    "choir": 0,
    "teacher": 0,
    "interviewed": 0,
    "gave": 0,
    "us": 0,
    "dig": 1,
    "si": 1,
    "##mm": 0,
    "##ons": 0,
    "##ali": 0,
    "##cious": 0,
    "driving": 0,
    "truck": 0,
    "drinking": 0,
    "Coke": 0,
    "##IA": 0,
    "Mi": 1,
    "Li": 1,
    "##ife": 0,
    "##ize": 0,
    "##oll": 0,
    "##ns": 0,
    "##oo": 0,
    "##osh": 0,
    "##num": 0,
    "##fan": 0,
    "okay": 0,
    "works": 0,
    "##SU": 0,
    "##PP": 0,
    "##BI": 0,
    "##BE": 1,
    "##au": 0,
    "##ra": 0,
    "##the": 1,
    "##ny": 3,
    "book": 0,
    "missed": 0,
    "800": 0,
    "miles": 0,
    "clients": 0,
    "ACC": 0,
    "candidate": 0,
    "commissioner": 0,
    "press": 0,
    "release": 0,
    "making": 0,
    "PR": 1,
    "##IC": 0,
    "##EL": 3,
    "battle": 0,
    "song": 0,
    "Brothers": 0,
    "sisters": 0,
    "war": 0,
    "##RA": 0,
    "O": 3,
    "~": 2,
    "shoe": 0,
    "##box": 0,
    "Happy": 0,
    "Birthday": 0,
    "what": 0,
    "Doc": 1,
    "Lewis": 0,
    "Fantasy": 0,
    "##ro": 0,
    "offers": 0,
    "100": 0,
    "%": 0,
    "Match": 0,
    "$": 0,
    "credits": 0,
    "each": 0,
    "refer": 0,
    "Must": 0,
    "deposit": 0,
    "by": 0,
    "ET": 0,
    "Sunday": 0,
    "19th": 0,
    "neck": 0,
    "hurts": 0,
    "schedule": 0,
    "##cup": 0,
    "##cture": 0,
    "massage": 0,
    "##bie": 0,
    "Step": 0,
    "##ever": 0,
    "##idge": 0,
    "would": 0,
    "mind": 0,
    "##yk": 0,
    "##aling": 0,
    "sleeve": 0,
    "shirt": 0,
    "##pe": 0,
    "tall": 0,
    "ship": 0,
    "Silva": 0,
    "Still": 0,
    "tickets": 0,
    "available": 0,
    "Rain": 0,
    "ready": 0,
    "sail": 0,
    "103": 0,
    "PM": 1,
    "depart": 0,
    "Ho": 0,
    "Lin": 1,
    "##do": 1,
    "Per": 0,
    "Un": 0,
    "Touch": 0,
    "Abu": 0,
    "##rri": 0,
    "##mie": 0,
    "##nto": 0,
    "Playboy": 0,
    "Slovenia": 0,
    "##ne": 0,
    "138": 0,
    "pages": 0,
    "PDF": 0,
    "39": 0,
    "##ted": 0,
    "City": 0,
    "Z": 1,
    "Host": 0,
    "By": 0,
    "Beautiful": 0,
    "Ladies": 0,
    "##cco": 0,
    "##unts": 0,
    "Pay": 0,
    "##able": 0,
    "Coordinator": 0,
    "North": 0,
    "York": 0,
    "37": 0,
    "Con": 1,
    "##tract": 0,
    "Location": 0,
    "Toronto": 0,
    "Ontario": 0,
    "CA": 0,
    "##NA": 0,
    "##DA": 0,
    "##7": 0,
    "jobs": 0,
    "##pent": 0,
    "##king": 0,
    "##ret": 0,
    "##ting": 0,
    "Some": 0,
    "pick": 0,
    "slack": 0,
    "Belfast": 0,
    "weekend": 0,
    "Bo": 0,
    "##tani": 0,
    "Taste": 0,
    "drink": 0,
    "painting": 0,
    "etc": 0,
    "Should": 0,
    "Sa": 1,
    "Sun": 0,
    "overheard": 0,
    "subway": 0,
    "elbows": 0,
    "sweat": 0,
    "happens": 0,
    "##ram": 0,
    "turns": 0,
    "bites": 0,
    "stand": 0,
    "despite": 0,
    "Getting": 0,
    "##eva": 1,
    "##tin": 0,
    "##und": 0,
    "##ert": 0,
    "##hed": 0,
    "##ry": 0,
    "Own": 0,
    "Trying": 0,
    "info": 0,
    "town": 0,
    "##and": 0,
    "##LC": 0,
    "##lot": 0,
    "##hing": 0,
    "Easy": 0,
    "tally": 0,
    "##uise": 0,
    "ill": 0,
    "window": 0,
    "dressed": 0,
    "##lut": 0,
    "##zy": 1,
    "girl": 0,
    "rather": 0,
    "##ast": 0,
    "##ory": 0,
    "wrote": 0,
    "74": 0,
    "words": 0,
    "February": 0,
    "##ho": 1,
    "##heist": 0,
    "choose": 0,
    "moral": 0,
    "##rre": 0,
    "frowning": 0,
    "child": 0,
    "abuse": 0,
    "wit": 0,
    "please": 0,
    "hurry": 0,
    "##jon": 0,
    "##ev": 0,
    "Concert": 0,
    "control": 0,
    "Charles": 1,
    "charge": 0,
    "def": 0,
    "##OS": 0,
    "##man": 2,
    "##tha": 0,
    "##aa": 0,
    "Up": 0,
    "du": 0,
    "early": 0,
    "##RI": 1,
    "83": 0,
    "##ib": 0,
    "black": 0,
    "##hol": 0,
    "##ida": 0,
    "National": 0,
    "she": 0,
    "speed": 0,
    "##13": 0,
    "Hmm": 0,
    "maybe": 0,
    "download": 0,
    "movie": 0,
    "Zombie": 0,
    "Nice": 0,
    "Florida": 0,
    "heat": 0,
    "Oscar": 2,
    "favorite": 0,
    "pass": 0,
    "fast": 0,
    "end": 0,
    "another": 0,
    "yelling": 0,
    "##uh": 1,
    "##eria": 0,
    "##tric": 0,
    "reflect": 0,
    "working": 0,
    "hearts": 0,
    "acts": 0,
    "Jewish": 0,
    "friends": 0,
    "ones": 0,
    "##sp": 0,
    "##ame": 0,
    "##lea": 0,
    "##se": 0,
    "ye": 0,
    "1st": 0,
    "Presbyterian": 0,
    "take": 0,
    "moments": 0,
    "research": 0,
    "answer": 0,
    "IS": 0,
    "Java": 0,
    "##key": 0,
    "GT": 0,
    "Jan": 6,
    "Brewer": 0,
    "##head": 0,
    "##ings": 0,
    "##BM": 0,
    "sense": 0,
    "real": 0,
    "trauma": 0,
    "often": 0,
    "drain": 0,
    "energy": 0,
    "withdraw": 0,
    "##ka": 0,
    "##mo": 0,
    "##27": 0,
    "short": 0,
    "experience": 0,
    "en": 0,
    "##tend": 0,
    "intended": 0,
    "dinner": 0,
    "Man": 2,
    "swear": 0,
    "bought": 0,
    "outfits": 0,
    "cold": 0,
    "dresses": 0,
    "worn": 0,
    "Hugh": 1,
    "Don": 2,
    "##vy": 0,
    "pots": 0,
    "intricate": 0,
    "illuminated": 0,
    "Persian": 0,
    "books": 0,
    "Fi": 0,
    "##tz": 0,
    "##will": 0,
    "Greek": 0,
    "Festival": 0,
    "Johns": 0,
    "AS": 0,
    "Bel": 0,
    "##bin": 1,
    "##ina": 0,
    "##MG": 0,
    "MI": 0,
    "##ION": 0,
    "repeat": 0,
    "yesterday": 0,
    "lesson": 0,
    "hang": 0,
    "##za": 0,
    "Going": 0,
    "ate": 0,
    "Whitney": 1,
    "three": 0,
    "John": 8,
    "##ort": 0,
    "tea": 0,
    "anxiety": 0,
    "far": 0,
    "haven": 0,
    "panic": 0,
    "attack": 0,
    "Home": 0,
    "Online": 0,
    "6": 0,
    "End": 0,
    "U": 0,
    "##AV": 0,
    "EA": 0,
    "##RP": 0,
    "##SS": 0,
    "DR": 0,
    "##VI": 0,
    "##NG": 0,
    "Excuse": 0,
    "SM": 0,
    "Now": 0,
    "##shi": 0,
    "##down": 0,
    "Ghost": 0,
    "##vent": 0,
    "##ures": 0,
    "starts": 0,
    "paranormal": 0,
    "fire": 0,
    "man": 0,
    "##rill": 0,
    "under": 0,
    "unit": 0,
    "On": 0,
    "happier": 0,
    "note": 0,
    "Katie": 1,
    "Work": 0,
    "They": 0,
    "mood": 0,
    "due": 0,
    "##eel": 0,
    "##ong": 0,
    "Melbourne": 0,
    "##omo": 0,
    "##rrow": 0,
    "##ona": 0,
    "##bro": 0,
    "##ther": 0,
    "concert": 0,
    "crazy": 0,
    "ch": 2,
    "##ica": 0,
    "Hey": 0,
    "there": 0,
    "Woman": 0,
    "anymore": 0,
    "Gen": 0,
    "##uin": 0,
    "Will": 0,
    "seeing": 0,
    "type": 0,
    "##amo": 0,
    "##eau": 0,
    "##ty": 0,
    "happening": 0,
    "Fly": 0,
    "##igh": 0,
    "cough": 0,
    "##mot": 1,
    "wishing": 0,
    "except": 0,
    "bi": 1,
    "##eb": 1,
    "##ers": 0,
    "##wa": 0,
    "##lie": 0,
    "word": 0,
    "believe": 0,
    "doesn": 0,
    "look": 0,
    "library": 0,
    "closes": 0,
    "##ff": 0,
    "son": 0,
    "##ng": 0,
    "goes": 0,
    "rich": 0,
    "##mond": 0,
    "##rons": 0,
    "mess": 0,
    "eternal": 0,
    "Great": 0,
    "##bu": 0,
    "##isch": 0,
    "gets": 0,
    "FF": 0,
    "##wes": 0,
    "half": 0,
    "yes": 0,
    "Coca": 0,
    "##ine": 3,
    "##os": 1,
    "Money": 0,
    "That": 0,
    "Other": 0,
    "Shit": 0,
    "Winner": 0,
    "chosen": 0,
    "Monday": 0,
    "Get": 0,
    "cap": 0,
    "##tion": 0,
    "funny": 0,
    "contest": 0,
    "Na": 1,
    "##dal": 1,
    "Novak": 1,
    "tub": 0,
    "Thanksgiving": 0,
    "eating": 0,
    "unless": 0,
    "dishes": 0,
    "Let": 0,
    "road": 0,
    "inscribed": 0,
    "##mar": 0,
    "Cha": 2,
    "##ti": 0,
    "##mah": 0,
    "To": 1,
    "##ip": 0,
    "##pur": 0,
    "57": 0,
    "Called": 0,
    "door": 0,
    "could": 0,
    "Secrets": 0,
    "Thursday": 0,
    "Hood": 0,
    "##ats": 0,
    "##eed": 0,
    "##ove": 0,
    "Twins": 0,
    "Vikings": 0,
    "Lights": 0,
    "Joe": 2,
    "##ien": 0,
    "##kowski": 0,
    "harsh": 0,
    "remind": 0,
    "true": 0,
    "nature": 0,
    "came": 0,
    "person": 0,
    "Jesus": 2,
    "Christ": 0,
    "Over": 0,
    "House": 0,
    "Toni": 0,
    "Thing": 0,
    "##RT": 0,
    "##ssa": 0,
    "Mir": 0,
    "jam": 0,
    "##lo": 1,
    "##but": 0,
    "##ban": 0,
    "##oka": 0,
    "per": 0,
    "eh": 0,
    "##vu": 0,
    "Teen": 0,
    "waking": 0,
    "middle": 0,
    "knowing": 0,
    "more": 0,
    "teen": 0,
    "##thing": 0,
    "##with": 0,
    "summer": 0,
    "bed": 0,
    "##quin": 0,
    "images": 0,
    "fan": 0,
    "##pop": 0,
    "photos": 0,
    "390": 0,
    "##00": 0,
    "Edward": 1,
    "virgin": 0,
    "series": 0,
    "##37": 0,
    "##64": 0,
    "510": 0,
    "75": 0,
    "##5": 0,
    "Samuel": 1,
    "##vo": 0,
    "##fair": 0,
    "Williams": 0,
    "Po": 0,
    "##bell": 0,
    "Lincoln": 1,
    "IL": 0,
    "##MF": 0,
    "##gi": 0,
    "rising": 0,
    "senior": 0,
    "Op": 0,
    "##rah": 1,
    "Leadership": 0,
    "Academy": 0,
    "##onia": 0,
    "##dea": 0,
    "##dly": 0,
    "www": 0,
    "watch": 0,
    "IN": 0,
    "##IF": 0,
    "comment": 0,
    "sub": 0,
    "##cribe": 0,
    "##eu": 0,
    "##6": 0,
    "glass": 0,
    "waves": 0,
    "flu": 0,
    "##ffy": 0,
    "powder": 0,
    "neither": 0,
    "New": 0,
    "Post": 0,
    "Bey": 3,
    "##ce": 3,
    "Am": 0,
    "Yours": 0,
    "Play": 0,
    "##list": 0,
    "Featured": 0,
    "##VO": 0,
    "Live": 0,
    "pat": 0,
    "##ate": 0,
    "ma": 1,
    "di": 0,
    "ou": 1,
    "thought": 0,
    "##ede": 1,
    "##rsen": 1,
    "Hang": 1,
    "##ela": 3,
    "Fulham": 0,
    "##burn": 0,
    "##rove": 0,
    "Vin": 0,
    "##tage": 0,
    "sports": 0,
    "cars": 0,
    "capture": 0,
    "earlier": 0,
    "##BO": 0,
    "classic": 0,
    "left": 0,
    "lost": 0,
    "Michael": 7,
    "forever": 0,
    "Vanessa": 0,
    "##SC": 0,
    "Ok": 0,
    "Look": 0,
    "post": 0,
    "math": 0,
    "games": 0,
    "site": 0,
    "smart": 0,
    "##board": 0,
    "##MX": 0,
    "##hane": 0,
    "##eil": 0,
    "Another": 0,
    "skating": 0,
    "starting": 0,
    "##illa": 0,
    "ice": 0,
    "la": 0,
    "##tte": 0,
    "##lix": 0,
    "##46": 0,
    "##OH": 0,
    "dislike": 0,
    "Early": 0,
    "Decision": 0,
    "most": 0,
    "Action": 0,
    "thoughtfully": 0,
    "admissions": 0,
    "colleges": 0,
    "fed": 0,
    "jail": 0,
    "terms": 0,
    "probation": 0,
    "##UI": 0,
    "case": 0,
    "laid": 0,
    "##oi": 0,
    "Twenty": 0,
    "Seven": 0,
    "##par": 0,
    "parents": 0,
    "homework": 0,
    "learned": 0,
    "overnight": 0,
    "##hey": 0,
    "##OW": 0,
    "batteries": 0,
    "remote": 0,
    "dead": 0,
    "push": 0,
    "buttons": 0,
    "harder": 0,
    "Si": 0,
    "##TI": 0,
    "courtesy": 0,
    "talking": 0,
    "Ra": 2,
    "##sha": 2,
    "No": 1,
    "cares": 0,
    "Rap": 0,
    "##ig": 0,
    "##udi": 1,
    "happen": 0,
    "musical": 0,
    "personal": 0,
    "city": 0,
    "##of": 0,
    "##cal": 0,
    "##gar": 0,
    "Free": 0,
    "swimming": 0,
    "golf": 0,
    "Sports": 0,
    "Canada": 0,
    "nuts": 0,
    "##hell": 0,
    "##bus": 0,
    "blind": 0,
    "##ducing": 0,
    "teachers": 0,
    "##away": 0,
    "##att": 1,
    "##lly": 1,
    "##hil": 1,
    "##llin": 0,
    "skin": 0,
    "##blin": 0,
    "nose": 0,
    "lush": 0,
    "keep": 0,
    "hurting": 0,
    "feelings": 0,
    "Chin": 0,
    "##AM": 0,
    "un": 0,
    "##rac": 0,
    "##tive": 0,
    "underway": 0,
    "Anything": 0,
    "fair": 0,
    "radio": 0,
    "##oa": 1,
    "##UC": 0,
    "5000": 0,
    "Amazon": 0,
    "Off": 0,
    "##ering": 0,
    "##TC": 0,
    "Desire": 0,
    "Watching": 0,
    "Room": 0,
    "fifth": 0,
    "Tommy": 1,
    "##seau": 0,
    "genius": 0,
    "##room": 0,
    "##mmy": 0,
    "##wise": 0,
    "CH": 0,
    "Da": 0,
    "##ught": 0,
    "knew": 0,
    "joke": 0,
    "##FL": 0,
    "posted": 0,
    "Sorry": 0,
    "##ou": 0,
    "MR": 0,
    "##PR": 0,
    "##ET": 0,
    "##KA": 0,
    "##ND": 0,
    "##azi": 0,
    "ii": 0,
    "DE": 1,
    "agree": 0,
    "##enia": 1,
    "85": 0,
    "##row": 0,
    "performing": 0,
    "somewhere": 0,
    "July": 0,
    "practice": 0,
    "##ish": 0,
    "Nothing": 0,
    "su": 0,
    "sake": 0,
    "fix": 0,
    "Summer": 0,
    "innocent": 0,
    "Wake": 1,
    "September": 0,
    "ends": 0,
    "Recording": 0,
    "vocals": 0,
    "bout": 0,
    "##gie": 0,
    "actress": 0,
    "Every": 0,
    "seven": 0,
    "lose": 0,
    "replace": 0,
    "Maybe": 0,
    "##pu": 0,
    "##ary": 0,
    "unemployed": 0,
    "wrestler": 0,
    "act": 0,
    "total": 0,
    "tool": 0,
    "##py": 0,
    "Jess": 1,
    "##um": 3,
    "Question": 0,
    "te": 0,
    "side": 0,
    "##kick": 0,
    "Yesterday": 0,
    "results": 0,
    "##rog": 0,
    "mm": 0,
    "##eo": 0,
    "##oh": 3,
    "##hee": 0,
    "ah": 0,
    "troll": 0,
    "spell": 0,
    "prop": 0,
    "##ud": 1,
    "hard": 0,
    "inspired": 0,
    "yet": 0,
    "share": 0,
    "testimony": 0,
    "underwater": 0,
    "brought": 0,
    "AG": 0,
    "Jennifer": 1,
    "##nist": 0,
    "quote": 0,
    "##gio": 0,
    "looks": 0,
    "63": 0,
    "##av": 1,
    "wore": 0,
    "socks": 0,
    "second": 0,
    "row": 0,
    "##IP": 0,
    "##od": 0,
    "##iac": 0,
    "##acts": 0,
    "As": 0,
    "find": 0,
    "thoughts": 0,
    "racing": 0,
    "Ely": 0,
    "Mat": 0,
    "##ern": 0,
    "##ity": 0,
    "wish": 0,
    "Ka": 2,
    "##sper": 0,
    "##van": 0,
    "de": 0,
    "theater": 0,
    "##tour": 0,
    "##nde": 0,
    "##gt": 0,
    "##iet": 0,
    "##jn": 0,
    "pan": 0,
    "##ok": 0,
    "op": 0,
    "##ium": 0,
    "Ko": 0,
    "Gary": 1,
    "hot": 0,
    "Lady": 3,
    "Gaga": 0,
    "##25": 0,
    "record": 0,
    "save": 0,
    "much": 0,
    "heading": 0,
    "Grand": 0,
    "Ma": 0,
    "##sque": 1,
    "##rade": 0,
    "Carolyn": 0,
    "##pin": 0,
    "##ion": 0,
    "oldest": 0,
    "soap": 0,
    "54": 0,
    "##LD": 0,
    "stopped": 0,
    "turning": 0,
    "million": 0,
    "viewers": 0,
    "virtual": 0,
    "##tti": 0,
    "interviews": 0,
    "wanted": 0,
    "Full": 0,
    "goodness": 0,
    "Claire": 1,
    "does": 0,
    "least": 0,
    "Thanks": 0,
    "Inner": 0,
    "##izer": 0,
    "##rez": 0,
    "##rl": 0,
    "##ated": 0,
    "##joy": 0,
    "safe": 0,
    "Jenny": 1,
    "##eron": 0,
    "##has": 0,
    "posed": 0,
    "Our": 0,
    "Favorite": 0,
    "YouTube": 0,
    "Drama": 0,
    "Edition": 0,
    "Had": 0,
    "epic": 0,
    "melt": 0,
    "cry": 0,
    "##yt": 0,
    "##hr": 0,
    "shift": 0,
    "Oh": 0,
    "Jersey": 0,
    "Shore": 0,
    "current": 0,
    "plan": 0,
    "shelves": 0,
    "holds": 0,
    "bookstore": 0,
    "Rep": 0,
    "##lace": 0,
    "##ment": 0,
    "Animal": 0,
    "rescue": 0,
    "##IG": 1,
    "##US": 1,
    "##ae": 0,
    "##IS": 1,
    "SE": 0,
    "##KS": 0,
    "##EF": 0,
    "##AT": 0,
    "##istic": 0,
    "nightmare": 0,
    "##itte": 0,
    "attendance": 0,
    "discover": 0,
    "car": 1,
    "plastic": 0,
    "Apple": 0,
    "Il": 1,
    "##uli": 0,
    "cook": 0,
    "thanks": 0,
    "port": 0,
    "##ava": 0,
    "##ffe": 0,
    "cow": 0,
    "##kers": 0,
    "pleased": 0,
    "shooting": 0,
    "emails": 0,
    "Greatest": 0,
    "seems": 0,
    "against": 0,
    "airplane": 0,
    "takes": 0,
    "wind": 0,
    "pink": 0,
    "##bi": 0,
    "##ker": 0,
    "##ph": 0,
    "Working": 0,
    "BA": 0,
    "130": 0,
    "##nso": 0,
    "More": 0,
    "secrets": 0,
    "Copa": 0,
    "##lem": 0,
    "##AR": 0,
    "##WA": 0,
    "##LT": 0,
    "art": 0,
    "At": 0,
    "Tomorrow": 0,
    "Fuck": 0,
    "##we": 0,
    "Ch": 0,
    "##ea": 1,
    "Cho": 1,
    "##osy": 0,
    "##tted": 0,
    "Di": 0,
    "##aper": 0,
    "Review": 0,
    "##if": 0,
    "##ger": 0,
    "Clark": 1,
    "Duke": 0,
    "##ath": 0,
    "watched": 0,
    "machine": 0,
    "Funny": 0,
    "film": 0,
    "Quite": 0,
    "enjoyable": 0,
    "Want": 0,
    "floor": 0,
    "police": 0,
    "##hem": 0,
    "during": 0,
    "incident": 0,
    "dragon": 0,
    "couldn": 0,
    "notice": 0,
    "uncomfortable": 0,
    "walk": 0,
    "guessing": 0,
    "##rf": 0,
    "##vid": 0,
    "white": 0,
    "boy": 0,
    "wasted": 0,
    "USA": 0,
    "recognizes": 0,
    "##cognition": 0,
    "##isi": 0,
    "read": 0,
    "President": 1,
    "Any": 0,
    "##body": 0,
    "waits": 0,
    "until": 0,
    "##FT": 1,
    "item": 0,
    "scanned": 0,
    "calculated": 0,
    "Visa": 0,
    "##ima": 0,
    "##rte": 0,
    "##ll": 0,
    "index": 0,
    "##hp": 0,
    "wonderful": 0,
    "better": 0,
    "Te": 0,
    "##mpest": 0,
    "considered": 0,
    "oil": 0,
    "dirty": 0,
    "Joaquin": 2,
    "Phoenix": 0,
    "Modern": 0,
    "Andy": 2,
    "Kaufman": 0,
    "bizarre": 0,
    "events": 0,
    "leading": 0,
    "##DE": 2,
    "##OD": 0,
    "##MM": 0,
    "##SE": 0,
    "Uh": 0,
    "Looks": 0,
    "leaving": 0,
    "Inspired": 0,
    "##ob": 0,
    "little": 0,
    "Strike": 0,
    "reverse": 0,
    "##ld": 1,
    "##hl": 0,
    "##ss": 0,
    "##ind": 0,
    "##ex": 0,
    "##finger": 0,
    "##int": 0,
    "##hea": 0,
    "^": 0,
    "10th": 0,
    "##ji": 0,
    "England": 0,
    "Think": 0,
    "Tell": 0,
    "Punch": 0,
    "Line": 0,
    "Wrong": 0,
    "point": 0,
    "mobile": 0,
    "exactly": 0,
    "Sophie": 0,
    "Cause": 0,
    "suck": 0,
    "bowler": 0,
    "##hat": 0,
    "##lover": 0,
    "Been": 0,
    "copy": 0,
    "##stal": 0,
    "##gia": 0,
    "##llis": 0,
    "##fra": 0,
    "##mpt": 0,
    "uk": 0,
    "listening": 0,
    "lies": 0,
    "truth": 0,
    "Corey": 0,
    "##lor": 0,
    "##ock": 0,
    "Chinese": 0,
    "##ver": 0,
    "foolish": 0,
    "brilliant": 0,
    "##point": 0,
    "tag": 0,
    "Round": 0,
    "##house": 0,
    "formal": 0,
    "##ities": 0,
    "photograph": 0,
    "midway": 0,
    "lights": 0,
    "casually": 0,
    "stalking": 0,
    "Cheryl": 1,
    "Der": 1,
    "Rob": 2,
    "Also": 0,
    "Matt": 1,
    "saying": 0,
    "##RO": 0,
    "##corn": 0,
    "Constitution": 0,
    "Matters": 0,
    "Things": 0,
    "Contact": 0,
    "Professional": 0,
    "##grapher": 0,
    "liked": 0,
    "possibly": 0,
    "Alright": 0,
    "add": 0,
    "pin": 0,
    "22": 0,
    "##AF": 0,
    "##36": 0,
    "80": 0,
    "started": 0,
    "videos": 0,
    "sharing": 0,
    "menu": 0,
    "play": 0,
    "##yo": 2,
    "##food": 0,
    "##ico": 0,
    "##tta": 0,
    "##berries": 0,
    "honey": 0,
    "cc": 0,
    "Danielle": 0,
    "tied": 0,
    "5th": 0,
    "band": 0,
    "compete": 0,
    "South": 0,
    "107": 0,
    "Band": 0,
    "spot": 0,
    "open": 0,
    "##cu": 0,
    "joined": 0,
    "sweet": 0,
    "Dave": 2,
    "gives": 0,
    "sport": 0,
    "##19": 0,
    "Hell": 0,
    "Schedule": 0,
    "Unless": 0,
    "##ust": 0,
    "tired": 0,
    "seem": 0,
    "awake": 0,
    "Cancer": 0,
    "Due": 0,
    "paid": 0,
    "Better": 0,
    "##ix": 0,
    "nine": 0,
    "AN": 0,
    "##date": 0,
    "Report": 0,
    "##ailed": 0,
    "Her": 0,
    "Drug": 0,
    "Test": 0,
    "##lated": 0,
    "Resources": 0,
    "inspiration": 0,
    "95": 0,
    "Morgan": 0,
    "Le": 0,
    "Fay": 0,
    "##say": 0,
    "US": 0,
    "reported": 0,
    "##nk": 0,
    "wearing": 0,
    "Weekend": 0,
    "Football": 0,
    "sad": 0,
    "Mouth": 0,
    "Ai": 0,
    "##ani": 0,
    "##flower": 0,
    "##12": 0,
    "ordered": 0,
    "CD": 0,
    "idea": 0,
    "Political": 0,
    "Wire": 0,
    "Bonus": 0,
    "favourite": 0,
    "knit": 0,
    "babies": 0,
    "Nope": 0,
    "##my": 0,
    "##line": 0,
    "##chi": 0,
    "##ller": 0,
    "##ich": 0,
    "##gu": 0,
    "Queen": 0,
    "insists": 0,
    "cigarettes": 0,
    "Holy": 0,
    "##roo": 0,
    "##ouse": 0,
    "staff": 0,
    "smile": 0,
    "raised": 0,
    "eyebrow": 0,
    "##ot": 0,
    "easier": 0,
    "##uk": 0,
    "picture": 0,
    "Ad": 0,
    "Dry": 0,
    "shape": 0,
    "red": 0,
    "##rots": 0,
    "##lla": 0,
    "surprised": 0,
    "sent": 0,
    "request": 0,
    "hadn": 0,
    "ta": 2,
    "##ked": 0,
    "address": 0,
    "##lma": 1,
    "##rt": 0,
    "Trey": 0,
    "suppose": 0,
    "##ryl": 0,
    "deck": 0,
    "##yn": 0,
    "##ave": 0,
    "Jo": 0,
    "##les": 0,
    "##bian": 0,
    "teams": 0,
    "everyday": 0,
    "confirmed": 0,
    "Jorge": 1,
    "playing": 0,
    "Devils": 0,
    "Art": 0,
    "Words": 0,
    "Wine": 0,
    "Aye": 0,
    "modern": 0,
    "##paper": 0,
    "##des": 0,
    "##abulous": 0,
    "##pet": 0,
    "split": 0,
    "San": 0,
    "Mateo": 0,
    "magazine": 0,
    "article": 0,
    "rumor": 0,
    "touch": 0,
    "dear": 0,
    "##load": 0,
    "##rr": 0,
    "prefer": 0,
    "GA": 0,
    "announcement": 0,
    "recording": 0,
    "soon": 0,
    "fans": 0,
    "Listen": 0,
    "28": 0,
    "retrospective": 0,
    "Hal": 0,
    "franchise": 0,
    "along": 0,
    "load": 0,
    "other": 0,
    "drive": 0,
    "bug": 0,
    "ji": 0,
    "group": 0,
    "##una": 0,
    "##hala": 0,
    "Anyone": 0,
    "times": 0,
    "smoke": 0,
    "hook": 0,
    "mix": 0,
    "cm": 0,
    "center": 0,
    "##rb": 0,
    "Willow": 1,
    "Smith": 1,
    "Mama": 0,
    "Benjamin": 1,
    "##ton": 0,
    "disease": 0,
    "##OP": 0,
    "##GA": 0,
    "Sarah": 1,
    "Jessica": 3,
    "Parker": 0,
    "Gwen": 4,
    "Stefan": 0,
    "##rap": 0,
    "Success": 0,
    "Fashion": 0,
    "filmed": 0,
    "sex": 0,
    "##log": 0,
    "##sh": 1,
    "##TL": 0,
    "##tra": 0,
    "supposed": 0,
    "rain": 0,
    "Bay": 0,
    "weather": 0,
    "shower": 0,
    "Whatever": 0,
    "Sony": 0,
    "Bud": 0,
    "Light": 0,
    "3D": 0,
    "parties": 0,
    "Auburn": 0,
    "es": 0,
    "Abby": 1,
    "##dre": 0,
    "##ake": 1,
    "##hic": 0,
    "##ks": 0,
    "actually": 0,
    "##had": 0,
    "##ija": 0,
    "##ent": 0,
    "##ini": 0,
    "##ws": 0,
    "Ni": 0,
    "##bs": 0,
    "front": 0,
    "Watch": 0,
    "##ader": 0,
    "example": 0,
    "Raven": 0,
    "##laws": 0,
    "spoke": 0,
    "##rook": 0,
    "7th": 0,
    "Business": 0,
    "Alliance": 0,
    "importantly": 0,
    "match": 0,
    "##kt": 0,
    "matter": 0,
    "Kim": 0,
    "##berley": 0,
    "DVD": 0,
    "Out": 0,
    "25th": 0,
    "Sea": 0,
    "##hawk": 0,
    "dirt": 0,
    "##bag": 0,
    "celebrating": 0,
    "meaningful": 0,
    "##about": 0,
    "##birth": 0,
    "##con": 0,
    "##tro": 0,
    "Late": 0,
    "respect": 0,
    "des": 0,
    "##bish": 0,
    "pretty": 0,
    "borne": 0,
    "replies": 0,
    "complete": 0,
    "blank": 0,
    "clay": 0,
    "##yx": 0,
    "##BA": 0,
    "Ohio": 0,
    "coach": 0,
    "Frank": 1,
    "Sol": 0,
    "knows": 0,
    "special": 0,
    "Long": 0,
    "Always": 0,
    "wondered": 0,
    "species": 0,
    "highest": 0,
    "bio": 0,
    "##mass": 0,
    "Nat": 0,
    "##act": 0,
    "world": 0,
    "term": 0,
    "##ites": 0,
    "##wei": 0,
    "##che": 0,
    "##ap": 0,
    "##shot": 0,
    "DJ": 3,
    "Mai": 0,
    "Tai": 0,
    "Beach": 0,
    "considering": 0,
    "##IE": 0,
    "tie": 0,
    "Bye": 0,
    "French": 0,
    "IV": 0,
    "embarrassed": 0,
    "BP": 0,
    "##ada": 0,
    "##cki": 0,
[...]
