{
  "B": {
    "I": 3,
    "##dent": 0,
    "##ification": 0,
    "of": 0,
    "AP": 94,
    "##C": 109,
    "##2": 24,
    ",": 0,
    "a": 12,
    "ho": 2,
    "##mo": 11,
    "##logue": 0,
    "the": 0,
    "ad": 77,
    "##eno": 30,
    "##mat": 29,
    "##ous": 26,
    "p": 46,
    "##oly": 23,
    "##po": 24,
    "##sis": 18,
    "co": 11,
    "##li": 11,
    "t": 29,
    "##umour": 25,
    "suppress": 0,
    "##or": 6,
    ".": 0,
    "The": 0,
    "(": 0,
    ")": 0,
    "-": 0,
    "protein": 6,
    "controls": 0,
    "W": 70,
    "##nt": 2,
    "signalling": 0,
    "pathway": 0,
    "by": 0,
    "forming": 0,
    "complex": 1,
    "with": 0,
    "g": 18,
    "##ly": 13,
    "##co": 8,
    "##gen": 39,
    "s": 28,
    "##ynth": 0,
    "##ase": 3,
    "kinase": 0,
    "3": 0,
    "##bet": 7,
    "##a": 19,
    "G": 104,
    "##S": 144,
    "##K": 60,
    "##xin": 1,
    "/": 0,
    "conduct": 0,
    "##in": 3,
    "and": 0,
    "beta": 2,
    "##cate": 0,
    "##nin": 0,
    "Complex": 1,
    "formation": 0,
    "induce": 0,
    "##s": 56,
    "rapid": 0,
    "degradation": 0,
    "In": 2,
    "##lon": 7,
    "car": 7,
    "##cin": 7,
    "##oma": 90,
    "cells": 0,
    "loss": 3,
    "leads": 0,
    "to": 0,
    "accumulation": 0,
    "in": 13,
    "nucleus": 0,
    "where": 0,
    "it": 0,
    "binds": 0,
    "activate": 0,
    "T": 55,
    "##c": 21,
    "##f": 0,
    "4": 0,
    "transcription": 0,
    "factor": 2,
    "reviewed": 0,
    "[": 0,
    "1": 0,
    "]": 0,
    "2": 0,
    "Here": 9,
    "we": 0,
    "report": 0,
    "identification": 0,
    "##mic": 18,
    "structure": 0,
    "Ma": 0,
    "##mmal": 0,
    "##ian": 48,
    "which": 0,
    "closely": 0,
    "resembles": 0,
    "overall": 0,
    "domain": 0,
    "was": 0,
    "functional": 0,
    "analyzed": 0,
    "shown": 0,
    "contain": 0,
    "two": 0,
    "SA": 0,
    "##MP": 1,
    "domains": 0,
    "both": 0,
    "are": 0,
    "required": 0,
    "for": 0,
    "binding": 0,
    "Like": 0,
    "regulate": 0,
    "active": 0,
    "complexes": 0,
    "as": 2,
    "demonstrated": 0,
    "using": 0,
    "trans": 0,
    "##ient": 0,
    "##al": 30,
    "activation": 0,
    "ass": 0,
    "##ays": 0,
    "Human": 0,
    "maps": 0,
    "chromosome": 2,
    "19": 0,
    "##p": 18,
    "##13": 0,
    "may": 0,
    "therefore": 0,
    "have": 0,
    "comparable": 0,
    "functions": 0,
    "development": 0,
    "cancer": 45,
    "A": 52,
    "common": 0,
    "MS": 0,
    "##H": 32,
    "mutation": 0,
    "English": 0,
    "North": 0,
    "American": 0,
    "H": 32,
    "##NP": 4,
    "##CC": 4,
    "families": 0,
    ":": 0,
    "origin": 0,
    "##hen": 28,
    "##otypic": 2,
    "expression": 0,
    "sex": 0,
    "specific": 0,
    "differences": 0,
    "color": 40,
    "##ec": 42,
    "##tal": 44,
    "frequency": 0,
    "##er": 3,
    "##m": 15,
    "##line": 2,
    "gene": 0,
    "previously": 0,
    "identified": 0,
    "seven": 0,
    "kind": 0,
    "##red": 0,
    "hereditary": 45,
    "non": 17,
    "syndrome": 0,
    "investigated": 0,
    ">": 0,
    "at": 36,
    "n": 0,
    "##t": 14,
    "##9": 8,
    "##43": 0,
    "+": 0,
    "disrupt": 0,
    "##lice": 0,
    "site": 0,
    "ex": 4,
    "##on": 30,
    "5": 0,
    "leading": 0,
    "del": 0,
    "##eti": 1,
    "this": 0,
    "from": 0,
    "m": 6,
    "##RNA": 0,
    "represents": 0,
    "only": 0,
    "frequent": 0,
    "so": 0,
    "far": 0,
    "reported": 0,
    "Although": 0,
    "initially": 0,
    "detected": 0,
    "four": 0,
    "33": 0,
    "anal": 4,
    "##ys": 54,
    "##ed": 0,
    "eastern": 0,
    "England": 0,
    "more": 0,
    "extensive": 0,
    "analysis": 0,
    "has": 0,
    "reduced": 0,
    "52": 0,
    "8": 0,
    "%": 0,
    "contrast": 0,
    "10": 0,
    "20": 0,
    "50": 0,
    "separately": 0,
    "Newfoundland": 0,
    "To": 0,
    "investigate": 0,
    "=": 0,
    "United": 0,
    "States": 0,
    "ha": 12,
    "##lot": 0,
    "##ype": 0,
    "micro": 3,
    "##sat": 0,
    "##elli": 0,
    "##te": 2,
    "markers": 0,
    "linked": 0,
    "performed": 0,
    "Within": 0,
    "US": 0,
    "there": 0,
    "little": 0,
    "evidence": 0,
    "recent": 0,
    "most": 0,
    "flank": 0,
    "##ing": 32,
    "CA": 3,
    "##5": 20,
    "D": 260,
    "##28": 0,
    "##8": 0,
    "eight": 0,
    "These": 0,
    "findings": 0,
    "suggested": 0,
    "founder": 0,
    "effect": 0,
    "within": 0,
    "similar": 0,
    "that": 0,
    "others": 0,
    "M": 49,
    "##L": 9,
    "##H1": 2,
    "mutations": 0,
    "Finnish": 0,
    "We": 0,
    "calculated": 0,
    "age": 0,
    "related": 0,
    "risks": 0,
    "all": 2,
    "end": 3,
    "##ome": 2,
    "##tri": 2,
    "o": 66,
    "##var": 46,
    "carriers": 0,
    "76": 0,
    "patients": 0,
    "men": 13,
    "women": 0,
    "For": 0,
    "sexes": 0,
    "combined": 0,
    "pen": 1,
    "##et": 0,
    "##rance": 0,
    "60": 0,
    "years": 0,
    "were": 0,
    "0": 0,
    "86": 0,
    "57": 0,
    "respectively": 0,
    "risk": 0,
    "significantly": 0,
    "higher": 0,
    "<": 0,
    "01": 0,
    "males": 0,
    "than": 0,
    "females": 0,
    "63": 0,
    "v": 12,
    "30": 0,
    "84": 0,
    "44": 0,
    "ages": 0,
    "high": 2,
    "pre": 1,
    "##men": 1,
    "##op": 53,
    "##aus": 1,
    "inter": 1,
    "##sex": 1,
    "implications": 0,
    "screening": 0,
    "programmes": 0,
    "attempts": 0,
    "identify": 0,
    "su": 0,
    "##ce": 7,
    "##pt": 3,
    "##ibility": 0,
    "##od": 6,
    "##ifier": 0,
    "Age": 0,
    "onset": 0,
    "Huntington": 25,
    "disease": 0,
    "influence": 0,
    "##poli": 0,
    "##pop": 17,
    "##rote": 13,
    "E": 23,
    "##type": 0,
    "normal": 0,
    "##G": 13,
    "repeat": 0,
    "length": 0,
    "##O": 7,
    "HD": 53,
    "is": 1,
    "known": 0,
    "be": 0,
    "correlated": 0,
    "an": 74,
    "expanded": 0,
    "##OE": 0,
    "turn": 0,
    "Alzheimer": 1,
    "rendering": 0,
    "likely": 0,
    "candidate": 0,
    "affect": 0,
    "other": 0,
    "ne": 54,
    "##uro": 60,
    "##logical": 7,
    "diseases": 0,
    "too": 0,
    "determined": 0,
    "138": 0,
    "who": 0,
    "respect": 0,
    "Gen": 0,
    "##ot": 5,
    "##y": 76,
    "##ping": 0,
    "blind": 1,
    "clinical": 1,
    "information": 0,
    "addition": 0,
    "highlighting": 0,
    "upon": 0,
    "maternal": 6,
    "inherited": 25,
    "male": 8,
    "show": 0,
    "e": 9,
    "##ps": 4,
    "##ilon": 0,
    "##ep": 6,
    "##si": 9,
    "##3": 21,
    "associated": 0,
    "earlier": 0,
    "Such": 0,
    "difference": 0,
    "not": 0,
    "apparent": 0,
    "any": 0,
    "Our": 0,
    "suggest": 0,
    "subtle": 0,
    "course": 0,
    "##de": 15,
    "##gene": 13,
    "##ration": 5,
    "allow": 0,
    "interacting": 0,
    "genes": 0,
    "##ert": 0,
    "gender": 0,
    "effects": 0,
    "F": 69,
    "##ami": 80,
    "##lial": 76,
    "deficiency": 47,
    "seventh": 0,
    "component": 0,
    "complement": 5,
    "re": 73,
    "##current": 2,
    "b": 2,
    "##act": 21,
    "##ere": 28,
    "infections": 0,
    "due": 0,
    "N": 25,
    "##ei": 0,
    "##sser": 0,
    "##ia": 47,
    "serum": 0,
    "29": 0,
    "year": 0,
    "old": 0,
    "woman": 0,
    "episode": 0,
    "di": 16,
    "##sse": 3,
    "##minated": 1,
    "go": 10,
    "##no": 15,
    "##cca": 2,
    "##l": 56,
    "infection": 0,
    "history": 0,
    "##oc": 43,
    "##cal": 13,
    "##itis": 24,
    "art": 11,
    "##hr": 12,
    "child": 0,
    "found": 0,
    "lack": 0,
    "hem": 44,
    "##tic": 25,
    "activity": 0,
    "C": 90,
    "##7": 9,
    "or": 2,
    "im": 8,
    "##mu": 18,
    "##chemical": 0,
    "whereas": 0,
    "components": 0,
    "assessment": 0,
    "Her": 0,
    "fresh": 0,
    "lacked": 0,
    "mediated": 0,
    "##eric": 0,
    "##idal": 0,
    "against": 0,
    "##nor": 2,
    "##r": 64,
    "##hoe": 1,
    "##ae": 1,
    "but": 0,
    "pu": 1,
    "##rified": 0,
    "restored": 0,
    "well": 0,
    "absence": 7,
    "could": 0,
    "accounted": 0,
    "on": 0,
    "basis": 0,
    "inhibitor": 0,
    "Op": 0,
    "##son": 2,
    "##ization": 0,
    "generation": 0,
    "ch": 36,
    "##em": 9,
    "##ota": 0,
    "##ctic": 0,
    "functioned": 0,
    "normally": 0,
    "Complete": 1,
    "also": 0,
    "one": 0,
    "sibling": 0,
    "had": 0,
    "siblings": 0,
    "son": 0,
    "##LA": 0,
    "his": 2,
    "##to": 19,
    "##com": 14,
    "##pa": 22,
    "##ti": 10,
    "##bility": 0,
    "typing": 0,
    "family": 0,
    "members": 0,
    "did": 0,
    "demonstrate": 0,
    "genetic": 29,
    "link": 0,
    "##age": 0,
    "major": 0,
    "lo": 0,
    "##ci": 0,
    "This": 0,
    "first": 0,
    "cases": 0,
    "infectious": 1,
    "complications": 0,
    "suggests": 0,
    "important": 0,
    "host": 0,
    "defense": 0,
    "##isse": 2,
    "##ria": 5,
    "Inc": 0,
    "##reased": 0,
    "incidence": 0,
    "cart": 2,
    "##ila": 5,
    "##ge": 5,
    "hair": 0,
    "h": 54,
    "##lasia": 8,
    "O": 9,
    "##B": 5,
    "##J": 19,
    "##EC": 0,
    "##TI": 0,
    "##VE": 0,
    "Previous": 0,
    "reports": 0,
    "increased": 1,
    "among": 0,
    "CH": 28,
    "study": 0,
    "carried": 0,
    "out": 0,
    "further": 0,
    "evaluate": 0,
    "their": 0,
    "degree": 0,
    "relatives": 0,
    "ST": 0,
    "##U": 74,
    "##D": 173,
    "##Y": 1,
    "DE": 0,
    "##SI": 0,
    "##N": 37,
    "One": 0,
    "hundred": 0,
    "twenty": 0,
    "through": 0,
    "country": 0,
    "##wide": 0,
    "##pid": 2,
    "##iol": 0,
    "##og": 1,
    "##ic": 26,
    "surveys": 0,
    "1974": 0,
    "1986": 0,
    "Their": 0,
    "parents": 0,
    "##af": 0,
    "##fected": 0,
    "Population": 0,
    "Register": 0,
    "Center": 0,
    "##hor": 1,
    "underwent": 0,
    "follow": 0,
    "up": 0,
    "Cancer": 1,
    "Regis": 0,
    "##try": 0,
    "1995": 0,
    "R": 0,
    "##ES": 0,
    "##LT": 6,
    "statistical": 0,
    "significant": 0,
    "excess": 1,
    "seen": 0,
    "standardized": 0,
    "ratio": 0,
    "6": 0,
    "9": 0,
    "95": 0,
    "confidence": 0,
    "interval": 0,
    "16": 0,
    "mainly": 0,
    "##but": 0,
    "##able": 0,
    "Ho": 2,
    "##d": 24,
    "##g": 11,
    "##kins": 1,
    "l": 13,
    "##ymph": 8,
    "90": 0,
    "18": 0,
    "264": 0,
    "basal": 1,
    "cell": 0,
    "35": 0,
    "7": 0,
    "102": 0,
    "differ": 0,
    "average": 0,
    "population": 0,
    "CO": 0,
    "##NC": 0,
    "##US": 0,
    "##ION": 0,
    "confirms": 0,
    "especially": 0,
    "probably": 0,
    "defect": 3,
    "##ive": 10,
    "immunity": 0,
    "##otype": 0,
    "##hy": 7,
    "##dr": 7,
    "##opy": 2,
    "##rim": 2,
    "##id": 14,
    "##ine": 23,
    "de": 3,
    "##ogen": 5,
    "Di": 4,
    "##PD": 71,
    "auto": 65,
    "##so": 62,
    "##mal": 84,
    "##cess": 10,
    "characterised": 0,
    "thy": 4,
    "##mine": 7,
    "u": 2,
    "##rac": 1,
    "##il": 22,
    "##uria": 43,
    "##zy": 7,
    "##go": 6,
    "##us": 21,
    "def": 8,
    "##icient": 7,
    "been": 0,
    "variable": 0,
    "order": 0,
    "understand": 0,
    "17": 0,
    "presenting": 0,
    "22": 0,
    "complete": 5,
    "group": 0,
    "different": 0,
    "including": 0,
    "##ons": 0,
    "295": 0,
    "##del": 1,
    "##TC": 0,
    "##AT": 0,
    "1897": 0,
    "IV": 3,
    "##14": 0,
    "miss": 0,
    "##ense": 0,
    "85": 0,
    "##T": 15,
    "70": 0,
    "265": 0,
    "Analysis": 0,
    "prevalence": 0,
    "various": 0,
    "point": 0,
    "invariant": 0,
    "donor": 0,
    "six": 0,
    "less": 0,
    "frequently": 0,
    "observed": 0,
    "large": 0,
    "var": 0,
    "##iability": 0,
    "con": 37,
    "##vu": 1,
    "##lsive": 1,
    "disorders": 0,
    "motor": 1,
    "##tar": 0,
    "##dation": 0,
    "mental": 23,
    "being": 0,
    "abundant": 0,
    "manifest": 0,
    "##ations": 0,
    "clear": 0,
    "correlation": 0,
    "between": 0,
    "established": 0,
    "An": 7,
    "altered": 0,
    "al": 10,
    "##ani": 7,
    "##ne": 98,
    "home": 0,
    "##ost": 2,
    "##asis": 1,
    "might": 0,
    "under": 0,
    "##lie": 0,
    "abnormal": 10,
    "##ities": 5,
    "encountered": 0,
    "Fi": 0,
    "##bro": 20,
    "##blast": 48,
    "growth": 2,
    "##log": 11,
    "##HF": 0,
    "mapping": 0,
    "Bo": 2,
    "##je": 2,
    "##ss": 0,
    "##man": 6,
    "Le": 0,
    "##hmann": 0,
    "region": 0,
    "X": 106,
    "##q": 0,
    "##26": 0,
    "##ated": 0,
    "du": 0,
    "##plication": 0,
    "break": 0,
    "##point": 0,
    "B": 45,
    "##FL": 4,
    "like": 0,
    "patient": 0,
    "##yn": 7,
    "q": 0,
    "human": 1,
    "features": 0,
    "46": 0,
    "Y": 0,
    "##ally": 0,
    "mother": 0,
    "##lu": 19,
    "##ores": 0,
    "##cence": 0,
    "sit": 0,
    "##u": 2,
    "hybrid": 0,
    "##isation": 0,
    "yeast": 0,
    "artificial": 0,
    "clone": 0,
    "local": 0,
    "##ised": 0,
    "approximately": 0,
    "400": 0,
    "k": 2,
    "##b": 6,
    "##X": 14,
    "##15": 0,
    "##29": 0,
    "##4": 6,
    "##30": 0,
    "Database": 0,
    "searches": 0,
    "available": 0,
    "DNA": 0,
    "sequence": 0,
    "revealed": 0,
    "presence": 0,
    "fi": 1,
    "new": 0,
    "extending": 0,
    "over": 0,
    "200": 0,
    "composed": 0,
    "least": 0,
    "It": 0,
    "shows": 0,
    "tissue": 0,
    "alternative": 0,
    "##licing": 0,
    "starts": 0,
    "Northern": 0,
    "showed": 0,
    "highest": 0,
    "brain": 1,
    "skeletal": 1,
    "muscle": 9,
    "pattern": 2,
    "f": 65,
    "forms": 0,
    "ca": 0,
    "##dh": 0,
    "##eri": 2,
    "##n": 4,
    "CD": 0,
    "##dis": 8,
    "##pose": 0,
    "gas": 14,
    "##tric": 14,
    "##her": 10,
    "##ited": 2,
    "described": 0,
    "recently": 0,
    "three": 0,
    "Mao": 0,
    "##ri": 0,
    "genetically": 0,
    "he": 15,
    "##tero": 2,
    "what": 0,
    "proportion": 0,
    "populations": 0,
    "Therefore": 0,
    "screened": 0,
    "British": 0,
    "Irish": 0,
    "SS": 0,
    "##CP": 0,
    "sequences": 0,
    "Each": 0,
    "contained": 0,
    "i": 8,
    "affected": 0,
    "before": 0,
    ";": 0,
    "ii": 0,
    "Novel": 0,
    "nonsense": 0,
    "25": 0,
    "Both": 0,
    "predicted": 0,
    "##run": 1,
    "signal": 0,
    "##eptide": 0,
    "thus": 0,
    "carrier": 0,
    "developed": 0,
    "confirmed": 0,
    "cause": 0,
    "However": 0,
    "minority": 0,
    "can": 0,
    "Loss": 0,
    "function": 0,
    "implicated": 0,
    "path": 0,
    "##esis": 6,
    "##poradic": 17,
    "our": 0,
    "provide": 0,
    "early": 0,
    "Thus": 0,
    "should": 0,
    "zinc": 0,
    "finger": 0,
    "##cation": 0,
    "##uri": 3,
    "##1": 21,
    "results": 0,
    "characteristic": 0,
    "##rogen": 3,
    "##ital": 36,
    "Den": 13,
    "Dr": 0,
    "##ash": 0,
    "##ms": 23,
    "tumor": 38,
    "plays": 0,
    "key": 0,
    "role": 0,
    "d": 17,
    "##function": 0,
    "neo": 3,
    "##lastic": 4,
    "me": 16,
    "##the": 1,
    "##lio": 7,
    "##ma": 16,
    "le": 12,
    "##uke": 7,
    "##mia": 68,
    "breast": 115,
    "##lo": 11,
    "##mer": 3,
    "##ulos": 1,
    "##cle": 6,
    "##rosis": 4,
    "specifically": 0,
    "such": 0,
    "DD": 6,
    "valuable": 0,
    "insight": 0,
    "concerning": 0,
    "rare": 2,
    "childhood": 5,
    "characterized": 0,
    "##ph": 10,
    "##rop": 20,
    "##athy": 19,
    "involving": 0,
    "##sang": 3,
    "##ial": 5,
    "pseudo": 3,
    "##rod": 9,
    "constitutional": 0,
    "##onic": 1,
    "include": 0,
    "terminal": 1,
    "Z": 11,
    "##F": 53,
    "##gos": 0,
    "##ity": 4,
    "targeted": 0,
    "##ele": 0,
    "##39": 0,
    "##6": 73,
    "##don": 3,
    "39": 0,
    "adult": 1,
    "##ime": 0,
    "##ric": 3,
    "mice": 0,
    "Male": 1,
    "##eni": 5,
    "defects": 1,
    "evident": 0,
    "single": 0,
    "case": 0,
    "##cript": 0,
    "##get": 0,
    "skip": 0,
    "event": 0,
    "implying": 0,
    "##usal": 0,
    "##ige": 0,
    "##nes": 0,
    "##is": 22,
    "mutant": 0,
    "em": 5,
    "##ryo": 4,
    "##nic": 75,
    "stem": 0,
    "regarding": 0,
    "mechanism": 0,
    "its": 0,
    "Me": 0,
    "##chan": 0,
    "##ism": 1,
    "iron": 1,
    "absorption": 0,
    "model": 0,
    "##och": 24,
    "##roma": 21,
    "##tosis": 23,
    "duo": 0,
    "##den": 1,
    "transport": 0,
    "##MT": 0,
    "##dit": 9,
    "##ary": 11,
    "disorder": 2,
    "deposition": 0,
    "secondary": 0,
    "excessive": 1,
    "diet": 1,
    "##E": 10,
    "physically": 0,
    "transfer": 0,
    "##rin": 1,
    "receptor": 0,
    "##R": 4,
    "cry": 1,
    "proposed": 0,
    "##ten": 7,
    "##uate": 0,
    "##take": 0,
    "bound": 0,
    "plasma": 0,
    "regulation": 0,
    "##ers": 0,
    "tested": 0,
    "hypothesis": 0,
    "##valent": 0,
    "metal": 0,
    "By": 0,
    "weeks": 0,
    "loading": 0,
    "when": 0,
    "compared": 0,
    "litter": 0,
    "##mates": 0,
    "elevated": 0,
    "sat": 0,
    "##uration": 0,
    "68": 0,
    "vs": 0,
    "49": 0,
    "liver": 2,
    "concentrations": 0,
    "98": 0,
    "##gram": 0,
    "38": 0,
    "analyses": 0,
    "##uant": 0,
    "##itated": 0,
    "classes": 0,
    "##cripts": 0,
    "containing": 0,
    "##sp": 0,
    "element": 0,
    "##RE": 0,
    "called": 0,
    "no": 1,
    "positive": 0,
    "control": 0,
    "greatly": 0,
    "levels": 0,
    "increase": 0,
    "fold": 0,
    "despite": 0,
    "content": 0,
    "Duo": 0,
    "nor": 0,
    "data": 0,
    "support": 0,
    "lead": 0,
    "inappropriate": 0,
    "low": 0,
    "result": 0,
    "##ant": 3,
    "stab": 0,
    "##ilization": 0,
    "##eur": 0,
    "##sio": 0,
    "long": 0,
    "term": 0,
    "treatment": 0,
    "##ren": 51,
    "##ole": 33,
    "##uk": 31,
    "##ody": 30,
    "##stro": 30,
    "##phy": 31,
    "monitor": 0,
    "AL": 102,
    "means": 0,
    "##ose": 21,
    "##nso": 0,
    "##ry": 10,
    "##voked": 0,
    "potential": 0,
    "SE": 0,
    "##Ps": 0,
    "ME": 10,
    "BA": 0,
    "##GR": 5,
    "##UN": 0,
    "proved": 0,
    "useful": 0,
    "revealing": 0,
    "signs": 0,
    "progressively": 0,
    "severe": 5,
    "central": 4,
    "dying": 1,
    "back": 0,
    "##xon": 0,
    "stages": 0,
    "##TH": 0,
    "##OD": 0,
    "Eight": 0,
    "examination": 0,
    "spine": 0,
    "MR": 0,
    "##I": 9,
    "##P": 47,
    "studies": 0,
    "after": 0,
    "Lorenzo": 0,
    "oil": 0,
    "therapy": 0,
    "Before": 0,
    "five": 0,
    "Three": 0,
    "these": 0,
    "pure": 0,
    "spinal": 6,
    "remaining": 0,
    "involvement": 0,
    "cerebral": 7,
    "tracts": 0,
    "After": 0,
    "worse": 0,
    "##ning": 0,
    "advanced": 4,
    "stage": 1,
    "exhibited": 0,
    "substantially": 0,
    "unchanged": 0,
    "inflammatory": 3,
    "lesions": 0,
    "Moreover": 0,
    "without": 0,
    "damage": 0,
    "does": 0,
    "modify": 0,
    "natural": 0,
    "because": 0,
    "effective": 0,
    "treatments": 0,
    "begin": 0,
    "symptoms": 0,
    "considered": 0,
    "effectiveness": 0,
    "experimental": 0,
    "negative": 0,
    "##CH": 0,
    "##oman": 2,
    "##di": 3,
    "##bula": 2,
    "##ton": 8,
    "authors": 0,
    "obvious": 0,
    "responded": 0,
    "positively": 0,
    "L": 13,
    "do": 4,
    "must": 0,
    "even": 0,
    "typical": 0,
    "Korean": 0,
    "extensively": 0,
    "messenger": 0,
    "RNA": 0,
    "62": 0,
    "unrelated": 0,
    "FA": 41,
    "adopted": 0,
    "strand": 0,
    "conform": 0,
    "##ation": 4,
    "##mor": 0,
    "##phism": 0,
    "method": 0,
    "reverse": 0,
    "polymer": 0,
    "chain": 0,
    "reaction": 0,
    "PC": 1,
    "followed": 0,
    "test": 0,
    "PT": 1,
    "se": 5,
    "##quencing": 0,
    "alterations": 0,
    "represented": 0,
    "##ber": 0,
    "##rant": 0,
    "bands": 0,
    "61": 0,
    "Nine": 0,
    "##teen": 0,
    "presumed": 0,
    "novel": 0,
    "emphasizing": 0,
    "spectrum": 0,
    "initial": 0,
    "48": 0,
    "those": 0,
    "whom": 0,
    "detect": 0,
    "Using": 0,
    "approach": 0,
    "failed": 0,
    "distinguish": 0,
    "14": 0,
    "later": 0,
    "##cating": 0,
    "64": 0,
    "confirm": 0,
    "detection": 0,
    "rate": 0,
    "superior": 0,
    "would": 0,
    "practical": 0,
    "Molecular": 0,
    "##iology": 0,
    "##got": 0,
    "##es": 0,
    "##rg": 4,
    "##top": 8,
    "Japan": 0,
    "De": 8,
    "##ficiency": 10,
    "ninth": 0,
    "##e": 17,
    "1000": 0,
    "very": 2,
    "countries": 0,
    "Gene": 1,
    "Japanese": 0,
    "transition": 0,
    "##GA": 0,
    "stop": 0,
    "determine": 0,
    "collected": 0,
    "samples": 0,
    "300": 0,
    "individuals": 0,
    "main": 0,
    "islands": 0,
    "He": 4,
    "system": 0,
    "designed": 0,
    "exclusively": 0,
    "confirmation": 0,
    "direct": 0,
    "Twenty": 0,
    "None": 0,
    "estimated": 0,
    "12": 0,
    "consistent": 0,
    "frequencies": 0,
    "##rol": 3,
    "##ogical": 1,
    "product": 0,
    "##uta": 0,
    "##ted": 0,
    "Fed": 0,
    "J": 0,
    "##nir": 0,
    "##ke": 0,
    "Thomas": 0,
    "##su": 0,
    "##chi": 1,
    "##hashi": 0,
    "##udd": 0,
    "Ba": 0,
    "##sa": 3,
    "##va": 0,
    "Do": 0,
    "##rm": 0,
    "##ishi": 0,
    "##an": 4,
    "Domingo": 0,
    "Ellis": 0,
    "Full": 0,
    "Hi": 0,
    "##nton": 0,
    "Jones": 0,
    "Kim": 0,
    "##mel": 0,
    "K": 14,
    "##ron": 4,
    "S": 8,
    "Lau": 0,
    "P": 218,
    "Lee": 0,
    "V": 81,
    "Lo": 0,
    "##eb": 0,
    "Map": 0,
    "##le": 20,
    "##lland": 0,
    "Meyer": 0,
    "Mint": 0,
    "##ier": 0,
    "Moe": 0,
    "##ller": 0,
    "Moore": 0,
    "Mo": 1,
    "##rika": 0,
    "##ng": 1,
    "##rass": 0,
    "Q": 0,
    "##uin": 0,
    "##tana": 0,
    "Star": 0,
    "Sc": 0,
    "##hat": 1,
    "##zman": 0,
    "##runk": 0,
    "##ay": 0,
    "##na": 1,
    "##isch": 0,
    "Bacon": 0,
    "Wolff": 0,
    "1996": 0,
    "Nat": 0,
    "13": 0,
    "40": 0,
    "At": 8,
    "surface": 0,
    "increasing": 0,
    "##sso": 1,
    "##ciation": 0,
    "constant": 0,
    "Gross": 0,
    "##rri": 0,
    "##nk": 0,
    "##i": 0,
    "En": 1,
    "##ns": 0,
    "1998": 0,
    "Ch": 5,
    "27": 0,
    "220": 0,
    "Penny": 0,
    "Watson": 0,
    "Si": 0,
    "##gal": 2,
    "##jo": 4,
    "##rk": 0,
    "Pro": 4,
    "##ca": 1,
    "U": 0,
    "147": 0,
    "remain": 0,
    "traffic": 0,
    "internal": 0,
    "compartment": 0,
    "et": 0,
    "line": 0,
    "controlled": 0,
    "te": 2,
    "##tra": 3,
    "##cy": 16,
    "##cline": 0,
    "reduces": 0,
    "55": 0,
    "##ytic": 1,
    "rates": 0,
    "cycling": 0,
    "appears": 0,
    "reduce": 0,
    "cellular": 0,
    "acquisition": 0,
    "Fe": 0,
    "ni": 0,
    "acid": 0,
    "explain": 0,
    "decreased": 1,
    "##rit": 2,
    "understanding": 0,
    "organs": 0,
    "pan": 3,
    "##cre": 3,
    "##as": 4,
    "heart": 0,
    "##ple": 2,
    "##en": 8,
    "loaded": 0,
    "lacking": 0,
    "Mu": 3,
    "##tation": 0,
    "Mediterranean": 0,
    "fever": 6,
    "reveal": 0,
    "ancestral": 0,
    "relationships": 0,
    "Ash": 0,
    "##ken": 0,
    "##azi": 0,
    "Jewish": 0,
    "FM": 33,
    "episodes": 0,
    "##ros": 5,
    "##ov": 3,
    "##V": 0,
    "present": 0,
    "Arab": 0,
    "originally": 0,
    "ethnic": 0,
    "diverse": 0,
    "panel": 0,
    "Among": 0,
    "##ym": 0,
    "11": 0,
    "79": 0,
    "Of": 0,
    "alter": 0,
    "same": 0,
    "residue": 0,
    "680": 0,
    "##36": 0,
    "located": 0,
    "Con": 1,
    "##sist": 0,
    "##ent": 0,
    "another": 0,
    "##Q": 2,
    "several": 0,
    "multiple": 4,
    "indicate": 0,
    "Italian": 0,
    "anonymous": 0,
    "21": 0,
    "Several": 0,
    "lines": 0,
    "Jews": 0,
    "Nevertheless": 0,
    "helps": 0,
    "account": 0,
    "inheritance": 0,
    "unusual": 0,
    "dominant": 3,
    "strongly": 0,
    "advantage": 0,
    "geographic": 0,
    "Auto": 6,
    "##im": 11,
    "##ifer": 3,
    "##ative": 6,
    "influences": 0,
    "##PS": 16,
    "##yte": 1,
    "##nological": 1,
    "tolerance": 0,
    "Most": 0,
    "en": 3,
    "##codes": 0,
    "media": 0,
    "##tor": 0,
    "crucial": 0,
    "unique": 0,
    "pro": 17,
    "##band": 0,
    "71": 0,
    "occurred": 0,
    "##code": 0,
    "##cellular": 1,
    "portion": 0,
    "##it": 3,
    "##ro": 12,
    "activated": 0,
    "##ocytes": 0,
    "exposed": 0,
    "anti": 0,
    "ago": 0,
    "##nist": 0,
    "mon": 0,
    "##body": 0,
    "Similar": 0,
    "c": 39,
    "##NA": 0,
    "bearing": 0,
    "each": 0,
    "##fect": 0,
    "##ion": 0,
    "experiments": 0,
    "construct": 0,
    "either": 0,
    "extra": 0,
    "caused": 0,
    "##hibition": 0,
    "wild": 0,
    "type": 18,
    "Two": 0,
    "variants": 0,
    "restricted": 0,
    "##arian": 0,
    "##lea": 0,
    "##vage": 0,
    "##tes": 0,
    "partially": 0,
    "African": 0,
    "much": 0,
    "pronounced": 0,
    "affecting": 0,
    "versus": 0,
    "##tations": 0,
    "causing": 0,
    "disruption": 0,
    "death": 0,
    "Sign": 0,
    "##ificant": 0,
    "##bid": 0,
    "location": 0,
    "severity": 0,
    "Multi": 0,
    "##centric": 0,
    "believed": 0,
    "European": 0,
    "ancestry": 0,
    "northwestern": 0,
    "Europe": 0,
    "80": 0,
    "substitution": 0,
    "##yr": 2,
    "##os": 9,
    "##tein": 3,
    "position": 0,
    "28": 0,
    "un": 7,
    "significance": 0,
    "second": 0,
    "compound": 0,
    "distribution": 0,
    "limited": 0,
    "bordering": 0,
    "Middle": 0,
    "East": 0,
    "Indian": 0,
    "sub": 4,
    "##continent": 0,
    "occurs": 0,
    "extends": 0,
    "suggesting": 0,
    "arise": 0,
    "during": 0,
    "past": 0,
    "000": 0,
    "older": 0,
    "occur": 0,
    "extended": 0,
    "700": 0,
    "finding": 0,
    "Sri": 0,
    "Lanka": 0,
    "demonstrating": 0,
    "independently": 0,
    "island": 0,
    "subject": 0,
    "selection": 0,
    "pressure": 0,
    "pressures": 0,
    "environmental": 0,
    "conditions": 0,
    "##emia": 16,
    "retrospective": 0,
    "pilot": 0,
    "newborn": 0,
    "Scandinavian": 0,
    "83": 0,
    "random": 0,
    "##ony": 0,
    "##mized": 0,
    "dried": 0,
    "blood": 0,
    "spot": 0,
    "DB": 0,
    "neon": 7,
    "##ata": 8,
    "programs": 0,
    "Scandinavia": 0,
    "Greenland": 0,
    "Iceland": 0,
    "Islands": 0,
    "Denmark": 0,
    "highly": 0,
    "terms": 0,
    "prevent": 0,
    "health": 0,
    "care": 0,
    "Long": 0,
    "evaluation": 0,
    "will": 0,
    "give": 0,
    "indication": 0,
    "##ka": 10,
    "##pton": 10,
    "mouse": 0,
    "Al": 8,
    "##ku": 1,
    "##born": 8,
    "error": 0,
    "metabolism": 0,
    "##gent": 0,
    "##isa": 0,
    "##ox": 14,
    "created": 0,
    "##hyl": 0,
    "##ni": 0,
    "##tro": 8,
    "##ure": 0,
    "##genesis": 1,
    "used": 0,
    "am": 5,
    "##lify": 0,
    "products": 0,
    "shorter": 0,
    "##plified": 0,
    "Rest": 0,
    "##tion": 3,
    "then": 0,
    "base": 0,
    "change": 0,
    "consensus": 0,
    "frame": 0,
    "shifted": 0,
    "allowed": 0,
    "us": 0,
    "create": 0,
    "radioactive": 0,
    "##ty": 6,
    "Non": 1,
    "##omi": 5,
    "hearing": 3,
    "enlarged": 1,
    "vest": 0,
    "##ib": 2,
    "##ular": 7,
    "##queduct": 0,
    "PD": 20,
    "##lar": 2,
    "##ged": 1,
    "##VA": 3,
    "form": 0,
    "inner": 2,
    "ear": 0,
    "particular": 0,
    "interest": 0,
    "manner": 0,
    "##cus": 0,
    "sensor": 4,
    "##ural": 4,
    "mapped": 0,
    "##rom": 22,
    "##oso": 9,
    "##31": 0,
    "Pen": 18,
    "##dre": 19,
    "responsible": 0,
    "progressive": 3,
    "occasionally": 0,
    "##rena": 7,
    "ins": 0,
    "##uff": 3,
    "##iciency": 3,
    "classic": 5,
    "usually": 0,
    "##ter": 1,
    "##ior": 1,
    "ve": 3,
    "state": 0,
    "Adult": 0,
    "presents": 0,
    "rapidly": 0,
    "Mi": 0,
    "##lder": 0,
    "##omy": 20,
    "##elo": 22,
    "##pathy": 23,
    "Addison": 4,
    "recognized": 0,
    "Despite": 0,
    "discovery": 0,
    "##usa": 0,
    "##tive": 1,
    "molecular": 2,
    "presentations": 0,
    "remains": 0,
    "el": 0,
    "##uc": 8,
    "##idated": 0,
    "obtain": 0,
    "knowledge": 0,
    "comprised": 0,
    "conducted": 0,
    "detailed": 0,
    "Southern": 0,
    "##leo": 1,
    "##tide": 1,
    "derived": 0,
    "total": 0,
    "extracted": 0,
    "culture": 0,
    "skin": 9,
    "##ob": 0,
    "##last": 0,
    "##oid": 7,
    "peripheral": 2,
    "having": 0,
    "rear": 1,
    "##rang": 1,
    "##ement": 1,
    "26": 0,
    "independent": 0,
    "resulting": 0,
    "small": 0,
    "##een": 0,
    "69": 0,
    "involved": 0,
    "amino": 0,
    "acids": 0,
    "conserved": 0,
    "PM": 11,
    "##70": 0,
    "##AL": 3,
    "##DR": 0,
    "##xa": 0,
    "AG": 10,
    "din": 0,
    "108": 0,
    "white": 4,
    "All": 0,
    "changes": 0,
    "There": 0,
    "expressions": 0,
    "##con": 0,
    "##serve": 0,
    "factors": 0,
    "act": 0,
    "##ivating": 0,
    "cat": 22,
    "##NT": 0,
    "orchestra": 0,
    "number": 0,
    "developmental": 7,
    "response": 0,
    "stimulus": 0,
    "##yt": 8,
    "##las": 2,
    "encoded": 0,
    "CT": 14,
    "##ilized": 0,
    "enabling": 0,
    "downstream": 0,
    "##EF": 0,
    "##CF": 0,
    "target": 0,
    "explaining": 0,
    "why": 0,
    "##st": 2,
    "##utive": 0,
    "particularly": 0,
    "encoding": 0,
    "##bi": 0,
    "##qui": 0,
    "##tin": 3,
    "percentage": 0,
    "some": 0,
    "harbour": 0,
    "##ili": 0,
    "##zing": 0,
    "Recently": 0,
    "discovered": 0,
    "##genic": 2,
    "expressing": 0,
    "##posed": 0,
    "developing": 0,
    "resembling": 0,
    "##ilo": 3,
    "Given": 0,
    "exhibits": 0,
    "##vo": 0,
    "##oll": 0,
    "##icle": 0,
    "wondered": 0,
    "whether": 0,
    "originate": 0,
    "matrix": 0,
    "they": 0,
    "possess": 0,
    "explore": 0,
    "##ology": 0,
    "nuclear": 0,
    "dividing": 0,
    "providing": 0,
    "bio": 0,
    "75": 0,
    "segment": 0,
    "##hos": 2,
    "##ory": 0,
    "##lation": 0,
    "dependent": 0,
    "greater": 0,
    "examined": 0,
    "directly": 0,
    "imp": 2,
    "##lica": 0,
    "mi": 1,
    "##re": 25,
    "##gu": 0,
    "humans": 0,
    "chloride": 1,
    "##ide": 9,
    "deaf": 4,
    "##ness": 5,
    "subsequently": 0,
    "put": 0,
    "##me": 6,
    "##mb": 0,
    "##rane": 0,
    "designated": 0,
    "##lf": 0,
    "##ate": 0,
    "proteins": 0,
    "includes": 0,
    "rat": 0,
    "Sa": 0,
    "identity": 0,
    "##ast": 14,
    "##hic": 11,
    "32": 0,
    "down": 0,
    "##lated": 0,
    "DR": 2,
    "##A": 49,
    "45": 0,
    "On": 0,
    "##mology": 0,
    "slightly": 0,
    "modified": 0,
    "signature": 0,
    "comprising": 0,
    "unable": 0,
    "following": 0,
    "##pus": 0,
    "la": 1,
    "##ev": 0,
    "##jection": 0,
    "##comb": 0,
    "##ina": 3,
    "##ac": 6,
    "##ulo": 1,
    "##virus": 1,
    "systems": 0,
    "into": 0,
    "##roid": 6,
    "physiology": 0,
    "##logy": 0,
    "##65": 0,
    "##lication": 0,
    "mild": 1,
    "class": 0,
    "accounting": 0,
    "representing": 0,
    "here": 0,
    "193": 0,
    "series": 0,
    "carry": 0,
    "##rich": 2,
    "assigned": 0,
    "neither": 0,
    "##ment": 6,
    "BR": 7,
    "##CA": 13,
    "based": 0,
    "objective": 0,
    "accurate": 0,
    "estimates": 0,
    "achieve": 0,
    "consecutive": 0,
    "reporting": 0,
    "comprehensive": 0,
    "screen": 0,
    "entire": 0,
    "coding": 0,
    "##sma": 1,
    "##tch": 0,
    "96": 0,
    "360": 0,
    "##0": 0,
    "##11": 0,
    "##cha": 3,
    "##ized": 0,
    "91": 0,
    "Caucasian": 0,
    "24": 0,
    "sister": 0,
    "##lification": 0,
    "##35": 0,
    "03": 0,
    "summary": 0,
    "determining": 0,
    "highlight": 0,
    "necessity": 0,
    "Ad": 11,
    "compensate": 0,
    "per": 9,
    "ATP": 0,
    "cassette": 0,
    "ABC": 0,
    "##DP": 0,
    "lethal": 0,
    "efficient": 0,
    "currently": 0,
    "membrane": 0,
    "stable": 0,
    "##ex": 0,
    "##press": 0,
    "closest": 0,
    "relative": 0,
    "restore": 0,
    "impaired": 3,
    "oxidation": 0,
    "##mon": 1,
    "fatty": 0,
    "prevented": 0,
    "immortal": 0,
    "##mm": 0,
    "##uno": 0,
    "replacement": 0,
    "itself": 0,
    "able": 0,
    "stimulation": 0,
    "##life": 0,
    "##rator": 0,
    "##fi": 9,
    "##bra": 0,
    "correction": 0,
    "possible": 0,
    "drug": 0,
    "induced": 0,
    "##ct": 13,
    "Centro": 0,
    "##some": 0,
    "cycle": 0,
    "check": 0,
    "instability": 0,
    "##of": 7,
    "##orm": 0,
    "##rca": 3,
    "mechanisms": 0,
    "underlying": 0,
    "carrying": 0,
    "maintain": 0,
    "intact": 0,
    "##rate": 0,
    "poorly": 0,
    "accompanied": 0,
    "##tant": 0,
    "cent": 5,
    "une": 0,
    "##qua": 0,
    "segregation": 0,
    "division": 0,
    "##eu": 1,
    "##idy": 2,
    "##cover": 0,
    "essential": 3,
    "maintaining": 0,
    "stability": 0,
    "interfere": 0,
    "unknown": 0,
    "global": 0,
    "nine": 0,
    "failure": 0,
    "bind": 0,
    "##OR": 0,
    "signaling": 0,
    "marked": 0,
    "association": 0,
    "recruitment": 0,
    "cross": 0,
    "##link": 0,
    "##air": 2,
    "chiefly": 0,
    "interactions": 0,
    "AK": 12,
    "reveals": 0,
    "CC": 3,
    "motif": 0,
    "hot": 0,
    "describe": 0,
    "##ig": 9,
    "##ree": 0,
    "IN": 0,
    "31": 0,
    "##60": 0,
    "A1": 0,
    "##22": 0,
    "##23": 0,
    "illustrate": 0,
    "remarkable": 0,
    "##eli": 35,
    "Re": 2,
    "##nation": 0,
    "randomly": 0,
    "distributed": 0,
    "inverted": 0,
    "prefer": 0,
    "##ential": 0,
    "involve": 0,
    "occurrence": 0,
    "short": 5,
    "motifs": 0,
    "Because": 0,
    "comprise": 0,
    "34": 0,
    "bases": 0,
    "conclude": 0,
    "triple": 0,
    "##ab": 2,
    "alpha": 2,
    "gal": 19,
    "##idas": 0,
    "use": 0,
    "fluorescent": 0,
    "chemical": 0,
    "##tches": 0,
    "##gio": 4,
    "##ker": 4,
    "##ato": 8,
    "##rp": 1,
    "##oris": 1,
    "##ff": 1,
    "##um": 0,
    "##cos": 18,
    "##phi": 4,
    "##ngo": 0,
    "##lip": 6,
    "##matic": 0,
    "systemic": 4,
    "neutral": 0,
    "##ids": 0,
    "##osy": 0,
    "##oi": 0,
    "Clinical": 0,
    "##iz": 0,
    "##ares": 0,
    "##sia": 0,
    "##nal": 22,
    "##cu": 4,
    "##lop": 2,
    "While": 0,
    "demonstration": 0,
    "diagnostic": 0,
    "female": 0,
    "often": 0,
    "##clusive": 0,
    "##ivation": 0,
    "##lining": 0,
    "need": 0,
    "investigations": 0,
    "counseling": 0,
    "adapted": 0,
    "flu": 0,
    "included": 0,
    "##20": 0,
    "##W": 0,
    "##32": 0,
    "Studies": 0,
    "level": 0,
    "latter": 0,
    "led": 0,
    "##se": 1,
    "##quent": 0,
    "translation": 0,
    "reading": 0,
    "premature": 1,
    "termination": 0,
    "strategy": 0,
    "status": 0,
    "accurately": 0,
    "assessed": 0,
    "dos": 0,
    "##ages": 0,
    "##ag": 0,
    "##nose": 0,
    "exclude": 0,
    "Pre": 0,
    "##nat": 2,
    "diagnosis": 0,
    "##IS": 0,
    "##za": 31,
    "##eus": 31,
    "##rz": 0,
    "##bach": 0,
    "##LP": 4,
    "MI": 0,
    "##M": 139,
    "312": 0,
    "##80": 0,
    "made": 0,
    "young": 0,
    "boy": 0,
    "No": 0,
    "##oli": 0,
    "boys": 0,
    "aunt": 0,
    "came": 0,
    "pregnant": 0,
    "##etus": 0,
    "Sam": 0,
    "##ples": 0,
    "##pha": 16,
    "preparations": 0,
    "##nio": 0,
    "fluid": 0,
    "preparation": 0,
    "confirming": 0,
    "Dom": 1,
    "explanation": 0,
    "initiate": 0,
    "Pat": 0,
    "##ients": 0,
    "develop": 0,
    "##mas": 6,
    "subsequent": 0,
    "life": 1,
    "##rrel": 0,
    "##ates": 0,
    "Together": 0,
    "fact": 0,
    "cluster": 0,
    "points": 0,
    "certain": 0,
    "enhanced": 0,
    "##pit": 0,
    "##hel": 0,
    "Wild": 0,
    "##hibit": 0,
    "##runcated": 0,
    "130": 0,
    "##uated": 7,
    "146": 0,
    "weakly": 0,
    "idea": 0,
    "part": 0,
    "driven": 0,
    "interact": 0,
    "##tone": 0,
    "##ace": 0,
    "##lase": 0,
    "contains": 0,
    "##box": 0,
    "##yl": 39,
    "##CT": 0,
    "shared": 0,
    "genome": 0,
    "integrity": 0,
    "effort": 0,
    "sought": 0,
    "##olate": 0,
    "##fied": 0,
    "##pe": 1,
    "probe": 0,
    "place": 0,
    "##nta": 0,
    "library": 0,
    "Far": 0,
    "Western": 0,
    "##ivo": 0,
    "##46": 0,
    "##48": 0,
    "associates": 0,
    "##AC": 0,
    "processes": 0,
    "repair": 0,
    "##ination": 0,
    "Combined": 1,
    "man": 0,
    "routine": 0,
    "##ra": 0,
    "transmitted": 0,
    "subjects": 0,
    "silent": 0,
    "structural": 0,
    "prop": 0,
    "quantities": 0,
    "smaller": 0,
    "size": 0,
    "110": 0,
    "da": 0,
    "##lton": 0,
    "140": 0,
    "apparently": 0,
    "concluded": 0,
    "produces": 0,
    "##yo": 3,
    "##psy": 0,
    "##hesis": 0,
    "possibility": 0,
    "unit": 0,
    "primary": 3,
    "copied": 0,
    "Changes": 0,
    "##18": 0,
    "weaken": 0,
    "Emery": 7,
    "##fu": 0,
    "muscular": 10,
    "##DM": 17,
    "contract": 4,
    "##ures": 4,
    "elbows": 0,
    "Achilles": 0,
    "tend": 1,
    "slowly": 0,
    "wasting": 1,
    "weakness": 1,
    "card": 8,
    "##io": 17,
    "##my": 13,
    "cardiac": 15,
    "##rine": 1,
    "rich": 0,
    "localized": 0,
    "envelope": 0,
    "wide": 0,
    "variety": 0,
    "tissues": 0,
    "spanning": 0,
    "predict": 0,
    "183": 0,
    "##dine": 3,
    "th": 15,
    "##oni": 0,
    "mobility": 0,
    "##ting": 0,
    "##ui": 0,
    "##sha": 0,
    "##ble": 0,
    "weakened": 0,
    "##mina": 0,
    "comparison": 0,
    "usual": 0,
    "elbow": 1,
    "ankle": 3,
    "upper": 2,
    "limb": 1,
    "lower": 2,
    "importance": 0,
    "proper": 0,
    "Micro": 0,
    "##41": 0,
    "Van": 4,
    "der": 2,
    "##oud": 0,
    "##WS": 107,
    "##ft": 13,
    "lip": 12,
    "##ala": 2,
    "pits": 1,
    "whose": 0,
    "500": 0,
    "800": 0,
    "Sand": 0,
    "1994": 0,
    "Hu": 0,
    "Along": 0,
    "exhibit": 0,
    "delays": 0,
    "nearby": 0,
    "disrupted": 0,
    "##ize": 0,
    "searched": 0,
    "##morphic": 3,
    "marker": 0,
    "##37": 0,
    "##53": 0,
    "From": 0,
    "37": 0,
    "indicating": 0,
    "generations": 0,
    "confined": 0,
    "cardinal": 0,
    "Sur": 0,
    "##rising": 0,
    "beyond": 0,
    "##ximal": 0,
    "pop": 1,
    "##lite": 1,
    "##tery": 0,
    "##gia": 6,
    "mixed": 0,
    "178": 0,
    "##sy": 2,
    "##nd": 2,
    "##ax": 26,
    "##lang": 2,
    "##ie": 0,
    "##asi": 2,
    "AT": 9,
    "consequences": 0,
    "constitute": 0,
    "Few": 0,
    "half": 0,
    "canonical": 0,
    "accept": 0,
    "GT": 2,
    "string": 0,
    "##ently": 0,
    "sites": 0,
    "last": 0,
    "creation": 0,
    "intro": 0,
    "lesser": 0,
    "retention": 0,
    "##ptic": 0,
    "western": 0,
    "caution": 0,
    "interpretation": 0,
    "accompanying": 0,
    "Alpha": 0,
    "##yper": 29,
    "##phic": 4,
    "ACT": 0,
    "suffering": 0,
    "##HC": 3,
    "Link": 0,
    "excluded": 0,
    "studied": 0,
    "scores": 0,
    "varying": 0,
    "Further": 0,
    "plausible": 0,
    "expressed": 0,
    "showing": 0,
    "ma": 11,
    "score": 0,
    "close": 0,
    "id": 5,
    "##pathic": 6,
    "ID": 1,
    "Over": 1,
    "##gro": 1,
    "##wth": 1,
    "oral": 2,
    "##osa": 4,
    "facial": 3,
    "feature": 0,
    "##par": 5,
    "##nu": 5,
    "As": 3,
    "storage": 0,
    "##das": 1,
    "##om": 0,
    "Cy": 0,
    "##16": 0,
    "majority": 0,
    "examine": 0,
    "66": 0,
    "specimens": 0,
    "them": 0,
    "teeth": 0,
    "plus": 0,
    "##his": 0,
    "stain": 0,
    "15": 0,
    "Skin": 0,
    "##bor": 0,
    "adolescent": 2,
    "er": 2,
    "##hem": 1,
    "already": 0,
    "primarily": 0,
    "occurring": 0,
    "tube": 1,
    "##rous": 2,
    "##ede": 3,
    "##oe": 2,
    "##ival": 1,
    "00": 0,
    "##ith": 2,
    "reactive": 0,
    "nature": 0,
    "##uo": 0,
    "##lis": 0,
    "corresponding": 0,
    "appear": 0,
    "Character": 0,
    "mosaic": 0,
    "Lowe": 8,
    "##CR": 7,
    "##loc": 4,
    "eyes": 0,
    "nervous": 0,
    "kidney": 0,
    "##dy": 1,
    "##lino": 0,
    "bi": 3,
    "##phate": 0,
    "##tase": 0,
    "##55": 0,
    "frames": 0,
    "##hi": 0,
    "Finally": 0,
    "##ifies": 0,
    "extension": 0,
    "Alto": 0,
    "observation": 0,
    "arm": 0,
    "##enia": 7,
    "value": 0,
    "##fa": 1,
    "##vor": 0,
    "##gno": 0,
    "therapeutic": 0,
    "##ively": 1,
    "Armenian": 0,
    "date": 0,
    "exclusion": 0,
    "entirely": 0,
    "##ific": 0,
    "inflammation": 0,
    "unnecessary": 0,
    "surgery": 0,
    "Ren": 2,
    "##osis": 9,
    "##cine": 0,
    "com": 0,
    "##stic": 2,
    "77": 0,
    "selected": 0,
    "##40": 0,
    "93": 0,
    "163": 0,
    "89": 0,
    "instances": 0,
    "provided": 0,
    "##dom": 0,
    "transmission": 0,
    "incomplete": 0,
    "modes": 0,
    "ways": 0,
    "management": 0,
    "decisions": 0,
    "##vasive": 0,
    "fragile": 22,
    "root": 0,
    "reliable": 0,
    "methods": 0,
    "isolated": 7,
    "measure": 0,
    "technique": 0,
    "##ars": 2,
    "\"": 0,
    "uses": 0,
    "antibodies": 0,
    "##RP": 6,
    "roots": 0,
    "Express": 0,
    "Control": 0,
    "nearly": 0,
    "every": 0,
    "almost": 0,
    "Mental": 1,
    "##ded": 0,
    "full": 0,
    "overlap": 0,
    "advantages": 0,
    "##luck": 0,
    "##icles": 0,
    "app": 0,
    "##cia": 0,
    "harm": 0,
    "mentally": 3,
    "hairs": 0,
    "sent": 0,
    "simple": 0,
    "center": 0,
    "enabled": 0,
    "Swedish": 0,
    "##state": 16,
    "HP": 9,
    "##24": 0,
    "clusters": 0,
    "Smith": 0,
    "analyze": 0,
    "original": 0,
    "newly": 0,
    "set": 0,
    "maximum": 0,
    "fraction": 0,
    "##ta": 1,
    "##PL": 0,
    "##ame": 0,
    "05": 0,
    "originated": 0,
    "subset": 0,
    "65": 0,
    "yielded": 0,
    "straight": 0,
    "##42": 0,
    "##imate": 0,
    "tests": 0,
    "Sweden": 0,
    "many": 0,
    "##elin": 7,
    "animal": 0,
    "##cc": 3,
    "##hari": 3,
    "##dos": 3,
    "VII": 0,
    "domestic": 0,
    "cats": 0,
    "und": 0,
    "##ete": 0,
    "##vir": 0,
    "Normal": 0,
    "coupled": 0,
    "destroyed": 0,
    "eliminated": 0,
    "Multiple": 1,
    "species": 0,
    "crystal": 0,
    "indicated": 0,
    "maintenance": 0,
    "enzymes": 0,
    "dig": 0,
    "##est": 0,
    "Carrier": 0,
    "produced": 0,
    "kit": 0,
    "##tens": 1,
    "prospective": 0,
    "breeding": 0,
    "MP": 5,
    "colony": 0,
    "susceptible": 0,
    "##gnant": 11,
    "tumors": 27,
    "eye": 1,
    "##eor": 3,
    "VC": 6,
    "##FS": 9,
    "##GS": 20,
    "##tras": 1,
    "##ris": 5,
    "regions": 0,
    "prone": 0,
    "defined": 0,
    "nest": 0,
    "##stal": 0,
    "few": 0,
    "##location": 0,
    "near": 0,
    "##points": 0,
    "##fer": 1,
    "now": 0,
    "copy": 0,
    "repeats": 0,
    "termed": 0,
    "carries": 0,
    "##iti": 0,
    "deleted": 0,
    "models": 0,
    "how": 0,
    "events": 0,
    "thereby": 0,
    "generating": 0,
    "additional": 0,
    "copies": 0,
    "Fun": 0,
    "##ctional": 0,
    "my": 80,
    "##ath": 5,
    "##ies": 2,
    "##zin": 0,
    "thought": 0,
    "play": 0,
    "partly": 0,
    "##x": 1,
    "knockout": 0,
    "display": 0,
    "##NS": 6,
    "block": 0,
    "##hwa": 0,
    "##nn": 0,
    "differentiation": 0,
    "##path": 1,
    "Cha": 1,
    "##rc": 3,
    "Marie": 0,
    "Too": 0,
    "##th": 1,
    "##jer": 1,
    "So": 0,
    "##tta": 0,
    "##ating": 1,
    "fourth": 0,
    "affects": 0,
    "##AB": 0,
    "##ors": 0,
    "combination": 0,
    "amount": 0,
    "residual": 0,
    "prevents": 0,
    "interaction": 0,
    "increases": 0,
    "reason": 0,
    "patterns": 0,
    "##sea": 1,
    "diabetes": 6,
    "##ip": 6,
    "continued": 0,
    "secret": 0,
    "##ress": 0,
    "post": 1,
    "na": 0,
    "##ini": 4,
    "##VP": 0,
    "published": 0,
    "##sin": 0,
    "II": 0,
    "processing": 0,
    "##uron": 2,
    "Palestinian": 0,
    "consisting": 0,
    "cousin": 0,
    "children": 0,
    "replacing": 0,
    "mature": 0,
    "weak": 0,
    "##ured": 0,
    "radio": 1,
    "##ass": 0,
    "synthetic": 0,
    "standard": 0,
    "water": 0,
    "##vation": 0,
    "times": 0,
    "youngest": 0,
    "mildly": 0,
    "her": 0,
    "severely": 0,
    "brother": 0,
    "rescue": 0,
    "Pig": 0,
    "null": 0,
    "##IG": 0,
    "GP": 1,
    "anchored": 0,
    "par": 5,
    "##cturnal": 0,
    "##bin": 1,
    "anchor": 0,
    "conventional": 0,
    "generated": 0,
    "##bre": 0,
    "##eding": 0,
    "##II": 1,
    "strain": 0,
    "fl": 0,
    "undergo": 0,
    "efficiency": 0,
    "offspring": 0,
    "express": 0,
    "lung": 0,
    "require": 0,
    "sa": 3,
    "##lient": 0,
    "exceptions": 0,
    "##mus": 2,
    "red": 0,
    "equal": 0,
    "numbers": 0,
    "##ined": 0,
    "needed": 0,
    "dominance": 0,
    "produce": 0,
    "Target": 0,
    "##fe": 0,
    "introduces": 0,
    "otherwise": 0,
    "leaves": 0,
    "identical": 0,
    "bred": 0,
    "##ulate": 0,
    "Interest": 0,
    "##ingly": 0,
    "although": 0,
    "stores": 0,
    "Direct": 0,
    "##MD": 138,
    "removing": 0,
    "residues": 0,
    "99": 0,
    "236": 0,
    "241": 0,
    "detail": 0,
    "pointing": 0,
    "Se": 2,
    "##vere": 2,
    "relatively": 0,
    "ben": 5,
    "##ign": 6,
    "##cular": 3,
    "vary": 0,
    "remarkably": 0,
    "unusually": 0,
    "brothers": 0,
    "##mi": 0,
    "modification": 0,
    "Common": 0,
    "contribute": 0,
    "Families": 0,
    "terminating": 0,
    "aimed": 0,
    "185": 0,
    "##AG": 0,
    "82": 0,
    "treated": 0,
    "matched": 0,
    "about": 0,
    "general": 0,
    "unlike": 0,
    "Beta": 0,
    "ongoing": 0,
    "types": 0,
    "nuclei": 0,
    "time": 0,
    "substitute": 0,
    "##alle": 0,
    "##lic": 2,
    "##mes": 0,
    "1999": 0,
    "Dec": 0,
    "##rease": 0,
    "##ola": 0,
    "##urn": 0,
    "##uation": 0,
    "##ified": 0,
    "##lut": 1,
    "##HA": 6,
    "stimulate": 0,
    "junction": 0,
    "amounts": 0,
    "##cribed": 0,
    "inactive": 0,
    "exist": 0,
    "decrease": 0,
    "Sul": 0,
    "##ogenic": 1,
    "##iter": 3,
    "sensory": 3,
    "neural": 0,
    "yet": 0,
    "connection": 0,
    "##igma": 0,
    "codes": 0,
    "##isms": 0,
    "##eter": 0,
    "##iously": 0,
    "organ": 0,
    "obtained": 0,
    "emphasizes": 0,
    "Small": 0,
    "##lla": 0,
    "##lix": 0,
    "kn": 1,
    "##iest": 1,
    "##nies": 12,
    "moderately": 0,
    "trunk": 0,
    "limbs": 0,
    "mid": 4,
    "##face": 1,
    "predominant": 0,
    "Furthermore": 0,
    "##du": 4,
    "##plex": 0,
    "##lies": 0,
    "index": 0,
    "##eting": 0,
    "fifth": 0,
    "##omer": 0,
    "span": 0,
    "Classical": 4,
    "phosphate": 0,
    "##rid": 3,
    "GA": 2,
    "enzyme": 6,
    "considerable": 0,
    "150": 0,
    "recorded": 0,
    "groups": 0,
    "worldwide": 0,
    "cited": 0,
    "predominantly": 0,
    "descent": 0,
    "Overall": 0,
    "accounts": 0,
    "individual": 0,
    "Individuals": 0,
    "keeping": 0,
    "virtually": 0,
    "Global": 0,
    "##iably": 0,
    "Americans": 0,
    "disc": 0,
    "##pan": 0,
    "Du": 56,
    "##arte": 0,
    "Los": 0,
    "Angeles": 0,
    "though": 0,
    "##bri": 1,
    "abundance": 0,
    "unclear": 0,
    "activities": 0,
    "documented": 0,
    "undoubtedly": 0,
    "contributes": 0,
    "variation": 0,
    "##HL": 45,
    "definition": 0,
    "RC": 5,
    "von": 26,
    "Hip": 0,
    "##pel": 0,
    "Linda": 0,
    "173": 0,
    "##ational": 0,
    "73": 0,
    "58": 0,
    "##ins": 4,
    "##ions": 0,
    "correspond": 0,
    "##pi": 7,
    "##llar": 3,
    "compare": 0,
    "database": 0,
    "78": 0,
    "##ulated": 0,
    "corresponds": 0,
    "member": 0,
    "##edia": 2,
    "##k": 2,
    "##gas": 0,
    "##eg": 1,
    "##ulation": 0,
    "##xi": 1,
    "Its": 0,
    "regulated": 0,
    "trafficking": 0,
    "regulator": 0,
    "##ST": 0,
    "targeting": 0,
    "##ha": 4,
    "equivalent": 0,
    "characteristics": 0,
    "##cles": 0,
    "properly": 0,
    "Disease": 0,
    "Network": 0,
    "Brain": 2,
    "##gating": 0,
    "##ves": 1,
    "strictly": 0,
    "56": 0,
    "since": 0,
    "relevant": 0,
    "mothers": 0,
    "thirds": 0,
    "expected": 0,
    "if": 0,
    "sharp": 0,
    "##plicate": 0,
    "favor": 0,
    "bias": 0,
    "est": 0,
    "##imation": 0,
    "parental": 0,
    "grand": 0,
    "##ental": 0,
    "Again": 0,
    "##bal": 9,
    "##ance": 0,
    "##rade": 36,
    "Will": 0,
    "Angel": 6,
    "involves": 0,
    "AS": 21,
    "distinct": 0,
    "##be": 1,
    "##vior": 1,
    "paternal": 0,
    "game": 0,
    "67": 0,
    "births": 0,
    "represent": 0,
    "##ida": 0,
    "potentially": 0,
    "Ana": 3,
    "##ses": 0,
    "rode": 0,
    "##gs": 0,
    "##ranged": 0,
    "##ND": 9,
    "units": 0,
    "##ER": 1,
    "##ifiable": 0,
    "propose": 0,
    "facilitate": 0,
    "process": 0,
    "Brazilian": 0,
    "van": 6,
    "existence": 0,
    "41": 0,
    "sin": 0,
    "##uses": 0,
    "CP": 10,
    "##la": 0,
    "##tia": 2,
    "##alog": 0,
    "##rrence": 0,
    "descendants": 0,
    "##fts": 2,
    "influenced": 0,
    "considering": 0,
    "regardless": 0,
    "together": 0,
    "enhance": 0,
    "probability": 0,
    "If": 0,
    "examples": 0,
    "New": 0,
    "spans": 0,
    "along": 0,
    "starting": 0,
    "material": 0,
    "92": 0,
    "op": 1,
    "segments": 0,
    "##ped": 0,
    "##ite": 0,
    "##quential": 0,
    "gel": 0,
    "sets": 0,
    "##test": 0,
    "avoid": 0,
    "overlapping": 0,
    "Many": 0,
    "177": 0,
    "mostly": 0,
    "testing": 0,
    "compilation": 0,
    "assembled": 0,
    "##fining": 0,
    "great": 0,
    "designing": 0,
    "automated": 0,
    "##Leod": 9,
    "##ore": 3,
    "movement": 1,
    "##rea": 2,
    "##can": 2,
    "Ke": 1,
    "##ll": 0,
    "##gens": 0,
    "109": 0,
    "causes": 0,
    "Association": 0,
    "##ad": 0,
    "##50": 0,
    "Upon": 0,
    "##rra": 0,
    "##diation": 0,
    "discrete": 0,
    "##ali": 7,
    "##ze": 0,
    "Formation": 0,
    "dramatically": 0,
    "HC": 0,
    "1937": 0,
    "rendered": 0,
    "sensitive": 0,
    "agent": 0,
    "met": 0,
    "##hane": 0,
    "##sul": 0,
    "##fo": 0,
    "##nate": 0,
    "responses": 0,
    "Relations": 0,
    "##hip": 0,
    "cognitive": 1,
    "performance": 0,
    "##yla": 1,
    "##lani": 1,
    "##ydro": 2,
    "##xy": 1,
    "Mat": 3,
    "##ern": 3,
    "Ph": 8,
    "##ket": 31,
    "Col": 0,
    "Study": 0,
    "relationship": 0,
    "PA": 2,
    "##OL": 0,
    "222": 0,
    "##phe": 7,
    "##ny": 7,
    "##lal": 7,
    "enrolled": 0,
    "##UC": 0,
    "199": 0,
    "Based": 0,
    "previous": 0,
    "associations": 0,
    "moderate": 0,
    "##HP": 2,
    "Then": 0,
    "189": 0,
    "grouped": 0,
    "according": 0,
    "combinations": 0,
    "classification": 0,
    "sample": 0,
    "sizes": 0,
    "enough": 0,
    "completely": 1,
    "##bol": 0,
    "##ishes": 0,
    "Co": 9,
    "##gni": 0,
    "Those": 0,
    "##tre": 0,
    "late": 6,
    "Females": 0,
    "above": 0,
    "reproductive": 0,
    "outcome": 0,
    "metabolic": 3,
    "circumstances": 0,
    "depend": 0,
    "intellectual": 0,
    "resources": 0,
    "optimal": 0,
    "future": 0,
    "plan": 0,
    "pregnancy": 0,
    "Spin": 2,
    "x": 1,
    "##hom": 1,
    "variant": 0,
    "##tend": 10,
    "##ino": 12,
    "Dutch": 0,
    "cord": 0,
    "remained": 0,
    "sole": 0,
    "matter": 0,
    "lateral": 0,
    "dorsal": 0,
    "columns": 0,
    "Post": 0,
    "##ort": 3,
    "array": 0,
    "separate": 0,
    "entity": 0,
    "differential": 0,
    "chronic": 9,
    "insertion": 0,
    "creating": 0,
    "##ita": 1,
    "angel": 0,
    "imprint": 0,
    "conservation": 0,
    "characterization": 0,
    "Barr": 0,
    "virus": 0,
    "Late": 0,
    "resulted": 0,
    "transmitting": 0,
    "parent": 0,
    "opposite": 0,
    "maintains": 0,
    "correct": 0,
    "establishes": 0,
    "replication": 0,
    "##ync": 0,
    "investigation": 0,
    "approaches": 0,
    "supports": 0,
    "trait": 0,
    "119": 0,
    "##fting": 0,
    "condition": 0,
    "##ts": 1,
    "physical": 0,
    "attended": 0,
    "Department": 0,
    "Max": 0,
    "##illo": 0,
    "##cial": 0,
    "Surgery": 0,
    "Hop": 0,
    "##seau": 0,
    "Paris": 0,
    "tentatively": 0,
    "##fine": 0,
    "map": 0,
    "possibly": 0,
    "yielding": 0,
    "cumulative": 0,
    "##most": 0,
    "tightly": 0,
    "favour": 0,
    "##ull": 0,
    "Wilson": 17,
    "copper": 3,
    "nod": 0,
    "transformation": 0,
    "transporting": 0,
    "extent": 0,
    "toxicity": 0,
    "dramatic": 0,
    "build": 0,
    "logical": 0,
    "gradual": 0,
    "months": 0,
    "concentration": 0,
    "##mma": 0,
    "glands": 0,
    "z": 0,
    "milk": 0,
    "##hol": 1,
    "##ir": 5,
    "##geny": 0,
    "Copper": 0,
    "##hot": 1,
    "toxic": 0,
    "French": 0,
    "Mac": 11,
    "##had": 10,
    "##o": 12,
    "Joseph": 0,
    "distortion": 0,
    "sperm": 0,
    "##regation": 0,
    "##ios": 0,
    "pool": 0,
    "43": 0,
    "53": 0,
    "##iot": 0,
    "##10": 0,
    "##lihood": 0,
    "SP": 1,
    "##MS": 0,
    "##EG": 0,
    "program": 0,
    "variance": 0,
    "Miss": 0,
    "##iri": 53,
    "##dia": 53,
    "Peters": 7,
    "corn": 4,
    "##eal": 6,
    "##ara": 19,
    "##ove": 2,
    "recognizes": 0,
    "paired": 0,
    "##ain": 0,
    "##TS": 0,
    "respective": 0,
    "##orms": 0,
    "##ks": 0,
    "ability": 0,
    "switch": 0,
    "##pec": 0,
    "##cer": 10,
    "##tain": 0,
    "##xen": 2,
    "##feld": 2,
    "20th": 0,
    "Val": 0,
    "7th": 0,
    "167": 0,
    "113": 0,
    "Norwegian": 0,
    "Index": 0,
    "clinic": 0,
    "133": 0,
    "living": 0,
    "started": 0,
    "experienced": 0,
    "More": 0,
    "Whether": 0,
    "reflect": 0,
    "true": 0,
    "##ological": 1,
    "problems": 0,
    "discussed": 0,
    "explanations": 0,
    "##ar": 13,
    "##tub": 0,
    "##eran": 0,
    "plate": 0,
    "##let": 0,
    "fusion": 0,
    "generates": 0,
    "transforming": 0,
    "processed": 0,
    "Der": 1,
    "displays": 0,
    "##use": 1,
    "##IA": 0,
    "##FB": 0,
    "character": 0,
    "properties": 0,
    "##phological": 0,
    "##GP": 0,
    "reversed": 0,
    "transformed": 0,
    "dim": 0,
    "precursor": 0,
    "labeled": 0,
    "##nob": 2,
    "##ulse": 0,
    "chase": 0,
    "injection": 0,
    "nude": 0,
    "production": 0,
    "loop": 0,
    "receptors": 0,
    "##har": 0,
    "##cological": 0,
    "giant": 1,
    "##EX": 0,
    "##ell": 11,
    "##we": 11,
    "##ger": 9,
    "encompassing": 0,
    "infant": 2,
    "##ile": 3,
    "##fs": 0,
    "Cell": 0,
    "lying": 0,
    "biology": 0,
    "focused": 0,
    "still": 1,
    "raising": 0,
    "mixture": 0,
    "address": 0,
    "209": 0,
    "Subsequent": 0,
    "makes": 0,
    "helping": 0,
    "belong": 0,
    "##isk": 29,
    "##ott": 29,
    "##dric": 0,
    "##h": 2,
    "WA": 68,
    "##bo": 10,
    "##cz": 4,
    "##ema": 5,
    "##SP": 0,
    "##kel": 0,
    "##eton": 0,
    "##liga": 0,
    "synthesis": 0,
    "When": 0,
    "Red": 0,
    "##uce": 0,
    "sufficient": 0,
    "better": 0,
    "Am": 0,
    "##gly": 2,
    "##biotics": 0,
    "muscles": 0,
    "##chen": 56,
    "possesses": 0,
    "Expo": 0,
    "##sure": 0,
    "##ube": 0,
    "evaluated": 0,
    "differing": 0,
    "protection": 0,
    "regime": 0,
    "injury": 0,
    "##ides": 0,
    "raise": 0,
    "prove": 0,
    "##da": 2,
    "sensitivity": 0,
    "ion": 0,
    "##izing": 0,
    "radiation": 0,
    "##bella": 11,
    "##ur": 1,
    "##kin": 0,
    "Ion": 0,
    "##zes": 0,
    "mac": 7,
    "##cule": 0,
    "oxygen": 0,
    "##OS": 4,
    "##pot": 5,
    "##hes": 0,
    "assess": 0,
    "employed": 0,
    "##olo": 0,
    "##gic": 1,
    "targets": 0,
    "observations": 0,
    "##istic": 0,
    "lay": 0,
    "rational": 0,
    "foundation": 0,
    "intervention": 0,
    "stature": 0,
    "club": 2,
    "foot": 2,
    "double": 2,
    "layered": 0,
    "pat": 0,
    "##ella": 0,
    "##DS": 1,
    "##cho": 2,
    "ate": 1,
    "##los": 19,
    "##86": 0,
    "##27": 0,
    "until": 0,
    "36": 0,
    "tall": 0,
    "180": 0,
    "cm": 0,
    "asked": 0,
    "counsel": 0,
    "##ling": 0,
    "suspected": 0,
    "hip": 1,
    "birth": 0,
    "##etal": 0,
    "peculiar": 0,
    "recognised": 0,
    "swelling": 1,
    "pin": 0,
    "hit": 1,
    "##ch": 43,
    "hike": 0,
    "thumb": 0,
    "absent": 0,
    "healthy": 0,
    "incorporation": 0,
    "Counsel": 0,
    "given": 0,
    "considerably": 0,
    "reducing": 0,
    "##ick": 0,
    "132": 0,
    "600": 0,
    "226": 0,
    "##90": 0,
    "assigns": 0,
    "'": 0,
    "broad": 0,
    "bone": 1,
    "##lat": 1,
    "##ndy": 3,
    "##pical": 0,
    "##ond": 7,
    "pose": 0,
    "girl": 0,
    "##graphic": 1,
    "meta": 9,
    "reminiscent": 0,
    "##pic": 1,
    "clarified": 0,
    "##45": 0,
    "10th": 0,
    "face": 0,
    "##dson": 0,
    "prime": 0,
    "example": 0,
    "##lue": 0,
    "250": 0,
    "450": 0,
    "however": 0,
    "194": 0,
    "hits": 0,
    "selective": 0,
    "greatest": 0,
    "exists": 0,
    "des": 3,
    "classical": 1,
    "broader": 0,
    "effectively": 0,
    "grow": 0,
    "##sar": 7,
    "negatively": 0,
    "My": 15,
    "Little": 0,
    "find": 0,
    "solid": 3,
    "es": 2,
    "##hage": 2,
    "soft": 0,
    "Pol": 0,
    "##yme": 0,
    "##rase": 0,
    "boundary": 0,
    "upstream": 0,
    "54": 0,
    "AAA": 0,
    "118": 0,
    "##ln": 0,
    "GAA": 0,
    "154": 0,
    "179": 0,
    "181": 0,
    "186": 0,
    "third": 0,
    "inform": 0,
    "AND": 0,
    "deposits": 0,
    "throughout": 0,
    "body": 0,
    "Bus": 0,
    "##sel": 0,
    "Australia": 0,
    "determination": 0,
    "301": 0,
    "adults": 0,
    "persistent": 0,
    "values": 0,
    "percent": 0,
    "recommended": 0,
    "ng": 0,
    "mill": 0,
    "Sixteen": 0,
    "42": 0,
    "Four": 0,
    "Seven": 0,
    "range": 0,
    "Eleven": 0,
    "alcohol": 0,
    "consumption": 0,
    "##icular": 2,
    "##tom": 5,
    "##aly": 1,
    "pig": 4,
    "##mentation": 8,
    "northern": 0,
    "quarter": 0,
    "period": 10,
    "Large": 0,
    "##sque": 0,
    "##rading": 0,
    "pit": 1,
    "##fall": 0,
    "relies": 0,
    "exact": 0,
    "problematic": 0,
    "quite": 0,
    "father": 0,
    "##sen": 11,
    "##nos": 0,
    "whole": 0,
    "Early": 0,
    "##vic": 0,
    "##puted": 0,
    "##graphy": 0,
    "scanning": 0,
    "Em": 2,
    "##ied": 21,
    "reinforce": 0,
    "younger": 0,
    "appearance": 0,
    "sudden": 5,
    "Becker": 11,
    "electro": 0,
    "##ret": 1,
    "dark": 0,
    "ER": 0,
    "reduction": 0,
    "wave": 0,
    "amplitude": 0,
    "prolonged": 0,
    "##licit": 0,
    "##cilla": 0,
    "##tory": 0,
    "##tina": 11,
    "undertaken": 0,
    "systematic": 0,
    "review": 0,
    "literature": 0,
    "noted": 0,
    "wider": 0,
    "initiation": 0,
    "rather": 0,
    "Forty": 0,
    "start": 0,
    "opposed": 0,
    "94": 0,
    "contributions": 0,
    "##oto": 79,
    "expansion": 0,
    "##TR": 0,
    "materials": 0,
    "confusing": 0,
    "environment": 0,
    "##12": 0,
    "reporter": 0,
    "fused": 0,
    "##gg": 0,
    "tract": 0,
    "alone": 0,
    "clearly": 0,
    "rescued": 0,
    "eliminating": 0,
    "spontaneous": 0,
    "acts": 0,
    "rib": 1,
    "##lator": 0,
    "##ats": 6,
    "##teral": 3,
    "NDP": 9,
    "vascular": 0,
    "massive": 0,
    "##trar": 1,
    "##inal": 1,
    "##uda": 1,
    "detachment": 0,
    "gave": 0,
    "Nor": 20,
    "##rie": 19,
    "Subsequently": 0,
    "critical": 0,
    "##ene": 0,
    "##IN": 0,
    "Li": 6,
    "Fr": 29,
    "##au": 4,
    "hand": 0,
    "##IP": 0,
    "Turkish": 0,
    "semi": 3,
    "daughter": 0,
    "##llo": 4,
    "cousins": 0,
    "Il": 0,
    "Tu": 0,
    "Ex": 0,
    "##ist": 0,
    "##ence": 4,
    "sodium": 0,
    "##port": 0,
    "largest": 0,
    "##tter": 0,
    "Canada": 0,
    "Since": 0,
    "diagnosed": 0,
    "compliment": 0,
    "perch": 0,
    "##lora": 0,
    "intermediate": 0,
    "##liva": 0,
    "tech": 0,
    "##net": 0,
    "##ium": 0,
    "partial": 3,
    "IX": 0,
    "arranging": 0,
    "infants": 0,
    "hormone": 0,
    "##PI": 0,
    "Spanish": 0,
    "Hospital": 0,
    "Un": 1,
    "##ivers": 0,
    "##rio": 0,
    "Gregor": 0,
    "Mara": 0,
    "##non": 0,
    "Madrid": 0,
    "Spain": 0,
    "presented": 0,
    "##17": 0,
    "replaces": 0,
    "23": 0,
    "restriction": 0,
    "Additionally": 0,
    "seems": 0,
    "harbor": 0,
    "eventually": 0,
    "powerful": 0,
    "tool": 0,
    "##fic": 1,
    "mitochondrial": 2,
    "##ich": 21,
    "##RD": 32,
    "##ias": 1,
    "##rative": 5,
    "##ait": 0,
    "deep": 0,
    "reflex": 0,
    "plant": 0,
    "vibration": 0,
    "sense": 0,
    "97": 0,
    "widely": 0,
    "210": 0,
    "##rata": 0,
    "mit": 0,
    "##spiration": 0,
    "##mit": 0,
    "##rial": 2,
    "##phorus": 0,
    "magnetic": 0,
    "resonance": 0,
    "##pect": 0,
    "##copy": 0,
    "below": 0,
    "strong": 0,
    "improve": 0,
    "##21": 0,
    "##inas": 0,
    "AR": 2,
    "Portuguese": 0,
    "Portugal": 0,
    "Made": 0,
    "##ira": 0,
    "Island": 0,
    "boundaries": 0,
    "##stituting": 0,
    "##YP": 0,
    "explored": 0,
    "prompting": 0,
    "subjected": 0,
    "##rs": 0,
    "fragment": 0,
    "disclosed": 0,
    "##ju": 0,
    "##ction": 0,
    "##tology": 0,
    "application": 0,
    "Wolf": 5,
    "##ram": 5,
    "juvenile": 1,
    "##lli": 0,
    "##tus": 0,
    "done": 0,
    "interesting": 0,
    "consideration": 0,
    "cut": 3,
    "spots": 0,
    "Hence": 0,
    "psychiatric": 1,
    "demographic": 0,
    "experiencing": 0,
    "attack": 0,
    "computer": 0,
    "registry": 0,
    "thoroughly": 0,
    "interviewed": 0,
    "consisted": 0,
    "arrived": 0,
    "regular": 0,
    "visit": 0,
    "commercial": 0,
    "Only": 0,
    "4000": 0,
    "abdominal": 0,
    "attacks": 0,
    "##tracted": 0,
    "good": 0,
    "dose": 0,
    "defines": 0,
    "cost": 0,
    "widespread": 0,
    "principal": 0,
    "concerns": 0,
    "fear": 0,
    "insurance": 0,
    "uncertain": 0,
    "current": 0,
    "inexpensive": 0,
    "dimensional": 0,
    "escaped": 0,
    "scored": 0,
    "recurring": 0,
    "$": 0,
    "manual": 0,
    "introduction": 0,
    "commercially": 0,
    "robotic": 0,
    "imaging": 0,
    "##mple": 3,
    "research": 0,
    "setting": 0,
    "permit": 0,
    "##ru": 2,
    "quantitative": 0,
    "##are": 5,
    "##ntal": 5,
    "ka": 0,
    "UP": 4,
    "referred": 0,
    "##besity": 8,
    "delay": 0,
    "##uter": 1,
    "His": 1,
    "##onia": 3,
    "poor": 0,
    "sucking": 0,
    "##ava": 0,
    "feeding": 0,
    "Motor": 1,
    "delayed": 0,
    "became": 0,
    "##bes": 2,
    "appetite": 0,
    "middle": 1,
    "pain": 0,
    "threshold": 0,
    "skill": 0,
    "ji": 0,
    "##aw": 0,
    "puzzles": 0,
    "behaviour": 0,
    "sleep": 0,
    "disturbance": 0,
    "fitted": 0,
    "##cious": 0,
    "pub": 0,
    "##erty": 0,
    "Robertson": 0,
    "##etic": 0,
    "##lines": 0,
    "Australian": 0,
    "people": 0,
    "51": 0,
    "wheelchair": 0,
    "##ception": 0,
    "bladder": 3,
    "larger": 0,
    "duration": 0,
    "##LR": 5,
    "##tino": 30,
    "##sch": 2,
    "##isi": 2,
    "leader": 0,
    "Ju": 1,
    "##ven": 1,
    "Consortium": 0,
    "ones": 0,
    "disco": 3,
    "Growth": 1,
    "ventilation": 0,
    "drive": 0,
    "beneficial": 0,
    "composition": 0,
    "improvement": 0,
    "respiratory": 0,
    "measured": 0,
    "resting": 0,
    "air": 0,
    "##way": 0,
    "##lusion": 0,
    "vent": 0,
    "aged": 0,
    "During": 0,
    "72": 0,
    "04": 0,
    "02": 0,
    "output": 0,
    "mass": 0,
    "Treatment": 0,
    "structures": 0,
    "improved": 0,
    "About": 0,
    "Ha": 1,
    "##yne": 0,
    "dem": 2,
    "##eth": 0,
    "react": 0,
    "##met": 0,
    "promoter": 0,
    "always": 0,
    "achieved": 0,
    "##ducing": 0,
    "##zad": 0,
    "##eo": 2,
    "ace": 0,
    "regulating": 0,
    "drugs": 0,
    "capable": 0,
    "modest": 0,
    "##yra": 0,
    "##ati": 0,
    "combining": 0,
    "Constitutional": 0,
    "##sing": 0,
    "##ang": 3,
    "##atic": 4,
    "##he": 4,
    "##mp": 2,
    "##tad": 1,
    "Line": 0,
    "##han": 0,
    "570": 0,
    "Ka": 5,
    "Jr": 0,
    "Medicine": 0,
    "Baltimore": 0,
    "1997": 0,
    "Klaus": 0,
    "##ner": 0,
    "##ogel": 0,
    "##stein": 0,
    "Ki": 0,
    "##nz": 0,
    "##ler": 0,
    "eds": 0,
    "pp": 0,
    "47": 0,
    "McGraw": 0,
    "Hill": 0,
    "##25": 0,
    "La": 0,
    "Science": 0,
    "Washington": 0,
    "DC": 0,
    "260": 0,
    "131": 0,
    "1993": 0,
    "varied": 0,
    "##hale": 0,
    "Research": 0,
    "Group": 0,
    "223": 0,
    "Chen": 0,
    "##tat": 1,
    "##bar": 0,
    "##v": 0,
    "219": 0,
    "232": 0,
    "procedure": 0,
    "St": 0,
    "##amine": 1,
    "##sm": 4,
    "cover": 0,
    "free": 0,
    "sum": 0,
    "practically": 0,
    "Spectrum": 0,
    "##SN": 0,
    "##WI": 0,
    "##NF": 0,
    "r": 4,
    "##hab": 3,
    "##do": 3,
    "229": 0,
    "origins": 0,
    "den": 1,
    "##at": 0,
    "##uring": 0,
    "liquid": 0,
    "##tography": 0,
    "Point": 0,
    "scattered": 0,
    "editing": 0,
    "retrieved": 0,
    "whatever": 0,
    "##oro": 17,
    "##lex": 0,
    "primitive": 0,
    "##der": 5,
    "##NE": 0,
    "##pen": 1,
    "share": 0,
    "pathways": 0,
    "define": 0,
    "##mogeneous": 0,
    "aggressive": 0,
    "exhibiting": 0,
    "expose": 0,
    "SC": 7,
    "becomes": 0,
    "Experimental": 0,
    "adopt": 0,
    "allowing": 0,
    "##action": 0,
    "instead": 0,
    "MA": 0,
    "##GE": 0,
    "##guous": 3,
    "definitive": 0,
    "isolation": 0,
    "manuscript": 0,
    "##gel": 0,
    "proximity": 0,
    "##dn": 0,
    "##less": 0,
    "tandem": 0,
    "##arra": 0,
    "FK": 0,
    "##ve": 4,
    "##olar": 4,
    "##ediatric": 1,
    "fork": 0,
    "##head": 0,
    "largely": 0,
    "actions": 0,
    "Pa": 7,
    "introduced": 0,
    "225": 0,
    "elements": 0,
    "induction": 0,
    "Six": 0,
    "##lug": 0,
    "battery": 0,
    "aspects": 0,
    "Notable": 0,
    "##lev": 0,
    "##rification": 0,
    "utilizes": 0,
    "demonstrates": 0,
    "profound": 0,
    "immune": 6,
    "##zzling": 0,
    "Indeed": 0,
    "molecules": 0,
    "perform": 0,
    "open": 0,
    "question": 0,
    "advance": 0,
    "avenue": 0,
    "##igan": 0,
    "animals": 0,
    "parameters": 0,
    "Faith": 0,
    "##fully": 0,
    "mimic": 0,
    "##king": 0,
    "##load": 0,
    "raised": 0,
    "load": 0,
    "indeed": 0,
    "traced": 0,
    "augmented": 0,
    "parallel": 0,
    "measurement": 0,
    "gut": 0,
    "regulatory": 0,
    "allows": 0,
    "informed": 0,
    "##heses": 0,
    "precise": 0,
    "provides": 0,
    "compelling": 0,
    "##position": 0,
    "##gna": 0,
    "##ncy": 0,
    "##lous": 0,
    "band": 0,
    "consistently": 0,
    "ring": 0,
    "rise": 0,
    "step": 0,
    "toward": 0,
    "##ncies": 0,
    "##rand": 0,
    "##ki": 1,
    "##tts": 1,
    "strengthen": 0,
    "##ncing": 0,
    "explained": 0,
    "biological": 0,
    "view": 0,
    "consists": 0,
    "##gement": 0,
    "compete": 0,
    "variations": 0,
    "presentation": 0,
    "##gren": 4,
    "Lars": 0,
    "SL": 18,
    "##cht": 2,
    "spa": 2,
    "##LD": 22,
    "##alytic": 0,
    "seemed": 0,
    "##til": 0,
    "Thirty": 0,
    "private": 0,
    "Eastern": 0,
    "occasion": 0,
    "ancient": 0,
    "undergone": 0,
    "striking": 0,
    "framework": 0,
    "##ont": 10,
    "palm": 5,
    "##lant": 6,
    "##era": 1,
    "##llon": 5,
    "##vre": 0,
    "##aris": 0,
    "##LS": 17,
    "245": 0,
    "##00": 0,
    "##tist": 1,
    "deciduous": 0,
    "permanent": 0,
    "##tions": 0,
    "tooth": 1,
    "Palm": 1,
    "ps": 6,
    "##oria": 6,
    "##form": 0,
    "typically": 0,
    "develops": 0,
    "##rato": 1,
    "knees": 0,
    "Some": 0,
    "##eous": 0,
    "narrowed": 0,
    "##SC": 0,
    "dip": 0,
    "##ept": 0,
    "lies": 0,
    "##rma": 0,
    "##rani": 5,
    "aim": 0,
    "multi": 3,
    "limit": 0,
    "87": 0,
    "sharing": 0,
    "recruited": 0,
    "locations": 0,
    "Met": 2,
    "##oan": 0,
    "Sit": 0,
    "##une": 0,
    "German": 0,
    "##ope": 0,
    "reside": 0,
    "##lets": 0,
    "253": 0,
    "AC": 0,
    "establish": 0,
    "organization": 0,
    "adjacent": 0,
    "##pass": 0,
    "142": 0,
    "100": 0,
    "donors": 0,
    "Mae": 0,
    "III": 0,
    "Chinese": 0,
    "##vary": 0,
    "##ants": 0,
    "reacted": 0,
    "##nts": 0,
    "Plate": 0,
    "diminished": 0,
    "message": 0,
    "##phon": 0,
    "commonly": 0,
    "palms": 0,
    "##iva": 0,
    "##quence": 0,
    "286": 0,
    "introducing": 0,
    "ancestor": 0,
    "Parents": 0,
    "si": 0,
    "##bs": 1,
    "##33": 0,
    "extreme": 0,
    "AA": 8,
    "##PC": 5,
    "##pair": 0,
    "creates": 0,
    "area": 0,
    "##strom": 4,
    "insulin": 0,
    "##dian": 0,
    "wise": 0,
    "log": 0,
    "##ari": 0,
    "odds": 0,
    "twelve": 0,
    "supporting": 0,
    "Mei": 0,
    "##otic": 4,
    "flanked": 0,
    "fine": 0,
    "resolution": 0,
    "constructed": 0,
    "comprises": 0,
    "discharge": 0,
    "Tunisia": 0,
    "##44": 0,
    "widened": 1,
    "scan": 0,
    "exploration": 0,
    "whenever": 0,
    "scalp": 0,
    "frontal": 0,
    "##thus": 1,
    "##tel": 1,
    "arched": 0,
    "anterior": 6,
    "investigating": 0,
    "##MR": 0,
    "##BS": 11,
    "##vity": 4,
    "##res": 0,
    "##istan": 0,
    "##gation": 0,
    "Jun": 0,
    "exposure": 0,
    "gamma": 0,
    "retain": 0,
    "##RS": 0,
    "RA": 0,
    "##ste": 7,
    "1748": 0,
    "focal": 1,
    "areas": 0,
    "##dell": 0,
    "bones": 0,
    "adulthood": 0,
    "##64": 0,
    "##51": 0,
    "##ppa": 0,
    "Page": 0,
    "molecule": 0,
    "##tur": 1,
    "##bation": 0,
    "Card": 0,
    "##iac": 0,
    "Na": 0,
    "channel": 0,
    "##rug": 1,
    "##ada": 1,
    "##vated": 0,
    "subunit": 0,
    "auxiliary": 0,
    "##table": 0,
    "shifts": 0,
    "voltage": 0,
    "dependence": 0,
    "steady": 0,
    "kinetic": 0,
    "channels": 0,
    "##ously": 0,
    "currents": 0,
    "decay": 0,
    "recovery": 0,
    "accelerated": 0,
    "##atch": 0,
    "window": 0,
    "RB": 3,
    "Single": 0,
    "techniques": 0,
    "across": 0,
    "seem": 0,
    "overview": 0,
    "advances": 0,
    "mounting": 0,
    "radical": 0,
    "Currently": 0,
    "hope": 0,
    "strategies": 0,
    "visual": 3,
    "##ious": 1,
    "##tional": 0,
    "Ten": 0,
    "##ht": 1,
    "##hal": 1,
    "slit": 0,
    "##lamp": 0,
    "fund": 2,
    "pairs": 0,
    "Five": 0,
    "##IC": 0,
    "##EL": 0,
    "appropriate": 0,
    "cooperate": 0,
    "details": 0,
    "les": 0,
    "stress": 0,
    "eliminate": 0,
    "neurons": 0,
    "requires": 0,
    "branches": 0,
    "Hai": 2,
    "PP": 1,
    "HMS": 10,
    "destruction": 0,
    "##hn": 1,
    "##oda": 1,
    "nails": 0,
    "fingers": 0,
    "world": 0,
    "religious": 0,
    "##chin": 0,
    "India": 0,
    "##rent": 0,
    "212": 0,
    "##gate": 0,
    "descended": 0,
    "Approximately": 0,
    "208": 0,
    "supported": 0,
    "survived": 0,
    "mean": 0,
    "##tral": 0,
    "##ater": 0,
    "bilateral": 4,
    "##fold": 0,
    "survival": 0,
    "glucose": 13,
    "evolutionary": 0,
    "house": 0,
    "##keeping": 0,
    "##AD": 12,
    "electron": 0,
    "agents": 0,
    "##uctive": 0,
    "##hetic": 0,
    "reactions": 0,
    "##pis": 2,
    "triggered": 0,
    "beans": 0,
    "alignment": 0,
    "organisms": 0,
    "fully": 0,
    "presumably": 0,
    "simply": 0,
    "notion": 0,
    "##aring": 0,
    "explosive": 0,
    "projects": 0,
    "become": 0,
    "numerous": 0,
    "prevalent": 0,
    "alternatively": 0,
    "Use": 0,
    "specify": 0,
    "##cision": 0,
    "smooth": 0,
    "74": 0,
    "Information": 0,
    "recognizing": 0,
    "##nous": 2,
    "##bos": 3,
    "##ici": 1,
    "##encies": 1,
    "difficult": 0,
    "overcome": 0,
    "problem": 0,
    "studying": 0,
    "PR": 4,
    "##bot": 0,
    "First": 0,
    "##per": 0,
    "trauma": 1,
    "##lative": 0,
    "persons": 0,
    "offers": 0,
    "way": 0,
    "Blood": 0,
    "2000": 0,
    "1935": 0,
    "1941": 0,
    "?": 0,
    "generally": 0,
    "describes": 0,
    "freshly": 0,
    "Det": 0,
    "via": 0,
    "real": 0,
    "unlikely": 0,
    "she": 0,
    "regional": 0,
    "Del": 0,
    "silence": 0,
    "tags": 0,
    "surrounding": 0,
    "##NR": 0,
    "exclusive": 0,
    "International": 0,
    "##tics": 0,
    "collections": 0,
    "conflicting": 0,
    "America": 0,
    "Finland": 0,
    "Norway": 0,
    "Kingdom": 0,
    "peak": 0,
    "para": 1,
    "##metric": 0,
    "assuming": 0,
    "06": 0,
    "281": 0,
    "criteria": 0,
    "08": 0,
    "albeit": 0,
    "prominent": 0,
    "sisters": 0,
    "daughters": 0,
    "decade": 0,
    "##dal": 1,
    "behavior": 0,
    "##ordination": 0,
    "Through": 0,
    "y": 0,
    "survive": 0,
    "deficit": 1,
    "learning": 0,
    "##dicative": 0,
    "Even": 0,
    "gross": 0,
    "differentiated": 0,
    "##zed": 0,
    "discuss": 0,
    "context": 0,
    "##eas": 0,
    "culminating": 0,
    "287": 0,
    "251": 0,
    "shift": 0,
    "Asian": 0,
    "compatible": 0,
    "fast": 0,
    "##ho": 0,
    "Act": 0,
    "relieve": 0,
    "contact": 0,
    "organic": 0,
    "solvent": 0,
    "##lude": 0,
    "terminus": 0,
    "Bin": 0,
    "##ding": 0,
    "##phobic": 0,
    "core": 0,
    "release": 0,
    "machinery": 0,
    "intrinsic": 0,
    "##structure": 0,
    "states": 0,
    "depending": 0,
    "##ds": 0,
    "understood": 0,
    "##sper": 0,
    "##sion": 0,
    "##lating": 0,
    "##19": 0,
    "spin": 5,
    "belongs": 0,
    "unstable": 0,
    "gain": 0,
    "88": 0,
    "differs": 0,
    "just": 0,
    "interrupted": 0,
    "stretch": 0,
    "Trans": 0,
    "##cription": 0,
    "##sca": 0,
    "sections": 0,
    "necessary": 0,
    "##riad": 0,
    "hum": 0,
    "##ero": 0,
    "##one": 0,
    "named": 0,
    "##izes": 0,
    "physiological": 0,
    "ultra": 0,
    "##ructural": 0,
    "##thin": 0,
    "##ctions": 0,
    "gold": 0,
    "particles": 0,
    "stayed": 0,
    "##lub": 0,
    "##ilize": 0,
    "wash": 0,
    "##tr": 0,
    "##udes": 0,
    "rigorous": 0,
    "contraction": 0,
    "relaxation": 0,
    "movements": 0,
    "calcium": 0,
    "flux": 0,
    "uncommon": 0,
    "retained": 0,
    "cannot": 0,
    "distinguished": 0,
    "##ol": 4,
    "entry": 0,
    "##rig": 4,
    "##aire": 1,
    "##iovascular": 1,
    "undertook": 0,
    "Canadian": 0,
    "Family": 0,
    "mm": 0,
    "liter": 0,
    "centered": 0,
    "around": 0,
    "proven": 0,
    "##gue": 0,
    "##nay": 0,
    "Lac": 0,
    "Jean": 0,
    "Quebec": 0,
    "##agi": 4,
    "charged": 0,
    "genetics": 0,
    "Primary": 1,
    "They": 0,
    "Men": 1,
    "traits": 0,
    "increasingly": 0,
    "replaced": 0,
    "##34": 0,
    "##oat": 0,
    "park": 0,
    "article": 0,
    "reviews": 0,
    "critically": 0,
    "discusses": 0,
    "proposes": 0,
    "referring": 0,
    "##mination": 0,
    "cortex": 0,
    "saturated": 0,
    "##LC": 9,
    "##FA": 4,
    "capacity": 0,
    "##nosis": 0,
    "border": 0,
    "Effect": 0,
    "fundamental": 0,
    "##am": 0,
    "concern": 0,
    "guarantee": 0,
    "fragments": 0,
    "methodology": 0,
    "GM": 4,
    "gang": 0,
    "rarely": 0,
    "fell": 0,
    "Consequently": 0,
    "differently": 0,
    "HM": 0,
    "##GI": 0,
    "architectural": 0,
    "##rating": 0,
    "##iff": 0,
    "##nti": 0,
    "##chy": 3,
    "##pressed": 0,
    "fat": 1,
    "resisted": 0,
    "##rup": 0,
    "proliferation": 0,
    "Factor": 1,
    "laboratory": 0,
    "F1": 0,
    "modelling": 0,
    "possessed": 0,
    "##aria": 0,
    "##erne": 0,
    "##quito": 0,
    "partner": 0,
    "utility": 0,
    "##lates": 0,
    "phase": 0,
    "Ni": 5,
    "##j": 5,
    "breaks": 0,
    "similarities": 0,
    "##gated": 0,
    "Understanding": 0,
    "shuttle": 0,
    "rough": 0,
    "##ulum": 0,
    "progress": 0,
    "towards": 0,
    "help": 0,
    "ill": 0,
    "##umi": 0,
    "##gnition": 0,
    "intelligence": 0,
    "##OX": 0,
    "associate": 0,
    "harmful": 0,
    "##OP": 0,
    "##lau": 4,
    "Fox": 0,
    "formerly": 0,
    "drainage": 0,
    "derive": 0,
    "##hl": 0,
    "canal": 0,
    "##rab": 0,
    "mesh": 0,
    "##work": 0,
    "eccentric": 0,
    "pupils": 0,
    "displaced": 0,
    "varies": 0,
    "background": 0,
    "bundle": 0,
    "diameter": 0,
    "elastic": 0,
    "sparse": 0,
    "backgrounds": 0,
    "behavioral": 0,
    "##mined": 0,
    "##roo": 1,
    "##rch": 1,
    "orchid": 0,
    "thorough": 0,
    "displayed": 0,
    "anxiety": 1,
    "##pressing": 0,
    "opposing": 0,
    "behaviors": 0,
    "own": 0,
    "##UT": 0,
    "successive": 0,
    "reproduced": 0,
    "observe": 0,
    "big": 0,
    "jumps": 0,
    "situation": 0,
    "##ulating": 0,
    "evolution": 0,
    "Ye": 0,
    "sulfur": 0,
    "##ffe": 0,
    "##cted": 0,
    "days": 0,
    "##sor": 0,
    "##ption": 0,
    "##cher": 3,
    "Type": 4,
    "GB": 0,
    "AJ": 0,
    "261": 0,
    "note": 0,
    "diver": 0,
    "delta": 0,
    "diversity": 0,
    "prior": 0,
    "founding": 0,
    "Coal": 0,
    "coal": 0,
    "bottle": 0,
    "##neck": 0,
    "millennium": 0,
    "##ky": 18,
    "##lit": 3,
    "145": 0,
    "ul": 3,
    "somewhat": 0,
    "interpreted": 0,
    "bow": 0,
    "##el": 0,
    "instance": 0,
    "fathers": 0,
    "definite": 0,
    "concept": 0,
    "Founder": 0,
    "Polish": 0,
    "hospital": 0,
    "prepared": 0,
    "415": 0,
    "Israeli": 0,
    "former": 0,
    "Very": 1,
    "threatening": 0,
    "mortality": 0,
    "##version": 0,
    "drastic": 0,
    "verified": 0,
    "locate": 0,
    "Sub": 0,
    "##copic": 0,
    "##ril": 0,
    "##BR": 0,
    "grandmother": 0,
    "deceased": 0,
    "grandfather": 0,
    "Grandma": 0,
    "grandchildren": 0,
    "sons": 0,
    "passed": 0,
    "mat": 0,
    "##car": 0,
    "born": 0,
    "135": 0,
    "##here": 0,
    "rule": 0,
    "except": 0,
    "shares": 0,
    "arose": 0,
    "million": 0,
    "devised": 0,
    "estimate": 0,
    "##ess": 0,
    "difficulties": 0,
    "##NL": 0,
    "IP": 0,
    "##tite": 0,
    "centre": 0,
    "establishment": 0,
    "acquired": 0,
    "##ima": 0,
    "##cts": 10,
    "##nia": 8,
    "decreases": 0,
    "##IX": 2,
    "lens": 0,
    "lent": 1,
    "##rr": 0,
    "##ulin": 1,
    "##MA": 0,
    "consequently": 0,
    "Second": 0,
    "Third": 0,
    "repeated": 0,
    "force": 0,
    "inverse": 0,
    "temporal": 0,
    "radios": 0,
    "##ens": 0,
    "similarity": 0,
    "sensors": 0,
    "recognition": 0,
    "DS": 0,
    "parallels": 0,
    "minutes": 0,
    "brightly": 0,
    "longer": 0,
    "hour": 0,
    "Clinic": 0,
    "##tem": 0,
    "##pts": 0,
    "##hered": 1,
    "##TT": 0,
    "##ING": 0,
    "##spective": 0,
    "institution": 0,
    "National": 0,
    "Institute": 0,
    "December": 0,
    "August": 0,
    "##EN": 0,
    "ease": 1,
    "themselves": 0,
    "101": 0,
    "##cology": 0,
    "protocols": 0,
    "111": 0,
    "trials": 0,
    "##CO": 0,
    "##ME": 0,
    "##AS": 0,
    "##UR": 0,
    "surgical": 0,
    "grade": 0,
    "##otherapy": 0,
    "success": 0,
    "##ored": 0,
    "median": 0,
    "##tors": 0,
    "##ut": 3,
    "##hil": 8,
    "##rrow": 0,
    "##iet": 0,
    "cultures": 0,
    "##ran": 1,
    "lineage": 0,
    "concurrently": 0,
    "commitment": 0,
    "##ye": 2,
    "##ls": 0,
    "degrees": 0,
    "broadly": 0,
    "##lam": 0,
    "IF": 0,
    "##oki": 0,
    "##uki": 0,
    "IL": 0,
    "##duction": 0,
    "resistant": 0,
    "placing": 0,
    "identifying": 0,
    "immediate": 0,
    "##pol": 5,
    "##MI": 0,
    "#": 0,
    "Fifteen": 0,
    "engineered": 0,
    "##bil": 1,
    "##ub": 1,
    "while": 0,
    "soluble": 0,
    "tertiary": 0,
    "ray": 0,
    "##ryl": 0,
    "modeling": 0,
    "reasons": 0,
    "packing": 0,
    "removal": 0,
    "salt": 0,
    "bridge": 0,
    "shed": 0,
    "light": 0,
    "distinctive": 0,
    "##che": 1,
    "Out": 0,
    "254": 0,
    "height": 0,
    "134": 0,
    "Alt": 0,
    "##eration": 0,
    "Is": 0,
    "mare": 0,
    "ten": 0,
    "230": 0,
    "signals": 0,
    "box": 0,
    "Robbins": 0,
    "Din": 0,
    "##wall": 0,
    "coil": 0,
    "perhaps": 0,
    "marginal": 0,
    "zones": 0,
    "pulp": 0,
    "Development": 0,
    "knock": 0,
    "insights": 0,
    "Additional": 0,
    "integration": 0,
    "Ah": 0,
    "Another": 0,
    "##ice": 1,
    "geographically": 0,
    "Screen": 0,
    "goal": 0,
    "collaborative": 0,
    "institutions": 0,
    "580": 0,
    "Belgium": 0,
    "Great": 0,
    "Britain": 0,
    "##vis": 0,
    "laboratories": 0,
    "speaking": 0,
    "historical": 0,
    "links": 0,
    "Von": 3,
    "##mis": 0,
    "implemented": 0,
    "##rave": 0,
    "##nder": 0,
    "vast": 0,
    "203": 0,
    "dating": 0,
    "spread": 0,
    "Ra": 0,
    "Mr": 0,
    "Ser": 0,
    "278": 0,
    "Cohen": 4,
    "##ef": 0,
    "##ining": 0,
    "Lebanese": 0,
    "##orio": 2,
    "withdrawn": 0,
    "assumed": 0,
    "##max": 0,
    "237": 0,
    "##guin": 0,
    "refined": 0,
    "Ko": 0,
    "##hm": 0,
    "##aine": 0,
    "Euro": 0,
    "206": 0,
    "213": 0,
    "encourages": 0,
    "##umatic": 1,
    "twins": 0,
    "convincing": 0,
    "##rome": 0,
    "2D": 0,
    "debris": 0,
    "##quin": 0,
    "pair": 0,
    "trio": 0,
    "256": 0,
    "161": 0,
    "##izer": 0,
    "*": 0,
    "##ak": 0,
    "##wes": 0,
    "##tern": 0,
    "USA": 0,
    "##38": 0,
    "transports": 0,
    "space": 0,
    "Main": 0,
    "##land": 0,
    "China": 0,
    "source": 0,
    "evolve": 0,
    "##ctor": 1,
    "shaped": 0,
    "Blacks": 0,
    "Mexican": 0,
    "Hispanic": 0,
    "##fy": 0,
    "ethnicity": 0,
    "##ference": 0,
    "##inate": 0,
    "##iation": 0,
    "##iated": 0,
    "energy": 0,
    "green": 0,
    "interference": 0,
    "flow": 0,
    "##ometric": 0,
    "FC": 0,
    "##bright": 0,
    "Mon": 0,
    "##wed": 0,
    "fixed": 0,
    "progresses": 0,
    "Restoration": 0,
    "photo": 1,
    "##ceptor": 1,
    "slow": 0,
    "inserted": 0,
    "rim": 0,
    "outer": 0,
    "discs": 0,
    "renewed": 0,
    "constantly": 0,
    "##ments": 0,
    "capture": 0,
    "##mento": 0,
    "Rd": 0,
    "decline": 0,
    "stacks": 0,
    "##pher": 0,
    "layer": 0,
    "corrected": 0,
    "Swiss": 0,
    "implied": 0,
    "##GB": 0,
    "ratios": 0,
    "U2": 0,
    "##AF": 0,
    "##py": 0,
    "PS": 0,
    "acting": 0,
    "##din": 0,
    "##oa": 0,
    "##lle": 0,
    "mount": 0,
    "##esta": 0,
    "released": 0,
    "layers": 0,
    "RS": 0,
    "224": 0,
    "##thi": 0,
    "##oth": 0,
    "##ito": 0,
    "##mers": 0,
    "sized": 0,
    "##robe": 0,
    "##chemistry": 0,
    "portions": 0,
    "gate": 0,
    "##FI": 8,
    "Ben": 1,
    "##pile": 0,
    "generalized": 1,
    "seizure": 1,
    "cease": 0,
    "leaving": 0,
    "GE": 0,
    "hundreds": 0,
    "thousands": 0,
    "fewer": 0,
    "##matical": 0,
    "##ivate": 0,
    "inactivated": 0,
    "Iron": 0,
    "self": 0,
    "assembly": 0,
    "##uka": 0,
    "##scher": 0,
    "##ichi": 0,
    "Da": 0,
    "tendency": 0,
    "Aero": 0,
    "##bic": 0,
    "spherical": 0,
    "MD": 0,
    "##ga": 0,
    "##tons": 0,
    "nm": 0,
    "##quest": 0,
    "atoms": 0,
    "##wise": 0,
    "##ela": 0,
    "native": 0,
    "weight": 0,
    "medium": 0,
    "reflects": 0,
    "##cks": 0,
    "##ko": 2,
    "Scott": 0,
    "##drome": 0,
    "##uan": 0,
    "exchange": 0,
    "610": 0,
    "##gam": 0,
    "##bul": 2,
    "hunting": 0,
    "##yna": 0,
    "terminals": 0,
    "aggregate": 0,
    "##ama": 0,
    "linking": 0,
    "affinity": 0,
    "displaying": 0,
    "Mass": 0,
    "##adi": 0,
    "End": 1,
    "flat": 0,
    "lame": 1,
    "network": 0,
    "morphology": 0,
    "migration": 0,
    "##tract": 0,
    "net": 0,
    "guides": 0,
    "##ral": 1,
    "##eted": 0,
    "Color": 2,
    "##ases": 0,
    "potent": 0,
    "##iate": 0,
    "substrate": 0,
    "##lants": 0,
    "controlling": 0,
    "guidance": 0,
    "none": 0,
    "generate": 0,
    "Almost": 0,
    "analyzing": 0,
    "individually": 0,
    "##sco": 0,
    "EA": 4,
    "##leg": 0,
    "##gra": 1,
    "consequence": 0,
    "##bu": 7,
    "essentially": 0,
    "apart": 0,
    "minimal": 0,
    "ed": 0,
    "fatigue": 0,
    "come": 0,
    "album": 0,
    "##erial": 1,
    "cap": 0,
    "##illa": 4,
    "##static": 4,
    "respond": 0,
    "volume": 0,
    "Examination": 0,
    "extremely": 0,
    "try": 0,
    "##vate": 2,
    "circulating": 0,
    "##rt": 1,
    "##ical": 5,
    "Portland": 0,
    "103": 0,
    "lowest": 0,
    "Neither": 0,
    "##EP": 0,
    "j": 1,
    "##ndi": 1,
    "Division": 0,
    "##all": 1,
    "##iera": 0,
    "Genoa": 0,
    "Italy": 0,
    "##ubi": 1,
    "##nae": 1,
    "302": 0,
    "babies": 0,
    "Sardinia": 0,
    "extraction": 0,
    "201": 0,
    "south": 0,
    "work": 0,
    "Cal": 0,
    "Sicily": 0,
    "##uss": 0,
    "##ura": 0,
    "Moroccan": 0,
    "orders": 0,
    "magnitude": 0,
    "possessing": 0,
    "proportions": 0,
    "##olm": 4,
    "monitored": 0,
    "##lein": 0,
    "substrates": 0,
    "##bell": 0,
    "El": 0,
    "extract": 0,
    "##sta": 0,
    "##say": 0,
    "Mali": 1,
    "know": 0,
    "criterion": 0,
    "59": 0,
    "deaths": 0,
    "##lia": 0,
    "Other": 0,
    "##rik": 0,
    "w": 0,
    "once": 0,
    "twice": 0,
    "tenth": 0,
    "##ilitating": 0,
    "Evaluation": 0,
    "postal": 0,
    "##naire": 0,
    "satisfied": 0,
    "race": 0,
    "yield": 0,
    "person": 0,
    "chance": 0,
    "thousand": 0,
    "Hit": 0,
    "accepted": 0,
    "figures": 0,
    "fort": 0,
    "##uit": 1,
    "atop": 1,
    "br": 2,
    "##chia": 1,
    "arc": 0,
    "trace": 0,
    "mg": 0,
    "remotely": 0,
    "make": 0,
    "##IT": 1,
    "##RA": 0,
    "pie": 7,
    "mast": 0,
    "##ori": 0,
    "##pox": 2,
    "##hine": 2,
    "##RT": 3,
    "Les": 34,
    "Tokyo": 0,
    "##gon": 0,
    "##PP": 0,
    "synonymous": 0,
    "tends": 0,
    "easily": 0,
    "confused": 0,
    "distinction": 0,
    "smallest": 0,
    "orientation": 0,
    "##OA": 0,
    "configuration": 0,
    "serves": 0,
    "right": 0,
    "##mere": 0,
    "producing": 0,
    "remainder": 0,
    "Twelve": 0,
    "continuing": 0,
    "##ologies": 0,
    "register": 0,
    "updated": 0,
    "periodically": 0,
    "##tate": 0,
    "##mini": 1,
    "Ta": 38,
    "Sachs": 0,
    "##SD": 35,
    "Mar": 0,
    "template": 0,
    "permitting": 0,
    "vector": 0,
    "monkey": 0,
    "mock": 0,
    "counterpart": 0,
    "ABS": 0,
    "##TE": 0,
    "144": 0,
    "##kan": 0,
    "1988": 0,
    "Go": 0,
    "##gi": 0,
    "apparatus": 0,
    "reflected": 0,
    "##ver": 0,
    "322": 0,
    "segregated": 0,
    "translated": 0,
    "M1": 0,
    "Canadians": 0,
    "converts": 0,
    "##ea": 0,
    "##ctive": 0,
    "##det": 0,
    "Be": 1,
    "##rks": 0,
    "County": 0,
    "Pennsylvania": 0,
    "Following": 0,
    "appeared": 0,
    "Kelly": 0,
    "1975": 0,
    "1991": 0,
    "Tri": 1,
    "##ggs": 0,
    "Rain": 0,
    "1992": 0,
    "##ficient": 0,
    "##cs": 0,
    "124": 0,
    "Ireland": 0,
    "Black": 0,
    "Instead": 0,
    "Numerous": 0,
    "Abe": 0,
    "##ider": 14,
    "Cho": 2,
    "120": 0,
    "belonging": 0,
    "Ms": 0,
    "worlds": 0,
    "preventing": 0,
    "chosen": 0,
    "roles": 0,
    "uniquely": 0,
    "##ising": 0,
    "##base": 0,
    "libraries": 0,
    "tag": 0,
    "STS": 0,
    "ends": 0,
    "insert": 0,
    "assist": 0,
    "construction": 0,
    "continuous": 0,
    "covering": 0,
    "eventual": 0,
    "pulsed": 0,
    "field": 0,
    "##oam": 0,
    "&": 0,
    "650": 0,
    "indicates": 0,
    "##lone": 0,
    "126": 0,
    "parts": 0,
    "Africa": 0,
    "happened": 0,
    "approached": 0,
    "bacterial": 4,
    "With": 0,
    "slight": 0,
    "roughly": 0,
    "add": 0,
    "##itive": 1,
    "thermal": 0,
    "##aj": 0,
    "##un": 0,
    "southwest": 0,
    "Louisiana": 0,
    "couple": 0,
    "France": 0,
    "centuries": 0,
    "century": 0,
    "##quisite": 0,
    "emphasize": 0,
    "##ave": 0,
    "##side": 0,
    "High": 0,
    "##BL": 5,
    "acute": 3,
    "##por": 0,
    "blocked": 0,
    "##Es": 1,
    "suffered": 0,
    "##ica": 0,
    "dir": 0,
    "outside": 0,
    "lost": 0,
    "MCC": 0,
    "rod": 0,
    "##GM": 4,
    "##odies": 0,
    "##tera": 0,
    "tight": 0,
    "symbol": 0,
    "Recent": 0,
    "prompted": 0,
    "utilized": 0,
    "##cross": 0,
    "verify": 0,
    "precisely": 0,
    "comparative": 0,
    "maintained": 0,
    "##cid": 0,
    "##ade": 1,
    "##rated": 0,
    "##lin": 0,
    "ing": 0,
    "node": 0,
    "surprisingly": 0,
    "##nect": 0,
    "count": 0,
    "HIV": 2,
    "arising": 0,
    "##up": 0,
    "follows": 0,
    "##raft": 0,
    "transplant": 0,
    "infected": 0,
    "##evity": 0,
    "modifications": 0,
    "formed": 0,
    "lacks": 0,
    "substantial": 0,
    "##fuse": 0,
    "125": 0,
    "##fant": 0,
    "subgroup": 0,
    "Sep": 0,
    "##hard": 0,
    "##where": 0,
    "304": 0,
    "305": 0,
    "Ty": 0,
    "elsewhere": 0,
    "Stop": 0,
    "##rad": 0,
    "##active": 0,
    "helpful": 0,
    "Taiwan": 0,
    "recognize": 0,
    "naturally": 0,
    "137": 0,
    "Aside": 0,
    "discovering": 0,
    "gradient": 0,
    "facilitated": 0,
    "search": 0,
    "##mpt": 0,
    "incident": 0,
    "offer": 0,
    "distance": 0,
    "Starting": 0,
    "narrow": 0,
    "resource": 0,
    "##tour": 2,
    "horses": 0,
    "AN": 0,
    "hence": 0,
    "applications": 0,
    "Close": 0,
    "workers": 0,
    "SD": 0,
    "##OH": 0,
    "nineteen": 0,
    "MC": 2,
    "converting": 0,
    "##rina": 0,
    "Lu": 0,
    "##bruck": 0,
    "lie": 0,
    "##imo": 0,
    "##rgan": 0,
    "CS": 0,
    "##diction": 0,
    "##TL": 0,
    "##IM": 0,
    "bracket": 0,
    "sustained": 1,
    "learn": 0,
    "balanced": 0,
    "Physical": 0,
    "derivative": 0,
    "separation": 0,
    "RF": 0,
    "simultaneously": 0,
    "Short": 0,
    "exactly": 0,
    "preserved": 0,
    "matches": 0,
    "pouch": 0,
    "##thy": 1,
    "utilizing": 0,
    "##75": 0,
    "places": 0,
    "inherit": 0,
    "begins": 0,
    "##tical": 1,
    "Certain": 0,
    "##ressed": 0,
    "inevitable": 0,
    "##AA": 0,
    "##romatic": 7,
    "##SA": 0,
    "81": 0,
    "valid": 0,
    "##truct": 0,
    "raises": 0,
    "issues": 0,
    "##cede": 0,
    "##rion": 0,
    "##ill": 0,
    "sampling": 0,
    "##junct": 0,
    "egg": 0,
    "AM": 30,
    "##amel": 0,
    "dental": 0,
    "AI": 2,
    "distributions": 0,
    "periods": 0,
    "ranging": 0,
    "connect": 0,
    "##aneous": 4,
    "sic": 1,
    "A2": 0,
    "##uma": 0,
    "##card": 0,
    "##cor": 0,
    "##dant": 0,
    "intriguing": 0,
    "serve": 0,
    "obscure": 0,
    "##plain": 0,
    "##ump": 0,
    "embedded": 0,
    "separated": 0,
    "vital": 0,
    "action": 0,
    "differentiate": 0,
    "couples": 0,
    "requesting": 0,
    "##VS": 0,
    "##hesion": 0,
    "##end": 0,
    "##biotic": 0,
    "snake": 0,
    "venom": 0,
    "promote": 0,
    "Typical": 0,
    "CE": 14,
    "super": 0,
    "##num": 0,
    "She": 0,
    "district": 0,
    "Azerbaijan": 0,
    "neighbouring": 0,
    "residents": 0,
    "villages": 0,
    "##asa": 2,
    "valley": 0,
    "endemic": 0,
    "malaria": 11,
    "marriages": 0,
    "##oga": 0,
    "##ico": 0,
    "WHO": 0,
    "Shi": 0,
    "##ula": 1,
    "##kh": 0,
    "Ok": 0,
    "##hu": 0,
    "##aka": 0,
    "Martin": 0,
    "##ique": 0,
    "##lance": 0,
    "CF": 2,
    "front": 1,
    "##ona": 1,
    "##sal": 1,
    "##rona": 3,
    "Extra": 1,
    "##ittle": 1,
    "longitudinal": 0,
    "groove": 0,
    "toes": 0,
    "joints": 0,
    "##itate": 0,
    "supportive": 0,
    "measures": 0,
    "##ld": 0,
    "Unlike": 0,
    "Culture": 0,
    "##RI": 1,
    "abolished": 0,
    "Una": 0,
    "##uous": 0,
    "ancestors": 0,
    "##rle": 0,
    "##ix": 0,
    "province": 0,
    "diffusion": 0,
    "homeland": 0,
    "##sign": 0,
    "assignment": 0,
    "Resolution": 0,
    "excluding": 0,
    "Tests": 0,
    "Mark": 0,
    "##BE": 0,
    "gives": 0,
    "##ssi": 0,
    "##gned": 0,
    "Fat": 0,
    "ultimately": 0,
    "fatal": 1,
    "##ien": 1,
    "##cies": 1,
    "contributed": 0,
    "##verse": 0,
    "EC": 0,
    "enables": 0,
    "246": 0,
    "165": 0,
    "Ava": 0,
    "proof": 0,
    "suitable": 0,
    "simultaneous": 0,
    "golden": 1,
    "retrieve": 0,
    "Golden": 1,
    "dogs": 0,
    "skipped": 0,
    "##w": 1,
    "beginning": 0,
    "reconstructed": 0,
    "##arily": 0,
    "tools": 0,
    "typed": 0,
    "sixth": 0,
    "##rations": 0,
    "VIII": 0,
    "giving": 0,
    "vision": 0,
    "abolition": 0,
    "272": 0,
    "##ser": 0,
    "north": 0,
    "reference": 0,
    "integrate": 0,
    "152": 0,
    "202": 0,
    "employing": 0,
    "##KA": 0,
    "CR": 0,
    "##AP": 0,
    "computational": 0,
    "algorithm": 0,
    "additionally": 0,
    "##rier": 0,
    "SR": 0,
    "particle": 0,
    "provisional": 0,
    "comparing": 0,
    "minimum": 0,
    "crossover": 0,
    "BC": 0,
    "Rear": 0,
    "##toon": 0,
    "vicinity": 0,
    "sq": 0,
    "##ua": 0,
    "##mous": 0,
    "Kiel": 0,
    "##cent": 1,
    "Also": 0,
    "##LL": 0,
    "excellent": 0,
    "##ifying": 0,
    "##igate": 0,
    "vectors": 0,
    "prepare": 0,
    "stranded": 0,
    "Introduction": 0,
    "baby": 0,
    "Apparently": 0,
    "collection": 0,
    "##yon": 0,
    "155": 0,
    "##dance": 0,
    "##sistence": 0,
    "160": 0,
    "responsibility": 0,
    "Pie": 2,
    "patches": 0,
    "##lan": 5,
    "Kit": 0,
    "norm": 3,
    "##mot": 1,
    "Local": 0,
    "conjunction": 0,
    "southern": 0,
    "Bulgaria": 0,
    "Turkey": 0,
    "Gardner": 4,
    "Tour": 2,
    "##ette": 2,
    "believe": 0,
    "Discovery": 0,
    "clues": 0,
    "readily": 0,
    "##nea": 0,
    "strands": 0,
    "Gala": 1,
    "188": 0,
    "##ces": 0,
    "##iae": 0,
    "333": 0,
    "virtual": 0,
    "##wan": 0,
    "##oo": 0,
    "##won": 0,
    "##lint": 0,
    "density": 0,
    "##tron": 0,
    "##rog": 0,
    "##rap": 0,
    "##hs": 0,
    "##pra": 0,
    "cu": 0,
    "##fusion": 0,
    "##nent": 0,
    "disappearance": 0,
    "min": 0,
    "slower": 0,
    "##rons": 0,
    "Yemen": 0,
    "live": 0,
    "Scotland": 0,
    "community": 0,
    "histories": 0,
    "official": 0,
    "documents": 0,
    "lived": 0,
    "San": 0,
    "capital": 0,
    "eighteenth": 0,
    "relation": 0,
    "AD": 5,
    "next": 0,
    "best": 0,
    "##OC": 0,
    "09": 0,
    "##MM": 0,
    "Evidence": 0,
    "fifty": 0,
    "confident": 0,
    "ordering": 0,
    "227": 0,
    "##CS": 0,
    "Armenians": 0,
    "fairly": 0,
    "Mexico": 0,
    "##tically": 0,
    "##rito": 0,
    "Federal": 0,
    "Te": 0,
    "Cast": 0,
    "##ok": 0,
    "imported": 0,
    "Bet": 0,
    "##sus": 0,
    "Oriental": 0,
    "##dor": 0,
    "##gli": 1,
    "##gible": 0,
    "racial": 0,
    "##gence": 0,
    "Orient": 0,
    "Asia": 0,
    "Mongol": 0,
    "##oids": 0,
    "absorb": 0,
    "##dra": 1,
    "unless": 0,
    "sugar": 0,
    "brush": 0,
    "influx": 0,
    "thereafter": 0,
    "moves": 0,
    "il": 0,
    "##eum": 0,
    "resides": 0,
    "complementary": 0,
    "injected": 0,
    "Inter": 0,
    "##ML": 0,
    "##WC": 0,
    "Hybrid": 0,
    "fourteen": 0,
    "Centre": 0,
    "##tude": 0,
    "distances": 0,
    "##tine": 0,
    "directional": 0,
    "walking": 0,
    "jumping": 0,
    "enable": 0,
    "##monia": 0,
    "##yas": 0,
    "Hal": 0,
    "assignments": 0,
    "extend": 0,
    "salvage": 0,
    "conversion": 0,
    "##fies": 0,
    "identifies": 0,
    "mode": 0,
    "##more": 0,
    "necessarily": 0,
    "##Z": 0,
    "twin": 0,
    "##nas": 0,
    "##dle": 0,
    "fibers": 0,
    "##print": 0,
    "uneven": 0,
    "Pit": 0,
    "morning": 0,
    "integrated": 0,
    "administration": 0,
    "##lini": 0,
    "##rot": 3,
    "##rino": 1,
    "Regional": 0,
    "##ferred": 0,
    "##47": 0,
    "panels": 0,
    "##ster": 4,
    "##TP": 12,
    "##les": 1,
    "##lem": 1,
    "Members": 0,
    "##lass": 0,
    "profile": 0,
    "##ather": 0,
    "paper": 0,
    "Location": 0,
    "##gment": 0,
    "##lent": 1,
    "niece": 0,
    "existing": 0,
    "prediction": 0,
    "school": 0,
    "##boy": 0,
    "Lucan": 0,
    "Coast": 0,
    "zero": 0,
    "side": 0,
    "##nine": 0,
    "town": 0,
    "Greek": 0,
    "settlers": 0,
    "##apon": 0,
    "Mont": 0,
    "##ban": 0,
    "Pi": 0,
    "peninsula": 0,
    "regarded": 0,
    "strains": 0,
    "NZ": 0,
    "##WR": 0,
    "retains": 0,
    "Hungarian": 0,
    "Europeans": 0,
    "##arity": 0,
    "##eta": 0,
    "unidentified": 0,
    "walk": 0,
    "blue": 0,
    "cone": 1,
    "owe": 0,
    "coincidence": 0,
    "Las": 0,
    "##metry": 0,
    "never": 0,
    "receiving": 0,
    "##oper": 0,
    "Ham": 0,
    "##dition": 0,
    "tempered": 0,
    "Part": 0,
    "survey": 0,
    "careful": 0,
    "intensity": 0,
    "spanned": 0,
    "##int": 0,
    "##pate": 0,
    "##rnal": 0,
    "##mate": 0,
    "Alexandra": 0,
    "Camp": 0,
    "##erd": 0,
    "##own": 0,
    "Vic": 0,
    "##scence": 0,
    "justify": 0,
    "designation": 0,
    "Maltese": 0,
    "coincide": 0,
    "attention": 0,
    "unexpected": 0,
    "Statistical": 0,
    "##eman": 0,
    "curves": 0,
    "104": 0,
    "functioning": 0,
    "prevention": 0,
    "depends": 0,
    "216": 0,
    "false": 0,
    "Total": 1,
    "exceeded": 0,
    "totally": 0,
    "profiles": 0,
    "description": 0,
    "And": 0,
    "generic": 0,
    "applied": 0,
    "##iam": 0,
    "Vita": 0,
    "##ssa": 0,
    "136": 0,
    "##ap": 3,
    "##ena": 0,
    "classified": 0,
    "leave": 0,
    "agreement": 0,
    "##umba": 0,
    "Mal": 0,
    "##zable": 0,
    "falls": 0,
    "situated": 0,
    "Ban": 0,
    "descending": 0,
    "##sian": 0,
    "630": 0,
    "Samoa": 0,
    "Tonga": 0,
    "Cook": 0,
    "Islanders": 0,
    "##ue": 0,
    "##ans": 0,
    "Consider": 0,
    "continuity": 0,
    "dispersed": 0,
    "constituted": 0,
    "Southeast": 0,
    "theories": 0,
    "##ffin": 0,
    "trigger": 0,
    "whereby": 0,
    "suffers": 0,
    "differed": 0,
    "07": 0,
    "Fifty": 0,
    "likelihood": 0,
    "ruled": 0,
    "##CD": 15,
    "agrees": 0,
    "coupling": 0,
    "Northeastern": 0,
    "opportunities": 0,
    "Po": 0,
    "##sitive": 0,
    "placed": 0,
    "##SR": 0,
    "ant": 0,
    "aiming": 0,
    "errors": 0,
    "Lange": 6,
    "##sable": 0,
    "##gma": 0,
    "issue": 0,
    "Netherlands": 0,
    "##ight": 0,
    "##worth": 0,
    "##nse": 0,
    "axes": 0,
    "impression": 0,
    "contention": 0,
    "companion": 0,
    "opportunity": 0,
    "##sol": 0,
    "##ogy": 0,
    "##mie": 0,
    "Historically": 0,
    "encompassed": 0,
    "elaborate": 0,
    "##rcle": 0,
    "successively": 0,
    "progression": 0,
    "sheath": 0,
    "VI": 0,
    "sometimes": 0,
    "categorized": 0,
    "##WD": 3,
    "bleeding": 0,
    "##ual": 0,
    "##itative": 0,
    "##hesive": 0,
    "difficulty": 0,
    "obtaining": 0,
    "adaptation": 0,
    "##stituted": 0,
    "slot": 0,
    "quantity": 0,
    "##pont": 0,
    "crossing": 0,
    "permitted": 0,
    "##vert": 0,
    "##izations": 0,
    "##nado": 1,
    "##pin": 1,
    "##ba": 0,
    "arranged": 0,
    "##titis": 0,
    "##uca": 0,
    "Progressive": 1,
    "##pet": 0,
    "Previously": 0,
    "remote": 0,
    "formal": 0,
    "presently": 0,
    "1644": 0,
    "164": 0,
    "105": 0,
    "1650": 0,
    "##ou": 0,
    "RAF": 0,
    "Cross": 0,
    "##overs": 0,
    "tub": 0,
    "comes": 0,
    "away": 0,
    "Results": 0,
    "lamp": 0,
    "exam": 0,
    "##ale": 0,
    "211": 0,
    "bulk": 0,
    "folding": 0,
    "geographical": 0,
    "Seattle": 0,
    "##ronic": 3,
    "acidic": 0,
    "pH": 0,
    "##mum": 0,
    "##aba": 0,
    "##dua": 0,
    "analogue": 0,
    "Heat": 0,
    "curve": 0,
    "resemble": 0,
    "Bangkok": 0,
    "virtue": 0,
    "Friend": 0,
    "Bernard": 0,
    "Wei": 0,
    "##nberg": 0,
    "Rap": 0,
    "Albert": 0,
    "Dry": 0,
    "##ja": 0,
    "Nature": 0,
    "London": 0,
    "##iggs": 0,
    "151": 0,
    "157": 0,
    "oriented": 0,
    "##ving": 0,
    "tiny": 0,
    "##stant": 0,
    "authenticity": 0,
    "##ulon": 2,
    "Lao": 0,
    "##tian": 0,
    "humor": 0,
    "##sonic": 0,
    "pneumonia": 1,
    "hours": 0,
    "specimen": 0,
    "##tensive": 0,
    "##ging": 0,
    "Flow": 0,
    "sorted": 0,
    "##aga": 0,
    "##BC": 0,
    "bacteria": 0,
    "grew": 0,
    "attempt": 0,
    "accuracy": 0,
    "investigators": 0,
    "##ines": 0,
    "How": 0,
    "viable": 0,
    "##zation": 0,
    "doubts": 0,
    "Rather": 0,
    "missing": 0,
    "##anti": 0,
    "##dies": 0,
    "limits": 0,
    "Half": 0,
    "##hra": 4,
    "month": 0,
    "175": 0,
    "275": 0,
    "mug": 0,
    "##herence": 0,
    "Can": 9,
    "killing": 0,
    "320": 0,
    "day": 0,
    "transit": 0,
    "elevation": 0,
    "fall": 0,
    "off": 0,
    "return": 0,
    "temperature": 0,
    "##olis": 0,
    "##fused": 0,
    "##nce": 1,
    "##bate": 0,
    "Guangdong": 0,
    "Province": 0,
    "Kai": 0,
    "Hui": 0,
    "##yang": 0,
    "Gao": 0,
    "##min": 0,
    "Qing": 0,
    "Bai": 0,
    "##jiang": 0,
    "##zhou": 0,
    "##az": 0,
    "##hou": 0,
    "Nan": 0,
    "##hai": 0,
    "Guangzhou": 0,
    "##kka": 0,
    "Ya": 0,
    "##ests": 0,
    "measurements": 0,
    "##sted": 0,
    "defining": 0,
    "##ably": 0,
    "##cot": 0,
    "accumulated": 0,
    "##cano": 0,
    "##ivity": 0,
    "##altered": 0,
    "Mean": 0,
    "##lly": 0,
    "##mentary": 0,
    "Mouse": 0,
    "conclusion": 0,
    "protective": 0,
    "##mented": 5,
    "jaw": 2,
    "Kingston": 0,
    "1983": 0,
    "##section": 0,
    "infancy": 0,
    "survives": 0,
    "drift": 0,
    "warrant": 0,
    "##culus": 0,
    "recovered": 0,
    "##dices": 0,
    "##lect": 0,
    "exception": 0,
    "##avi": 4,
    "##esh": 0,
    "Nigeria": 0,
    "Chatham": 0,
    "Santiago": 0,
    "transitions": 0,
    "suffer": 0,
    "##zi": 0,
    "##SV": 0,
    "caps": 0,
    "##esi": 0,
    "viruses": 0,
    "familiar": 0,
    "attributes": 0,
    "representative": 0,
    "trial": 0,
    "##oz": 0,
    "received": 0,
    "daily": 0,
    "code": 0,
    "broken": 0,
    "arrested": 0,
    "Wayne": 0,
    "Huron": 0,
    "medical": 0,
    "entertained": 0,
    "special": 0,
    "##alo": 0,
    "heavily": 0,
    "Dual": 0,
    "parameter": 0,
    "Cut": 1,
    "##rite": 0,
    "globe": 0,
    "meet": 0,
    "Hair": 0,
    "##ione": 0,
    "urine": 0,
    "repeatedly": 0,
    "##voking": 0,
    "taken": 0,
    "opened": 0,
    "Until": 0,
    "But": 0,
    "comparatively": 0,
    "positioned": 0,
    "##vocative": 0,
    "unexpectedly": 0,
    "distant": 0,
    "fur": 0,
    "##pf": 0,
    "##fers": 0,
    "##bby": 0,
    "analogy": 0,
    "preceding": 0,
    "116": 0,
    "Conservation": 0,
    "died": 0,
    "surviving": 0,
    "frozen": 0,
    "argue": 0,
    "proposal": 0,
    "controversial": 0,
    "Brittany": 0,
    "##iel": 0,
    "preliminary": 0,
    "dog": 0,
    "transferred": 0,
    "assign": 0,
    "equally": 0,
    "##gar": 0,
    "contents": 0,
    "##AV": 0,
    "BT": 0,
    "##rda": 0,
    "else": 0,
    "brought": 0,
    "1845": 0,
    "##mar": 0,
    "fist": 1,
    "transmit": 0,
    "transmitter": 0,
    "##und": 0,
    "basic": 0,
    "##agu": 0,
    "spouse": 0,
    "MW": 0,
    "##bred": 0,
    "Levy": 0,
    "chicken": 0,
    "insufficient": 0,
    "choose": 0,
    "Radio": 0,
    "black": 0,
    "competence": 0,
    "again": 0,
    "##formed": 0,
    "depressed": 0,
    "ranged": 0,
    "##iden": 0,
    "3000": 0,
    "##guchi": 0,
    "##lers": 0,
    "star": 0,
    "buffer": 0,
    "##TA": 0,
    "##ora": 0,
    "##lor": 0,
    "##nan": 0,
    "##wa": 0,
    "heat": 0,
    "##kas": 0,
    "##hima": 0,
    "1977": 0,
    "intelligent": 0,
    "##eto": 1,
    "##art": 1,
    "speech": 0,
    "##uti": 0,
    "converted": 0,
    "convert": 0,
    "Similarly": 0,
    "##gua": 0,
    "document": 0,
    "famous": 0,
    "applicable": 0,
    "hp": 0,
    "fail": 0,
    "reproduce": 0,
    "##dan": 0,
    "principle": 0,
    "distinctly": 0,
    "aid": 0,
    "demons": 0,
    "##rano": 0,
    "##scopic": 0,
    "Algeria": 0,
    "urban": 0,
    "Algiers": 0,
    "##rber": 0,
    "##by": 0,
    "##gh": 0,
    "##lid": 3,
    "##itte": 0,
    "##ono": 0,
    "##dium": 0,
    "organism": 0,
    "Para": 0,
    "##site": 0,
    "parasite": 0,
    "resistance": 0,
    "equals": 0,
    "Bone": 0,
    "141": 0,
    "##grade": 0,
    "settlements": 0,
    "permits": 0,
    "distribute": 0,
    "##sh": 0,
    "Kung": 0,
    "303": 0,
    "##lina": 2,
    "##nched": 0,
    "##ano": 0,
    "takes": 0,
    "##elle": 0,
    "##gers": 2,
    "##tore": 0,
    "category": 0,
    "217": 0,
    "Neo": 1,
    "resemblance": 0,
    "benefit": 0,
    "lowered": 0,
    "arrest": 0,
    "Bulgarian": 0,
    "117": 0,
    "##udo": 0,
    "Ned": 0,
    "Oh": 0,
    "Child": 0,
    "Health": 0,
    "categories": 0,
    "##ust": 0,
    "##essed": 0,
    "stressed": 0,
    "##graphical": 0,
    "examinations": 0,
    "enter": 2,
    "##ii": 0,
    "##tis": 0,
    "Environmental": 0,
    "descriptive": 0,
    "name": 0,
    "##ED": 1,
    "##AR": 1,
    "##IF": 0,
    "##NG": 0,
    "##AM": 0,
    "##ON": 0,
    "##EM": 1,
    "discussion": 0,
    "Russian": 0,
    "166": 0,
    "Near": 0,
    "Austrian": 0,
    "Czechoslovakia": 0,
    "modern": 0,
    "Jew": 0,
    "Poland": 0,
    "Russia": 0,
    "1100": 0,
    "closer": 0,
    "Barcelona": 0,
    "1967": 0,
    "##zo": 0,
    "##lium": 0,
    "##kal": 0,
    "LA": 0,
    "Papua": 0,
    "Guinea": 0,
    "thirty": 0,
    "Organization": 0,
    "##jects": 0,
    "Athens": 0,
    "Union": 0,
    "Provisional": 0,
    "constitutes": 0,
    "supplies": 0,
    "summarized": 0,
    "kinds": 0,
    "##gano": 0,
    "noticed": 0,
    "soon": 0,
    "crisis": 0,
    "faster": 0,
    "MG": 2,
    "minor": 0,
    "##graphs": 0,
    "probable": 0,
    "##bed": 0,
    "dealing": 0,
    "recommend": 0,
    "##stan": 0,
    "##sed": 0,
    "districts": 0,
    "Fay": 0,
    "##gor": 0,
    "Boston": 0,
    "##z": 0,
    "Pan": 0,
    "Pet": 0,
    "Got": 0,
    "##chev": 0,
    "participating": 0,
    "changed": 0,
    "requiring": 0,
    "dial": 0,
    "gradually": 0,
    "decreasing": 0,
    "accelerate": 0,
    "seemingly": 0,
    "##itor": 0,
    "##itors": 0,
    "appearing": 0,
    "colonies": 0,
    "call": 0,
    "posterior": 0,
    "fiber": 0,
    "capsule": 0,
    "corpus": 0,
    "##adia": 0,
    "descriptions": 0,
    "evolving": 0,
    "##ham": 0,
    "Sal": 0,
    "##Cs": 0,
    "##cco": 0,
    "added": 0,
    "##lav": 1,
    "indicator": 0,
    "universal": 0,
    "changing": 0,
    "##ard": 0,
    "duct": 0,
    "##usions": 0,
    "lifetime": 0,
    "Terminal": 1,
    "##bent": 0,
    "##roup": 0,
    "implementation": 0,
    "##UE": 0,
    "##laus": 0,
    "##ibly": 0,
    "1863": 0,
    "231": 0,
    "38th": 0,
    "240": 0,
    "inability": 0,
    "smell": 0,
    "theory": 0,
    "seeking": 0,
    "IT": 0,
    "patch": 0,
    "##ode": 0,
    "##ritic": 0,
    "Hunting": 0,
    "##ules": 0,
    "##elles": 0,
    "##ido": 1,
    "Besides": 0,
    "approximate": 0,
    "stiff": 0,
    "Thom": 4,
    "potassium": 0,
    "290": 0,
    "Whole": 0,
    "aided": 0,
    "##que": 0,
    "transfers": 0,
    "easy": 0,
    "directed": 0,
    "##acity": 0,
    "experiment": 0,
    "repetitive": 0,
    "illegitimate": 0,
    "documentation": 0,
    "##actic": 0,
    "##hore": 0,
    "technically": 0,
    "challenging": 0,
    "Natural": 0,
    "risen": 0,
    "protected": 0,
    "afforded": 0,
    "mathematical": 0,
    "incorporating": 0,
    "counter": 0,
    "##cing": 0,
    "disadvantage": 0,
    "Chi": 0,
    "##arate": 0,
    "##sect": 0,
    "solely": 0,
    "##nged": 0,
    "Rapid": 0,
    "promises": 0,
    "107": 0,
    "##cini": 0,
    "viral": 0,
    "##itic": 0,
    "design": 0,
    "Performance": 0,
    "Fourteen": 0,
    "exceeding": 0,
    "##ych": 0,
    "picture": 0,
    "reliability": 0,
    "improving": 0,
    "interpretations": 0,
    "eligibility": 0,
    "intake": 0,
    "interim": 0,
    "offered": 0,
    "placement": 0,
    "insect": 0,
    "##kis": 0,
    "South": 0,
    "Negro": 0,
    "##cas": 0,
    "lengths": 0,
    "peoples": 0,
    "Saharan": 0,
    "Disco": 0,
    "##fication": 0,
    "masses": 0,
    "##coe": 0,
    "measuring": 0,
    "pulse": 0,
    "Biological": 0,
    "examines": 0,
    "##aker": 0,
    "promoting": 0,
    "##aph": 0,
    "au": 1,
    "##reus": 0,
    "incapable": 0,
    "##rose": 0,
    "##tized": 0,
    "Salmon": 0,
    "##lution": 0,
    "import": 0,
    "pastor": 0,
    "##rama": 0,
    "121": 0,
    "Anti": 0,
    "##abi": 0,
    "systematically": 0,
    "##moto": 0,
    "Current": 0,
    "invasive": 1,
    "compromised": 0,
    "mirror": 0,
    "Twin": 0,
    "##rel": 0,
    "##ire": 0,
    "##pation": 0,
    "elimination": 0,
    "1955": 0,
    "anticipation": 0,
    "relentless": 0,
    "proceed": 0,
    "owing": 0,
    "##tility": 1,
    "contribution": 0,
    "##FM": 0,
    "Essential": 1,
    "oldest": 0,
    "Alternative": 0,
    "conservative": 0,
    "analogous": 0,
    "##ute": 0,
    "Macedonian": 0,
    "Israel": 0,
    "##ach": 2,
    "##bba": 0,
    "##sle": 0,
    "Arabs": 0,
    "Jerusalem": 0,
    "destroying": 0,
    "Christian": 0,
    "Knowledge": 0,
    "final": 0,
    "destroys": 0,
    "##mber": 0,
    "fitness": 0,
    "immediately": 0,
    "inherent": 0,
    "serial": 0,
    "fashion": 0,
    "dynamic": 0,
    "##imated": 0,
    "autonomous": 0,
    "onto": 0,
    "112": 0,
    "Evans": 0,
    "##innamon": 0,
    "removes": 0,
    "900": 0,
    "heavy": 0,
    "metals": 0,
    "##family": 0,
    "158": 0,
    "reflecting": 0,
    "weaker": 0,
    "stronger": 0,
    "sufficiently": 0,
    "##olic": 0,
    "##vas": 0,
    "attempted": 0,
    "camp": 0,
    "##ester": 0,
    "##ily": 0,
    "inadequate": 0,
    "suppressed": 0,
    "Plant": 0,
    "suppression": 0,
    "Danish": 0,
    "paved": 0,
    "intervals": 0,
    "##duced": 0,
    "##nc": 0,
    "encompasses": 0,
    "##bel": 0,
    "##kar": 0,
    "narrowing": 0,
    "##avan": 9,
    "##acy": 0,
    "##PA": 0,
    "285": 0,
    "128": 0,
    "propagation": 0,
    "Intelligence": 0,
    "##tien": 0,
    "abbreviated": 0,
    "##chs": 0,
    "Scale": 0,
    "Rev": 0,
    "verbal": 0,
    "arithmetic": 0,
    "grades": 0,
    "steadily": 0,
    "declined": 0,
    "linear": 0,
    "##ify": 0,
    "Aden": 2,
    "institutional": 0,
    "autism": 1,
    "hind": 0,
    "##ered": 0,
    "Ewing": 5,
    "round": 0,
    "coded": 0,
    "intervened": 0,
    "##ator": 0,
    "rabbit": 0,
    "cow": 0,
    "dynamics": 0,
    "##ong": 0,
    "similarly": 0,
    "Beyond": 0,
    "compression": 0,
    "implies": 0,
    "fertility": 0,
    "Taking": 0,
    "access": 0,
    "correctly": 0,
    "rigid": 0,
    "uniform": 0,
    "##ture": 0,
    "feasible": 0,
    "surprising": 0,
    "transmissions": 0,
    "slope": 0,
    "##gression": 0,
    "steep": 0,
    "##fference": 0,
    "Rep": 0,
    "##eat": 0,
    "expand": 0,
    "originating": 0,
    "covered": 0,
    "divisions": 0,
    "phenomena": 0,
    "concentrated": 0,
    "conflict": 0,
    "##eye": 0,
    "observing": 0,
    "relevance": 0,
    "mix": 0,
    "##lerical": 0,
    "occasions": 0,
    "##ges": 0,
    "##tage": 0,
    "##and": 0,
    "##rmon": 0,
    "##fra": 0,
    "##500": 0,
    "deposited": 0,
    "Considering": 0,
    "Slovak": 0,
    "Structure": 0,
    "##hea": 2,
    "exploits": 0,
    "alleviate": 0,
    "considerations": 0,
    "comparisons": 0,
    "170": 0,
    "##100": 0,
    "Convention": 0,
    "borders": 0,
    "describing": 0,
    "catalog": 0,
    "historic": 0,
    "##union": 0,
    "Take": 0,
    "cutter": 0,
    "Investigation": 0,
    "instrument": 0,
    "##IB": 0,
    "##vel": 2,
    "##mental": 2,
    "##pped": 0,
    "WC": 0,
    "##hala": 1,
    "##cula": 0,
    "153": 0,
    "##tata": 0,
    "##cens": 0,
    "Case": 0,
    "University": 0,
    "centers": 0,
    "progressed": 0,
    "Per": 1,
    "##ume": 0,
    "exploited": 0,
    "##fines": 0,
    "inconsistent": 0,
    "##PO": 0,
    "##SE": 0,
    "wanted": 0,
    "Grass": 0,
    "photos": 0,
    "##rum": 0,
    "Company": 0,
    "Quincy": 0,
    "spared": 0,
    "promise": 0,
    "becoming": 0,
    "phenomenon": 0,
    "prominently": 0,
    "##ote": 0,
    "fibre": 0,
    "organisation": 0,
    "##edly": 0,
    "##lt": 0,
    "fish": 1,
    "Classic": 1,
    "Fish": 3,
    "##ately": 0,
    "label": 0,
    "residence": 0,
    "##cat": 0,
    "Saudi": 0,
    "freedom": 0,
    "172": 0,
    "rods": 0,
    "cones": 0,
    "adapt": 0,
    "##cated": 0,
    "##cap": 1,
    "##vi": 0,
    "##ties": 0,
    "Rod": 0,
    "preservation": 0,
    "##usive": 0,
    "hampered": 0,
    "traditional": 0,
    "embarked": 0,
    "182": 0,
    "zone": 0,
    "expanse": 0,
    "Alternatively": 0,
    "##generate": 0,
    "##ailed": 0,
    "##hips": 0,
    "tended": 0,
    "Isles": 0,
    "Scottish": 0,
    "Welsh": 0,
    "slipped": 0,
    "perfect": 0,
    "responds": 0,
    "hidden": 0,
    "##date": 0,
    "explains": 0,
    "era": 0,
    "fate": 0,
    "Different": 0,
    "Put": 0,
    "##hood": 0,
    "Central": 1,
    "##grating": 0,
    "hall": 0,
    "##marks": 0,
    "##rone": 1,
    "##lus": 4,
    "judged": 0,
    "fill": 0,
    "gap": 0,
    "##loy": 0,
    "##founded": 0,
    "Cam": 0,
    "##iment": 0,
    "##fted": 0,
    "distinguishing": 0,
    "protocol": 0,
    "amongst": 0,
    "##mos": 0,
    "pyramid": 0,
    "Fourth": 0,
    "contrasts": 0,
    "founders": 0,
    "##hino": 2,
    "##XT": 0,
    "ordered": 0,
    "Comprehensive": 0,
    "850": 0,
    "Or": 0,
    "##issa": 0,
    "tribal": 0,
    "##mark": 0,
    "BP": 3,
    "definitions": 0,
    "##UP": 0,
    "strongest": 0,
    "operating": 0,
    "115": 0,
    "##ganized": 0,
    "nerves": 0,
    "longest": 0,
    "##gan": 0,
    "international": 0,
    "129": 0,
    "Czech": 0,
    "##pecific": 0,
    "importantly": 0
  },
  "I": {
    "I": 17,
    "##dent": 0,
    "##ification": 0,
    "of": 178,
    "AP": 6,
    "##C": 9,
    "##2": 14,
    ",": 25,
    "a": 26,
    "ho": 0,
    "##mo": 2,
    "##logue": 0,
    "the": 78,
    "ad": 51,
    "##eno": 37,
    "##mat": 29,
    "##ous": 28,
    "p": 107,
    "##oly": 85,
    "##po": 84,
    "##sis": 81,
    "co": 41,
    "##li": 35,
    "t": 20,
    "##umour": 20,
    "suppress": 0,
    "##or": 7,
    ".": 14,
    "The": 0,
    "(": 46,
    ")": 46,
    "-": 634,
    "protein": 12,
    "controls": 0,
    "W": 12,
    "##nt": 1,
    "signalling": 0,
    "pathway": 0,
    "by": 0,
    "forming": 0,
    "complex": 1,
    "with": 1,
    "g": 20,
    "##ly": 19,
    "##co": 3,
    "##gen": 5,
    "s": 39,
    "##ynth": 0,
    "##ase": 42,
    "kinase": 3,
    "3": 5,
    "##bet": 8,
    "##a": 36,
    "G": 38,
    "##S": 0,
    "##K": 2,
    "##xin": 0,
    "/": 31,
    "conduct": 5,
    "##in": 2,
    "and": 120,
    "beta": 4,
    "##cate": 0,
    "##nin": 0,
    "Complex": 0,
    "formation": 0,
    "induce": 0,
    "##s": 93,
    "rapid": 0,
    "degradation": 0,
    "In": 0,
    "##lon": 4,
    "car": 35,
    "##cin": 34,
    "##oma": 96,
    "cells": 0,
    "loss": 19,
    "leads": 0,
    "to": 10,
    "accumulation": 3,
    "in": 21,
    "nucleus": 0,
    "where": 0,
    "it": 0,
    "binds": 0,
    "activate": 0,
    "T": 37,
    "##c": 12,
    "##f": 0,
    "4": 0,
    "transcription": 1,
    "factor": 3,
    "reviewed": 0,
    "[": 1,
    "1": 17,
    "]": 1,
    "2": 9,
    "Here": 0,
    "we": 0,
    "report": 0,
    "identification": 0,
    "##mic": 1,
    "structure": 0,
    "Ma": 0,
    "##mmal": 0,
    "##ian": 87,
    "which": 0,
    "closely": 0,
    "resembles": 0,
    "overall": 0,
    "domain": 0,
    "was": 0,
    "functional": 1,
    "analyzed": 0,
    "shown": 0,
    "contain": 0,
    "two": 0,
    "SA": 0,
    "##MP": 0,
    "domains": 0,
    "both": 0,
    "are": 0,
    "required": 0,
    "for": 5,
    "binding": 0,
    "Like": 0,
    "regulate": 0,
    "active": 3,
    "complexes": 0,
    "as": 5,
    "demonstrated": 0,
    "using": 0,
    "trans": 0,
    "##ient": 0,
    "##al": 8,
    "activation": 0,
    "ass": 0,
    "##ays": 0,
    "Human": 0,
    "maps": 0,
    "chromosome": 4,
    "19": 0,
    "##p": 47,
    "##13": 0,
    "may": 0,
    "therefore": 0,
    "have": 0,
    "comparable": 0,
    "functions": 0,
    "development": 2,
    "cancer": 275,
    "A": 11,
    "common": 0,
    "MS": 0,
    "##H": 2,
    "mutation": 0,
    "English": 0,
    "North": 0,
    "American": 0,
    "H": 1,
    "##NP": 0,
    "##CC": 0,
    "families": 0,
    ":": 0,
    "origin": 0,
    "##hen": 14,
    "##otypic": 0,
    "expression": 0,
    "sex": 1,
    "specific": 0,
    "differences": 0,
    "color": 11,
    "##ec": 6,
    "##tal": 8,
    "frequency": 0,
    "##er": 44,
    "##m": 3,
    "##line": 1,
    "gene": 11,
    "previously": 0,
    "identified": 0,
    "seven": 0,
    "kind": 0,
    "##red": 0,
    "hereditary": 5,
    "non": 14,
    "syndrome": 283,
    "investigated": 0,
    ">": 0,
    "at": 44,
    "n": 0,
    "##t": 1,
    "##9": 4,
    "##43": 0,
    "+": 1,
    "disrupt": 0,
    "##lice": 0,
    "site": 0,
    "ex": 3,
    "##on": 7,
    "5": 0,
    "leading": 0,
    "del": 0,
    "##eti": 0,
    "this": 0,
    "from": 0,
    "m": 5,
    "##RNA": 0,
    "represents": 0,
    "only": 2,
    "frequent": 0,
    "so": 0,
    "far": 0,
    "reported": 0,
    "Although": 0,
    "initially": 0,
    "detected": 0,
    "four": 0,
    "33": 0,
    "anal": 0,
    "##ys": 256,
    "##ed": 2,
    "eastern": 0,
    "England": 0,
    "more": 0,
    "extensive": 0,
    "analysis": 0,
    "has": 0,
    "reduced": 0,
    "52": 0,
    "8": 0,
    "%": 0,
    "contrast": 0,
    "10": 0,
    "20": 0,
    "50": 0,
    "separately": 0,
    "Newfoundland": 0,
    "To": 0,
    "investigate": 0,
    "=": 0,
    "United": 0,
    "States": 0,
    "ha": 9,
    "##lot": 0,
    "##ype": 0,
    "micro": 0,
    "##sat": 0,
    "##elli": 0,
    "##te": 15,
    "markers": 0,
    "linked": 81,
    "performed": 0,
    "Within": 0,
    "US": 0,
    "there": 0,
    "little": 0,
    "evidence": 0,
    "recent": 0,
    "most": 0,
    "flank": 0,
    "##ing": 16,
    "CA": 0,
    "##5": 8,
    "D": 4,
    "##28": 0,
    "##8": 0,
    "eight": 0,
    "These": 0,
    "findings": 0,
    "suggested": 0,
    "founder": 0,
    "effect": 0,
    "within": 0,
    "similar": 0,
    "that": 0,
    "others": 0,
    "M": 3,
    "##L": 1,
    "##H1": 0,
    "mutations": 0,
    "Finnish": 0,
    "We": 0,
    "calculated": 0,
    "age": 0,
    "related": 0,
    "risks": 0,
    "all": 1,
    "end": 1,
    "##ome": 1,
    "##tri": 2,
    "o": 103,
    "##var": 87,
    "carriers": 0,
    "76": 0,
    "patients": 0,
    "men": 15,
    "women": 0,
    "For": 2,
    "sexes": 0,
    "combined": 0,
    "pen": 0,
    "##et": 0,
    "##rance": 0,
    "60": 0,
    "years": 0,
    "were": 0,
    "0": 0,
    "86": 0,
    "57": 0,
    "respectively": 0,
    "risk": 0,
    "significantly": 0,
    "higher": 0,
    "<": 0,
    "01": 0,
    "males": 0,
    "than": 1,
    "females": 0,
    "63": 0,
    "v": 8,
    "30": 0,
    "84": 0,
    "44": 0,
    "ages": 0,
    "high": 0,
    "pre": 0,
    "##men": 5,
    "##op": 25,
    "##aus": 0,
    "inter": 0,
    "##sex": 0,
    "implications": 0,
    "screening": 0,
    "programmes": 0,
    "attempts": 0,
    "identify": 0,
    "su": 3,
    "##ce": 8,
    "##pt": 0,
    "##ibility": 0,
    "##od": 0,
    "##ifier": 0,
    "Age": 0,
    "onset": 4,
    "Huntington": 0,
    "disease": 253,
    "influence": 0,
    "##poli": 0,
    "##pop": 27,
    "##rote": 8,
    "E": 2,
    "##type": 0,
    "normal": 1,
    "##G": 0,
    "repeat": 2,
    "length": 0,
    "##O": 0,
    "HD": 1,
    "is": 0,
    "known": 0,
    "be": 0,
    "correlated": 0,
    "an": 40,
    "expanded": 0,
    "##OE": 0,
    "turn": 0,
    "Alzheimer": 0,
    "rendering": 0,
    "likely": 0,
    "candidate": 0,
    "affect": 1,
    "other": 2,
    "ne": 20,
    "##uro": 19,
    "##logical": 0,
    "diseases": 9,
    "too": 0,
    "determined": 0,
    "138": 0,
    "who": 0,
    "respect": 0,
    "Gen": 0,
    "##ot": 0,
    "##y": 63,
    "##ping": 0,
    "blind": 2,
    "clinical": 0,
    "information": 0,
    "addition": 0,
    "highlighting": 0,
    "upon": 0,
    "maternal": 0,
    "inherited": 5,
    "male": 1,
    "show": 0,
    "e": 15,
    "##ps": 8,
    "##ilon": 0,
    "##ep": 1,
    "##si": 7,
    "##3": 3,
    "associated": 1,
    "earlier": 0,
    "Such": 0,
    "difference": 0,
    "not": 0,
    "apparent": 0,
    "any": 0,
    "Our": 0,
    "suggest": 0,
    "subtle": 0,
    "course": 0,
    "##de": 12,
    "##gene": 23,
    "##ration": 14,
    "allow": 0,
    "interacting": 0,
    "genes": 1,
    "##ert": 0,
    "gender": 0,
    "effects": 0,
    "F": 2,
    "##ami": 6,
    "##lial": 4,
    "deficiency": 275,
    "seventh": 8,
    "component": 26,
    "complement": 35,
    "re": 124,
    "##current": 0,
    "b": 1,
    "##act": 17,
    "##ere": 10,
    "infections": 9,
    "due": 1,
    "N": 42,
    "##ei": 16,
    "##sser": 1,
    "##ia": 51,
    "serum": 0,
    "29": 0,
    "year": 0,
    "old": 0,
    "woman": 0,
    "episode": 0,
    "di": 11,
    "##sse": 0,
    "##minated": 0,
    "go": 5,
    "##no": 8,
    "##cca": 1,
    "##l": 37,
    "infection": 10,
    "history": 0,
    "##oc": 14,
    "##cal": 3,
    "##itis": 24,
    "art": 11,
    "##hr": 12,
    "child": 0,
    "found": 0,
    "lack": 0,
    "hem": 29,
    "##tic": 22,
    "activity": 3,
    "C": 42,
    "##7": 8,
    "or": 27,
    "im": 5,
    "##mu": 5,
    "##chemical": 0,
    "whereas": 0,
    "components": 0,
    "assessment": 0,
    "Her": 0,
    "fresh": 0,
    "lacked": 0,
    "mediated": 1,
    "##eric": 0,
    "##idal": 0,
    "against": 0,
    "##nor": 0,
    "##r": 10,
    "##hoe": 0,
    "##ae": 0,
    "but": 0,
    "pu": 1,
    "##rified": 0,
    "restored": 0,
    "well": 0,
    "absence": 1,
    "could": 0,
    "accounted": 0,
    "on": 0,
    "basis": 0,
    "inhibitor": 0,
    "Op": 0,
    "##son": 4,
    "##ization": 0,
    "generation": 0,
    "ch": 4,
    "##em": 2,
    "##ota": 0,
    "##ctic": 0,
    "functioned": 0,
    "normally": 0,
    "Complete": 0,
    "also": 0,
    "one": 0,
    "sibling": 0,
    "had": 0,
    "siblings": 0,
    "son": 0,
    "##LA": 0,
    "his": 0,
    "##to": 6,
    "##com": 4,
    "##pa": 13,
    "##ti": 2,
    "##bility": 0,
    "typing": 0,
    "family": 3,
    "members": 0,
    "did": 0,
    "demonstrate": 0,
    "genetic": 9,
    "link": 0,
    "##age": 5,
    "major": 0,
    "lo": 0,
    "##ci": 1,
    "This": 0,
    "first": 0,
    "cases": 0,
    "infectious": 0,
    "complications": 0,
    "suggests": 0,
    "important": 0,
    "host": 0,
    "defense": 0,
    "##isse": 3,
    "##ria": 1,
    "Inc": 0,
    "##reased": 0,
    "incidence": 0,
    "cart": 0,
    "##ila": 1,
    "##ge": 0,
    "hair": 2,
    "h": 48,
    "##lasia": 47,
    "O": 0,
    "##B": 2,
    "##J": 0,
    "##EC": 0,
    "##TI": 1,
    "##VE": 0,
    "Previous": 0,
    "reports": 0,
    "increased": 0,
    "among": 0,
    "CH": 0,
    "study": 0,
    "carried": 0,
    "out": 0,
    "further": 0,
    "evaluate": 0,
    "their": 0,
    "degree": 0,
    "relatives": 0,
    "ST": 0,
    "##U": 2,
    "##D": 33,
    "##Y": 0,
    "DE": 0,
    "##SI": 1,
    "##N": 0,
    "One": 0,
    "hundred": 0,
    "twenty": 0,
    "through": 0,
    "country": 0,
    "##wide": 0,
    "##pid": 5,
    "##iol": 0,
    "##og": 5,
    "##ic": 4,
    "surveys": 0,
    "1974": 0,
    "1986": 0,
    "Their": 0,
    "parents": 0,
    "##af": 0,
    "##fected": 0,
    "Population": 0,
    "Register": 0,
    "Center": 0,
    "##hor": 0,
    "underwent": 0,
    "follow": 0,
    "up": 0,
    "Cancer": 4,
    "Regis": 0,
    "##try": 0,
    "1995": 0,
    "R": 2,
    "##ES": 0,
    "##LT": 1,
    "statistical": 0,
    "significant": 0,
    "excess": 0,
    "seen": 0,
    "standardized": 0,
    "ratio": 0,
    "6": 30,
    "9": 0,
    "95": 0,
    "confidence": 0,
    "interval": 0,
    "16": 0,
    "mainly": 0,
    "##but": 0,
    "##able": 0,
    "Ho": 2,
    "##d": 2,
    "##g": 6,
    "##kins": 2,
    "l": 31,
    "##ymph": 21,
    "90": 0,
    "18": 0,
    "264": 0,
    "basal": 1,
    "cell": 33,
    "35": 0,
    "7": 2,
    "102": 0,
    "differ": 0,
    "average": 0,
    "population": 0,
    "CO": 0,
    "##NC": 0,
    "##US": 0,
    "##ION": 0,
    "confirms": 0,
    "especially": 1,
    "probably": 0,
    "defect": 22,
    "##ive": 57,
    "immunity": 1,
    "##otype": 1,
    "##hy": 56,
    "##dr": 44,
    "##opy": 0,
    "##rim": 0,
    "##id": 16,
    "##ine": 18,
    "de": 52,
    "##ogen": 34,
    "Di": 0,
    "##PD": 26,
    "auto": 1,
    "##so": 10,
    "##mal": 3,
    "##cess": 52,
    "characterised": 0,
    "thy": 2,
    "##mine": 2,
    "u": 3,
    "##rac": 0,
    "##il": 0,
    "##uria": 15,
    "##zy": 0,
    "##go": 1,
    "##us": 25,
    "def": 49,
    "##icient": 37,
    "been": 0,
    "variable": 0,
    "order": 0,
    "understand": 0,
    "17": 0,
    "presenting": 0,
    "22": 0,
    "complete": 3,
    "group": 0,
    "different": 0,
    "including": 0,
    "##ons": 7,
    "295": 0,
    "##del": 0,
    "##TC": 0,
    "##AT": 0,
    "1897": 0,
    "IV": 8,
    "##14": 0,
    "miss": 0,
    "##ense": 0,
    "85": 0,
    "##T": 7,
    "70": 0,
    "265": 0,
    "Analysis": 0,
    "prevalence": 0,
    "various": 0,
    "point": 0,
    "invariant": 0,
    "donor": 0,
    "six": 0,
    "less": 0,
    "frequently": 0,
    "observed": 0,
    "large": 1,
    "var": 0,
    "##iability": 0,
    "con": 7,
    "##vu": 3,
    "##lsive": 0,
    "disorders": 32,
    "motor": 0,
    "##tar": 34,
    "##dation": 30,
    "mental": 4,
    "being": 0,
    "abundant": 0,
    "manifest": 0,
    "##ations": 4,
    "clear": 0,
    "correlation": 0,
    "between": 0,
    "established": 0,
    "An": 0,
    "altered": 0,
    "al": 2,
    "##ani": 1,
    "##ne": 17,
    "home": 1,
    "##ost": 1,
    "##asis": 4,
    "might": 0,
    "under": 0,
    "##lie": 0,
    "abnormal": 46,
    "##ities": 38,
    "encountered": 0,
    "Fi": 0,
    "##bro": 6,
    "##blast": 15,
    "growth": 2,
    "##log": 1,
    "##HF": 0,
    "mapping": 0,
    "Bo": 0,
    "##je": 0,
    "##ss": 17,
    "##man": 4,
    "Le": 8,
    "##hmann": 2,
    "region": 1,
    "X": 30,
    "##q": 0,
    "##26": 0,
    "##ated": 1,
    "du": 0,
    "##plication": 0,
    "break": 5,
    "##point": 0,
    "B": 5,
    "##FL": 1,
    "like": 3,
    "patient": 0,
    "##yn": 10,
    "q": 0,
    "human": 8,
    "features": 3,
    "46": 0,
    "Y": 0,
    "##ally": 0,
    "mother": 0,
    "##lu": 5,
    "##ores": 0,
    "##cence": 0,
    "sit": 1,
    "##u": 13,
    "hybrid": 0,
    "##isation": 0,
    "yeast": 0,
    "artificial": 0,
    "clone": 0,
    "local": 0,
    "##ised": 0,
    "approximately": 0,
    "400": 0,
    "k": 4,
    "##b": 0,
    "##X": 2,
    "##15": 0,
    "##29": 0,
    "##4": 0,
    "##30": 0,
    "Database": 0,
    "searches": 0,
    "available": 0,
    "DNA": 0,
    "sequence": 0,
    "revealed": 0,
    "presence": 0,
    "fi": 3,
    "new": 0,
    "extending": 0,
    "over": 2,
    "200": 0,
    "composed": 0,
    "least": 0,
    "It": 0,
    "shows": 0,
    "tissue": 2,
    "alternative": 0,
    "##licing": 0,
    "starts": 0,
    "Northern": 0,
    "showed": 0,
    "highest": 0,
    "brain": 5,
    "skeletal": 1,
    "muscle": 4,
    "pattern": 0,
    "f": 10,
    "forms": 2,
    "ca": 0,
    "##dh": 0,
    "##eri": 1,
    "##n": 1,
    "CD": 0,
    "##dis": 1,
    "##pose": 0,
    "gas": 6,
    "##tric": 6,
    "##her": 6,
    "##ited": 0,
    "described": 0,
    "recently": 0,
    "three": 0,
    "Mao": 0,
    "##ri": 0,
    "genetically": 0,
    "he": 14,
    "##tero": 1,
    "what": 0,
    "proportion": 0,
    "populations": 0,
    "Therefore": 0,
    "screened": 0,
    "British": 0,
    "Irish": 0,
    "SS": 0,
    "##CP": 0,
    "sequences": 0,
    "Each": 0,
    "contained": 0,
    "i": 1,
    "affected": 0,
    "before": 0,
    ";": 4,
    "ii": 0,
    "Novel": 0,
    "nonsense": 0,
    "25": 0,
    "Both": 0,
    "predicted": 0,
    "##run": 0,
    "signal": 0,
    "##eptide": 0,
    "thus": 0,
    "carrier": 0,
    "developed": 0,
    "confirmed": 0,
    "cause": 0,
    "However": 0,
    "minority": 0,
    "can": 0,
    "Loss": 0,
    "function": 3,
    "implicated": 0,
    "path": 0,
    "##esis": 0,
    "##poradic": 3,
    "our": 0,
    "provide": 0,
    "early": 1,
    "Thus": 0,
    "should": 0,
    "zinc": 0,
    "finger": 0,
    "##cation": 0,
    "##uri": 1,
    "##1": 3,
    "results": 0,
    "characteristic": 0,
    "##rogen": 0,
    "##ital": 3,
    "Den": 0,
    "Dr": 28,
    "##ash": 17,
    "##ms": 10,
    "tumor": 33,
    "plays": 0,
    "key": 0,
    "role": 0,
    "d": 243,
    "##function": 11,
    "neo": 11,
    "##lastic": 0,
    "me": 10,
    "##the": 1,
    "##lio": 4,
    "##ma": 9,
    "le": 17,
    "##uke": 2,
    "##mia": 25,
    "breast": 36,
    "##lo": 8,
    "##mer": 1,
    "##ulos": 0,
    "##cle": 4,
    "##rosis": 4,
    "specifically": 0,
    "such": 0,
    "DD": 0,
    "valuable": 0,
    "insight": 0,
    "concerning": 0,
    "rare": 0,
    "childhood": 0,
    "characterized": 0,
    "##ph": 5,
    "##rop": 6,
    "##athy": 13,
    "involving": 0,
    "##sang": 0,
    "##ial": 2,
    "pseudo": 0,
    "##rod": 0,
    "constitutional": 0,
    "##onic": 0,
    "include": 0,
    "terminal": 0,
    "Z": 0,
    "##F": 0,
    "##gos": 0,
    "##ity": 16,
    "targeted": 0,
    "##ele": 0,
    "##39": 0,
    "##6": 32,
    "##don": 0,
    "39": 0,
    "adult": 0,
    "##ime": 0,
    "##ric": 2,
    "mice": 0,
    "Male": 0,
    "##eni": 3,
    "defects": 17,
    "evident": 0,
    "single": 0,
    "case": 0,
    "##cript": 0,
    "##get": 0,
    "skip": 0,
    "event": 0,
    "implying": 0,
    "##usal": 0,
    "##ige": 1,
    "##nes": 1,
    "##is": 32,
    "mutant": 0,
    "em": 1,
    "##ryo": 0,
    "##nic": 0,
    "stem": 0,
    "regarding": 0,
    "mechanism": 0,
    "its": 0,
    "Me": 31,
    "##chan": 0,
    "##ism": 3,
    "iron": 3,
    "absorption": 0,
    "model": 0,
    "##och": 11,
    "##roma": 11,
    "##tosis": 16,
    "duo": 0,
    "##den": 1,
    "transport": 4,
    "##MT": 0,
    "##dit": 1,
    "##ary": 0,
    "disorder": 92,
    "deposition": 0,
    "secondary": 0,
    "excessive": 0,
    "diet": 0,
    "##E": 0,
    "physically": 0,
    "transfer": 5,
    "##rin": 1,
    "receptor": 0,
    "##R": 0,
    "cry": 0,
    "proposed": 0,
    "##ten": 0,
    "##uate": 0,
    "##take": 0,
    "bound": 0,
    "plasma": 1,
    "regulation": 0,
    "##ers": 0,
    "tested": 0,
    "hypothesis": 0,
    "##valent": 0,
    "metal": 0,
    "By": 0,
    "weeks": 0,
    "loading": 0,
    "when": 0,
    "compared": 0,
    "litter": 0,
    "##mates": 0,
    "elevated": 0,
    "sat": 0,
    "##uration": 0,
    "68": 0,
    "vs": 0,
    "49": 4,
    "liver": 3,
    "concentrations": 0,
    "98": 0,
    "##gram": 0,
    "38": 0,
    "analyses": 0,
    "##uant": 0,
    "##itated": 0,
    "classes": 0,
    "##cripts": 0,
    "containing": 0,
    "##sp": 9,
    "element": 0,
    "##RE": 0,
    "called": 0,
    "no": 5,
    "positive": 0,
    "control": 0,
    "greatly": 0,
    "levels": 0,
    "increase": 0,
    "fold": 0,
    "despite": 0,
    "content": 0,
    "Duo": 0,
    "nor": 1,
    "data": 0,
    "support": 0,
    "lead": 0,
    "inappropriate": 0,
    "low": 0,
    "result": 0,
    "##ant": 16,
    "stab": 0,
    "##ilization": 0,
    "##eur": 0,
    "##sio": 0,
    "long": 7,
    "term": 0,
    "treatment": 0,
    "##ren": 19,
    "##ole": 19,
    "##uk": 29,
    "##ody": 29,
    "##stro": 29,
    "##phy": 213,
    "monitor": 0,
    "AL": 28,
    "means": 0,
    "##ose": 13,
    "##nso": 0,
    "##ry": 2,
    "##voked": 0,
    "potential": 0,
    "SE": 1,
    "##Ps": 0,
    "ME": 0,
    "BA": 0,
    "##GR": 0,
    "##UN": 0,
    "proved": 0,
    "useful": 0,
    "revealing": 0,
    "signs": 0,
    "progressively": 0,
    "severe": 0,
    "central": 4,
    "dying": 0,
    "back": 1,
    "##xon": 1,
    "stages": 0,
    "##TH": 0,
    "##OD": 0,
    "Eight": 0,
    "examination": 0,
    "spine": 1,
    "MR": 0,
    "##I": 1,
    "##P": 3,
    "studies": 0,
    "after": 0,
    "Lorenzo": 0,
    "oil": 0,
    "therapy": 0,
    "Before": 0,
    "five": 0,
    "Three": 0,
    "these": 0,
    "pure": 0,
    "spinal": 0,
    "remaining": 0,
    "involvement": 4,
    "cerebral": 4,
    "tracts": 0,
    "After": 0,
    "worse": 0,
    "##ning": 0,
    "advanced": 0,
    "stage": 1,
    "exhibited": 0,
    "substantially": 0,
    "unchanged": 0,
    "inflammatory": 0,
    "lesions": 17,
    "Moreover": 0,
    "without": 0,
    "damage": 1,
    "does": 0,
    "modify": 0,
    "natural": 0,
    "because": 0,
    "effective": 0,
    "treatments": 0,
    "begin": 0,
    "symptoms": 5,
    "considered": 0,
    "effectiveness": 0,
    "experimental": 0,
    "negative": 0,
    "##CH": 0,
    "##oman": 0,
    "##di": 0,
    "##bula": 1,
    "##ton": 17,
    "authors": 0,
    "obvious": 0,
    "responded": 0,
    "positively": 0,
    "L": 5,
    "do": 0,
    "must": 0,
    "even": 0,
    "typical": 0,
    "Korean": 0,
    "extensively": 0,
    "messenger": 0,
    "RNA": 0,
    "62": 0,
    "unrelated": 0,
    "FA": 1,
    "adopted": 0,
    "strand": 0,
    "conform": 0,
    "##ation": 5,
    "##mor": 0,
    "##phism": 0,
    "method": 0,
    "reverse": 0,
    "polymer": 0,
    "chain": 5,
    "reaction": 0,
    "PC": 0,
    "followed": 0,
    "test": 1,
    "PT": 0,
    "se": 1,
    "##quencing": 0,
    "alterations": 0,
    "represented": 0,
    "##ber": 1,
    "##rant": 0,
    "bands": 0,
    "61": 0,
    "Nine": 0,
    "##teen": 0,
    "presumed": 0,
    "novel": 0,
    "emphasizing": 0,
    "spectrum": 1,
    "initial": 0,
    "48": 0,
    "those": 0,
    "whom": 0,
    "detect": 0,
    "Using": 0,
    "approach": 0,
    "failed": 0,
    "distinguish": 0,
    "14": 2,
    "later": 0,
    "##cating": 0,
    "64": 0,
    "confirm": 0,
    "detection": 0,
    "rate": 0,
    "superior": 0,
    "would": 0,
    "practical": 0,
    "Molecular": 0,
    "##iology": 0,
    "##got": 0,
    "##es": 5,
    "##rg": 2,
    "##top": 15,
    "Japan": 0,
    "De": 0,
    "##ficiency": 4,
    "ninth": 3,
    "##e": 21,
    "1000": 0,
    "very": 2,
    "countries": 0,
    "Gene": 0,
    "Japanese": 0,
    "transition": 0,
    "##GA": 0,
    "stop": 0,
    "determine": 0,
    "collected": 0,
    "samples": 0,
    "300": 0,
    "individuals": 0,
    "main": 0,
    "islands": 0,
    "He": 1,
    "system": 9,
    "designed": 0,
    "exclusively": 0,
    "confirmation": 0,
    "direct": 0,
    "Twenty": 0,
    "None": 0,
    "estimated": 0,
    "12": 1,
    "consistent": 0,
    "frequencies": 0,
    "##rol": 7,
    "##ogical": 0,
    "product": 0,
    "##uta": 0,
    "##ted": 0,
    "Fed": 0,
    "J": 0,
    "##nir": 0,
    "##ke": 0,
    "Thomas": 0,
    "##su": 0,
    "##chi": 0,
    "##hashi": 0,
    "##udd": 0,
    "Ba": 0,
    "##sa": 5,
    "##va": 0,
    "Do": 0,
    "##rm": 0,
    "##ishi": 0,
    "##an": 1,
    "Domingo": 0,
    "Ellis": 0,
    "Full": 0,
    "Hi": 2,
    "##nton": 0,
    "Jones": 0,
    "Kim": 0,
    "##mel": 0,
    "K": 0,
    "##ron": 2,
    "S": 8,
    "Lau": 0,
    "P": 7,
    "Lee": 0,
    "V": 6,
    "Lo": 0,
    "##eb": 24,
    "Map": 0,
    "##le": 6,
    "##lland": 0,
    "Meyer": 0,
    "Mint": 0,
    "##ier": 0,
    "Moe": 0,
    "##ller": 0,
    "Moore": 0,
    "Mo": 0,
    "##rika": 0,
    "##ng": 0,
    "##rass": 0,
    "Q": 1,
    "##uin": 0,
    "##tana": 0,
    "Star": 0,
    "Sc": 0,
    "##hat": 0,
    "##zman": 0,
    "##runk": 0,
    "##ay": 0,
    "##na": 1,
    "##isch": 0,
    "Bacon": 0,
    "Wolff": 0,
    "1996": 0,
    "Nat": 0,
    "13": 0,
    "40": 0,
    "At": 0,
    "surface": 0,
    "increasing": 0,
    "##sso": 0,
    "##ciation": 0,
    "constant": 0,
    "Gross": 0,
    "##rri": 0,
    "##nk": 2,
    "##i": 41,
    "En": 0,
    "##ns": 5,
    "1998": 0,
    "Ch": 0,
    "27": 0,
    "220": 0,
    "Penny": 0,
    "Watson": 0,
    "Si": 0,
    "##gal": 2,
    "##jo": 0,
    "##rk": 0,
    "Pro": 0,
    "##ca": 0,
    "U": 0,
    "147": 0,
    "remain": 0,
    "traffic": 0,
    "internal": 0,
    "compartment": 0,
    "et": 0,
    "line": 0,
    "controlled": 0,
    "te": 29,
    "##tra": 5,
    "##cy": 21,
    "##cline": 0,
    "reduces": 0,
    "55": 0,
    "##ytic": 7,
    "rates": 0,
    "cycling": 0,
    "appears": 0,
    "reduce": 0,
    "cellular": 1,
    "acquisition": 0,
    "Fe": 0,
    "ni": 0,
    "acid": 3,
    "explain": 0,
    "decreased": 0,
    "##rit": 0,
    "understanding": 0,
    "organs": 0,
    "pan": 1,
    "##cre": 1,
    "##as": 7,
    "heart": 3,
    "##ple": 2,
    "##en": 2,
    "loaded": 0,
    "lacking": 0,
    "Mu": 2,
    "##tation": 0,
    "Mediterranean": 15,
    "fever": 16,
    "reveal": 0,
    "ancestral": 0,
    "relationships": 0,
    "Ash": 0,
    "##ken": 0,
    "##azi": 0,
    "Jewish": 0,
    "FM": 0,
    "episodes": 0,
    "##ros": 2,
    "##ov": 0,
    "##V": 0,
    "present": 0,
    "Arab": 0,
    "originally": 0,
    "ethnic": 0,
    "diverse": 0,
    "panel": 0,
    "Among": 0,
    "##ym": 0,
    "11": 0,
    "79": 0,
    "Of": 0,
    "alter": 0,
    "same": 0,
    "residue": 0,
    "680": 0,
    "##36": 0,
    "located": 0,
    "Con": 0,
    "##sist": 0,
    "##ent": 0,
    "another": 0,
    "##Q": 0,
    "several": 0,
    "multiple": 0,
    "indicate": 0,
    "Italian": 0,
    "anonymous": 0,
    "21": 0,
    "Several": 0,
    "lines": 0,
    "Jews": 0,
    "Nevertheless": 0,
    "helps": 0,
    "account": 0,
    "inheritance": 0,
    "unusual": 0,
    "dominant": 20,
    "strongly": 0,
    "advantage": 0,
    "geographic": 0,
    "Auto": 0,
    "##im": 0,
    "##ifer": 7,
    "##ative": 7,
    "influences": 0,
    "##PS": 0,
    "##yte": 1,
    "##nological": 1,
    "tolerance": 3,
    "Most": 0,
    "en": 2,
    "##codes": 0,
    "media": 0,
    "##tor": 0,
    "crucial": 0,
    "unique": 0,
    "pro": 15,
    "##band": 0,
    "71": 0,
    "occurred": 0,
    "##code": 0,
    "##cellular": 0,
    "portion": 0,
    "##it": 0,
    "##ro": 0,
    "activated": 0,
    "##ocytes": 1,
    "exposed": 0,
    "anti": 0,
    "ago": 0,
    "##nist": 0,
    "mon": 0,
    "##body": 0,
    "Similar": 0,
    "c": 25,
    "##NA": 0,
    "bearing": 0,
    "each": 0,
    "##fect": 5,
    "##ion": 19,
    "experiments": 0,
    "construct": 0,
    "either": 0,
    "extra": 0,
    "caused": 0,
    "##hibition": 0,
    "wild": 0,
    "type": 22,
    "Two": 0,
    "variants": 0,
    "restricted": 0,
    "##arian": 0,
    "##lea": 1,
    "##vage": 0,
    "##tes": 0,
    "partially": 0,
    "African": 0,
    "much": 0,
    "pronounced": 0,
    "affecting": 0,
    "versus": 0,
    "##tations": 0,
    "causing": 0,
    "disruption": 0,
    "death": 7,
    "Sign": 0,
    "##ificant": 0,
    "##bid": 0,
    "location": 0,
    "severity": 0,
    "Multi": 0,
    "##centric": 0,
    "believed": 0,
    "European": 0,
    "ancestry": 0,
    "northwestern": 0,
    "Europe": 0,
    "80": 0,
    "substitution": 0,
    "##yr": 0,
    "##os": 9,
    "##tein": 0,
    "position": 1,
    "28": 0,
    "un": 3,
    "significance": 0,
    "second": 0,
    "compound": 0,
    "distribution": 0,
    "limited": 0,
    "bordering": 0,
    "Middle": 0,
    "East": 0,
    "Indian": 0,
    "sub": 1,
    "##continent": 0,
    "occurs": 0,
    "extends": 0,
    "suggesting": 0,
    "arise": 0,
    "during": 0,
    "past": 0,
    "000": 0,
    "older": 0,
    "occur": 0,
    "extended": 0,
    "700": 0,
    "finding": 0,
    "Sri": 0,
    "Lanka": 0,
    "demonstrating": 0,
    "independently": 0,
    "island": 0,
    "subject": 0,
    "selection": 0,
    "pressure": 0,
    "pressures": 0,
    "environmental": 0,
    "conditions": 2,
    "##emia": 15,
    "retrospective": 0,
    "pilot": 0,
    "newborn": 0,
    "Scandinavian": 0,
    "83": 0,
    "random": 0,
    "##ony": 0,
    "##mized": 0,
    "dried": 0,
    "blood": 0,
    "spot": 0,
    "DB": 0,
    "neon": 2,
    "##ata": 4,
    "programs": 0,
    "Scandinavia": 0,
    "Greenland": 0,
    "Iceland": 0,
    "Islands": 0,
    "Denmark": 0,
    "highly": 0,
    "terms": 0,
    "prevent": 0,
    "health": 0,
    "care": 0,
    "Long": 0,
    "evaluation": 0,
    "will": 1,
    "give": 0,
    "indication": 0,
    "##ka": 0,
    "##pton": 0,
    "mouse": 0,
    "Al": 31,
    "##ku": 0,
    "##born": 1,
    "error": 5,
    "metabolism": 12,
    "##gent": 0,
    "##isa": 0,
    "##ox": 1,
    "created": 0,
    "##hyl": 0,
    "##ni": 2,
    "##tro": 186,
    "##ure": 0,
    "##genesis": 4,
    "used": 0,
    "am": 11,
    "##lify": 0,
    "products": 0,
    "shorter": 0,
    "##plified": 0,
    "Rest": 0,
    "##tion": 4,
    "then": 0,
    "base": 0,
    "change": 0,
    "consensus": 0,
    "frame": 0,
    "shifted": 0,
    "allowed": 0,
    "us": 0,
    "create": 0,
    "radioactive": 0,
    "##ty": 4,
    "Non": 0,
    "##omi": 9,
    "hearing": 14,
    "enlarged": 0,
    "vest": 3,
    "##ib": 3,
    "##ular": 7,
    "##queduct": 3,
    "PD": 0,
    "##lar": 1,
    "##ged": 0,
    "##VA": 0,
    "form": 0,
    "inner": 0,
    "ear": 4,
    "particular": 0,
    "interest": 0,
    "manner": 0,
    "##cus": 0,
    "sensor": 4,
    "##ural": 4,
    "mapped": 0,
    "##rom": 17,
    "##oso": 3,
    "##31": 0,
    "Pen": 0,
    "##dre": 0,
    "responsible": 0,
    "progressive": 3,
    "occasionally": 0,
    "##rena": 6,
    "ins": 16,
    "##uff": 8,
    "##iciency": 8,
    "classic": 0,
    "usually": 0,
    "##ter": 3,
    "##ior": 3,
    "ve": 0,
    "state": 0,
    "Adult": 0,
    "presents": 0,
    "rapidly": 0,
    "Mi": 0,
    "##lder": 0,
    "##omy": 1,
    "##elo": 5,
    "##pathy": 4,
    "Addison": 0,
    "recognized": 0,
    "Despite": 0,
    "discovery": 0,
    "##usa": 0,
    "##tive": 1,
    "molecular": 0,
    "presentations": 0,
    "remains": 0,
    "el": 0,
    "##uc": 5,
    "##idated": 0,
    "obtain": 0,
    "knowledge": 0,
    "comprised": 0,
    "conducted": 0,
    "detailed": 0,
    "Southern": 0,
    "##leo": 0,
    "##tide": 0,
    "derived": 0,
    "total": 2,
    "extracted": 0,
    "culture": 0,
    "skin": 2,
    "##ob": 0,
    "##last": 0,
    "##oid": 6,
    "peripheral": 2,
    "having": 0,
    "rear": 0,
    "##rang": 0,
    "##ement": 0,
    "26": 0,
    "independent": 0,
    "resulting": 0,
    "small": 2,
    "##een": 0,
    "69": 0,
    "involved": 0,
    "amino": 2,
    "acids": 1,
    "conserved": 0,
    "PM": 0,
    "##70": 0,
    "##AL": 1,
    "##DR": 0,
    "##xa": 0,
    "AG": 0,
    "din": 0,
    "108": 0,
    "white": 0,
    "All": 0,
    "changes": 1,
    "There": 0,
    "expressions": 0,
    "##con": 0,
    "##serve": 0,
    "factors": 1,
    "act": 0,
    "##ivating": 0,
    "cat": 7,
    "##NT": 0,
    "orchestra": 0,
    "number": 0,
    "developmental": 2,
    "response": 0,
    "stimulus": 0,
    "##yt": 9,
    "##las": 11,
    "encoded": 0,
    "CT": 0,
    "##ilized": 0,
    "enabling": 0,
    "downstream": 0,
    "##EF": 0,
    "##CF": 0,
    "target": 0,
    "explaining": 0,
    "why": 0,
    "##st": 0,
    "##utive": 0,
    "particularly": 0,
    "encoding": 0,
    "##bi": 0,
    "##qui": 0,
    "##tin": 3,
    "percentage": 0,
    "some": 1,
    "harbour": 0,
    "##ili": 0,
    "##zing": 0,
    "Recently": 0,
    "discovered": 0,
    "##genic": 0,
    "expressing": 0,
    "##posed": 0,
    "developing": 0,
    "resembling": 0,
    "##ilo": 0,
    "Given": 0,
    "exhibits": 0,
    "##vo": 0,
    "##oll": 0,
    "##icle": 0,
    "wondered": 0,
    "whether": 0,
    "originate": 0,
    "matrix": 0,
    "they": 0,
    "possess": 0,
    "explore": 0,
    "##ology": 0,
    "nuclear": 0,
    "dividing": 0,
    "providing": 0,
    "bio": 0,
    "75": 0,
    "segment": 7,
    "##hos": 6,
    "##ory": 0,
    "##lation": 0,
    "dependent": 1,
    "greater": 0,
    "examined": 0,
    "directly": 0,
    "imp": 6,
    "##lica": 0,
    "mi": 1,
    "##re": 0,
    "##gu": 0,
    "humans": 0,
    "chloride": 0,
    "##ide": 0,
    "deaf": 9,
    "##ness": 11,
    "subsequently": 0,
    "put": 0,
    "##me": 0,
    "##mb": 0,
    "##rane": 1,
    "designated": 0,
    "##lf": 8,
    "##ate": 1,
    "proteins": 1,
    "includes": 0,
    "rat": 0,
    "Sa": 0,
    "identity": 0,
    "##ast": 0,
    "##hic": 0,
    "32": 0,
    "down": 0,
    "##lated": 1,
    "DR": 0,
    "##A": 14,
    "45": 0,
    "On": 0,
    "##mology": 0,
    "slightly": 0,
    "modified": 0,
    "signature": 0,
    "comprising": 0,
    "unable": 0,
    "following": 0,
    "##pus": 0,
    "la": 0,
    "##ev": 0,
    "##jection": 0,
    "##comb": 0,
    "##ina": 1,
    "##ac": 2,
    "##ulo": 0,
    "##virus": 0,
    "systems": 0,
    "into": 0,
    "##roid": 6,
    "physiology": 0,
    "##logy": 0,
    "##65": 0,
    "##lication": 0,
    "mild": 1,
    "class": 0,
    "accounting": 0,
    "representing": 0,
    "here": 0,
    "193": 0,
    "series": 0,
    "carry": 0,
    "##rich": 0,
    "assigned": 0,
    "neither": 0,
    "##ment": 4,
    "BR": 1,
    "##CA": 6,
    "based": 0,
    "objective": 0,
    "accurate": 0,
    "estimates": 0,
    "achieve": 0,
    "consecutive": 0,
    "reporting": 0,
    "comprehensive": 0,
    "screen": 0,
    "entire": 0,
    "coding": 0,
    "##sma": 0,
    "##tch": 0,
    "96": 0,
    "360": 0,
    "##0": 0,
    "##11": 0,
    "##cha": 0,
    "##ized": 0,
    "91": 0,
    "Caucasian": 0,
    "24": 0,
    "sister": 0,
    "##lification": 0,
    "##35": 0,
    "03": 0,
    "summary": 0,
    "determining": 0,
    "highlight": 0,
    "necessity": 0,
    "Ad": 1,
    "compensate": 0,
    "per": 3,
    "ATP": 0,
    "cassette": 0,
    "ABC": 0,
    "##DP": 0,
    "lethal": 4,
    "efficient": 0,
    "currently": 0,
    "membrane": 0,
    "stable": 0,
    "##ex": 0,
    "##press": 0,
    "closest": 0,
    "relative": 0,
    "restore": 0,
    "impaired": 0,
    "oxidation": 1,
    "##mon": 0,
    "fatty": 4,
    "prevented": 0,
    "immortal": 0,
    "##mm": 1,
    "##uno": 0,
    "replacement": 0,
    "itself": 0,
    "able": 0,
    "stimulation": 0,
    "##life": 0,
    "##rator": 0,
    "##fi": 5,
    "##bra": 0,
    "correction": 0,
    "possible": 0,
    "drug": 0,
    "induced": 0,
    "##ct": 38,
    "Centro": 0,
    "##some": 0,
    "cycle": 0,
    "check": 0,
    "instability": 2,
    "##of": 1,
    "##orm": 8,
    "##rca": 0,
    "mechanisms": 0,
    "underlying": 0,
    "carrying": 0,
    "maintain": 0,
    "intact": 0,
    "##rate": 0,
    "poorly": 0,
    "accompanied": 0,
    "##tant": 0,
    "cent": 1,
    "une": 1,
    "##qua": 0,
    "segregation": 0,
    "division": 0,
    "##eu": 0,
    "##idy": 5,
    "##cover": 0,
    "essential": 0,
    "maintaining": 0,
    "stability": 0,
    "interfere": 0,
    "unknown": 0,
    "global": 0,
    "nine": 0,
    "failure": 8,
    "bind": 0,
    "##OR": 0,
    "signaling": 0,
    "marked": 0,
    "association": 0,
    "recruitment": 0,
    "cross": 0,
    "##link": 0,
    "##air": 1,
    "chiefly": 0,
    "interactions": 0,
    "AK": 0,
    "reveals": 0,
    "CC": 0,
    "motif": 0,
    "hot": 0,
    "describe": 0,
    "##ig": 0,
    "##ree": 0,
    "IN": 1,
    "31": 0,
    "##60": 0,
    "A1": 0,
    "##22": 0,
    "##23": 0,
    "illustrate": 0,
    "remarkable": 0,
    "##eli": 1,
    "Re": 1,
    "##nation": 0,
    "randomly": 0,
    "distributed": 0,
    "inverted": 0,
    "prefer": 0,
    "##ential": 0,
    "involve": 0,
    "occurrence": 0,
    "short": 0,
    "motifs": 0,
    "Because": 0,
    "comprise": 0,
    "34": 0,
    "bases": 0,
    "conclude": 0,
    "triple": 0,
    "##ab": 0,
    "alpha": 0,
    "gal": 15,
    "##idas": 5,
    "use": 0,
    "fluorescent": 0,
    "chemical": 0,
    "##tches": 0,
    "##gio": 7,
    "##ker": 2,
    "##ato": 23,
    "##rp": 1,
    "##oris": 1,
    "##ff": 1,
    "##um": 6,
    "##cos": 4,
    "##phi": 4,
    "##ngo": 1,
    "##lip": 1,
    "##matic": 0,
    "systemic": 0,
    "neutral": 0,
    "##ids": 1,
    "##osy": 1,
    "##oi": 1,
    "Clinical": 0,
    "##iz": 0,
    "##ares": 1,
    "##sia": 1,
    "##nal": 9,
    "##cu": 7,
    "##lop": 1,
    "While": 0,
    "demonstration": 0,
    "diagnostic": 0,
    "female": 0,
    "often": 0,
    "##clusive": 0,
    "##ivation": 0,
    "##lining": 0,
    "need": 0,
    "investigations": 0,
    "counseling": 0,
    "adapted": 0,
    "flu": 0,
    "included": 0,
    "##20": 0,
    "##W": 0,
    "##32": 0,
    "Studies": 0,
    "level": 0,
    "latter": 0,
    "led": 0,
    "##se": 4,
    "##quent": 0,
    "translation": 0,
    "reading": 0,
    "premature": 1,
    "termination": 0,
    "strategy": 0,
    "status": 0,
    "accurately": 0,
    "assessed": 0,
    "dos": 0,
    "##ages": 0,
    "##ag": 0,
    "##nose": 0,
    "exclude": 0,
    "Pre": 0,
    "##nat": 0,
    "diagnosis": 0,
    "##IS": 0,
    "##za": 1,
    "##eus": 1,
    "##rz": 32,
    "##bach": 32,
    "##LP": 0,
    "MI": 0,
    "##M": 0,
    "312": 0,
    "##80": 0,
    "made": 0,
    "young": 0,
    "boy": 0,
    "No": 0,
    "##oli": 0,
    "boys": 0,
    "aunt": 0,
    "came": 0,
    "pregnant": 0,
    "##etus": 0,
    "Sam": 0,
    "##ples": 0,
    "##pha": 2,
    "preparations": 0,
    "##nio": 0,
    "fluid": 0,
    "preparation": 0,
    "confirming": 0,
    "Dom": 0,
    "explanation": 0,
    "initiate": 0,
    "Pat": 0,
    "##ients": 0,
    "develop": 0,
    "##mas": 5,
    "subsequent": 0,
    "life": 0,
    "##rrel": 0,
    "##ates": 0,
    "Together": 0,
    "fact": 0,
    "cluster": 0,
    "points": 0,
    "certain": 1,
    "enhanced": 0,
    "##pit": 4,
    "##hel": 4,
    "Wild": 0,
    "##hibit": 0,
    "##runcated": 0,
    "130": 0,
    "##uated": 0,
    "146": 0,
    "weakly": 0,
    "idea": 0,
    "part": 0,
    "driven": 0,
    "interact": 0,
    "##tone": 0,
    "##ace": 0,
    "##lase": 12,
    "contains": 0,
    "##box": 2,
    "##yl": 20,
    "##CT": 0,
    "shared": 0,
    "genome": 0,
    "integrity": 0,
    "effort": 0,
    "sought": 0,
    "##olate": 0,
    "##fied": 0,
    "##pe": 0,
    "probe": 0,
    "place": 0,
    "##nta": 0,
    "library": 0,
    "Far": 0,
    "Western": 0,
    "##ivo": 0,
    "##46": 0,
    "##48": 0,
    "associates": 0,
    "##AC": 0,
    "processes": 0,
    "repair": 0,
    "##ination": 0,
    "Combined": 0,
    "man": 0,
    "routine": 0,
    "##ra": 4,
    "transmitted": 0,
    "subjects": 0,
    "silent": 0,
    "structural": 0,
    "prop": 2,
    "quantities": 0,
    "smaller": 0,
    "size": 0,
    "110": 0,
    "da": 0,
    "##lton": 0,
    "140": 0,
    "apparently": 0,
    "concluded": 0,
    "produces": 0,
    "##yo": 4,
    "##psy": 2,
    "##hesis": 0,
    "possibility": 0,
    "unit": 0,
    "primary": 0,
    "copied": 0,
    "Changes": 0,
    "##18": 0,
    "weaken": 0,
    "Emery": 8,
    "##fu": 15,
    "muscular": 84,
    "##DM": 0,
    "contract": 3,
    "##ures": 3,
    "elbows": 3,
    "Achilles": 3,
    "tend": 4,
    "slowly": 0,
    "wasting": 3,
    "weakness": 5,
    "card": 7,
    "##io": 8,
    "##my": 17,
    "cardiac": 2,
    "##rine": 0,
    "rich": 0,
    "localized": 0,
    "envelope": 0,
    "wide": 0,
    "variety": 0,
    "tissues": 0,
    "spanning": 0,
    "predict": 0,
    "183": 0,
    "##dine": 0,
    "th": 17,
    "##oni": 1,
    "mobility": 0,
    "##ting": 0,
    "##ui": 0,
    "##sha": 0,
    "##ble": 0,
    "weakened": 0,
    "##mina": 0,
    "comparison": 0,
    "usual": 0,
    "elbow": 0,
    "ankle": 0,
    "upper": 0,
    "limb": 4,
    "lower": 1,
    "importance": 0,
    "proper": 0,
    "Micro": 0,
    "##41": 0,
    "Van": 0,
    "der": 11,
    "##oud": 10,
    "##WS": 1,
    "##ft": 3,
    "lip": 12,
    "##ala": 14,
    "pits": 8,
    "whose": 0,
    "500": 0,
    "800": 0,
    "Sand": 0,
    "1994": 0,
    "Hu": 0,
    "Along": 0,
    "exhibit": 0,
    "delays": 1,
    "nearby": 0,
    "disrupted": 0,
    "##ize": 0,
    "searched": 0,
    "##morphic": 0,
    "marker": 0,
    "##37": 0,
    "##53": 0,
    "From": 0,
    "37": 0,
    "indicating": 0,
    "generations": 0,
    "confined": 0,
    "cardinal": 0,
    "Sur": 0,
    "##rising": 0,
    "beyond": 0,
    "##ximal": 0,
    "pop": 0,
    "##lite": 0,
    "##tery": 1,
    "##gia": 3,
    "mixed": 0,
    "178": 0,
    "##sy": 2,
    "##nd": 0,
    "##ax": 38,
    "##lang": 29,
    "##ie": 30,
    "##asi": 26,
    "AT": 0,
    "consequences": 0,
    "constitute": 0,
    "Few": 0,
    "half": 0,
    "canonical": 0,
    "accept": 0,
    "GT": 0,
    "string": 0,
    "##ently": 0,
    "sites": 0,
    "last": 0,
    "creation": 0,
    "intro": 0,
    "lesser": 0,
    "retention": 0,
    "##ptic": 0,
    "western": 0,
    "caution": 0,
    "interpretation": 0,
    "accompanying": 0,
    "Alpha": 0,
    "##yper": 11,
    "##phic": 3,
    "ACT": 0,
    "suffering": 0,
    "##HC": 0,
    "Link": 0,
    "excluded": 0,
    "studied": 0,
    "scores": 0,
    "varying": 0,
    "Further": 0,
    "plausible": 0,
    "expressed": 0,
    "showing": 0,
    "ma": 16,
    "score": 0,
    "close": 0,
    "id": 0,
    "##pathic": 0,
    "ID": 0,
    "Over": 0,
    "##gro": 2,
    "##wth": 2,
    "oral": 1,
    "##osa": 6,
    "facial": 3,
    "feature": 0,
    "##par": 4,
    "##nu": 0,
    "As": 0,
    "storage": 7,
    "##das": 3,
    "##om": 0,
    "Cy": 0,
    "##16": 0,
    "majority": 0,
    "examine": 0,
    "66": 0,
    "specimens": 0,
    "them": 0,
    "teeth": 0,
    "plus": 1,
    "##his": 0,
    "stain": 0,
    "15": 4,
    "Skin": 0,
    "##bor": 0,
    "adolescent": 0,
    "er": 8,
    "##hem": 8,
    "already": 0,
    "primarily": 0,
    "occurring": 0,
    "tube": 1,
    "##rous": 0,
    "##ede": 0,
    "##oe": 0,
    "##ival": 0,
    "00": 0,
    "##ith": 0,
    "reactive": 0,
    "nature": 0,
    "##uo": 0,
    "##lis": 0,
    "corresponding": 0,
    "appear": 0,
    "Character": 0,
    "mosaic": 0,
    "Lowe": 1,
    "##CR": 0,
    "##loc": 2,
    "eyes": 2,
    "nervous": 8,
    "kidney": 3,
    "##dy": 1,
    "##lino": 1,
    "bi": 2,
    "##phate": 0,
    "##tase": 2,
    "##55": 0,
    "frames": 0,
    "##hi": 2,
    "Finally": 0,
    "##ifies": 0,
    "extension": 0,
    "Alto": 0,
    "observation": 0,
    "arm": 0,
    "##enia": 14,
    "value": 0,
    "##fa": 1,
    "##vor": 0,
    "##gno": 0,
    "therapeutic": 0,
    "##ively": 0,
    "Armenian": 0,
    "date": 0,
    "exclusion": 0,
    "entirely": 0,
    "##ific": 0,
    "inflammation": 3,
    "unnecessary": 0,
    "surgery": 0,
    "Ren": 0,
    "##osis": 4,
    "##cine": 2,
    "com": 0,
    "##stic": 2,
    "77": 0,
    "selected": 0,
    "##40": 0,
    "93": 0,
    "163": 0,
    "89": 0,
    "instances": 0,
    "provided": 0,
    "##dom": 5,
    "transmission": 0,
    "incomplete": 0,
    "modes": 0,
    "ways": 0,
    "management": 0,
    "decisions": 0,
    "##vasive": 0,
    "fragile": 0,
    "root": 0,
    "reliable": 0,
    "methods": 0,
    "isolated": 0,
    "measure": 0,
    "technique": 0,
    "##ars": 0,
    "\"": 2,
    "uses": 0,
    "antibodies": 0,
    "##RP": 0,
    "roots": 0,
    "Express": 0,
    "Control": 0,
    "nearly": 0,
    "every": 0,
    "almost": 0,
    "Mental": 0,
    "##ded": 4,
    "full": 0,
    "overlap": 0,
    "advantages": 0,
    "##luck": 0,
    "##icles": 0,
    "app": 0,
    "##cia": 0,
    "harm": 0,
    "mentally": 0,
    "hairs": 0,
    "sent": 0,
    "simple": 0,
    "center": 0,
    "enabled": 0,
    "Swedish": 0,
    "##state": 13,
    "HP": 3,
    "##24": 0,
    "clusters": 0,
    "Smith": 0,
    "analyze": 0,
    "original": 0,
    "newly": 0,
    "set": 0,
    "maximum": 0,
    "fraction": 0,
    "##ta": 0,
    "##PL": 0,
    "##ame": 0,
    "05": 0,
    "originated": 0,
    "subset": 0,
    "65": 0,
    "yielded": 0,
    "straight": 0,
    "##42": 0,
    "##imate": 0,
    "tests": 0,
    "Sweden": 0,
    "many": 0,
    "##elin": 9,
    "animal": 0,
    "##cc": 0,
    "##hari": 0,
    "##dos": 4,
    "VII": 3,
    "domestic": 0,
    "cats": 0,
    "und": 0,
    "##ete": 0,
    "##vir": 0,
    "Normal": 0,
    "coupled": 0,
    "destroyed": 0,
    "eliminated": 0,
    "Multiple": 0,
    "species": 0,
    "crystal": 0,
    "indicated": 0,
    "maintenance": 0,
    "enzymes": 0,
    "dig": 0,
    "##est": 0,
    "Carrier": 0,
    "produced": 0,
    "kit": 0,
    "##tens": 0,
    "prospective": 0,
    "breeding": 0,
    "MP": 0,
    "colony": 0,
    "susceptible": 0,
    "##gnant": 0,
    "tumors": 39,
    "eye": 9,
    "##eor": 0,
    "VC": 0,
    "##FS": 0,
    "##GS": 0,
    "##tras": 0,
    "##ris": 1,
    "regions": 0,
    "prone": 0,
    "defined": 0,
    "nest": 0,
    "##stal": 0,
    "few": 0,
    "##location": 0,
    "near": 0,
    "##points": 0,
    "##fer": 7,
    "now": 0,
    "copy": 0,
    "repeats": 0,
    "termed": 0,
    "carries": 0,
    "##iti": 0,
    "deleted": 0,
    "models": 0,
    "how": 0,
    "events": 0,
    "thereby": 0,
    "generating": 0,
    "additional": 0,
    "copies": 0,
    "Fun": 0,
    "##ctional": 0,
    "my": 12,
    "##ath": 0,
    "##ies": 4,
    "##zin": 0,
    "thought": 0,
    "play": 0,
    "partly": 0,
    "##x": 3,
    "knockout": 0,
    "display": 0,
    "##NS": 1,
    "block": 1,
    "##hwa": 0,
    "##nn": 0,
    "differentiation": 0,
    "##path": 2,
    "Cha": 0,
    "##rc": 8,
    "Marie": 1,
    "Too": 1,
    "##th": 3,
    "##jer": 0,
    "So": 1,
    "##tta": 1,
    "##ating": 4,
    "fourth": 0,
    "affects": 0,
    "##AB": 0,
    "##ors": 0,
    "combination": 0,
    "amount": 0,
    "residual": 0,
    "prevents": 0,
    "interaction": 0,
    "increases": 0,
    "reason": 0,
    "patterns": 0,
    "##sea": 10,
    "diabetes": 9,
    "##ip": 12,
    "continued": 0,
    "secret": 1,
    "##ress": 2,
    "post": 1,
    "na": 0,
    "##ini": 1,
    "##VP": 2,
    "published": 0,
    "##sin": 0,
    "II": 15,
    "processing": 0,
    "##uron": 0,
    "Palestinian": 0,
    "consisting": 0,
    "cousin": 0,
    "children": 0,
    "replacing": 0,
    "mature": 0,
    "weak": 0,
    "##ured": 0,
    "radio": 0,
    "##ass": 0,
    "synthetic": 0,
    "standard": 0,
    "water": 0,
    "##vation": 0,
    "times": 0,
    "youngest": 0,
    "mildly": 0,
    "her": 0,
    "severely": 0,
    "brother": 0,
    "rescue": 0,
    "Pig": 0,
    "null": 0,
    "##IG": 0,
    "GP": 1,
    "anchored": 1,
    "par": 0,
    "##cturnal": 5,
    "##bin": 5,
    "anchor": 1,
    "conventional": 0,
    "generated": 0,
    "##bre": 0,
    "##eding": 0,
    "##II": 0,
    "strain": 0,
    "fl": 2,
    "undergo": 0,
    "efficiency": 0,
    "offspring": 0,
    "express": 0,
    "lung": 1,
    "require": 0,
    "sa": 9,
    "##lient": 0,
    "exceptions": 0,
    "##mus": 3,
    "red": 0,
    "equal": 0,
    "numbers": 0,
    "##ined": 0,
    "needed": 0,
    "dominance": 0,
    "produce": 0,
    "Target": 0,
    "##fe": 5,
    "introduces": 0,
    "otherwise": 0,
    "leaves": 0,
    "identical": 0,
    "bred": 0,
    "##ulate": 0,
    "Interest": 0,
    "##ingly": 0,
    "although": 0,
    "stores": 0,
    "Direct": 0,
    "##MD": 1,
    "removing": 0,
    "residues": 0,
    "99": 0,
    "236": 0,
    "241": 0,
    "detail": 0,
    "pointing": 0,
    "Se": 0,
    "##vere": 0,
    "relatively": 0,
    "ben": 0,
    "##ign": 0,
    "##cular": 7,
    "vary": 0,
    "remarkably": 0,
    "unusually": 0,
    "brothers": 0,
    "##mi": 0,
    "modification": 0,
    "Common": 0,
    "contribute": 0,
    "Families": 0,
    "terminating": 0,
    "aimed": 0,
    "185": 0,
    "##AG": 0,
    "82": 0,
    "treated": 0,
    "matched": 0,
    "about": 0,
    "general": 0,
    "unlike": 0,
    "Beta": 0,
    "ongoing": 0,
    "types": 0,
    "nuclei": 0,
    "time": 0,
    "substitute": 0,
    "##alle": 0,
    "##lic": 1,
    "##mes": 0,
    "1999": 0,
    "Dec": 0,
    "##rease": 0,
    "##ola": 0,
    "##urn": 0,
    "##uation": 0,
    "##ified": 0,
    "##lut": 1,
    "##HA": 1,
    "stimulate": 0,
    "junction": 0,
    "amounts": 0,
    "##cribed": 0,
    "inactive": 0,
    "exist": 0,
    "decrease": 0,
    "Sul": 0,
    "##ogenic": 0,
    "##iter": 4,
    "sensory": 0,
    "neural": 3,
    "yet": 0,
    "connection": 0,
    "##igma": 0,
    "codes": 0,
    "##isms": 0,
    "##eter": 0,
    "##iously": 0,
    "organ": 0,
    "obtained": 0,
    "emphasizes": 0,
    "Small": 0,
    "##lla": 2,
    "##lix": 0,
    "kn": 0,
    "##iest": 0,
    "##nies": 0,
    "moderately": 0,
    "trunk": 1,
    "limbs": 0,
    "mid": 1,
    "##face": 0,
    "predominant": 0,
    "Furthermore": 0,
    "##du": 0,
    "##plex": 0,
    "##lies": 7,
    "index": 0,
    "##eting": 0,
    "fifth": 6,
    "##omer": 0,
    "span": 0,
    "Classical": 0,
    "phosphate": 27,
    "##rid": 1,
    "GA": 0,
    "enzyme": 9,
    "considerable": 0,
    "150": 0,
    "recorded": 0,
    "groups": 0,
    "worldwide": 0,
    "cited": 0,
    "predominantly": 0,
    "descent": 0,
    "Overall": 0,
    "accounts": 0,
    "individual": 0,
    "Individuals": 0,
    "keeping": 0,
    "virtually": 0,
    "Global": 0,
    "##iably": 0,
    "Americans": 0,
    "disc": 0,
    "##pan": 2,
    "Du": 3,
    "##arte": 0,
    "Los": 0,
    "Angeles": 0,
    "though": 0,
    "##bri": 4,
    "abundance": 0,
    "unclear": 0,
    "activities": 0,
    "documented": 0,
    "undoubtedly": 0,
    "contributes": 0,
    "variation": 0,
    "##HL": 4,
    "definition": 0,
    "RC": 1,
    "von": 5,
    "Hip": 12,
    "##pel": 12,
    "Linda": 12,
    "173": 0,
    "##ational": 0,
    "73": 0,
    "58": 0,
    "##ins": 2,
    "##ions": 2,
    "correspond": 0,
    "##pi": 4,
    "##llar": 1,
    "compare": 0,
    "database": 0,
    "78": 0,
    "##ulated": 0,
    "corresponds": 0,
    "member": 0,
    "##edia": 0,
    "##k": 0,
    "##gas": 2,
    "##eg": 0,
    "##ulation": 0,
    "##xi": 2,
    "Its": 0,
    "regulated": 0,
    "trafficking": 0,
    "regulator": 0,
    "##ST": 0,
    "targeting": 0,
    "##ha": 0,
    "equivalent": 0,
    "characteristics": 0,
    "##cles": 0,
    "properly": 0,
    "Disease": 3,
    "Network": 0,
    "Brain": 0,
    "##gating": 0,
    "##ves": 0,
    "strictly": 0,
    "56": 0,
    "since": 0,
    "relevant": 0,
    "mothers": 0,
    "thirds": 0,
    "expected": 0,
    "if": 0,
    "sharp": 0,
    "##plicate": 0,
    "favor": 0,
    "bias": 0,
    "est": 4,
    "##imation": 0,
    "parental": 0,
    "grand": 0,
    "##ental": 0,
    "Again": 0,
    "##bal": 0,
    "##ance": 0,
    "##rade": 0,
    "Will": 57,
    "Angel": 1,
    "involves": 0,
    "AS": 0,
    "distinct": 0,
    "##be": 0,
    "##vior": 3,
    "paternal": 0,
    "game": 0,
    "67": 0,
    "births": 0,
    "represent": 0,
    "##ida": 0,
    "potentially": 0,
    "Ana": 0,
    "##ses": 0,
    "rode": 0,
    "##gs": 0,
    "##ranged": 0,
    "##ND": 0,
    "units": 0,
    "##ER": 0,
    "##ifiable": 0,
    "propose": 0,
    "facilitate": 0,
    "process": 1,
    "Brazilian": 0,
    "van": 0,
    "existence": 0,
    "41": 0,
    "sin": 1,
    "##uses": 1,
    "CP": 0,
    "##la": 7,
    "##tia": 0,
    "##alog": 0,
    "##rrence": 0,
    "descendants": 0,
    "##fts": 0,
    "influenced": 0,
    "considering": 0,
    "regardless": 0,
    "together": 0,
    "enhance": 0,
    "probability": 0,
    "If": 0,
    "examples": 0,
    "New": 0,
    "spans": 0,
    "along": 0,
    "starting": 0,
    "material": 0,
    "92": 0,
    "op": 2,
    "segments": 0,
    "##ped": 0,
    "##ite": 0,
    "##quential": 0,
    "gel": 0,
    "sets": 0,
    "##test": 0,
    "avoid": 0,
    "overlapping": 0,
    "Many": 0,
    "177": 0,
    "mostly": 0,
    "testing": 0,
    "compilation": 0,
    "assembled": 0,
    "##fining": 0,
    "great": 0,
    "designing": 0,
    "automated": 0,
    "##Leod": 0,
    "##ore": 1,
    "movement": 1,
    "##rea": 0,
    "##can": 0,
    "Ke": 0,
    "##ll": 0,
    "##gens": 0,
    "109": 0,
    "causes": 0,
    "Association": 0,
    "##ad": 0,
    "##50": 0,
    "Upon": 0,
    "##rra": 0,
    "##diation": 0,
    "discrete": 0,
    "##ali": 8,
    "##ze": 0,
    "Formation": 0,
    "dramatically": 0,
    "HC": 0,
    "1937": 0,
    "rendered": 0,
    "sensitive": 0,
    "agent": 0,
    "met": 0,
    "##hane": 0,
    "##sul": 1,
    "##fo": 1,
    "##nate": 0,
    "responses": 1,
    "Relations": 0,
    "##hip": 0,
    "cognitive": 0,
    "performance": 0,
    "##yla": 11,
    "##lani": 9,
    "##ydro": 10,
    "##xy": 10,
    "Mat": 0,
    "##ern": 0,
    "Ph": 2,
    "##ket": 6,
    "Col": 0,
    "Study": 0,
    "relationship": 0,
    "PA": 2,
    "##OL": 0,
    "222": 0,
    "##phe": 1,
    "##ny": 1,
    "##lal": 1,
    "enrolled": 0,
    "##UC": 0,
    "199": 0,
    "Based": 0,
    "previous": 0,
    "associations": 0,
    "moderate": 0,
    "##HP": 0,
    "Then": 0,
    "189": 0,
    "grouped": 0,
    "according": 0,
    "combinations": 0,
    "classification": 0,
    "sample": 0,
    "sizes": 0,
    "enough": 0,
    "completely": 0,
    "##bol": 0,
    "##ishes": 0,
    "Co": 4,
    "##gni": 0,
    "Those": 0,
    "##tre": 1,
    "late": 0,
    "Females": 0,
    "above": 0,
    "reproductive": 0,
    "outcome": 0,
    "metabolic": 1,
    "circumstances": 0,
    "depend": 0,
    "intellectual": 0,
    "resources": 0,
    "optimal": 0,
    "future": 0,
    "plan": 0,
    "pregnancy": 0,
    "Spin": 0,
    "x": 13,
    "##hom": 13,
    "variant": 0,
    "##tend": 0,
    "##ino": 0,
    "Dutch": 0,
    "cord": 1,
    "remained": 0,
    "sole": 0,
    "matter": 4,
    "lateral": 0,
    "dorsal": 0,
    "columns": 0,
    "Post": 0,
    "##ort": 0,
    "array": 0,
    "separate": 0,
    "entity": 0,
    "differential": 0,
    "chronic": 2,
    "insertion": 0,
    "creating": 0,
    "##ita": 2,
    "angel": 1,
    "imprint": 0,
    "conservation": 0,
    "characterization": 0,
    "Barr": 2,
    "virus": 2,
    "Late": 0,
    "resulted": 0,
    "transmitting": 0,
    "parent": 0,
    "opposite": 0,
    "maintains": 0,
    "correct": 0,
    "establishes": 0,
    "replication": 0,
    "##ync": 0,
    "investigation": 0,
    "approaches": 0,
    "supports": 0,
    "trait": 0,
    "119": 0,
    "##fting": 1,
    "condition": 2,
    "##ts": 3,
    "physical": 0,
    "attended": 0,
    "Department": 0,
    "Max": 0,
    "##illo": 0,
    "##cial": 0,
    "Surgery": 0,
    "Hop": 0,
    "##seau": 0,
    "Paris": 0,
    "tentatively": 0,
    "##fine": 0,
    "map": 0,
    "possibly": 0,
    "yielding": 0,
    "cumulative": 0,
    "##most": 0,
    "tightly": 0,
    "favour": 0,
    "##ull": 0,
    "Wilson": 0,
    "copper": 1,
    "nod": 1,
    "transformation": 1,
    "transporting": 0,
    "extent": 0,
    "toxicity": 1,
    "dramatic": 0,
    "build": 0,
    "logical": 1,
    "gradual": 0,
    "months": 0,
    "concentration": 0,
    "##mma": 0,
    "glands": 1,
    "z": 0,
    "milk": 0,
    "##hol": 0,
    "##ir": 1,
    "##geny": 0,
    "Copper": 0,
    "##hot": 0,
    "toxic": 0,
    "French": 0,
    "Mac": 1,
    "##had": 1,
    "##o": 2,
    "Joseph": 11,
    "distortion": 0,
    "sperm": 0,
    "##regation": 0,
    "##ios": 0,
    "pool": 0,
    "43": 0,
    "53": 0,
    "##iot": 0,
    "##10": 0,
    "##lihood": 0,
    "SP": 0,
    "##MS": 0,
    "##EG": 0,
    "program": 0,
    "variance": 0,
    "Miss": 0,
    "##iri": 3,
    "##dia": 3,
    "Peters": 0,
    "corn": 0,
    "##eal": 0,
    "##ara": 7,
    "##ove": 0,
    "recognizes": 0,
    "paired": 0,
    "##ain": 0,
    "##TS": 0,
    "respective": 0,
    "##orms": 0,
    "##ks": 0,
    "ability": 0,
    "switch": 0,
    "##pec": 0,
    "##cer": 5,
    "##tain": 0,
    "##xen": 0,
    "##feld": 0,
    "20th": 0,
    "Val": 0,
    "7th": 0,
    "167": 0,
    "113": 0,
    "Norwegian": 0,
    "Index": 0,
    "clinic": 0,
    "133": 0,
    "living": 0,
    "started": 0,
    "experienced": 0,
    "More": 0,
    "Whether": 0,
    "reflect": 0,
    "true": 0,
    "##ological": 0,
    "problems": 0,
    "discussed": 0,
    "explanations": 0,
    "##ar": 1,
    "##tub": 2,
    "##eran": 2,
    "plate": 0,
    "##let": 0,
    "fusion": 0,
    "generates": 0,
    "transforming": 0,
    "processed": 0,
    "Der": 0,
    "displays": 0,
    "##use": 0,
    "##IA": 0,
    "##FB": 0,
    "character": 0,
    "properties": 0,
    "##phological": 1,
    "##GP": 0,
    "reversed": 0,
    "transformed": 0,
    "dim": 0,
    "precursor": 0,
    "labeled": 0,
    "##nob": 0,
    "##ulse": 0,
    "chase": 0,
    "injection": 0,
    "nude": 0,
    "production": 0,
    "loop": 0,
    "receptors": 0,
    "##har": 0,
    "##cological": 0,
    "giant": 0,
    "##EX": 0,
    "##ell": 0,
    "##we": 0,
    "##ger": 1,
    "encompassing": 0,
    "infant": 7,
    "##ile": 7,
    "##fs": 1,
    "Cell": 0,
    "lying": 0,
    "biology": 0,
    "focused": 0,
    "still": 0,
    "raising": 0,
    "mixture": 0,
    "address": 0,
    "209": 0,
    "Subsequent": 0,
    "makes": 0,
    "helping": 0,
    "belong": 0,
    "##isk": 2,
    "##ott": 2,
    "##dric": 31,
    "##h": 31,
    "WA": 0,
    "##bo": 15,
    "##cz": 0,
    "##ema": 1,
    "##SP": 0,
    "##kel": 0,
    "##eton": 0,
    "##liga": 0,
    "synthesis": 1,
    "When": 0,
    "Red": 0,
    "##uce": 0,
    "sufficient": 0,
    "better": 0,
    "Am": 0,
    "##gly": 2,
    "##biotics": 0,
    "muscles": 2,
    "##chen": 3,
    "possesses": 0,
    "Expo": 0,
    "##sure": 0,
    "##ube": 0,
    "evaluated": 0,
    "differing": 0,
    "protection": 0,
    "regime": 0,
    "injury": 1,
    "##ides": 0,
    "raise": 0,
    "prove": 0,
    "##da": 2,
    "sensitivity": 0,
    "ion": 3,
    "##izing": 3,
    "radiation": 3,
    "##bella": 7,
    "##ur": 0,
    "##kin": 0,
    "Ion": 0,
    "##zes": 0,
    "mac": 2,
    "##cule": 0,
    "oxygen": 0,
    "##OS": 2,
    "##pot": 6,
    "##hes": 0,
    "assess": 0,
    "employed": 0,
    "##olo": 0,
    "##gic": 1,
    "targets": 0,
    "observations": 0,
    "##istic": 0,
    "lay": 0,
    "rational": 0,
    "foundation": 0,
    "intervention": 0,
    "stature": 4,
    "club": 0,
    "foot": 2,
    "double": 0,
    "layered": 2,
    "pat": 2,
    "##ella": 2,
    "##DS": 0,
    "##cho": 0,
    "ate": 0,
    "##los": 0,
    "##86": 0,
    "##27": 1,
    "until": 0,
    "36": 0,
    "tall": 0,
    "180": 0,
    "cm": 0,
    "asked": 0,
    "counsel": 0,
    "##ling": 0,
    "suspected": 0,
    "hip": 0,
    "birth": 0,
    "##etal": 0,
    "peculiar": 0,
    "recognised": 0,
    "swelling": 0,
    "pin": 1,
    "hit": 0,
    "##ch": 5,
    "hike": 1,
    "thumb": 1,
    "absent": 0,
    "healthy": 0,
    "incorporation": 0,
    "Counsel": 0,
    "given": 0,
    "considerably": 0,
    "reducing": 0,
    "##ick": 0,
    "132": 0,
    "600": 0,
    "226": 0,
    "##90": 0,
    "assigns": 0,
    "'": 5,
    "broad": 0,
    "bone": 3,
    "##lat": 0,
    "##ndy": 18,
    "##pical": 0,
    "##ond": 0,
    "pose": 0,
    "girl": 0,
    "##graphic": 0,
    "meta": 4,
    "reminiscent": 0,
    "##pic": 0,
    "clarified": 0,
    "##45": 0,
    "10th": 0,
    "face": 1,
    "##dson": 0,
    "prime": 0,
    "example": 0,
    "##lue": 0,
    "250": 0,
    "450": 0,
    "however": 0,
    "194": 0,
    "hits": 0,
    "selective": 0,
    "greatest": 0,
    "exists": 0,
    "des": 1,
    "classical": 0,
    "broader": 0,
    "effectively": 0,
    "grow": 0,
    "##sar": 4,
    "negatively": 0,
    "My": 0,
    "Little": 0,
    "find": 0,
    "solid": 0,
    "es": 0,
    "##hage": 0,
    "soft": 3,
    "Pol": 0,
    "##yme": 0,
    "##rase": 0,
    "boundary": 0,
    "upstream": 0,
    "54": 0,
    "AAA": 0,
    "118": 0,
    "##ln": 0,
    "GAA": 0,
    "154": 0,
    "179": 0,
    "181": 0,
    "186": 0,
    "third": 3,
    "inform": 0,
    "AND": 0,
    "deposits": 1,
    "throughout": 0,
    "body": 0,
    "Bus": 0,
    "##sel": 0,
    "Australia": 0,
    "determination": 0,
    "301": 0,
    "adults": 0,
    "persistent": 0,
    "values": 0,
    "percent": 0,
    "recommended": 0,
    "ng": 0,
    "mill": 0,
    "Sixteen": 0,
    "42": 0,
    "Four": 0,
    "Seven": 0,
    "range": 0,
    "Eleven": 0,
    "alcohol": 3,
    "consumption": 1,
    "##icular": 0,
    "##tom": 0,
    "##aly": 0,
    "pig": 10,
    "##mentation": 2,
    "northern": 0,
    "quarter": 0,
    "period": 0,
    "Large": 0,
    "##sque": 0,
    "##rading": 0,
    "pit": 0,
    "##fall": 0,
    "relies": 0,
    "exact": 0,
    "problematic": 0,
    "quite": 0,
    "father": 0,
    "##sen": 0,
    "##nos": 1,
    "whole": 0,
    "Early": 0,
    "##vic": 2,
    "##puted": 0,
    "##graphy": 0,
    "scanning": 0,
    "Em": 0,
    "##ied": 6,
    "reinforce": 0,
    "younger": 0,
    "appearance": 0,
    "sudden": 0,
    "Becker": 10,
    "electro": 0,
    "##ret": 1,
    "dark": 0,
    "ER": 0,
    "reduction": 0,
    "wave": 0,
    "amplitude": 0,
    "prolonged": 0,
    "##licit": 0,
    "##cilla": 0,
    "##tory": 0,
    "##tina": 7,
    "undertaken": 0,
    "systematic": 0,
    "review": 0,
    "literature": 0,
    "noted": 0,
    "wider": 0,
    "initiation": 0,
    "rather": 0,
    "Forty": 0,
    "start": 0,
    "opposed": 0,
    "94": 0,
    "contributions": 0,
    "##oto": 4,
    "expansion": 0,
    "##TR": 0,
    "materials": 0,
    "confusing": 0,
    "environment": 0,
    "##12": 0,
    "reporter": 0,
    "fused": 0,
    "##gg": 0,
    "tract": 0,
    "alone": 0,
    "clearly": 0,
    "rescued": 0,
    "eliminating": 0,
    "spontaneous": 0,
    "acts": 0,
    "rib": 0,
    "##lator": 0,
    "##ats": 0,
    "##teral": 1,
    "NDP": 0,
    "vascular": 2,
    "massive": 0,
    "##trar": 0,
    "##inal": 1,
    "##uda": 0,
    "detachment": 2,
    "gave": 0,
    "Nor": 1,
    "##rie": 1,
    "Subsequently": 0,
    "critical": 0,
    "##ene": 0,
    "##IN": 0,
    "Li": 0,
    "Fr": 5,
    "##au": 11,
    "hand": 3,
    "##IP": 0,
    "Turkish": 0,
    "semi": 0,
    "daughter": 0,
    "##llo": 0,
    "cousins": 0,
    "Il": 0,
    "Tu": 0,
    "Ex": 0,
    "##ist": 0,
    "##ence": 0,
    "sodium": 0,
    "##port": 0,
    "largest": 0,
    "##tter": 0,
    "Canada": 0,
    "Since": 0,
    "diagnosed": 0,
    "compliment": 0,
    "perch": 0,
    "##lora": 0,
    "intermediate": 0,
    "##liva": 0,
    "tech": 0,
    "##net": 0,
    "##ium": 3,
    "partial": 1,
    "IX": 0,
    "arranging": 0,
    "infants": 0,
    "hormone": 2,
    "##PI": 0,
    "Spanish": 0,
    "Hospital": 0,
    "Un": 0,
    "##ivers": 0,
    "##rio": 2,
    "Gregor": 0,
    "Mara": 0,
    "##non": 0,
    "Madrid": 0,
    "Spain": 0,
    "presented": 0,
    "##17": 0,
    "replaces": 0,
    "23": 0,
    "restriction": 0,
    "Additionally": 0,
    "seems": 0,
    "harbor": 0,
    "eventually": 0,
    "powerful": 0,
    "tool": 0,
    "##fic": 0,
    "mitochondrial": 1,
    "##ich": 0,
    "##RD": 0,
    "##ias": 5,
    "##rative": 6,
    "##ait": 1,
    "deep": 1,
    "reflex": 1,
    "plant": 1,
    "vibration": 1,
    "sense": 1,
    "97": 0,
    "widely": 0,
    "210": 0,
    "##rata": 0,
    "mit": 0,
    "##spiration": 0,
    "##mit": 1,
    "##rial": 2,
    "##phorus": 0,
    "magnetic": 0,
    "resonance": 0,
    "##pect": 0,
    "##copy": 0,
    "below": 0,
    "strong": 0,
    "improve": 0,
    "##21": 0,
    "##inas": 1,
    "AR": 0,
    "Portuguese": 0,
    "Portugal": 0,
    "Made": 0,
    "##ira": 0,
    "Island": 0,
    "boundaries": 0,
    "##stituting": 0,
    "##YP": 1,
    "explored": 0,
    "prompting": 0,
    "subjected": 0,
    "##rs": 3,
    "fragment": 0,
    "disclosed": 0,
    "##ju": 0,
    "##ction": 0,
    "##tology": 0,
    "application": 0,
    "Wolf": 0,
    "##ram": 0,
    "juvenile": 0,
    "##lli": 5,
    "##tus": 7,
    "done": 0,
    "interesting": 0,
    "consideration": 0,
    "cut": 0,
    "spots": 0,
    "Hence": 0,
    "psychiatric": 0,
    "demographic": 0,
    "experiencing": 0,
    "attack": 1,
    "computer": 0,
    "registry": 0,
    "thoroughly": 0,
    "interviewed": 0,
    "consisted": 0,
    "arrived": 0,
    "regular": 0,
    "visit": 0,
    "commercial": 0,
    "Only": 0,
    "4000": 0,
    "abdominal": 1,
    "attacks": 1,
    "##tracted": 0,
    "good": 0,
    "dose": 0,
    "defines": 0,
    "cost": 0,
    "widespread": 0,
    "principal": 0,
    "concerns": 0,
    "fear": 0,
    "insurance": 0,
    "uncertain": 0,
    "current": 0,
    "inexpensive": 0,
    "dimensional": 0,
    "escaped": 0,
    "scored": 0,
    "recurring": 0,
    "$": 0,
    "manual": 0,
    "introduction": 0,
    "commercially": 0,
    "robotic": 0,
    "imaging": 0,
    "##mple": 0,
    "research": 0,
    "setting": 0,
    "permit": 0,
    "##ru": 5,
    "quantitative": 0,
    "##are": 2,
    "##ntal": 2,
    "ka": 0,
    "UP": 0,
    "referred": 0,
    "##besity": 1,
    "delay": 3,
    "##uter": 0,
    "His": 0,
    "##onia": 2,
    "poor": 0,
    "sucking": 0,
    "##ava": 0,
    "feeding": 0,
    "Motor": 0,
    "delayed": 0,
    "became": 0,
    "##bes": 1,
    "appetite": 0,
    "middle": 0,
    "pain": 0,
    "threshold": 0,
    "skill": 0,
    "ji": 0,
    "##aw": 0,
    "puzzles": 0,
    "behaviour": 1,
    "sleep": 0,
    "disturbance": 1,
    "fitted": 0,
    "##cious": 0,
    "pub": 0,
    "##erty": 0,
    "Robertson": 0,
    "##etic": 0,
    "##lines": 0,
    "Australian": 0,
    "people": 0,
    "51": 0,
    "wheelchair": 0,
    "##ception": 2,
    "bladder": 0,
    "larger": 0,
    "duration": 0,
    "##LR": 0,
    "##tino": 13,
    "##sch": 6,
    "##isi": 6,
    "leader": 0,
    "Ju": 0,
    "##ven": 0,
    "Consortium": 0,
    "ones": 0,
    "disco": 2,
    "Growth": 0,
    "ventilation": 0,
    "drive": 0,
    "beneficial": 0,
    "composition": 0,
    "improvement": 0,
    "respiratory": 1,
    "measured": 0,
    "resting": 0,
    "air": 0,
    "##way": 0,
    "##lusion": 0,
    "vent": 1,
    "aged": 0,
    "During": 0,
    "72": 0,
    "04": 0,
    "02": 0,
    "output": 0,
    "mass": 0,
    "Treatment": 0,
    "structures": 0,
    "improved": 0,
    "About": 0,
    "Ha": 0,
    "##yne": 0,
    "dem": 2,
    "##eth": 0,
    "react": 0,
    "##met": 0,
    "promoter": 0,
    "always": 0,
    "achieved": 0,
    "##ducing": 0,
    "##zad": 0,
    "##eo": 0,
    "ace": 2,
    "regulating": 0,
    "drugs": 0,
    "capable": 0,
    "modest": 0,
    "##yra": 0,
    "##ati": 0,
    "combining": 0,
    "Constitutional": 0,
    "##sing": 0,
    "##ang": 2,
    "##atic": 0,
    "##he": 3,
    "##mp": 0,
    "##tad": 6,
    "Line": 0,
    "##han": 34,
    "570": 0,
    "Ka": 0,
    "Jr": 0,
    "Medicine": 0,
    "Baltimore": 0,
    "1997": 0,
    "Klaus": 0,
    "##ner": 0,
    "##ogel": 0,
    "##stein": 0,
    "Ki": 0,
    "##nz": 0,
    "##ler": 0,
    "eds": 0,
    "pp": 0,
    "47": 0,
    "McGraw": 0,
    "Hill": 0,
    "##25": 0,
    "La": 0,
    "Science": 0,
    "Washington": 0,
    "DC": 0,
    "260": 0,
    "131": 0,
    "1993": 0,
    "varied": 0,
    "##hale": 0,
    "Research": 0,
    "Group": 0,
    "223": 0,
    "Chen": 0,
    "##tat": 0,
    "##bar": 0,
    "##v": 0,
    "219": 0,
    "232": 0,
    "procedure": 0,
    "St": 0,
    "##amine": 1,
    "##sm": 1,
    "cover": 0,
    "free": 0,
    "sum": 0,
    "practically": 0,
    "Spectrum": 0,
    "##SN": 0,
    "##WI": 0,
    "##NF": 0,
    "r": 10,
    "##hab": 5,
    "##do": 1,
    "229": 0,
    "origins": 0,
    "den": 0,
    "##at": 0,
    "##uring": 0,
    "liquid": 0,
    "##tography": 0,
    "Point": 0,
    "scattered": 0,
    "editing": 0,
    "retrieved": 0,
    "whatever": 0,
    "##oro": 1,
    "##lex": 2,
    "primitive": 0,
    "##der": 1,
    "##NE": 0,
    "##pen": 0,
    "share": 0,
    "pathways": 0,
    "define": 0,
    "##mogeneous": 0,
    "aggressive": 0,
    "exhibiting": 0,
    "expose": 0,
    "SC": 0,
    "becomes": 0,
    "Experimental": 0,
    "adopt": 0,
    "allowing": 0,
    "##action": 0,
    "instead": 0,
    "MA": 0,
    "##GE": 0,
    "##guous": 1,
    "definitive": 0,
    "isolation": 0,
    "manuscript": 0,
    "##gel": 0,
    "proximity": 0,
    "##dn": 0,
    "##less": 0,
    "tandem": 0,
    "##arra": 0,
    "FK": 0,
    "##ve": 1,
    "##olar": 0,
    "##ediatric": 0,
    "fork": 0,
    "##head": 0,
    "largely": 0,
    "actions": 0,
    "Pa": 0,
    "introduced": 0,
    "225": 0,
    "elements": 0,
    "induction": 0,
    "Six": 1,
    "##lug": 0,
    "battery": 0,
    "aspects": 0,
    "Notable": 0,
    "##lev": 0,
    "##rification": 0,
    "utilizes": 0,
    "demonstrates": 0,
    "profound": 0,
    "immune": 0,
    "##zzling": 0,
    "Indeed": 0,
    "molecules": 0,
    "perform": 0,
    "open": 0,
    "question": 0,
    "advance": 0,
    "avenue": 0,
    "##igan": 0,
    "animals": 0,
    "parameters": 0,
    "Faith": 0,
    "##fully": 0,
    "mimic": 0,
    "##king": 0,
    "##load": 0,
    "raised": 0,
    "load": 0,
    "indeed": 0,
    "traced": 0,
    "augmented": 0,
    "parallel": 0,
    "measurement": 0,
    "gut": 0,
    "regulatory": 0,
    "allows": 0,
    "informed": 0,
    "##heses": 0,
    "precise": 0,
    "provides": 0,
    "compelling": 0,
    "##position": 0,
    "##gna": 5,
    "##ncy": 2,
    "##lous": 0,
    "band": 0,
    "consistently": 0,
    "ring": 0,
    "rise": 0,
    "step": 0,
    "toward": 0,
    "##ncies": 3,
    "##rand": 22,
    "##ki": 0,
    "##tts": 0,
    "strengthen": 0,
    "##ncing": 0,
    "explained": 0,
    "biological": 0,
    "view": 0,
    "consists": 0,
    "##gement": 1,
    "compete": 0,
    "variations": 0,
    "presentation": 0,
    "##gren": 0,
    "Lars": 4,
    "SL": 0,
    "##cht": 0,
    "spa": 2,
    "##LD": 2,
    "##alytic": 0,
    "seemed": 0,
    "##til": 0,
    "Thirty": 0,
    "private": 0,
    "Eastern": 0,
    "occasion": 0,
    "ancient": 0,
    "undergone": 0,
    "striking": 0,
    "framework": 0,
    "##ont": 0,
    "palm": 1,
    "##lant": 1,
    "##era": 4,
    "##llon": 0,
    "##vre": 5,
    "##aris": 1,
    "##LS": 0,
    "245": 0,
    "##00": 0,
    "##tist": 0,
    "deciduous": 0,
    "permanent": 0,
    "##tions": 0,
    "tooth": 0,
    "Palm": 0,
    "ps": 1,
    "##oria": 1,
    "##form": 0,
    "typically": 0,
    "develops": 0,
    "##rato": 0,
    "knees": 0,
    "Some": 0,
    "##eous": 0,
    "narrowed": 0,
    "##SC": 0,
    "dip": 0,
    "##ept": 0,
    "lies": 0,
    "##rma": 0,
    "##rani": 2,
    "aim": 0,
    "multi": 4,
    "limit": 0,
    "87": 0,
    "sharing": 0,
    "recruited": 0,
    "locations": 0,
    "Met": 0,
    "##oan": 0,
    "Sit": 0,
    "##une": 1,
    "German": 0,
    "##ope": 0,
    "reside": 0,
    "##lets": 0,
    "253": 0,
    "AC": 0,
    "establish": 0,
    "organization": 0,
    "adjacent": 0,
    "##pass": 0,
    "142": 0,
    "100": 1,
    "donors": 0,
    "Mae": 0,
    "III": 2,
    "Chinese": 0,
    "##vary": 2,
    "##ants": 0,
    "reacted": 0,
    "##nts": 0,
    "Plate": 0,
    "diminished": 0,
    "message": 0,
    "##phon": 0,
    "commonly": 0,
    "palms": 0,
    "##iva": 0,
    "##quence": 0,
    "286": 0,
    "introducing": 0,
    "ancestor": 0,
    "Parents": 0,
    "si": 0,
    "##bs": 6,
    "##33": 0,
    "extreme": 0,
    "AA": 1,
    "##PC": 0,
    "##pair": 0,
    "creates": 0,
    "area": 0,
    "##strom": 0,
    "insulin": 1,
    "##dian": 0,
    "wise": 0,
    "log": 0,
    "##ari": 0,
    "odds": 0,
    "twelve": 0,
    "supporting": 0,
    "Mei": 0,
    "##otic": 2,
    "flanked": 0,
    "fine": 0,
    "resolution": 0,
    "constructed": 0,
    "comprises": 0,
    "discharge": 0,
    "Tunisia": 0,
    "##44": 0,
    "widened": 0,
    "scan": 0,
    "exploration": 0,
    "whenever": 0,
    "scalp": 3,
    "frontal": 1,
    "##thus": 0,
    "##tel": 0,
    "arched": 1,
    "anterior": 2,
    "investigating": 0,
    "##MR": 0,
    "##BS": 0,
    "##vity": 0,
    "##res": 0,
    "##istan": 0,
    "##gation": 0,
    "Jun": 0,
    "exposure": 0,
    "gamma": 0,
    "retain": 0,
    "##RS": 0,
    "RA": 0,
    "##ste": 5,
    "1748": 0,
    "focal": 0,
    "areas": 1,
    "##dell": 1,
    "bones": 0,
    "adulthood": 0,
    "##64": 0,
    "##51": 0,
    "##ppa": 0,
    "Page": 1,
    "molecule": 0,
    "##tur": 0,
    "##bation": 0,
    "Card": 0,
    "##iac": 0,
    "Na": 0,
    "channel": 1,
    "##rug": 0,
    "##ada": 0,
    "##vated": 0,
    "subunit": 0,
    "auxiliary": 0,
    "##table": 0,
    "shifts": 0,
    "voltage": 0,
    "dependence": 0,
    "steady": 0,
    "kinetic": 0,
    "channels": 0,
    "##ously": 0,
    "currents": 0,
    "decay": 0,
    "recovery": 0,
    "accelerated": 0,
    "##atch": 0,
    "window": 0,
    "RB": 1,
    "Single": 0,
    "techniques": 0,
    "across": 0,
    "seem": 0,
    "overview": 0,
    "advances": 0,
    "mounting": 0,
    "radical": 0,
    "Currently": 0,
    "hope": 0,
    "strategies": 0,
    "visual": 0,
    "##ious": 0,
    "##tional": 0,
    "Ten": 0,
    "##ht": 0,
    "##hal": 0,
    "slit": 0,
    "##lamp": 0,
    "fund": 4,
    "pairs": 0,
    "Five": 0,
    "##IC": 0,
    "##EL": 1,
    "appropriate": 0,
    "cooperate": 0,
    "details": 0,
    "les": 3,
    "stress": 1,
    "eliminate": 0,
    "neurons": 0,
    "requires": 0,
    "branches": 0,
    "Hai": 0,
    "PP": 1,
    "HMS": 0,
    "destruction": 0,
    "##hn": 0,
    "##oda": 0,
    "nails": 2,
    "fingers": 2,
    "world": 0,
    "religious": 0,
    "##chin": 0,
    "India": 0,
    "##rent": 0,
    "212": 0,
    "##gate": 0,
    "descended": 0,
    "Approximately": 0,
    "208": 0,
    "supported": 0,
    "survived": 0,
    "mean": 0,
    "##tral": 0,
    "##ater": 0,
    "bilateral": 1,
    "##fold": 0,
    "survival": 0,
    "glucose": 9,
    "evolutionary": 0,
    "house": 0,
    "##keeping": 0,
    "##AD": 3,
    "electron": 0,
    "agents": 0,
    "##uctive": 0,
    "##hetic": 0,
    "reactions": 0,
    "##pis": 0,
    "triggered": 0,
    "beans": 0,
    "alignment": 0,
    "organisms": 0,
    "fully": 0,
    "presumably": 0,
    "simply": 0,
    "notion": 0,
    "##aring": 0,
    "explosive": 0,
    "projects": 0,
    "become": 0,
    "numerous": 0,
    "prevalent": 0,
    "alternatively": 0,
    "Use": 0,
    "specify": 0,
    "##cision": 0,
    "smooth": 0,
    "74": 0,
    "Information": 0,
    "recognizing": 0,
    "##nous": 0,
    "##bos": 7,
    "##ici": 9,
    "##encies": 9,
    "difficult": 0,
    "overcome": 0,
    "problem": 0,
    "studying": 0,
    "PR": 1,
    "##bot": 0,
    "First": 0,
    "##per": 0,
    "trauma": 0,
    "##lative": 0,
    "persons": 0,
    "offers": 0,
    "way": 0,
    "Blood": 0,
    "2000": 0,
    "1935": 0,
    "1941": 0,
    "?": 0,
    "generally": 0,
    "describes": 0,
    "freshly": 0,
    "Det": 0,
    "via": 0,
    "real": 0,
    "unlikely": 0,
    "she": 0,
    "regional": 0,
    "Del": 0,
    "silence": 0,
    "tags": 0,
    "surrounding": 0,
    "##NR": 0,
    "exclusive": 0,
    "International": 0,
    "##tics": 0,
    "collections": 0,
    "conflicting": 0,
    "America": 0,
    "Finland": 0,
    "Norway": 0,
    "Kingdom": 0,
    "peak": 0,
    "para": 3,
    "##metric": 0,
    "assuming": 0,
    "06": 0,
    "281": 0,
    "criteria": 0,
    "08": 0,
    "albeit": 0,
    "prominent": 1,
    "sisters": 0,
    "daughters": 0,
    "decade": 0,
    "##dal": 0,
    "behavior": 0,
    "##ordination": 1,
    "Through": 0,
    "y": 0,
    "survive": 0,
    "deficit": 0,
    "learning": 0,
    "##dicative": 0,
    "Even": 0,
    "gross": 0,
    "differentiated": 0,
    "##zed": 0,
    "discuss": 0,
    "context": 0,
    "##eas": 0,
    "culminating": 0,
    "287": 0,
    "251": 0,
    "shift": 0,
    "Asian": 0,
    "compatible": 0,
    "fast": 0,
    "##ho": 0,
    "Act": 0,
    "relieve": 0,
    "contact": 0,
    "organic": 0,
    "solvent": 0,
    "##lude": 0,
    "terminus": 0,
    "Bin": 0,
    "##ding": 0,
    "##phobic": 0,
    "core": 0,
    "release": 0,
    "machinery": 0,
    "intrinsic": 0,
    "##structure": 0,
    "states": 0,
    "depending": 0,
    "##ds": 0,
    "understood": 0,
    "##sper": 0,
    "##sion": 0,
    "##lating": 0,
    "##19": 0,
    "spin": 0,
    "belongs": 0,
    "unstable": 0,
    "gain": 0,
    "88": 0,
    "differs": 0,
    "just": 0,
    "interrupted": 0,
    "stretch": 0,
    "Trans": 0,
    "##cription": 0,
    "##sca": 0,
    "sections": 0,
    "necessary": 0,
    "##riad": 0,
    "hum": 1,
    "##ero": 1,
    "##one": 1,
    "named": 0,
    "##izes": 0,
    "physiological": 0,
    "ultra": 0,
    "##ructural": 0,
    "##thin": 1,
    "##ctions": 0,
    "gold": 0,
    "particles": 0,
    "stayed": 0,
    "##lub": 0,
    "##ilize": 0,
    "wash": 0,
    "##tr": 0,
    "##udes": 0,
    "rigorous": 0,
    "contraction": 1,
    "relaxation": 0,
    "movements": 0,
    "calcium": 0,
    "flux": 0,
    "uncommon": 0,
    "retained": 0,
    "cannot": 0,
    "distinguished": 0,
    "##ol": 3,
    "entry": 0,
    "##rig": 0,
    "##aire": 0,
    "##iovascular": 1,
    "undertook": 0,
    "Canadian": 0,
    "Family": 0,
    "mm": 0,
    "liter": 0,
    "centered": 0,
    "around": 0,
    "proven": 0,
    "##gue": 0,
    "##nay": 0,
    "Lac": 0,
    "Jean": 0,
    "Quebec": 0,
    "##agi": 0,
    "charged": 0,
    "genetics": 0,
    "Primary": 0,
    "They": 0,
    "Men": 0,
    "traits": 0,
    "increasingly": 0,
    "replaced": 0,
    "##34": 0,
    "##oat": 1,
    "park": 1,
    "article": 0,
    "reviews": 0,
    "critically": 0,
    "discusses": 0,
    "proposes": 0,
    "referring": 0,
    "##mination": 0,
    "cortex": 1,
    "saturated": 0,
    "##LC": 2,
    "##FA": 0,
    "capacity": 0,
    "##nosis": 0,
    "border": 0,
    "Effect": 0,
    "fundamental": 0,
    "##am": 0,
    "concern": 0,
    "guarantee": 0,
    "fragments": 0,
    "methodology": 0,
    "GM": 0,
    "gang": 6,
    "rarely": 0,
    "fell": 0,
    "Consequently": 0,
    "differently": 0,
    "HM": 0,
    "##GI": 0,
    "architectural": 0,
    "##rating": 0,
    "##iff": 0,
    "##nti": 0,
    "##chy": 0,
    "##pressed": 0,
    "fat": 0,
    "resisted": 0,
    "##rup": 0,
    "proliferation": 0,
    "Factor": 0,
    "laboratory": 0,
    "F1": 0,
    "modelling": 0,
    "possessed": 0,
    "##aria": 0,
    "##erne": 0,
    "##quito": 0,
    "partner": 0,
    "utility": 0,
    "##lates": 0,
    "phase": 0,
    "Ni": 0,
    "##j": 0,
    "breaks": 0,
    "similarities": 0,
    "##gated": 0,
    "Understanding": 0,
    "shuttle": 0,
    "rough": 0,
    "##ulum": 0,
    "progress": 0,
    "towards": 0,
    "help": 0,
    "ill": 0,
    "##umi": 0,
    "##gnition": 0,
    "intelligence": 0,
    "##OX": 2,
    "associate": 0,
    "harmful": 0,
    "##OP": 0,
    "##lau": 0,
    "Fox": 0,
    "formerly": 0,
    "drainage": 0,
    "derive": 0,
    "##hl": 0,
    "canal": 0,
    "##rab": 0,
    "mesh": 0,
    "##work": 0,
    "eccentric": 0,
    "pupils": 0,
    "displaced": 0,
    "varies": 0,
    "background": 0,
    "bundle": 0,
    "diameter": 0,
    "elastic": 0,
    "sparse": 0,
    "backgrounds": 0,
    "behavioral": 0,
    "##mined": 0,
    "##roo": 0,
    "##rch": 0,
    "orchid": 0,
    "thorough": 0,
    "displayed": 0,
    "anxiety": 0,
    "##pressing": 0,
    "opposing": 0,
    "behaviors": 0,
    "own": 0,
    "##UT": 0,
    "successive": 0,
    "reproduced": 0,
    "observe": 0,
    "big": 0,
    "jumps": 0,
    "situation": 0,
    "##ulating": 0,
    "evolution": 0,
    "Ye": 0,
    "sulfur": 1,
    "##ffe": 0,
    "##cted": 0,
    "days": 0,
    "##sor": 0,
    "##ption": 6,
    "##cher": 1,
    "Type": 0,
    "GB": 0,
    "AJ": 0,
    "261": 0,
    "note": 0,
    "diver": 0,
    "delta": 0,
    "diversity": 0,
    "prior": 0,
    "founding": 0,
    "Coal": 0,
    "coal": 0,
    "bottle": 0,
    "##neck": 0,
    "millennium": 0,
    "##ky": 0,
    "##lit": 24,
    "145": 0,
    "ul": 1,
    "somewhat": 0,
    "interpreted": 0,
    "bow": 2,
    "##el": 2,
    "instance": 0,
    "fathers": 0,
    "definite": 0,
    "concept": 0,
    "Founder": 0,
    "Polish": 0,
    "hospital": 0,
    "prepared": 0,
    "415": 0,
    "Israeli": 0,
    "former": 0,
    "Very": 0,
    "threatening": 0,
    "mortality": 0,
    "##version": 0,
    "drastic": 0,
    "verified": 0,
    "locate": 0,
    "Sub": 0,
    "##copic": 0,
    "##ril": 1,
    "##BR": 0,
    "grandmother": 0,
    "deceased": 0,
    "grandfather": 0,
    "Grandma": 0,
    "grandchildren": 0,
    "sons": 0,
    "passed": 0,
    "mat": 0,
    "##car": 1,
    "born": 1,
    "135": 0,
    "##here": 0,
    "rule": 0,
    "except": 0,
    "shares": 0,
    "arose": 0,
    "million": 0,
    "devised": 0,
    "estimate": 0,
    "##ess": 0,
    "difficulties": 0,
    "##NL": 0,
    "IP": 0,
    "##tite": 0,
    "centre": 0,
    "establishment": 0,
    "acquired": 0,
    "##ima": 0,
    "##cts": 5,
    "##nia": 4,
    "decreases": 0,
    "##IX": 0,
    "lens": 0,
    "lent": 0,
    "##rr": 1,
    "##ulin": 0,
    "##MA": 1,
    "consequently": 0,
    "Second": 0,
    "Third": 0,
    "repeated": 0,
    "force": 0,
    "inverse": 0,
    "temporal": 0,
    "radios": 0,
    "##ens": 1,
    "similarity": 0,
    "sensors": 0,
    "recognition": 0,
    "DS": 0,
    "parallels": 0,
    "minutes": 0,
    "brightly": 0,
    "longer": 0,
    "hour": 0,
    "Clinic": 0,
    "##tem": 0,
    "##pts": 0,
    "##hered": 1,
    "##TT": 0,
    "##ING": 0,
    "##spective": 0,
    "institution": 0,
    "National": 0,
    "Institute": 0,
    "December": 0,
    "August": 0,
    "##EN": 0,
    "ease": 0,
    "themselves": 0,
    "101": 0,
    "##cology": 0,
    "protocols": 0,
    "111": 0,
    "trials": 0,
    "##CO": 0,
    "##ME": 0,
    "##AS": 0,
    "##UR": 0,
    "surgical": 0,
    "grade": 0,
    "##otherapy": 0,
    "success": 0,
    "##ored": 0,
    "median": 0,
    "##tors": 0,
    "##ut": 0,
    "##hil": 0,
    "##rrow": 0,
    "##iet": 0,
    "cultures": 0,
    "##ran": 2,
    "lineage": 0,
    "concurrently": 0,
    "commitment": 0,
    "##ye": 2,
    "##ls": 2,
    "degrees": 0,
    "broadly": 0,
    "##lam": 0,
    "IF": 0,
    "##oki": 1,
    "##uki": 0,
    "IL": 0,
    "##duction": 0,
    "resistant": 0,
    "placing": 0,
    "identifying": 0,
    "immediate": 0,
    "##pol": 1,
    "##MI": 0,
    "#": 0,
    "Fifteen": 0,
    "engineered": 0,
    "##bil": 0,
    "##ub": 0,
    "while": 0,
    "soluble": 0,
    "tertiary": 0,
    "ray": 0,
    "##ryl": 1,
    "modeling": 0,
    "reasons": 0,
    "packing": 0,
    "removal": 0,
    "salt": 0,
    "bridge": 0,
    "shed": 0,
    "light": 0,
    "distinctive": 0,
    "##che": 0,
    "Out": 0,
    "254": 0,
    "height": 0,
    "134": 0,
    "Alt": 0,
    "##eration": 0,
    "Is": 0,
    "mare": 0,
    "ten": 0,
    "230": 0,
    "signals": 0,
    "box": 0,
    "Robbins": 0,
    "Din": 0,
    "##wall": 0,
    "coil": 0,
    "perhaps": 0,
    "marginal": 0,
    "zones": 0,
    "pulp": 0,
    "Development": 0,
    "knock": 0,
    "insights": 0,
    "Additional": 0,
    "integration": 0,
    "Ah": 0,
    "Another": 0,
    "##ice": 0,
    "geographically": 0,
    "Screen": 0,
    "goal": 0,
    "collaborative": 0,
    "institutions": 0,
    "580": 0,
    "Belgium": 0,
    "Great": 0,
    "Britain": 0,
    "##vis": 4,
    "laboratories": 0,
    "speaking": 0,
    "historical": 0,
    "links": 0,
    "Von": 0,
    "##mis": 5,
    "implemented": 0,
    "##rave": 0,
    "##nder": 0,
    "vast": 0,
    "203": 0,
    "dating": 0,
    "spread": 0,
    "Ra": 0,
    "Mr": 0,
    "Ser": 0,
    "278": 0,
    "Cohen": 0,
    "##ef": 0,
    "##ining": 0,
    "Lebanese": 0,
    "##orio": 0,
    "withdrawn": 0,
    "assumed": 0,
    "##max": 0,
    "237": 0,
    "##guin": 0,
    "refined": 0,
    "Ko": 0,
    "##hm": 0,
    "##aine": 0,
    "Euro": 0,
    "206": 0,
    "213": 0,
    "encourages": 0,
    "##umatic": 0,
    "twins": 0,
    "convincing": 0,
    "##rome": 0,
    "2D": 0,
    "debris": 0,
    "##quin": 0,
    "pair": 0,
    "trio": 0,
    "256": 0,
    "161": 0,
    "##izer": 0,
    "*": 0,
    "##ak": 0,
    "##wes": 0,
    "##tern": 0,
    "USA": 0,
    "##38": 0,
    "transports": 0,
    "space": 0,
    "Main": 0,
    "##land": 0,
    "China": 0,
    "source": 0,
    "evolve": 0,
    "##ctor": 0,
    "shaped": 0,
    "Blacks": 0,
    "Mexican": 0,
    "Hispanic": 0,
    "##fy": 0,
    "ethnicity": 0,
    "##ference": 0,
    "##inate": 0,
    "##iation": 0,
    "##iated": 0,
    "energy": 0,
    "green": 0,
    "interference": 0,
    "flow": 0,
    "##ometric": 0,
    "FC": 0,
    "##bright": 0,
    "Mon": 0,
    "##wed": 0,
    "fixed": 0,
    "progresses": 0,
    "Restoration": 0,
    "photo": 0,
    "##ceptor": 0,
    "slow": 0,
    "inserted": 0,
    "rim": 0,
    "outer": 0,
    "discs": 0,
    "renewed": 0,
    "constantly": 0,
    "##ments": 0,
    "capture": 0,
    "##mento": 5,
    "Rd": 0,
    "decline": 0,
    "stacks": 0,
    "##pher": 1,
    "layer": 0,
    "corrected": 0,
    "Swiss": 0,
    "implied": 0,
    "##GB": 0,
    "ratios": 0,
    "U2": 0,
    "##AF": 0,
    "##py": 0,
    "PS": 0,
    "acting": 0,
    "##din": 0,
    "##oa": 0,
    "##lle": 0,
    "mount": 0,
    "##esta": 0,
    "released": 0,
    "layers": 0,
    "RS": 0,
    "224": 0,
    "##thi": 0,
    "##oth": 0,
    "##ito": 1,
    "##mers": 0,
    "sized": 0,
    "##robe": 0,
    "##chemistry": 0,
    "portions": 0,
    "gate": 0,
    "##FI": 0,
    "Ben": 0,
    "##pile": 2,
    "generalized": 0,
    "seizure": 1,
    "cease": 0,
    "leaving": 0,
    "GE": 0,
    "hundreds": 0,
    "thousands": 0,
    "fewer": 0,
    "##matical": 0,
    "##ivate": 0,
    "inactivated": 0,
    "Iron": 0,
    "self": 0,
    "assembly": 0,
    "##uka": 0,
    "##scher": 0,
    "##ichi": 0,
    "Da": 0,
    "tendency": 0,
    "Aero": 0,
    "##bic": 0,
    "spherical": 0,
    "MD": 0,
    "##ga": 0,
    "##tons": 0,
    "nm": 0,
    "##quest": 0,
    "atoms": 0,
    "##wise": 0,
    "##ela": 0,
    "native": 0,
    "weight": 0,
    "medium": 0,
    "reflects": 0,
    "##cks": 0,
    "##ko": 0,
    "Scott": 2,
    "##drome": 1,
    "##uan": 4,
    "exchange": 0,
    "610": 0,
    "##gam": 1,
    "##bul": 1,
    "hunting": 0,
    "##yna": 0,
    "terminals": 0,
    "aggregate": 0,
    "##ama": 0,
    "linking": 0,
    "affinity": 0,
    "displaying": 0,
    "Mass": 0,
    "##adi": 0,
    "End": 0,
    "flat": 0,
    "lame": 1,
    "network": 0,
    "morphology": 0,
    "migration": 0,
    "##tract": 0,
    "net": 0,
    "guides": 0,
    "##ral": 0,
    "##eted": 0,
    "Color": 0,
    "##ases": 0,
    "potent": 0,
    "##iate": 0,
    "substrate": 0,
    "##lants": 0,
    "controlling": 0,
    "guidance": 0,
    "none": 0,
    "generate": 0,
    "Almost": 0,
    "analyzing": 0,
    "individually": 0,
    "##sco": 0,
    "EA": 0,
    "##leg": 1,
    "##gra": 1,
    "consequence": 0,
    "##bu": 0,
    "essentially": 0,
[...]
